{
  "version": "1.0",
  "truncation": null,
  "padding": null,
  "added_tokens": [],
  "normalizer": null,
  "pre_tokenizer": {
    "type": "Whitespace"
  },
  "post_processor": null,
  "decoder": null,
  "model": {
    "type": "BPE",
    "dropout": null,
    "unk_token": null,
    "continuing_subword_prefix": null,
    "end_of_word_suffix": null,
    "fuse_unk": false,
    "byte_fallback": false,
    "ignore_merges": false,
    "vocab": {
      "\"": 0,
      "$": 1,
      "%": 2,
      "&": 3,
      "'": 4,
      "(": 5,
      ")": 6,
      "+": 7,
      ",": 8,
      "-": 9,
      ".": 10,
      "/": 11,
      "0": 12,
      "1": 13,
      "2": 14,
      "3": 15,
      "4": 16,
      "5": 17,
      "6": 18,
      "7": 19,
      "8": 20,
      "9": 21,
      ":": 22,
      ";": 23,
      "=": 24,
      "A": 25,
      "B": 26,
      "C": 27,
      "D": 28,
      "E": 29,
      "F": 30,
      "G": 31,
      "H": 32,
      "I": 33,
      "J": 34,
      "K": 35,
      "L": 36,
      "M": 37,
      "N": 38,
      "O": 39,
      "P": 40,
      "R": 41,
      "S": 42,
      "T": 43,
      "U": 44,
      "V": 45,
      "W": 46,
      "Y": 47,
      "Z": 48,
      "[": 49,
      "]": 50,
      "^": 51,
      "a": 52,
      "b": 53,
      "c": 54,
      "d": 55,
      "e": 56,
      "f": 57,
      "g": 58,
      "h": 59,
      "i": 60,
      "j": 61,
      "k": 62,
      "l": 63,
      "m": 64,
      "n": 65,
      "o": 66,
      "p": 67,
      "q": 68,
      "r": 69,
      "s": 70,
      "t": 71,
      "u": 72,
      "v": 73,
      "w": 74,
      "x": 75,
      "y": 76,
      "z": 77,
      "|": 78,
      "°": 79,
      "Ö": 80,
      "á": 81,
      "â": 82,
      "í": 83,
      "ā": 84,
      "ī": 85,
      "Ś": 86,
      "ū": 87,
      "ə": 88,
      "ɦ": 89,
      "ɪ": 90,
      "ɾ": 91,
      "ʊ": 92,
      "ʱ": 93,
      "ˈ": 94,
      "ː": 95,
      "ί": 96,
      "α": 97,
      "δ": 98,
      "ν": 99,
      "ς": 100,
      "ό": 101,
      "ँ": 102,
      "ं": 103,
      "ः": 104,
      "अ": 105,
      "आ": 106,
      "इ": 107,
      "ई": 108,
      "उ": 109,
      "ऊ": 110,
      "ऋ": 111,
      "ए": 112,
      "ऐ": 113,
      "ऑ": 114,
      "ओ": 115,
      "औ": 116,
      "क": 117,
      "ख": 118,
      "ग": 119,
      "घ": 120,
      "च": 121,
      "छ": 122,
      "ज": 123,
      "झ": 124,
      "ञ": 125,
      "ट": 126,
      "ठ": 127,
      "ड": 128,
      "ढ": 129,
      "ण": 130,
      "त": 131,
      "थ": 132,
      "द": 133,
      "ध": 134,
      "न": 135,
      "प": 136,
      "फ": 137,
      "ब": 138,
      "भ": 139,
      "म": 140,
      "य": 141,
      "र": 142,
      "ल": 143,
      "व": 144,
      "श": 145,
      "ष": 146,
      "स": 147,
      "ह": 148,
      "़": 149,
      "ा": 150,
      "ि": 151,
      "ी": 152,
      "ु": 153,
      "ू": 154,
      "ृ": 155,
      "े": 156,
      "ै": 157,
      "ॉ": 158,
      "ो": 159,
      "ौ": 160,
      "्": 161,
      "।": 162,
      "०": 163,
      "१": 164,
      "२": 165,
      "३": 166,
      "४": 167,
      "५": 168,
      "६": 169,
      "७": 170,
      "८": 171,
      "९": 172,
      "॰": 173,
      "ં": 174,
      "અ": 175,
      "આ": 176,
      "ઇ": 177,
      "ઈ": 178,
      "ઉ": 179,
      "એ": 180,
      "ઐ": 181,
      "ઓ": 182,
      "ક": 183,
      "ખ": 184,
      "ગ": 185,
      "ઘ": 186,
      "ચ": 187,
      "છ": 188,
      "જ": 189,
      "ઝ": 190,
      "ઞ": 191,
      "ટ": 192,
      "ઠ": 193,
      "ડ": 194,
      "ણ": 195,
      "ત": 196,
      "થ": 197,
      "દ": 198,
      "ધ": 199,
      "ન": 200,
      "પ": 201,
      "ફ": 202,
      "બ": 203,
      "ભ": 204,
      "મ": 205,
      "ય": 206,
      "ર": 207,
      "લ": 208,
      "ળ": 209,
      "વ": 210,
      "શ": 211,
      "ષ": 212,
      "સ": 213,
      "હ": 214,
      "ા": 215,
      "િ": 216,
      "ી": 217,
      "ુ": 218,
      "ૂ": 219,
      "ૃ": 220,
      "ે": 221,
      "ૈ": 222,
      "ૉ": 223,
      "ો": 224,
      "ૌ": 225,
      "્": 226,
      "૦": 227,
      "૧": 228,
      "૨": 229,
      "૩": 230,
      "૪": 231,
      "૫": 232,
      "૬": 233,
      "૭": 234,
      "૮": 235,
      "૯": 236,
      "ం": 237,
      "ః": 238,
      "అ": 239,
      "ఆ": 240,
      "ఇ": 241,
      "ఈ": 242,
      "ఉ": 243,
      "ఋ": 244,
      "ఎ": 245,
      "ఏ": 246,
      "ఐ": 247,
      "ఒ": 248,
      "ఓ": 249,
      "ఔ": 250,
      "క": 251,
      "ఖ": 252,
      "గ": 253,
      "ఘ": 254,
      "చ": 255,
      "ఛ": 256,
      "జ": 257,
      "ఞ": 258,
      "ట": 259,
      "ఠ": 260,
      "డ": 261,
      "ఢ": 262,
      "ణ": 263,
      "త": 264,
      "థ": 265,
      "ద": 266,
      "ధ": 267,
      "న": 268,
      "ప": 269,
      "ఫ": 270,
      "బ": 271,
      "భ": 272,
      "మ": 273,
      "య": 274,
      "ర": 275,
      "ల": 276,
      "ళ": 277,
      "వ": 278,
      "శ": 279,
      "ష": 280,
      "స": 281,
      "హ": 282,
      "ా": 283,
      "ి": 284,
      "ీ": 285,
      "ు": 286,
      "ూ": 287,
      "ృ": 288,
      "ె": 289,
      "ే": 290,
      "ై": 291,
      "ొ": 292,
      "ో": 293,
      "ౌ": 294,
      "్": 295,
      "ṅ": 296,
      "ṇ": 297,
      "ṣ": 298,
      "ṭ": 299,
      "Ἰ": 300,
      "‌": 301,
      "‍": 302,
      "–": 303,
      "—": 304,
      "‘": 305,
      "’": 306,
      "“": 307,
      "”": 308,
      "†": 309,
      "′": 310,
      "₹": 311,
      "th": 312,
      "an": 313,
      "in": 314,
      "the": 315,
      "er": 316,
      "on": 317,
      "re": 318,
      "al": 319,
      "en": 320,
      "st": 321,
      "di": 322,
      "at": 323,
      "ar": 324,
      "ed": 325,
      "and": 326,
      "In": 327,
      "or": 328,
      "of": 329,
      "ion": 330,
      "as": 331,
      "es": 332,
      "Indi": 333,
      "it": 334,
      "ic": 335,
      "is": 336,
      "ing": 337,
      "==": 338,
      "ार": 339,
      "्र": 340,
      "ent": 341,
      "के": 342,
      "om": 343,
      "India": 344,
      "to": 345,
      "ou": 346,
      "ें": 347,
      "ec": 348,
      "में": 349,
      "ly": 350,
      "ur": 351,
      "है": 352,
      "्य": 353,
      "le": 354,
      "్ర": 355,
      "he": 356,
      "il": 357,
      "भार": 358,
      "भारत": 359,
      "am": 360,
      "ార": 361,
      "ver": 362,
      "का": 363,
      "19": 364,
      "ad": 365,
      "र्": 366,
      "ol": 367,
      "ri": 368,
      "లు": 369,
      "li": 370,
      "ul": 371,
      "या": 372,
      "ों": 373,
      "ation": 374,
      "The": 375,
      "em": 376,
      "ch": 377,
      "की": 378,
      "ow": 379,
      "ra": 380,
      "और": 381,
      "से": 382,
      "स्": 383,
      "ce": 384,
      "20": 385,
      "tion": 386,
      "===": 387,
      "by": 388,
      "प्र": 389,
      "be": 390,
      "se": 391,
      "Indian": 392,
      "ने": 393,
      "ve": 394,
      "ist": 395,
      "for": 396,
      "ast": 397,
      "con": 398,
      "est": 399,
      "रा": 400,
      "res": 401,
      "op": 402,
      "su": 403,
      "ag": 404,
      "ter": 405,
      "ना": 406,
      "లో": 407,
      "wi": 408,
      "िक": 409,
      "de": 410,
      "స్": 411,
      "un": 412,
      "ir": 413,
      "wh": 414,
      "क्": 415,
      "ता": 416,
      "gh": 417,
      "్య": 418,
      "वि": 419,
      "du": 420,
      "with": 421,
      "ate": 422,
      "ex": 423,
      "mo": 424,
      "ro": 425,
      "im": 426,
      "ts": 427,
      "was": 428,
      "था": 429,
      "मा": 430,
      "ies": 431,
      "న్": 432,
      "are": 433,
      "ीय": 434,
      "िया": 435,
      "ది": 436,
      "ong": 437,
      "der": 438,
      "rom": 439,
      "ang": 440,
      "00": 441,
      "ab": 442,
      "దే": 443,
      "ప్ర": 444,
      "ain": 445,
      "si": 446,
      "सा": 447,
      "ిం": 448,
      "ment": 449,
      "મા": 450,
      "over": 451,
      "దేశ": 452,
      "ut": 453,
      "ాల": 454,
      "न्": 455,
      "ical": 456,
      "पर": 457,
      "ిక": 458,
      "us": 459,
      "सं": 460,
      "ac": 461,
      "ర్": 462,
      "ાર": 463,
      "ere": 464,
      "कर": 465,
      "has": 466,
      "భార": 467,
      "ति": 468,
      "art": 469,
      "భారత": 470,
      "क्ष": 471,
      "et": 472,
      "ich": 473,
      "from": 474,
      "inc": 475,
      "ial": 476,
      "त्र": 477,
      "న్న": 478,
      "को": 479,
      "ాలు": 480,
      "el": 481,
      "oc": 482,
      "ay": 483,
      "ill": 484,
      "which": 485,
      "भा": 486,
      "हैं": 487,
      "ear": 488,
      "जा": 489,
      "sp": 490,
      "ity": 491,
      "com": 492,
      "per": 493,
      "id": 494,
      "rit": 495,
      "um": 496,
      "हु": 497,
      "ther": 498,
      "cont": 499,
      "ld": 500,
      "ને": 501,
      "राज": 502,
      "cent": 503,
      "ure": 504,
      "its": 505,
      "ult": 506,
      "वा": 507,
      "ak": 508,
      "ted": 509,
      "दे": 510,
      "గా": 511,
      "co": 512,
      "me": 513,
      "sh": 514,
      "हा": 515,
      "માં": 516,
      "ड़": 517,
      "છે": 518,
      "lu": 519,
      "low": 520,
      "્ર": 521,
      "oun": 522,
      "ig": 523,
      "pl": 524,
      "wor": 525,
      "were": 526,
      "arg": 527,
      "ભાર": 528,
      "కు": 529,
      "ભારત": 530,
      "ap": 531,
      "कार": 532,
      "ని": 533,
      "ary": 534,
      "त्": 535,
      "gen": 536,
      "ive": 537,
      "िय": 538,
      "వి": 539,
      "ans": 540,
      "end": 541,
      "ated": 542,
      "ass": 543,
      "form": 544,
      "पा": 545,
      "ित": 546,
      "ాయ": 547,
      "larg": 548,
      "pro": 549,
      "als": 550,
      "iv": 551,
      "క్": 552,
      "ాత": 553,
      "ला": 554,
      "્ય": 555,
      "gion": 556,
      "ha": 557,
      "od": 558,
      "econ": 559,
      "min": 560,
      "tr": 561,
      "ish": 562,
      "ism": 563,
      "201": 564,
      "por": 565,
      "भारतीय": 566,
      "దేశం": 567,
      "af": 568,
      "ma": 569,
      "ru": 570,
      "भी": 571,
      "ान": 572,
      "ના": 573,
      "ాన": 574,
      "ough": 575,
      "overn": 576,
      "ous": 577,
      "ame": 578,
      "age": 579,
      "कि": 580,
      "देश": 581,
      "Ch": 582,
      "Hin": 583,
      "gr": 584,
      "tw": 585,
      "రా": 586,
      "్ట": 587,
      "ant": 588,
      "our": 589,
      "outh": 590,
      "नि": 591,
      "सम": 592,
      "ની": 593,
      "ను": 594,
      "्या": 595,
      "200": 596,
      "ber": 597,
      "bec": 598,
      "mar": 599,
      "part": 600,
      "द्": 601,
      "शा": 602,
      "all": 603,
      "ally": 604,
      "overnment": 605,
      "og": 606,
      "तथा": 607,
      "ली": 608,
      "hi": 609,
      "nor": 610,
      "os": 611,
      "up": 612,
      "ंग": 613,
      "इस": 614,
      "तर": 615,
      "्ट": 616,
      "any": 617,
      "ance": 618,
      "uring": 619,
      "ot": 620,
      "સ્": 621,
      "ండ": 622,
      "ము": 623,
      "CE": 624,
      "mill": 625,
      "एक": 626,
      "ీయ": 627,
      "into": 628,
      "centur": 629,
      "econom": 630,
      "वर्": 631,
      "हि": 632,
      "ર્": 633,
      "ద్": 634,
      "ిన": 635,
      "ती": 636,
      "दी": 637,
      "हो": 638,
      "ern": 639,
      "stit": 640,
      "ct": 641,
      "angu": 642,
      "राज्य": 643,
      "cl": 644,
      "ding": 645,
      "fe": 646,
      "ne": 647,
      "ore": 648,
      "ution": 649,
      "बा": 650,
      "త్": 651,
      "ates": 652,
      "ress": 653,
      "sub": 654,
      "मि": 655,
      "તા": 656,
      "తి": 657,
      "ల్": 658,
      "స్త": 659,
      "ించ": 660,
      "av": 661,
      "lat": 662,
      "pop": 663,
      "west": 664,
      "जि": 665,
      "ते": 666,
      "रू": 667,
      "ers": 668,
      "Th": 669,
      "રા": 670,
      "વિ": 671,
      "ine": 672,
      "but": 673,
      "fir": 674,
      "government": 675,
      "langu": 676,
      "year": 677,
      "पू": 678,
      "અને": 679,
      "196": 680,
      "inclu": 681,
      "minist": 682,
      "Hindu": 683,
      "ire": 684,
      "ంది": 685,
      "ces": 686,
      "dec": 687,
      "pri": 688,
      "qu": 689,
      "uc": 690,
      "मु": 691,
      "श्": 692,
      "ంత": 693,
      "region": 694,
      "र्व": 695,
      "comp": 696,
      "world": 697,
      "popul": 698,
      "రి": 699,
      "Asi": 700,
      "sc": 701,
      "sy": 702,
      "ud": 703,
      "ved": 704,
      "जन": 705,
      "षा": 706,
      "సం": 707,
      "ome": 708,
      "195": 709,
      "first": 710,
      "किया": 711,
      "नी": 712,
      "सर": 713,
      "bo": 714,
      "land": 715,
      "tra": 716,
      "ंत्र": 717,
      "तक": 718,
      "ही": 719,
      "రు": 720,
      "reas": 721,
      "reli": 722,
      "ence": 723,
      "dition": 724,
      "ection": 725,
      "dern": 726,
      "pe": 727,
      "పు": 728,
      "ులు": 729,
      "during": 730,
      "fore": 731,
      "gan": 732,
      "had": 733,
      "long": 734,
      "ok": 735,
      "अन": 736,
      "द्र": 737,
      "धिक": 738,
      "eral": 739,
      "reat": 740,
      "stem": 741,
      "199": 742,
      "స్థ": 743,
      "ింది": 744,
      "used": 745,
      "after": 746,
      "became": 747,
      "stitution": 748,
      "system": 749,
      "ची": 750,
      "ले": 751,
      "स्था": 752,
      "ced": 753,
      "cast": 754,
      "jor": 755,
      "ni": 756,
      "pre": 757,
      "par": 758,
      "pire": 759,
      "ser": 760,
      "vi": 761,
      "ंध": 762,
      "िण": 763,
      "વા": 764,
      "ું": 765,
      "ంట": 766,
      "them": 767,
      "ational": 768,
      "been": 769,
      "contin": 770,
      "ాయి": 771,
      "largest": 772,
      "also": 773,
      "century": 774,
      "ral": 775,
      "लि": 776,
      "ष्ट": 777,
      "१९": 778,
      "થી": 779,
      "ages": 780,
      "साथ": 781,
      "భారతదేశం": 782,
      "Cong": 783,
      "Em": 784,
      "fic": 785,
      "ph": 786,
      "ry": 787,
      "ric": 788,
      "धान": 789,
      "प्": 790,
      "यु": 791,
      "દે": 792,
      "ంలో": 793,
      "భా": 794,
      "ైన": 795,
      "ics": 796,
      "ect": 797,
      "ural": 798,
      "such": 799,
      "ext": 800,
      "more": 801,
      "most": 802,
      "comm": 803,
      "thern": 804,
      "have": 805,
      "million": 806,
      "Congress": 807,
      "bl": 808,
      "ంగ": 809,
      "मान": 810,
      "000": 811,
      "भाषा": 812,
      "South": 813,
      "ban": 814,
      "dh": 815,
      "een": 816,
      "num": 817,
      "pt": 818,
      "pol": 819,
      "war": 820,
      "उत्": 821,
      "दो": 822,
      "दक्ष": 823,
      "ोग": 824,
      "ూడ": 825,
      "that": 826,
      "inf": 827,
      "vers": 828,
      "ade": 829,
      "modern": 830,
      "क्षे": 831,
      "increas": 832,
      "major": 833,
      "शास": 834,
      "class": 835,
      "years": 836,
      "tradition": 837,
      "दक्षिण": 838,
      "री": 839,
      "हिन्": 840,
      "सरकार": 841,
      "Af": 842,
      "ca": 843,
      "cor": 844,
      "coun": 845,
      "ta": 846,
      "ures": 847,
      "ओं": 848,
      "गया": 849,
      "जी": 850,
      "वी": 851,
      "પ્ર": 852,
      "ari": 853,
      "्रे": 854,
      "र्म": 855,
      "lim": 856,
      "202": 857,
      "ound": 858,
      "grow": 859,
      "two": 860,
      "बाद": 861,
      "prime": 862,
      "both": 863,
      "દેશ": 864,
      "क्षेत्र": 865,
      "),": 866,
      "यह": 867,
      "ంగా": 868,
      "ధిక": 869,
      "వా": 870,
      "సా": 871,
      "194": 872,
      "క్ష": 873,
      "रूप": 874,
      "BCE": 875,
      "cult": 876,
      "dom": 877,
      "ever": 878,
      "ff": 879,
      "main": 880,
      "not": 881,
      "ose": 882,
      "soc": 883,
      "ty": 884,
      "ढ़": 885,
      "ఉన్న": 886,
      "పా": 887,
      "though": 888,
      "ition": 889,
      "urban": 890,
      "lear": 891,
      "ారు": 892,
      "istan": 893,
      "under": 894,
      "large": 895,
      "new": 896,
      "minister": 897,
      "Asia": 898,
      "caste": 899,
      "कृ": 900,
      "बसे": 901,
      "सबसे": 902,
      "તે": 903,
      "લા": 904,
      "టి": 905,
      "ార్": 906,
      "प्रा": 907,
      "जिस": 908,
      "Brit": 909,
      "Bud": 910,
      "Un": 911,
      "east": 912,
      "fol": 913,
      "led": 914,
      "les": 915,
      "rough": 916,
      "दि": 917,
      "बहु": 918,
      "this": 919,
      "ince": 920,
      "their": 921,
      "eng": 922,
      "isation": 923,
      "out": 924,
      "ament": 925,
      "life": 926,
      "vel": 927,
      "election": 928,
      "2011": 929,
      "language": 930,
      "uclear": 931,
      "मुख": 932,
      "population": 933,
      "continent": 934,
      "Empire": 935,
      "number": 936,
      "British": 937,
      "Ma": 938,
      "pu": 939,
      "पु": 940,
      "ાન": 941,
      "ిత": 942,
      "్చ": 943,
      "Ind": 944,
      "olog": 945,
      "own": 946,
      "port": 947,
      "ष्ट्र": 948,
      "18": 949,
      "An": 950,
      "Con": 951,
      "Pak": 952,
      "dance": 953,
      "gl": 954,
      "kh": 955,
      "lit": 956,
      "many": 957,
      "south": 958,
      "अप": 959,
      "सि": 960,
      "सी": 961,
      "રી": 962,
      "erg": 963,
      "ory": 964,
      "ations": 965,
      "betw": 966,
      "began": 967,
      "sup": 968,
      "imal": 969,
      "anges": 970,
      "ically": 971,
      "ially": 972,
      "peri": 973,
      "lowing": 974,
      "north": 975,
      "ंग्रे": 976,
      "economic": 977,
      "वर्ष": 978,
      "western": 979,
      "Pakistan": 980,
      "between": 981,
      "जो": 982,
      "बंध": 983,
      "सार": 984,
      "ધર્": 985,
      "વે": 986,
      "ష్ట": 987,
      "197": 988,
      "स्व": 989,
      "द्ध": 990,
      "पूर्व": 991,
      "Eur": 992,
      "It": 993,
      "bi": 994,
      "ob": 995,
      "pow": 996,
      "rat": 997,
      "ris": 998,
      "rate": 999,
      "ting": 1000,
      "tim": 1001,
      "we": 1002,
      "धर्म": 1003,
      "કે": 1004,
      "ભા": 1005,
      "కూడ": 1006,
      "జాత": 1007,
      "ited": 1008,
      "्रा": 1009,
      "leg": 1010,
      "ilit": 1011,
      "198": 1012,
      "र्थ": 1013,
      "ement": 1014,
      "स्त": 1015,
      "set": 1016,
      "राष्ट्र": 1017,
      "exp": 1018,
      "able": 1019,
      "ప్రా": 1020,
      "spec": 1021,
      "రాజ": 1022,
      "northern": 1023,
      "later": 1024,
      "1950": 1025,
      "versity": 1026,
      "ધર્મ": 1027,
      "26": 1028,
      "late": 1029,
      "अधिक": 1030,
      "थी": 1031,
      "दिया": 1032,
      "पार": 1033,
      "मी": 1034,
      "लग": 1035,
      "सद": 1036,
      "ક્": 1037,
      "તિ": 1038,
      "కో": 1039,
      "క్ర": 1040,
      "माण": 1041,
      "્યા": 1042,
      "मिल": 1043,
      "श्व": 1044,
      "blic": 1045,
      "शासन": 1046,
      "1947": 1047,
      "public": 1048,
      "Al": 1049,
      "By": 1050,
      "aw": 1051,
      "ci": 1052,
      "cy": 1053,
      "cour": 1054,
      "ds": 1055,
      "ded": 1056,
      "ef": 1057,
      "her": 1058,
      "hum": 1059,
      "igh": 1060,
      "non": 1061,
      "other": 1062,
      "ood": 1063,
      "ple": 1064,
      "since": 1065,
      "ten": 1066,
      "ugh": 1067,
      "ving": 1068,
      "ंड": 1069,
      "बी": 1070,
      "रे": 1071,
      "ल्": 1072,
      "નો": 1073,
      "కా": 1074,
      "చ్చ": 1075,
      "ట్ట": 1076,
      "నే": 1077,
      "మొ": 1078,
      "than": 1079,
      "ins": 1080,
      "there": 1081,
      "one": 1082,
      "ions": 1083,
      "ite": 1084,
      "among": 1085,
      "ular": 1086,
      "raph": 1087,
      "नाम": 1088,
      "विश्व": 1089,
      "साम": 1090,
      "app": 1091,
      "try": 1092,
      "economy": 1093,
      "subcontinent": 1094,
      "including": 1095,
      "peop": 1096,
      "चीन": 1097,
      "influ": 1098,
      "increased": 1099,
      "classical": 1100,
      "After": 1101,
      "Buddh": 1102,
      "velop": 1103,
      "liter": 1104,
      "period": 1105,
      "power": 1106,
      "15": 1107,
      "Com": 1108,
      "ust": 1109,
      "कु": 1110,
      "बना": 1111,
      "लो": 1112,
      "જે": 1113,
      "ન્": 1114,
      "ంచ": 1115,
      "దు": 1116,
      "పే": 1117,
      "మా": 1118,
      "యా": 1119,
      "ack": 1120,
      "భారతీయ": 1121,
      "प्त": 1122,
      "उत्तर": 1123,
      "Mo": 1124,
      "Mugh": 1125,
      "Ne": 1126,
      "US": 1127,
      "ai": 1128,
      "ach": 1129,
      "bas": 1130,
      "ev": 1131,
      "har": 1132,
      "hist": 1133,
      "krit": 1134,
      "mus": 1135,
      "mid": 1136,
      "milit": 1137,
      "no": 1138,
      "national": 1139,
      "nuclear": 1140,
      "pres": 1141,
      "tec": 1142,
      "चु": 1143,
      "तु": 1144,
      "बड़": 1145,
      "લો": 1146,
      "સા": 1147,
      "િય": 1148,
      "నా": 1149,
      "రై": 1150,
      "లి": 1151,
      "వ్య": 1152,
      "సి": 1153,
      "్ల": 1154,
      "ree": 1155,
      "ren": 1156,
      "sty": 1157,
      "state": 1158,
      "dic": 1159,
      "diversity": 1160,
      "ised": 1161,
      "amil": 1162,
      "liament": 1163,
      "स्ता": 1164,
      "constitution": 1165,
      "develop": 1166,
      "duc": 1167,
      "occ": 1168,
      "हुआ": 1169,
      "हुई": 1170,
      "work": 1171,
      "general": 1172,
      "rule": 1173,
      "Chin": 1174,
      "निर्": 1175,
      "mark": 1176,
      "త్వ": 1177,
      "રાજ": 1178,
      "अनु": 1179,
      "parliament": 1180,
      "species": 1181,
      "cient": 1182,
      "people": 1183,
      "17": 1184,
      "चि": 1185,
      "ज़": 1186,
      "ध्य": 1187,
      "भू": 1188,
      "म्": 1189,
      "मंत्र": 1190,
      "वार": 1191,
      "व्य": 1192,
      "ैन": 1193,
      "ोड़": 1194,
      "००": 1195,
      "ષા": 1196,
      "હિ": 1197,
      "ીય": 1198,
      "ુદ": 1199,
      "తర": 1200,
      "వాత": 1201,
      "inter": 1202,
      "ons": 1203,
      "सेना": 1204,
      "जाता": 1205,
      "ign": 1206,
      "రాష్ట": 1207,
      "हिन्दी": 1208,
      "Indo": 1209,
      "జాతీయ": 1210,
      "రాష్ట్ర": 1211,
      "Beng": 1212,
      "East": 1213,
      "Mus": 1214,
      "Pun": 1215,
      "St": 1216,
      "Sans": 1217,
      "West": 1218,
      "fl": 1219,
      "gi": 1220,
      "gre": 1221,
      "hm": 1222,
      "jab": 1223,
      "ned": 1224,
      "ron": 1225,
      "rol": 1226,
      "tri": 1227,
      "ya": 1228,
      "ंद्र": 1229,
      "दा": 1230,
      "लय": 1231,
      "ંત": 1232,
      "તી": 1233,
      "గు": 1234,
      "తం": 1235,
      "తో": 1236,
      "వచ్చ": 1237,
      "through": 1238,
      "ered": 1239,
      "enni": 1240,
      "arm": 1241,
      "Indu": 1242,
      "offic": 1243,
      "ities": 1244,
      "lead": 1245,
      "काल": 1246,
      "river": 1247,
      "emerg": 1248,
      "स्कृ": 1249,
      "ope": 1250,
      "ately": 1251,
      "ains": 1252,
      "ికి": 1253,
      "ultan": 1254,
      "देशों": 1255,
      "समय": 1256,
      "ograph": 1257,
      "millenni": 1258,
      "ద్ధ": 1259,
      "ల్ల": 1260,
      "languages": 1261,
      "religion": 1262,
      "forest": 1263,
      "served": 1264,
      "themat": 1265,
      "caused": 1266,
      "country": 1267,
      "social": 1268,
      "Europe": 1269,
      "Mughal": 1270,
      "military": 1271,
      "China": 1272,
      "Bengal": 1273,
      "Punjab": 1274,
      "Sanskrit": 1275,
      "millennium": 1276,
      ").": 1277,
      "21": 1278,
      "30": 1279,
      "Wor": 1280,
      "गा": 1281,
      "तिक": 1282,
      "बढ़": 1283,
      "महा": 1284,
      "रि": 1285,
      "रु": 1286,
      "वं": 1287,
      "ष्": 1288,
      "સં": 1289,
      "అధిక": 1290,
      "కొ": 1291,
      "ఖ్య": 1292,
      "డు": 1293,
      "పాల": 1294,
      "మైన": 1295,
      "వే": 1296,
      "केंद्र": 1297,
      "स्थ": 1298,
      "नाव": 1299,
      "sig": 1300,
      "భారతదేశ": 1301,
      "राज्यों": 1302,
      "ంత్ర": 1303,
      "हीं": 1304,
      "World": 1305,
      "Cent": 1306,
      "Himal": 1307,
      "Is": 1308,
      "Si": 1309,
      "bill": 1310,
      "can": 1311,
      "col": 1312,
      "day": 1313,
      "fi": 1314,
      "ga": 1315,
      "ide": 1316,
      "king": 1317,
      "mer": 1318,
      "nat": 1319,
      "rural": 1320,
      "ss": 1321,
      "sur": 1322,
      "some": 1323,
      "ually": 1324,
      "vement": 1325,
      "उप": 1326,
      "एश": 1327,
      "क्र": 1328,
      "खा": 1329,
      "टि": 1330,
      "टे": 1331,
      "दान": 1332,
      "वे": 1333,
      "દુ": 1334,
      "ાય": 1335,
      "ఒక": 1336,
      "కాల": 1337,
      "డి": 1338,
      "ణా": 1339,
      "ద్ర": 1340,
      "మార్": 1341,
      "theast": 1342,
      "dire": 1343,
      "disp": 1344,
      "ese": 1345,
      "esp": 1346,
      "owever": 1347,
      "प्रमुख": 1348,
      "wide": 1349,
      "ird": 1350,
      "who": 1351,
      "duced": 1352,
      "ared": 1353,
      "संघ": 1354,
      "ell": 1355,
      "ident": 1356,
      "cook": 1357,
      "gener": 1358,
      "ियों": 1359,
      "ivil": 1360,
      "mathemat": 1361,
      "high": 1362,
      "ండి": 1363,
      "centuries": 1364,
      "religi": 1365,
      "अन्य": 1366,
      "लिए": 1367,
      "polit": 1368,
      "majority": 1369,
      "cording": 1370,
      "culture": 1371,
      "ભાષા": 1372,
      "music": 1373,
      "स्तान": 1374,
      "Muslim": 1375,
      "Indus": 1376,
      "Himalay": 1377,
      "billion": 1378,
      "%.": 1379,
      "Plate": 1380,
      "चा": 1381,
      "त्य": 1382,
      "नों": 1383,
      "सैन": 1384,
      "ఉంది": 1385,
      "చే": 1386,
      "ధ్య": 1387,
      "శా": 1388,
      "్‌": 1389,
      "ारी": 1390,
      "क्त": 1391,
      "ange": 1392,
      "ింద": 1393,
      "దేశాల": 1394,
      "जाति": 1395,
      "ఉన్నాయి": 1396,
      "వ్యవ": 1397,
      "%,": 1398,
      "40": 1399,
      "Ac": 1400,
      "Del": 1401,
      "En": 1402,
      "Jan": 1403,
      "aj": 1404,
      "ace": 1405,
      "air": 1406,
      "cre": 1407,
      "dle": 1408,
      "dra": 1409,
      "fin": 1410,
      "fer": 1411,
      "great": 1412,
      "last": 1413,
      "loc": 1414,
      "made": 1415,
      "po": 1416,
      "pr": 1417,
      "pany": 1418,
      "sch": 1419,
      "vent": 1420,
      "wom": 1421,
      "अन्": 1422,
      "आध": 1423,
      "इन": 1424,
      "गर": 1425,
      "च्": 1426,
      "ज्य": 1427,
      "दश": 1428,
      "द्य": 1429,
      "पश्": 1430,
      "ब्": 1431,
      "रहा": 1432,
      "शु": 1433,
      "समा": 1434,
      "રે": 1435,
      "વી": 1436,
      "સમ": 1437,
      "િક": 1438,
      "ఎన్న": 1439,
      "కి": 1440,
      "టు": 1441,
      "పార": 1442,
      "పంచ": 1443,
      "ాబ": 1444,
      "ాన్": 1445,
      "third": 1446,
      "ann": 1447,
      "ants": 1448,
      "ances": 1449,
      "red": 1450,
      "ensu": 1451,
      "ati": 1452,
      "ories": 1453,
      "orig": 1454,
      "ice": 1455,
      "omet": 1456,
      "ected": 1457,
      "ades": 1458,
      "old": 1459,
      "righ": 1460,
      "Indians": 1461,
      "cons": 1462,
      "agric": 1463,
      "territ": 1464,
      "dep": 1465,
      "expor": 1466,
      "areas": 1467,
      "sive": 1468,
      "ments": 1469,
      "संस्कृ": 1470,
      "act": 1471,
      "acy": 1472,
      "करने": 1473,
      "న్ని": 1474,
      "early": 1475,
      "contri": 1476,
      "control": 1477,
      "central": 1478,
      "coal": 1479,
      "coast": 1480,
      "ભારતમાં": 1481,
      "ભારતની": 1482,
      "िये": 1483,
      "forms": 1484,
      "ives": 1485,
      "trans": 1486,
      "party": 1487,
      "ंगा": 1488,
      "feat": 1489,
      "1965": 1490,
      "include": 1491,
      "Hinduism": 1492,
      "scri": 1493,
      "lands": 1494,
      "1991": 1495,
      "భారతదేశంలో": 1496,
      "common": 1497,
      "growth": 1498,
      "domin": 1499,
      "following": 1500,
      "time": 1501,
      "human": 1502,
      "influen": 1503,
      "Company": 1504,
      "tech": 1505,
      "emerged": 1506,
      "ultanate": 1507,
      "Central": 1508,
      "Sikh": 1509,
      "religious": 1510,
      "political": 1511,
      "Delhi": 1512,
      "women": 1513,
      "पश्चि": 1514,
      "ensus": 1515,
      "agricult": 1516,
      "10": 1517,
      "Am": 1518,
      "Re": 1519,
      "Sh": 1520,
      "ian": 1521,
      "nolog": 1522,
      "अम": 1523,
      "अंग्रे": 1524,
      "कई": 1525,
      "गी": 1526,
      "णा": 1527,
      "तंत्र": 1528,
      "नहीं": 1529,
      "पह": 1530,
      "मन": 1531,
      "मै": 1532,
      "मध्य": 1533,
      "योग": 1534,
      "सू": 1535,
      "हर": 1536,
      "આવે": 1537,
      "કૃ": 1538,
      "શ્": 1539,
      "చె": 1540,
      "డ్": 1541,
      "ధాన": 1542,
      "పె": 1543,
      "ిన్న": 1544,
      "ెండ": 1545,
      "्री": 1546,
      "विधान": 1547,
      "ర్వ": 1548,
      "हुए": 1549,
      "कारण": 1550,
      "त्व": 1551,
      "पाकि": 1552,
      "इसके": 1553,
      "होता": 1554,
      "प्राचीन": 1555,
      "चुनाव": 1556,
      "િયા": 1557,
      "अनुसार": 1558,
      "व्यव": 1559,
      "एशिया": 1560,
      "మార్గ": 1561,
      "వ్యవస్థ": 1562,
      "पाकिस्तान": 1563,
      "13": 1564,
      "16": 1565,
      "35": 1566,
      "42": 1567,
      "Ar": 1568,
      "BJ": 1569,
      "Dem": 1570,
      "Gand": 1571,
      "Ganges": 1572,
      "Its": 1573,
      "Jain": 1574,
      "au": 1575,
      "ath": 1576,
      "bre": 1577,
      "bal": 1578,
      "bir": 1579,
      "car": 1580,
      "cur": 1581,
      "cial": 1582,
      "cru": 1583,
      "census": 1584,
      "des": 1585,
      "dam": 1586,
      "ep": 1587,
      "eth": 1588,
      "ft": 1589,
      "far": 1590,
      "fed": 1591,
      "fast": 1592,
      "fig": 1593,
      "found": 1594,
      "ge": 1595,
      "gar": 1596,
      "hru": 1597,
      "ia": 1598,
      "ke": 1599,
      "kn": 1600,
      "lo": 1601,
      "line": 1602,
      "man": 1603,
      "men": 1604,
      "pen": 1605,
      "ped": 1606,
      "pain": 1607,
      "rul": 1608,
      "rates": 1609,
      "sing": 1610,
      "sou": 1611,
      "secon": 1612,
      "te": 1613,
      "tal": 1614,
      "tur": 1615,
      "uch": 1616,
      "ven": 1617,
      "vast": 1618,
      "wan": 1619,
      "कॉ": 1620,
      "गण": 1621,
      "गु": 1622,
      "धी": 1623,
      "न्या": 1624,
      "मो": 1625,
      "દી": 1626,
      "નું": 1627,
      "પા": 1628,
      "મહ": 1629,
      "મે": 1630,
      "ంబ": 1631,
      "కృ": 1632,
      "కే": 1633,
      "కార": 1634,
      "తు": 1635,
      "దా": 1636,
      "హింద": 1637,
      "ank": 1638,
      "ancient": 1639,
      "ines": 1640,
      "indu": 1641,
      "they": 1642,
      "rel": 1643,
      "remain": 1644,
      "alle": 1645,
      "ste": 1646,
      "states": 1647,
      "div": 1648,
      "diff": 1649,
      "ata": 1650,
      "ats": 1651,
      "arch": 1652,
      "ors": 1653,
      "ess": 1654,
      "ites": 1655,
      "ecially": 1656,
      "ild": 1657,
      "verse": 1658,
      "ulpt": 1659,
      "empl": 1660,
      "प्रति": 1661,
      "प्रधान": 1662,
      "ists": 1663,
      "istic": 1664,
      "ago": 1665,
      "und": 1666,
      "क्ति": 1667,
      "movement": 1668,
      "roc": 1669,
      "abl": 1670,
      "न्ह": 1671,
      "संविधान": 1672,
      "करोड़": 1673,
      "क्षा": 1674,
      "ety": 1675,
      "medi": 1676,
      "ड़ा": 1677,
      "lower": 1678,
      "ભારતીય": 1679,
      "formed": 1680,
      "prov": 1681,
      "ానికి": 1682,
      "Hindi": 1683,
      "2001": 1684,
      "marri": 1685,
      "द्वार": 1686,
      "స్తు": 1687,
      "There": 1688,
      "cess": 1689,
      "regions": 1690,
      "sculpt": 1691,
      "भाषाओं": 1692,
      "United": 1693,
      "Constitution": 1694,
      "glish": 1695,
      "కూడా": 1696,
      "्राज्य": 1697,
      "మొద": 1698,
      "साम्राज्य": 1699,
      "literacy": 1700,
      "लोक": 1701,
      "Nehru": 1702,
      "based": 1703,
      "લોક": 1704,
      "occup": 1705,
      "parliamentary": 1706,
      "भूमि": 1707,
      "मंत्री": 1708,
      "grew": 1709,
      "religions": 1710,
      "European": 1711,
      "అధికార": 1712,
      "direct": 1713,
      "especially": 1714,
      "English": 1715,
      "local": 1716,
      "दशक": 1717,
      "origin": 1718,
      "depend": 1719,
      "BJP": 1720,
      "Gandhi": 1721,
      "painting": 1722,
      "second": 1723,
      "indust": 1724,
      "50": 1725,
      "Act": 1726,
      "back": 1727,
      "ख्या": 1728,
      "गठ": 1729,
      "चल": 1730,
      "ब्र": 1731,
      "यू": 1732,
      "रह": 1733,
      "એક": 1734,
      "કા": 1735,
      "પર": 1736,
      "િસ્": 1737,
      "కర": 1738,
      "ట్": 1739,
      "త్ర": 1740,
      "త్య": 1741,
      "దక్ష": 1742,
      "పర": 1743,
      "పరి": 1744,
      "మత": 1745,
      "మీ": 1746,
      "మే": 1747,
      "మధ్య": 1748,
      "వర": 1749,
      "సు": 1750,
      "ప్రపంచ": 1751,
      "ప్రధాన": 1752,
      "न्न": 1753,
      "संबंध": 1754,
      "सम्": 1755,
      "સ્કૃ": 1756,
      "ద్ద": 1757,
      "તાન": 1758,
      "पूर्": 1759,
      "స్థాన": 1760,
      "భాష": 1761,
      "हिन्द": 1762,
      "ंग्रेस": 1763,
      "स्वतंत्र": 1764,
      "राष्ट्रीय": 1765,
      "ప్రాంత": 1766,
      "రాజ్య": 1767,
      "पार्ट": 1768,
      "ક્ષ": 1769,
      "बीच": 1770,
      "పేరు": 1771,
      "రైలు": 1772,
      "રાજ્ય": 1773,
      "मैदान": 1774,
      "चुनावों": 1775,
      "व्यवस्था": 1776,
      "द्वारा": 1777,
      "400": 1778,
      "Ara": 1779,
      "Bi": 1780,
      "DP": 1781,
      "During": 1782,
      "Government": 1783,
      "GDP": 1784,
      "National": 1785,
      "Per": 1786,
      "Se": 1787,
      "Tamil": 1788,
      "bod": 1789,
      "cap": 1790,
      "cities": 1791,
      "dr": 1792,
      "dem": 1793,
      "ets": 1794,
      "five": 1795,
      "here": 1796,
      "ip": 1797,
      "ians": 1798,
      "lam": 1799,
      "lay": 1800,
      "mon": 1801,
      "nal": 1802,
      "ning": 1803,
      "prom": 1804,
      "ration": 1805,
      "so": 1806,
      "sultanate": 1807,
      "ti": 1808,
      "til": 1809,
      "ual": 1810,
      "use": 1811,
      "vol": 1812,
      "won": 1813,
      "well": 1814,
      "yan": 1815,
      "आर्थ": 1816,
      "उन": 1817,
      "टी": 1818,
      "ण्": 1819,
      "तृ": 1820,
      "धि": 1821,
      "पी": 1822,
      "फ़": 1823,
      "बर": 1824,
      "बे": 1825,
      "मत": 1826,
      "रो": 1827,
      "लों": 1828,
      "જા": 1829,
      "તો": 1830,
      "ત્": 1831,
      "સી": 1832,
      "దాయ": 1833,
      "నాలు": 1834,
      "ప్": 1835,
      "వార": 1836,
      "వర్": 1837,
      "సభ": 1838,
      "int": 1839,
      "indi": 1840,
      "ert": 1841,
      "republic": 1842,
      "ens": 1843,
      "stat": 1844,
      "dis": 1845,
      "diverse": 1846,
      "ars": 1847,
      "educ": 1848,
      "often": 1849,
      "oup": 1850,
      "ould": 1851,
      "ecut": 1852,
      "urther": 1853,
      "head": 1854,
      "amm": 1855,
      "amp": 1856,
      "ember": 1857,
      "स्ट": 1858,
      "tions": 1859,
      "प्रदेश": 1860,
      "sever": 1861,
      "sequ": 1862,
      "नेतृ": 1863,
      "oper": 1864,
      "sum": 1865,
      "term": 1866,
      "defin": 1867,
      "union": 1868,
      "whose": 1869,
      "विका": 1870,
      "विस्त": 1871,
      "execut": 1872,
      "ders": 1873,
      "संख्या": 1874,
      "etic": 1875,
      "earli": 1876,
      "जाती": 1877,
      "endem": 1878,
      "ived": 1879,
      "క్కు": 1880,
      "ాత్ర": 1881,
      "ished": 1882,
      "దేశంలో": 1883,
      "్టీ": 1884,
      "become": 1885,
      "द्वी": 1886,
      "alled": 1887,
      "osed": 1888,
      "These": 1889,
      "regional": 1890,
      "popular": 1891,
      "longer": 1892,
      "धिकार": 1893,
      "स्थान": 1894,
      "nific": 1895,
      "serv": 1896,
      "viol": 1897,
      "commer": 1898,
      "traditional": 1899,
      "growing": 1900,
      "eastern": 1901,
      "बहुत": 1902,
      "elections": 1903,
      "Andam": 1904,
      "rise": 1905,
      "క్రీ": 1906,
      "ight": 1907,
      "Buddhism": 1908,
      "histor": 1909,
      "styles": 1910,
      "निर्माण": 1911,
      "States": 1912,
      "Western": 1913,
      "official": 1914,
      "સંસ્કૃ": 1915,
      "Islam": 1916,
      "fied": 1917,
      "widely": 1918,
      "Himalayas": 1919,
      "सैन्य": 1920,
      "According": 1921,
      "created": 1922,
      "द्योग": 1923,
      "పార్టీ": 1924,
      "technolog": 1925,
      "Among": 1926,
      "federal": 1927,
      "penins": 1928,
      "southern": 1929,
      "कॉंग्रेस": 1930,
      "alley": 1931,
      "rock": 1932,
      "దక్షి": 1933,
      "Persi": 1934,
      "body": 1935,
      "आर्थिक": 1936,
      "education": 1937,
      "sequent": 1938,
      "द्वीप": 1939,
      "nificant": 1940,
      "Andaman": 1941,
      ");": 1942,
      "12": 1943,
      "24": 1944,
      "oy": 1945,
      "wa": 1946,
      "ंप": 1947,
      "अर": 1948,
      "अव": 1949,
      "कर्": 1950,
      "चार": 1951,
      "जब": 1952,
      "दर": 1953,
      "पर्व": 1954,
      "बन": 1955,
      "लर": 1956,
      "लिया": 1957,
      "शे": 1958,
      "ोष": 1959,
      "ગર": 1960,
      "પો": 1961,
      "મુ": 1962,
      "શા": 1963,
      "అయ": 1964,
      "ఆర్": 1965,
      "జనా": 1966,
      "భు": 1967,
      "మి": 1968,
      "రో": 1969,
      "రెండ": 1970,
      "లం": 1971,
      "లా": 1972,
      "వె": 1973,
      "्यों": 1974,
      "स्त्र": 1975,
      "్యం": 1976,
      "ప్రజ": 1977,
      "ప్రభు": 1978,
      "परमाण": 1979,
      "कार्य": 1980,
      "સ્થ": 1981,
      "ించింది": 1982,
      "जनजाति": 1983,
      "स्थाप": 1984,
      "वीं": 1985,
      "च्च": 1986,
      "पश्चिम": 1987,
      "गणराज्य": 1988,
      "न्याया": 1989,
      "హిందూ": 1990,
      "प्रधानमंत्री": 1991,
      "पूर्ण": 1992,
      "परमाणु": 1993,
      "14": 1994,
      "31": 1995,
      "36": 1996,
      "55": 1997,
      "500": 1998,
      "Bh": 1999,
      "Bra": 2000,
      "Bhar": 2001,
      "Kas": 2002,
      "Nor": 2003,
      "Raj": 2004,
      "Sou": 2005,
      "aver": 2006,
      "bor": 2007,
      "ble": 2008,
      "bro": 2009,
      "cri": 2010,
      "civil": 2011,
      "dances": 2012,
      "edic": 2013,
      "four": 2014,
      "famil": 2015,
      "fact": 2016,
      "further": 2017,
      "gu": 2018,
      "hen": 2019,
      "hou": 2020,
      "however": 2021,
      "iz": 2022,
      "jo": 2023,
      "ling": 2024,
      "mi": 2025,
      "mit": 2026,
      "mak": 2027,
      "mary": 2028,
      "member": 2029,
      "nom": 2030,
      "now": 2031,
      "ool": 2032,
      "pay": 2033,
      "rich": 2034,
      "sm": 2035,
      "sec": 2036,
      "tle": 2037,
      "uj": 2038,
      "uary": 2039,
      "vo": 2040,
      "vill": 2041,
      "vari": 2042,
      "way": 2043,
      "ंति": 2044,
      "ईसा": 2045,
      "ओर": 2046,
      "गई": 2047,
      "गति": 2048,
      "पे": 2049,
      "बो": 2050,
      "भग": 2051,
      "रक्षा": 2052,
      "लिये": 2053,
      "शन": 2054,
      "शी": 2055,
      "शता": 2056,
      "सक": 2057,
      "सह": 2058,
      "सभा": 2059,
      "२००": 2060,
      "ંગ": 2061,
      "ંધ": 2062,
      "ઓળ": 2063,
      "જુદ": 2064,
      "તરી": 2065,
      "પુ": 2066,
      "બા": 2067,
      "રણ": 2068,
      "સૌ": 2069,
      "ంద్ర": 2070,
      "ఇతర": 2071,
      "గి": 2072,
      "తా": 2073,
      "తరు": 2074,
      "పూ": 2075,
      "పో": 2076,
      "మన": 2077,
      "లకు": 2078,
      "వీ": 2079,
      "వు": 2080,
      "శ్ర": 2081,
      "ష్": 2082,
      "ీన": 2083,
      "three": 2084,
      "independ": 2085,
      "reg": 2086,
      "read": 2087,
      "recor": 2088,
      "ale": 2089,
      "alth": 2090,
      "ales": 2091,
      "along": 2092,
      "enac": 2093,
      "str": 2094,
      "stru": 2095,
      "dist": 2096,
      "atic": 2097,
      "ative": 2098,
      "arn": 2099,
      "around": 2100,
      "organ": 2101,
      "off": 2102,
      "ise": 2103,
      "ार्": 2104,
      "left": 2105,
      "held": 2106,
      "ility": 2107,
      "amas": 2108,
      "administ": 2109,
      "liber": 2110,
      "emper": 2111,
      "empire": 2112,
      "char": 2113,
      "changes": 2114,
      "consi": 2115,
      "estim": 2116,
      "establ": 2117,
      "resp": 2118,
      "resident": 2119,
      "ternal": 2120,
      "స్కృ": 2121,
      "until": 2122,
      "ross": 2123,
      "import": 2124,
      "angered": 2125,
      "utes": 2126,
      "ాల్": 2127,
      "न्द्र": 2128,
      "न्तु": 2129,
      "संसद": 2130,
      "oci": 2131,
      "भाई": 2132,
      "भाग": 2133,
      "भाज": 2134,
      "spe": 2135,
      "spread": 2136,
      "हाला": 2137,
      "plain": 2138,
      "place": 2139,
      "worn": 2140,
      "gency": 2141,
      "endangered": 2142,
      "2013": 2143,
      "group": 2144,
      "निर": 2145,
      "oss": 2146,
      "ముఖ్య": 2147,
      "ર્વ": 2148,
      "subsequent": 2149,
      "స్త్ర": 2150,
      "ించిన": 2151,
      "This": 2152,
      "વિધ": 2153,
      "1962": 2154,
      "decl": 2155,
      "comple": 2156,
      "1951": 2157,
      "continu": 2158,
      "१९९": 2159,
      "युद्ध": 2160,
      "polic": 2161,
      "increasing": 2162,
      "traditions": 2163,
      "પ્રદેશ": 2164,
      "क्षेत्रीय": 2165,
      "సాం": 2166,
      "doms": 2167,
      "every": 2168,
      "soci": 2169,
      "thought": 2170,
      "प्राप्त": 2171,
      "जिसमें": 2172,
      "Union": 2173,
      "मुख्य": 2174,
      "glob": 2175,
      "supp": 2176,
      "वर्षों": 2177,
      "1971": 2178,
      "times": 2179,
      "legis": 2180,
      "Although": 2181,
      "court": 2182,
      "courts": 2183,
      "Buddhist": 2184,
      "middle": 2185,
      "present": 2186,
      "style": 2187,
      "developed": 2188,
      "market": 2189,
      "వచ్చింది": 2190,
      "leading": 2191,
      "significant": 2192,
      "kingdoms": 2193,
      "surv": 2194,
      "cooked": 2195,
      "January": 2196,
      "ब्दी": 2197,
      "समाज": 2198,
      "territories": 2199,
      "coalition": 2200,
      "influenced": 2201,
      "पहले": 2202,
      "పెద్ద": 2203,
      "Jainism": 2204,
      "birth": 2205,
      "curren": 2206,
      "figures": 2207,
      "known": 2208,
      "धीरे": 2209,
      "differ": 2210,
      "employ": 2211,
      "sculpture": 2212,
      "લોકો": 2213,
      "industry": 2214,
      "ब्रि": 2215,
      "ण्ड": 2216,
      "नेतृत्व": 2217,
      "operation": 2218,
      "विकास": 2219,
      "executive": 2220,
      "earliest": 2221,
      "క్కువ": 2222,
      "technology": 2223,
      "peninsular": 2224,
      "Persian": 2225,
      "अरब": 2226,
      "शेष": 2227,
      "Kashm": 2228,
      "Southeast": 2229,
      "families": 2230,
      "शताब्दी": 2231,
      "ઓળખ": 2232,
      "તરીકે": 2233,
      "consider": 2234,
      "..": 2235,
      "28": 2236,
      "Des": 2237,
      "ns": 2238,
      "इंड": 2239,
      "एँ": 2240,
      "एवं": 2241,
      "गंगा": 2242,
      "थे": 2243,
      "दल": 2244,
      "दर्": 2245,
      "निक": 2246,
      "पै": 2247,
      "मू": 2248,
      "मौ": 2249,
      "लन": 2250,
      "लोग": 2251,
      "व्या": 2252,
      "सु": 2253,
      "हरी": 2254,
      "ંદ": 2255,
      "ઇન્": 2256,
      "કર": 2257,
      "મી": 2258,
      "વધ": 2259,
      "હે": 2260,
      "્ધ": 2261,
      "అతి": 2262,
      "ఉత్": 2263,
      "ఉంట": 2264,
      "గర": 2265,
      "గీ": 2266,
      "జరి": 2267,
      "పట్ట": 2268,
      "బడ": 2269,
      "బా": 2270,
      "బె": 2271,
      "బ్ర": 2272,
      "మహ": 2273,
      "లలో": 2274,
      "వంట": 2275,
      "ుకు": 2276,
      "साल": 2277,
      "राजनी": 2278,
      "वायु": 2279,
      "देख": 2280,
      "हाँ": 2281,
      "ड़ी": 2282,
      "ભારતના": 2283,
      "విధ": 2284,
      "સ્ત": 2285,
      "वर्त": 2286,
      "जिन": 2287,
      "વિવિધ": 2288,
      "जनसंख्या": 2289,
      "प्ले": 2290,
      "युक्त": 2291,
      "భాగ": 2292,
      "दोनों": 2293,
      "వాణా": 2294,
      "अपने": 2295,
      "बंधन": 2296,
      "लगभग": 2297,
      "सदस": 2298,
      "कुछ": 2299,
      "कुल": 2300,
      "સાગર": 2301,
      "म्भ": 2302,
      "स्थित": 2303,
      "टिश": 2304,
      "अन्त": 2305,
      "संस्कृति": 2306,
      "શ્વ": 2307,
      "మార్గాలు": 2308,
      "కేంద్ర": 2309,
      "न्हें": 2310,
      "भूमिका": 2311,
      "स्वतंत्रता": 2312,
      "ప్ప": 2313,
      "క్రీడ": 2314,
      "అయిన": 2315,
      "జనాభా": 2316,
      "ప్రభుత్వ": 2317,
      "తరువాత": 2318,
      "ब्रिटिश": 2319,
      "100": 2320,
      "1200": 2321,
      "22": 2322,
      "300": 2323,
      "As": 2324,
      "Ary": 2325,
      "Ass": 2326,
      "Civil": 2327,
      "De": 2328,
      "Dec": 2329,
      "Dra": 2330,
      "Fore": 2331,
      "Gh": 2332,
      "Gup": 2333,
      "Gree": 2334,
      "Guj": 2335,
      "However": 2336,
      "Many": 2337,
      "Nuclear": 2338,
      "Pro": 2339,
      "Sing": 2340,
      "Valley": 2341,
      "War": 2342,
      "ah": 2343,
      "adi": 2344,
      "bs": 2345,
      "bu": 2346,
      "bar": 2347,
      "band": 2348,
      "bution": 2349,
      "che": 2350,
      "creat": 2351,
      "called": 2352,
      "den": 2353,
      "dri": 2354,
      "down": 2355,
      "equ": 2356,
      "eograph": 2357,
      "fam": 2358,
      "fund": 2359,
      "gra": 2360,
      "ho": 2361,
      "hy": 2362,
      "his": 2363,
      "hab": 2364,
      "ile": 2365,
      "just": 2366,
      "ks": 2367,
      "ll": 2368,
      "mult": 2369,
      "mons": 2370,
      "oth": 2371,
      "odiversity": 2372,
      "pur": 2373,
      "pra": 2374,
      "pass": 2375,
      "saf": 2376,
      "sine": 2377,
      "sari": 2378,
      "tu": 2379,
      "tic": 2380,
      "tain": 2381,
      "tak": 2382,
      "ues": 2383,
      "win": 2384,
      "went": 2385,
      "wear": 2386,
      "writ": 2387,
      "wild": 2388,
      "xim": 2389,
      "ँच": 2390,
      "ँकि": 2391,
      "अप्र": 2392,
      "अर्थ": 2393,
      "अलग": 2394,
      "आधिकार": 2395,
      "घोष": 2396,
      "जल": 2397,
      "डी": 2398,
      "डॉ": 2399,
      "त्या": 2400,
      "तमिल": 2401,
      "थिय": 2402,
      "निय": 2403,
      "पं": 2404,
      "पड़": 2405,
      "बने": 2406,
      "बनी": 2407,
      "ये": 2408,
      "लं": 2409,
      "वल": 2410,
      "विक": 2411,
      "शि": 2412,
      "शक्ति": 2413,
      "सित": 2414,
      "हथिय": 2415,
      "ुनिक": 2416,
      "ृत": 2417,
      "२०": 2418,
      "ટા": 2419,
      "ણી": 2420,
      "તર": 2421,
      "ત્ર": 2422,
      "દક્ષ": 2423,
      "પૂ": 2424,
      "બી": 2425,
      "ભૂ": 2426,
      "મો": 2427,
      "લે": 2428,
      "સિ": 2429,
      "હો": 2430,
      "િણ": 2431,
      "అనే": 2432,
      "ఇది": 2433,
      "ఎక్కువ": 2434,
      "ఏర్": 2435,
      "కీయ": 2436,
      "కలి": 2437,
      "గో": 2438,
      "గ్": 2439,
      "గిన": 2440,
      "జన": 2441,
      "టిక": 2442,
      "ణం": 2443,
      "బహ": 2444,
      "మంత్ర": 2445,
      "రవాణా": 2446,
      "లే": 2447,
      "లను": 2448,
      "సిం": 2449,
      "సరి": 2450,
      "ిల్ల": 2451,
      "ani": 2452,
      "anim": 2453,
      "animal": 2454,
      "ining": 2455,
      "invol": 2456,
      "ones": 2457,
      "renew": 2458,
      "reach": 2459,
      "reduced": 2460,
      "ali": 2461,
      "ality": 2462,
      "dian": 2463,
      "dish": 2464,
      "ating": 2465,
      "ara": 2466,
      "ard": 2467,
      "aries": 2468,
      "arma": 2469,
      "ash": 2470,
      "itect": 2471,
      "ices": 2472,
      "iss": 2473,
      "====": 2474,
      "ारम्भ": 2475,
      "केन्द्र": 2476,
      "omy": 2477,
      "took": 2478,
      "touch": 2479,
      "oul": 2480,
      "్రా": 2481,
      "్రె": 2482,
      "काम": 2483,
      "adv": 2484,
      "adually": 2485,
      "olid": 2486,
      "liance": 2487,
      "Their": 2488,
      "change": 2489,
      "सेवा": 2490,
      "स्तर": 2491,
      "ceut": 2492,
      "प्रभा": 2493,
      "प्रकार": 2494,
      "प्रारम्भ": 2495,
      "below": 2496,
      "before": 2497,
      "sel": 2498,
      "astri": 2499,
      "conduc": 2500,
      "result": 2501,
      "opp": 2502,
      "opical": 2503,
      "again": 2504,
      "िक्": 2505,
      "une": 2506,
      "when": 2507,
      "where": 2508,
      "विदेश": 2509,
      "within": 2510,
      "exts": 2511,
      "external": 2512,
      "मालय": 2513,
      "aren": 2514,
      "ियाँ": 2515,
      "ably": 2516,
      "about": 2517,
      "ability": 2518,
      "ప్రస్తు": 2519,
      "ప్రదాయ": 2520,
      "uted": 2521,
      "परंप": 2522,
      "संयुक्त": 2523,
      "करना": 2524,
      "etwork": 2525,
      "inct": 2526,
      "elected": 2527,
      "elites": 2528,
      "ocrat": 2529,
      "जाते": 2530,
      "spor": 2531,
      "ided": 2532,
      "ured": 2533,
      "aksh": 2534,
      "meat": 2535,
      "show": 2536,
      "plate": 2537,
      "play": 2538,
      "appro": 2539,
      "genous": 2540,
      "ending": 2541,
      "associ": 2542,
      "produc": 2543,
      "process": 2544,
      "క్క": 2545,
      "tropical": 2546,
      "2010": 2547,
      "ported": 2548,
      "aff": 2549,
      "ously": 2550,
      "निभाई": 2551,
      "2008": 2552,
      "partition": 2553,
      "upper": 2554,
      "इसी": 2555,
      "वर्ग": 2556,
      "हिमालय": 2557,
      "స్తాన్": 2558,
      "Hindust": 2559,
      "ందిన": 2560,
      "decades": 2561,
      "quality": 2562,
      "composed": 2563,
      "Asian": 2564,
      "reasing": 2565,
      "foreign": 2566,
      "vidian": 2567,
      "pharma": 2568,
      "rica": 2569,
      "ective": 2570,
      "extant": 2571,
      "ంగ్రె": 2572,
      "wars": 2573,
      "दोलन": 2574,
      "शासित": 2575,
      "traditionally": 2576,
      "Africa": 2577,
      "tax": 2578,
      "2022": 2579,
      "2026": 2580,
      "సాధ": 2581,
      "పాకి": 2582,
      "તેને": 2583,
      "લામ": 2584,
      "amental": 2585,
      "numbers": 2586,
      "Maur": 2587,
      "185": 2588,
      "Ancient": 2589,
      "Constit": 2590,
      "अपनी": 2591,
      "ergy": 2592,
      "support": 2593,
      "bian": 2594,
      "weap": 2595,
      "express": 2596,
      "రాజకీయ": 2597,
      "All": 2598,
      "oods": 2599,
      "కాంగ్రె": 2600,
      "influence": 2601,
      "history": 2602,
      "बड़ा": 2603,
      "constitutional": 2604,
      "development": 2605,
      "ज़ी": 2606,
      "leader": 2607,
      "દુન": 2608,
      "కాలంలో": 2609,
      "cooking": 2610,
      "mathematics": 2611,
      "Plateau": 2612,
      "greater": 2613,
      "school": 2614,
      "vention": 2615,
      "आधुनिक": 2616,
      "ఎన్నో": 2617,
      "ాబ్": 2618,
      "adesh": 2619,
      "oldest": 2620,
      "right": 2621,
      "rights": 2622,
      "consolid": 2623,
      "exports": 2624,
      "contribut": 2625,
      "contribution": 2626,
      "features": 2627,
      "commonly": 2628,
      "agriculture": 2629,
      "agricultural": 2630,
      "अमे": 2631,
      "crust": 2632,
      "single": 2633,
      "turned": 2634,
      "relations": 2635,
      "architect": 2636,
      "మొదటి": 2637,
      "directly": 2638,
      "गठबंधन": 2639,
      "रहे": 2640,
      "િસ્તાન": 2641,
      "पार्टी": 2642,
      "Sea": 2643,
      "capit": 2644,
      "dramas": 2645,
      "intro": 2646,
      "indigenous": 2647,
      "violence": 2648,
      "commercial": 2649,
      "સંસ્કૃતિ": 2650,
      "దక్షిణ": 2651,
      "waist": 2652,
      "न्यायालय": 2653,
      "Brahm": 2654,
      "Bharat": 2655,
      "house": 2656,
      "nomin": 2657,
      "small": 2658,
      "secular": 2659,
      "સૌથી": 2660,
      "recorded": 2661,
      "enacted": 2662,
      "estimated": 2663,
      "established": 2664,
      "important": 2665,
      "भाजपा": 2666,
      "speak": 2667,
      "हालाँकि": 2668,
      "continued": 2669,
      "global": 2670,
      "legislat": 2671,
      "different": 2672,
      "Kashmir": 2673,
      "मूल": 2674,
      "प्लेट": 2675,
      "Dravidian": 2676,
      "Ghats": 2677,
      "Singh": 2678,
      "fundamental": 2679,
      "pract": 2680,
      "ximately": 2681,
      "आधिकारिक": 2682,
      "हथियार": 2683,
      "દક્ષિણ": 2684,
      "ceutical": 2685,
      "conducted": 2686,
      "resulting": 2687,
      "परंपरा": 2688,
      "ocratic": 2689,
      "approximately": 2690,
      "pharmaceutical": 2691,
      "11": 2692,
      "25": 2693,
      "46": 2694,
      "64": 2695,
      "70": 2696,
      "80": 2697,
      "PA": 2698,
      "ंक": 2699,
      "अफ": 2700,
      "आं": 2701,
      "आग": 2702,
      "उस": 2703,
      "ऊँ": 2704,
      "एं": 2705,
      "कह": 2706,
      "गए": 2707,
      "गत": 2708,
      "ग्र": 2709,
      "जै": 2710,
      "डा": 2711,
      "णी": 2712,
      "तो": 2713,
      "दृ": 2714,
      "पहा": 2715,
      "फल": 2716,
      "बै": 2717,
      "बार": 2718,
      "भर": 2719,
      "भि": 2720,
      "यों": 2721,
      "वन": 2722,
      "वै": 2723,
      "वरी": 2724,
      "सत": 2725,
      "सो": 2726,
      "सर्व": 2727,
      "ृद्ध": 2728,
      "ैली": 2729,
      "१८": 2730,
      "ઉપ": 2731,
      "કાર": 2732,
      "ખ્યા": 2733,
      "ણા": 2734,
      "બો": 2735,
      "યે": 2736,
      "લી": 2737,
      "વ્ય": 2738,
      "શિયા": 2739,
      "સુ": 2740,
      "સ્યા": 2741,
      "હી": 2742,
      "అత్య": 2743,
      "ఇండి": 2744,
      "ఉప": 2745,
      "క్య": 2746,
      "గల": 2747,
      "చిన్న": 2748,
      "దం": 2749,
      "పం": 2750,
      "పై": 2751,
      "పతి": 2752,
      "భూ": 2753,
      "మై": 2754,
      "మాన": 2755,
      "యు": 2756,
      "యో": 2757,
      "రంగ": 2758,
      "లతో": 2759,
      "వల": 2760,
      "శ్": 2761,
      "షు": 2762,
      "ావర": 2763,
      "ుకో": 2764,
      "ెలు": 2765,
      "్మ": 2766,
      "्यता": 2767,
      "विज": 2768,
      "ప్రతి": 2769,
      "માલ": 2770,
      "ాలలో": 2771,
      "ాలను": 2772,
      "करण": 2773,
      "तिहा": 2774,
      "वाद": 2775,
      "वादी": 2776,
      "ियन": 2777,
      "విస్త": 2778,
      "पालि": 2779,
      "लावा": 2780,
      "किन्तु": 2781,
      "शांति": 2782,
      "लीन": 2783,
      "સ્લામ": 2784,
      "ండు": 2785,
      "वर्ण": 2786,
      "होती": 2787,
      "ించి": 2788,
      "વિશ્વ": 2789,
      "1960": 2790,
      "1967": 2791,
      "जनता": 2792,
      "సంస్కృ": 2793,
      "సంగీ": 2794,
      "1999": 2795,
      "ंधी": 2796,
      "વાદ": 2797,
      "१९७": 2798,
      "१९८": 2799,
      "युग": 2800,
      "ంగ్ల": 2801,
      "2023": 2802,
      "जिसके": 2803,
      "बहुमत": 2804,
      "ిత్ర": 2805,
      "1980": 2806,
      "ప్రాచ": 2807,
      "ધર્મો": 2808,
      "క్రమ": 2809,
      "बड़ी": 2810,
      "बड़े": 2811,
      "િયાન": 2812,
      "సిని": 2813,
      "సియా": 2814,
      "હિન્": 2815,
      "ద్ధి": 2816,
      "गांधी": 2817,
      "महाद्वीप": 2818,
      "वंश": 2819,
      "శాస్త్ర": 2820,
      "शुरू": 2821,
      "संस्कृत": 2822,
      "अंग्रेजी": 2823,
      "આવેલા": 2824,
      "મહા": 2825,
      "રાજ્યો": 2826,
      "જાતિ": 2827,
      "विस्तृत": 2828,
      "कर्ज": 2829,
      "पर्वत": 2830,
      "પોતા": 2831,
      "ఆర్ధిక": 2832,
      "शील": 2833,
      "सहयोग": 2834,
      "ઇન્ડ": 2835,
      "डॉलर": 2836,
      "సరిహ": 2837,
      "विदेशी": 2838,
      "अमेरि": 2839,
      "అత్యధిక": 2840,
      "ఇండియా": 2841,
      "पालिका": 2842,
      "27": 2843,
      "29": 2844,
      "63": 2845,
      "Ak": 2846,
      "At": 2847,
      "Ash": 2848,
      "Bang": 2849,
      "Bay": 2850,
      "DA": 2851,
      "Dal": 2852,
      "Dance": 2853,
      "Ex": 2854,
      "Ear": 2855,
      "Econ": 2856,
      "For": 2857,
      "Fron": 2858,
      "Geograph": 2859,
      "HO": 2860,
      "Kal": 2861,
      "Lank": 2862,
      "Me": 2863,
      "Mal": 2864,
      "Mar": 2865,
      "Mid": 2866,
      "Myan": 2867,
      "Non": 2868,
      "Nic": 2869,
      "NDA": 2870,
      "Pol": 2871,
      "Pall": 2872,
      "She": 2873,
      "Sri": 2874,
      "Treat": 2875,
      "UPA": 2876,
      "Va": 2877,
      "Vi": 2878,
      "WHO": 2879,
      "aic": 2880,
      "aut": 2881,
      "bon": 2882,
      "bes": 2883,
      "bly": 2884,
      "bri": 2885,
      "cu": 2886,
      "cal": 2887,
      "cle": 2888,
      "cul": 2889,
      "cut": 2890,
      "crit": 2891,
      "came": 2892,
      "cav": 2893,
      "clim": 2894,
      "could": 2895,
      "dar": 2896,
      "dha": 2897,
      "ez": 2898,
      "ely": 2899,
      "eff": 2900,
      "eign": 2901,
      "eight": 2902,
      "fem": 2903,
      "fall": 2904,
      "gn": 2905,
      "gth": 2906,
      "gas": 2907,
      "gation": 2908,
      "gain": 2909,
      "get": 2910,
      "god": 2911,
      "goods": 2912,
      "hu": 2913,
      "han": 2914,
      "hig": 2915,
      "ii": 2916,
      "ith": 2917,
      "ily": 2918,
      "ither": 2919,
      "ifer": 2920,
      "ject": 2921,
      "ken": 2922,
      "ked": 2923,
      "kil": 2924,
      "ket": 2925,
      "kame": 2926,
      "law": 2927,
      "loss": 2928,
      "ladesh": 2929,
      "mig": 2930,
      "marg": 2931,
      "much": 2932,
      "mamm": 2933,
      "nam": 2934,
      "near": 2935,
      "name": 2936,
      "pat": 2937,
      "pul": 2938,
      "ption": 2939,
      "past": 2940,
      "pts": 2941,
      "pover": 2942,
      "pet": 2943,
      "ran": 2944,
      "ring": 2945,
      "row": 2946,
      "round": 2947,
      "range": 2948,
      "sil": 2949,
      "sol": 2950,
      "sim": 2951,
      "sover": 2952,
      "slow": 2953,
      "sav": 2954,
      "sect": 2955,
      "somet": 2956,
      "sites": 2957,
      "tt": 2958,
      "tre": 2959,
      "test": 2960,
      "texts": 2961,
      "uent": 2962,
      "val": 2963,
      "vic": 2964,
      "vis": 2965,
      "varn": 2966,
      "would": 2967,
      "ze": 2968,
      "ंस": 2969,
      "ंह": 2970,
      "अब": 2971,
      "अभी": 2972,
      "अधि": 2973,
      "आया": 2974,
      "आन्": 2975,
      "आदि": 2976,
      "इं": 2977,
      "इस्": 2978,
      "उद्योग": 2979,
      "ऋतु": 2980,
      "कम": 2981,
      "कटि": 2982,
      "गो": 2983,
      "चे": 2984,
      "जू": 2985,
      "जरा": 2986,
      "जलो": 2987,
      "टन": 2988,
      "तः": 2989,
      "तन": 2990,
      "दू": 2991,
      "नव": 2992,
      "नगर": 2993,
      "पि": 2994,
      "पीय": 2995,
      "भरा": 2996,
      "र्य": 2997,
      "रिक": 2998,
      "लु": 2999,
      "शत": 3000,
      "श्री": 3001,
      "सफल": 3002,
      "हन": 3003,
      "हार": 3004,
      "हरा": 3005,
      "िम": 3006,
      "िकी": 3007,
      "ैल": 3008,
      "ोसी": 3009,
      "ोच्च": 3010,
      "ંડ": 3011,
      "ગે": 3012,
      "જબ": 3013,
      "જી": 3014,
      "ણે": 3015,
      "ધરા": 3016,
      "પણ": 3017,
      "શી": 3018,
      "હા": 3019,
      "ంధ": 3020,
      "ఆధ": 3021,
      "కాలు": 3022,
      "గణ": 3023,
      "గలు": 3024,
      "జాబ": 3025,
      "ట్ల": 3026,
      "ఢిల్ల": 3027,
      "ణి": 3028,
      "తిక": 3029,
      "తంత్ర": 3030,
      "దార": 3031,
      "ధి": 3032,
      "నీ": 3033,
      "నె": 3034,
      "నడి": 3035,
      "భిన్న": 3036,
      "మె": 3037,
      "మూడ": 3038,
      "మాత్ర": 3039,
      "రం": 3040,
      "రహ": 3041,
      "వై": 3042,
      "సౌ": 3043,
      "సము": 3044,
      "సింది": 3045,
      "సమా": 3046,
      "హార": 3047,
      "ీర్": 3048,
      "thor": 3049,
      "threat": 3050,
      "those": 3051,
      "ana": 3052,
      "anch": 3053,
      "anag": 3054,
      "anies": 3055,
      "anted": 3056,
      "anism": 3057,
      "anced": 3058,
      "another": 3059,
      "init": 3060,
      "institution": 3061,
      "then": 3062,
      "these": 3063,
      "era": 3064,
      "ergency": 3065,
      "ond": 3066,
      "onial": 3067,
      "rest": 3068,
      "recent": 3069,
      "reco": 3070,
      "refer": 3071,
      "reven": 3072,
      "ened": 3073,
      "ensive": 3074,
      "energy": 3075,
      "stand": 3076,
      "stri": 3077,
      "stren": 3078,
      "dit": 3079,
      "dient": 3080,
      "dise": 3081,
      "diment": 3082,
      "discri": 3083,
      "ature": 3084,
      "arts": 3085,
      "arnat": 3086,
      "edul": 3087,
      "anding": 3088,
      "oro": 3089,
      "oral": 3090,
      "orally": 3091,
      "Indira": 3092,
      "isol": 3093,
      "enter": 3094,
      "केवल": 3095,
      "oming": 3096,
      "tow": 3097,
      "today": 3098,
      "total": 3099,
      "ech": 3100,
      "urid": 3101,
      "urred": 3102,
      "level": 3103,
      "ilway": 3104,
      "ams": 3105,
      "ample": 3106,
      "very": 3107,
      "19th": 3108,
      "1935": 3109,
      "ada": 3110,
      "adop": 3111,
      "addition": 3112,
      "added": 3113,
      "adher": 3114,
      "र्ष": 3115,
      "olved": 3116,
      "rivers": 3117,
      "lied": 3118,
      "lies": 3119,
      "lief": 3120,
      "like": 3121,
      "यास": 3122,
      "emple": 3123,
      "embly": 3124,
      "ched": 3125,
      "chos": 3126,
      "churid": 3127,
      "rap": 3128,
      "rather": 3129,
      "racy": 3130,
      "railway": 3131,
      "cean": 3132,
      "20th": 3133,
      "tional": 3134,
      "प्रयास": 3135,
      "being": 3136,
      "belong": 3137,
      "bell": 3138,
      "belief": 3139,
      "seals": 3140,
      "separ": 3141,
      "veget": 3142,
      "conce": 3143,
      "estic": 3144,
      "reser": 3145,
      "del": 3146,
      "devo": 3147,
      "స్య": 3148,
      "స్వ": 3149,
      "స్వా": 3150,
      "uni": 3151,
      "untouch": 3152,
      "irt": 3153,
      "్యాయ": 3154,
      "विभि": 3155,
      "विवाद": 3156,
      "due": 3157,
      "duct": 3158,
      "exchange": 3159,
      "example": 3160,
      "moist": 3161,
      "role": 3162,
      "ime": 3163,
      "imes": 3164,
      "माना": 3165,
      "area": 3166,
      "romise": 3167,
      "anged": 3168,
      "abad": 3169,
      "ables": 3170,
      "ప్రము": 3171,
      "six": 3172,
      "सां": 3173,
      "ush": 3174,
      "uscri": 3175,
      "acter": 3176,
      "across": 3177,
      "करता": 3178,
      "భారత్": 3179,
      "income": 3180,
      "ocracy": 3181,
      "जाना": 3182,
      "pers": 3183,
      "idly": 3184,
      "contain": 3185,
      "contains": 3186,
      "ulture": 3187,
      "वाली": 3188,
      "sha": 3189,
      "sho": 3190,
      "shor": 3191,
      "share": 3192,
      "માંથી": 3193,
      "lows": 3194,
      "plains": 3195,
      "gence": 3196,
      "వివిధ": 3197,
      "assert": 3198,
      "formal": 3199,
      "पाद": 3200,
      "पास": 3201,
      "protec": 3202,
      "ivity": 3203,
      "लाख": 3204,
      "having": 3205,
      "trade": 3206,
      "2014": 3207,
      "2018": 3208,
      "ports": 3209,
      "gradually": 3210,
      "anta": 3211,
      "ources": 3212,
      "समर्थ": 3213,
      "2004": 3214,
      "2009": 3215,
      "becoming": 3216,
      "partic": 3217,
      "osition": 3218,
      "इसकी": 3219,
      "ద్దు": 3220,
      "होते": 3221,
      "मिला": 3222,
      "latter": 3223,
      "Thar": 3224,
      "વિસ્ત": 3225,
      "inequality": 3226,
      "governments": 3227,
      "ministers": 3228,
      "decade": 3229,
      "primary": 3230,
      "ంతో": 3231,
      "companies": 3232,
      "compromise": 3233,
      "populous": 3234,
      "ections": 3235,
      "oka": 3236,
      "1998": 3237,
      "castes": 3238,
      "predomin": 3239,
      "parts": 3240,
      "१९५": 3241,
      "१९६": 3242,
      "ricket": 3243,
      "extensive": 3244,
      "numer": 3245,
      "wards": 3246,
      "उत्पाद": 3247,
      "classes": 3248,
      "cause": 3249,
      "2024": 3250,
      "సామ": 3251,
      "cultural": 3252,
      "cultures": 3253,
      "urbanisation": 3254,
      "Buddha": 3255,
      "folk": 3256,
      "less": 3257,
      "Indones": 3258,
      "अपना": 3259,
      "supported": 3260,
      "northwest": 3261,
      "स्वरूप": 3262,
      "Euras": 3263,
      "obar": 3264,
      "rising": 3265,
      "wealth": 3266,
      "setting": 3267,
      "expans": 3268,
      "1950s": 3269,
      "अधिकार": 3270,
      "కోర్": 3271,
      "others": 3272,
      "appear": 3273,
      "बनाने": 3274,
      "పేర్": 3275,
      "Modern": 3276,
      "Mohen": 3277,
      "basin": 3278,
      "eval": 3279,
      "president": 3280,
      "marked": 3281,
      "రాష్ట్రాలు": 3282,
      "రాష్ట్రపతి": 3283,
      "tribal": 3284,
      "armies": 3285,
      "office": 3286,
      "ographics": 3287,
      "forests": 3288,
      "ष्ठ": 3289,
      "ष्ण": 3290,
      "signed": 3291,
      "Islands": 3292,
      "coll": 3293,
      "colonial": 3294,
      "gave": 3295,
      "merch": 3296,
      "natal": 3297,
      "क्रम": 3298,
      "disputes": 3299,
      "generally": 3300,
      "mathematical": 3301,
      "Himalayan": 3302,
      "శాఖ": 3303,
      "Janata": 3304,
      "drain": 3305,
      "poin": 3306,
      "schedul": 3307,
      "સમસ્યા": 3308,
      "ometres": 3309,
      "consists": 3310,
      "transmit": 3311,
      "script": 3312,
      "influences": 3313,
      "Sikhism": 3314,
      "अमरी": 3315,
      "अंग्रेज़ी": 3316,
      "డ్డ": 3317,
      "्रीका": 3318,
      "13th": 3319,
      "Demographics": 3320,
      "breath": 3321,
      "crucial": 3322,
      "loose": 3323,
      "manuscri": 3324,
      "wana": 3325,
      "related": 3326,
      "remaining": 3327,
      "प्रतिशत": 3328,
      "mediately": 3329,
      "provided": 3330,
      "marriages": 3331,
      "మొదల": 3332,
      "originally": 3333,
      "यूरो": 3334,
      "కర్య": 3335,
      "हिन्दू": 3336,
      "ప్రాంతాలు": 3337,
      "Arabian": 3338,
      "nings": 3339,
      "status": 3340,
      "summer": 3341,
      "endemic": 3342,
      "దేశంలోని": 3343,
      "Islamic": 3344,
      "जबकि": 3345,
      "મુજબ": 3346,
      "రెండు": 3347,
      "स्थापना": 3348,
      "North": 3349,
      "average": 3350,
      "broad": 3351,
      "guard": 3352,
      "makes": 3353,
      "village": 3354,
      "જુદા": 3355,
      "independence": 3356,
      "strong": 3357,
      "struct": 3358,
      "organisation": 3359,
      "administration": 3360,
      "liberal": 3361,
      "character": 3362,
      "respon": 3363,
      "residents": 3364,
      "ాల్లో": 3365,
      "policies": 3366,
      "increasingly": 3367,
      "society": 3368,
      "currency": 3369,
      "employed": 3370,
      "ઓળખાય": 3371,
      "Desert": 3372,
      "व्यापार": 3373,
      "ఉత్తర": 3374,
      "పట్టణ": 3375,
      "బెంగ": 3376,
      "బ్రి": 3377,
      "राजनीतिक": 3378,
      "वर्तमान": 3379,
      "భాగం": 3380,
      "ప్పటిక": 3381,
      "Aryan": 3382,
      "Assembly": 3383,
      "Civilisation": 3384,
      "Deccan": 3385,
      "Gupta": 3386,
      "Greek": 3387,
      "Gujar": 3388,
      "habit": 3389,
      "multi": 3390,
      "monso": 3391,
      "safe": 3392,
      "written": 3393,
      "wildlife": 3394,
      "अप्रैल": 3395,
      "अर्थव्यवस्था": 3396,
      "जलवायु": 3397,
      "पड़ोसी": 3398,
      "ఏర్ప": 3399,
      "బహు": 3400,
      "మంత్రి": 3401,
      "సింధ": 3402,
      "animals": 3403,
      "reached": 3404,
      "dishes": 3405,
      "oulder": 3406,
      "प्रभाव": 3407,
      "self": 3408,
      "Maurya": 3409,
      "Constituent": 3410,
      "weapons": 3411,
      "schools": 3412,
      "contributions": 3413,
      "architecture": 3414,
      "capita": 3415,
      "introduced": 3416,
      "nominal": 3417,
      "practices": 3418,
      "अफ्रीका": 3419,
      "दृष्ट": 3420,
      "सर्वोच्च": 3421,
      "तिहास": 3422,
      "సరిహద్దు": 3423,
      "Ashoka": 3424,
      "Bangladesh": 3425,
      "Early": 3426,
      "Front": 3427,
      "Middle": 3428,
      "Myanmar": 3429,
      "Nicobar": 3430,
      "Pallav": 3431,
      "Treaty": 3432,
      "daro": 3433,
      "eignty": 3434,
      "kilometres": 3435,
      "kameez": 3436,
      "laws": 3437,
      "margins": 3438,
      "mammals": 3439,
      "poverty": 3440,
      "sovereignty": 3441,
      "sector": 3442,
      "sometimes": 3443,
      "vict": 3444,
      "जलोढ़": 3445,
      "ఢిల్లీ": 3446,
      "దారులు": 3447,
      "నడిప": 3448,
      "సౌకర్య": 3449,
      "recogn": 3450,
      "revenues": 3451,
      "strength": 3452,
      "discrimin": 3453,
      "chosen": 3454,
      "churidars": 3455,
      "bellion": 3456,
      "विभिन्न": 3457,
      "ప్రముఖ": 3458,
      "protected": 3459,
      "समर्थन": 3460,
      "Indonesia": 3461,
      "Mohenjo": 3462,
      "scheduled": 3463,
      "transmitted": 3464,
      "यूरोपीय": 3465,
      "\".": 3466,
      "01": 3467,
      "32": 3468,
      "72": 3469,
      "74": 3470,
      "82": 3471,
      "Langu": 3472,
      "mand": 3473,
      "अभ": 3474,
      "अलावा": 3475,
      "आत": 3476,
      "इतिहास": 3477,
      "उच्च": 3478,
      "एन": 3479,
      "कर्म": 3480,
      "किये": 3481,
      "घा": 3482,
      "चना": 3483,
      "चला": 3484,
      "छो": 3485,
      "छोड़": 3486,
      "जिक": 3487,
      "जहाँ": 3488,
      "तट": 3489,
      "तम": 3490,
      "तगा": 3491,
      "दार": 3492,
      "दारी": 3493,
      "धार": 3494,
      "नै": 3495,
      "नौ": 3496,
      "नदिया": 3497,
      "पहु": 3498,
      "फि": 3499,
      "फ्रा": 3500,
      "बौ": 3501,
      "बंगा": 3502,
      "बदल": 3503,
      "मे": 3504,
      "यक": 3505,
      "यत": 3506,
      "रही": 3507,
      "लना": 3508,
      "सल्": 3509,
      "ृत्य": 3510,
      "ौर": 3511,
      "ौद्योग": 3512,
      "्ञ": 3513,
      "१४": 3514,
      "१५": 3515,
      "२४": 3516,
      "કિસ્તાન": 3517,
      "ખ્ર": 3518,
      "ખંડ": 3519,
      "ચિ": 3520,
      "ચી": 3521,
      "જો": 3522,
      "તમા": 3523,
      "તંત": 3524,
      "થે": 3525,
      "દ્ર": 3526,
      "ધી": 3527,
      "ન્ય": 3528,
      "પૌ": 3529,
      "પશ્": 3530,
      "પર્વ": 3531,
      "યો": 3532,
      "રૂ": 3533,
      "લું": 3534,
      "વ્યા": 3535,
      "વતો": 3536,
      "વગે": 3537,
      "શ્ર": 3538,
      "ષ્": 3539,
      "૦૦": 3540,
      "ంద": 3541,
      "ందు": 3542,
      "అభ": 3543,
      "అను": 3544,
      "కం": 3545,
      "కళ": 3546,
      "కల్": 3547,
      "గే": 3548,
      "గంగా": 3549,
      "చార": 3550,
      "చరి": 3551,
      "చైన": 3552,
      "జ్య": 3553,
      "టం": 3554,
      "టీ": 3555,
      "టె": 3556,
      "తన": 3557,
      "తూ": 3558,
      "తమి": 3559,
      "తాబ్": 3560,
      "థిక": 3561,
      "నగర": 3562,
      "పత": 3563,
      "పొ": 3564,
      "పద్ధ": 3565,
      "పండు": 3566,
      "మలు": 3567,
      "మ్య": 3568,
      "రూ": 3569,
      "ళం": 3570,
      "ళ్ల": 3571,
      "వడ": 3572,
      "వహ": 3573,
      "వృ": 3574,
      "వత్": 3575,
      "శతాబ్": 3576,
      "సమ": 3577,
      "సై": 3578,
      "సార": 3579,
      "సర్వ": 3580,
      "ిమ": 3581,
      "ుంది": 3582,
      "1930": 3583,
      "र्तगा": 3584,
      "स्लि": 3585,
      "2020": 3586,
      "प्रशासन": 3587,
      "प्रत्य": 3588,
      "प्रचल": 3589,
      "प्रौद्योग": 3590,
      "नेमा": 3591,
      "స్వాత": 3592,
      "वियत": 3593,
      "imper": 3594,
      "माल": 3595,
      "माध्य": 3596,
      "माजिक": 3597,
      "साह": 3598,
      "सामाजिक": 3599,
      "ాలతో": 3600,
      "न्ध": 3601,
      "परी": 3602,
      "परे": 3603,
      "पर्य": 3604,
      "संगी": 3605,
      "ારસી": 3606,
      "क्षर": 3607,
      "న్నాయి": 3608,
      "कोई": 3609,
      "भाष": 3610,
      "राजधान": 3611,
      "राजनै": 3612,
      "वास": 3613,
      "देव": 3614,
      "देखा": 3615,
      "నిర్వ": 3616,
      "2012": 3617,
      "भील": 3618,
      "నుక": 3619,
      "నుండి": 3620,
      "्यादा": 3621,
      "2007": 3622,
      "तरह": 3623,
      "हिं": 3624,
      "हिस्": 3625,
      "तीस": 3626,
      "तीसर": 3627,
      "बाहरी": 3628,
      "త్తం": 3629,
      "ల్వే": 3630,
      "ించే": 3631,
      "रूस": 3632,
      "રાણી": 3633,
      "અનેક": 3634,
      "मुस्लि": 3635,
      "जनवरी": 3636,
      "సంఖ్య": 3637,
      "ंत्रिक": 3638,
      "चीफ": 3639,
      "વામાં": 3640,
      "मानसू": 3641,
      "भाषाएँ": 3642,
      "सरकारें": 3643,
      "जीत": 3644,
      "પ્રા": 3645,
      "2021": 3646,
      "कृष": 3647,
      "તેના": 3648,
      "जिसका": 3649,
      "दिल्": 3650,
      "पुरा": 3651,
      "पुर्तगा": 3652,
      "ితా": 3653,
      "सिंह": 3654,
      "सिनेमा": 3655,
      "1975": 3656,
      "पूर्वी": 3657,
      "కూడిన": 3658,
      "1984": 3659,
      "लगा": 3660,
      "ક્તિ": 3661,
      "मिलियन": 3662,
      "మొత్తం": 3663,
      "बनाई": 3664,
      "સાથે": 3665,
      "రైల్వే": 3666,
      "હિમાલ": 3667,
      "ુદ્ર": 3668,
      "వాతావర": 3669,
      "बढ़कर": 3670,
      "పాలన": 3671,
      "स्थि": 3672,
      "భారతదేశానికి": 3673,
      "उपमहाद्वीप": 3674,
      "वेश": 3675,
      "ఒకటి": 3676,
      "संघीय": 3677,
      "संघर्ष": 3678,
      "ભાષાઓ": 3679,
      "सैनिक": 3680,
      "చేయ": 3681,
      "దేశాలలో": 3682,
      "अन्तर": 3683,
      "आधार": 3684,
      "शुरु": 3685,
      "समाप्त": 3686,
      "સમુદ્ર": 3687,
      "पश्चिमी": 3688,
      "Republic": 3689,
      "गुप्त": 3690,
      "પાકિસ્તાન": 3691,
      "కారం": 3692,
      "తున్న": 3693,
      "అధికారిక": 3694,
      "િસ્તી": 3695,
      "ట్లు": 3696,
      "ప్రపంచంలో": 3697,
      "భాషలు": 3698,
      "સીમા": 3699,
      "विस्तार": 3700,
      "వెబ": 3701,
      "ప్రజా": 3702,
      "સ્થાન": 3703,
      "पेक्ष": 3704,
      "निरपेक्ष": 3705,
      "પ્રદેશો": 3706,
      "इंडिया": 3707,
      "लोगों": 3708,
      "વધુ": 3709,
      "ఉంటాయి": 3710,
      "జరిగిన": 3711,
      "వంటి": 3712,
      "વિવિધતા": 3713,
      "घोषणा": 3714,
      "पंजा": 3715,
      "विकसित": 3716,
      "તરફ": 3717,
      "પૂર્વ": 3718,
      "అనేక": 3719,
      "ఎక్కువగా": 3720,
      "ప్రస్తుతం": 3721,
      "కాంగ్రెసు": 3722,
      "उसके": 3723,
      "कहते": 3724,
      "जैसे": 3725,
      "ప్రాచీన": 3726,
      "હિન્દુ": 3727,
      "મહાસાગર": 3728,
      "પોતાની": 3729,
      "अमेरिका": 3730,
      "आन्दोलन": 3731,
      "जून": 3732,
      "तनत": 3733,
      "શીખ": 3734,
      "జాబితా": 3735,
      "రహదారులు": 3736,
      "సముద్ర": 3737,
      "સમસ્યાઓ": 3738,
      "दृष्टि": 3739,
      "Languages": 3740,
      "अभिया": 3741,
      "छोटे": 3742,
      "नदियाँ": 3743,
      "सल्तनत": 3744,
      "ખ્રિસ્તી": 3745,
      "ચીન": 3746,
      "તંત્ર": 3747,
      "પશ્ચિ": 3748,
      "વગેરે": 3749,
      "అభి": 3750,
      "చరిత్ర": 3751,
      "శతాబ్దం": 3752,
      "प्रौद्योगिकी": 3753,
      "స్వాతంత్ర": 3754,
      "imperial": 3755,
      "माध्यम": 3756,
      "संगीत": 3757,
      "राजधानी": 3758,
      "राजनैतिक": 3759,
      "నిర్వహ": 3760,
      "मुस्लिम": 3761,
      "मानसून": 3762,
      "दिल्ली": 3763,
      "હિમાલય": 3764,
      "వాతావరణం": 3765,
      "\")": 3766,
      "\",": 3767,
      "%)": 3768,
      "%),": 3769,
      "(\"": 3770,
      ",\"": 3771,
      "04": 3772,
      "1st": 3773,
      "34": 3774,
      "39": 3775,
      "41": 3776,
      "44": 3777,
      "53": 3778,
      "65": 3779,
      "6th": 3780,
      "7th": 3781,
      "700": 3782,
      "91": 3783,
      "93": 3784,
      "94": 3785,
      "Aj": 3786,
      "Ach": 3787,
      "Agency": 3788,
      "Ba": 3789,
      "Bal": 3790,
      "Bet": 3791,
      "Cl": 3792,
      "Coun": 3793,
      "Cup": 3794,
      "Cav": 3795,
      "Clim": 3796,
      "Carnat": 3797,
      "Culture": 3798,
      "Cricket": 3799,
      "Dis": 3800,
      "Dom": 3801,
      "Ety": 3802,
      "Fol": 3803,
      "Fact": 3804,
      "Gr": 3805,
      "Gen": 3806,
      "Gang": 3807,
      "Gond": 3808,
      "He": 3809,
      "Hist": 3810,
      "II": 3811,
      "Im": 3812,
      "Jaw": 3813,
      "Jhar": 3814,
      "Jamm": 3815,
      "June": 3816,
      "Ko": 3817,
      "Keral": 3818,
      "Kaver": 3819,
      "Li": 3820,
      "Laksh": 3821,
      "Man": 3822,
      "Min": 3823,
      "Mum": 3824,
      "Ni": 3825,
      "No": 3826,
      "Nat": 3827,
      "Network": 3828,
      "Oc": 3829,
      "Or": 3830,
      "Over": 3831,
      "Old": 3832,
      "Ocean": 3833,
      "PP": 3834,
      "Pl": 3835,
      "Pr": 3836,
      "Pu": 3837,
      "Par": 3838,
      "Part": 3839,
      "Prol": 3840,
      "President": 3841,
      "So": 3842,
      "Sin": 3843,
      "Sim": 3844,
      "Sab": 3845,
      "Sant": 3846,
      "Some": 3847,
      "Sever": 3848,
      "Sultanate": 3849,
      "Sarn": 3850,
      "Ti": 3851,
      "To": 3852,
      "Tr": 3853,
      "Ter": 3854,
      "Tha": 3855,
      "Temple": 3856,
      "Ur": 3857,
      "Vis": 3858,
      "Vaj": 3859,
      "Vedic": 3860,
      "Yaksh": 3861,
      "Zoro": 3862,
      "aː": 3863,
      "aem": 3864,
      "aim": 3865,
      "aism": 3866,
      "ahar": 3867,
      "ba": 3868,
      "bul": 3869,
      "bra": 3870,
      "bour": 3871,
      "bot": 3872,
      "buc": 3873,
      "brough": 3874,
      "bai": 3875,
      "bron": 3876,
      "bably": 3877,
      "cin": 3878,
      "cat": 3879,
      "cit": 3880,
      "cing": 3881,
      "cil": 3882,
      "ction": 3883,
      "cro": 3884,
      "care": 3885,
      "cover": 3886,
      "cere": 3887,
      "city": 3888,
      "cak": 3889,
      "cris": 3890,
      "cust": 3891,
      "ctions": 3892,
      "creasing": 3893,
      "do": 3894,
      "dy": 3895,
      "dre": 3896,
      "dent": 3897,
      "dest": 3898,
      "doc": 3899,
      "dates": 3900,
      "dry": 3901,
      "data": 3902,
      "ee": 3903,
      "ew": 3904,
      "eously": 3905,
      "either": 3906,
      "fo": 3907,
      "fr": 3908,
      "fil": 3909,
      "ful": 3910,
      "fest": 3911,
      "fare": 3912,
      "fac": 3913,
      "flow": 3914,
      "foun": 3915,
      "fish": 3916,
      "fav": 3917,
      "food": 3918,
      "farm": 3919,
      "flower": 3920,
      "fash": 3921,
      "gin": 3922,
      "gon": 3923,
      "gro": 3924,
      "gig": 3925,
      "give": 3926,
      "govern": 3927,
      "hā": 3928,
      "hal": 3929,
      "hor": 3930,
      "ham": 3931,
      "hol": 3932,
      "hun": 3933,
      "hous": 3934,
      "hood": 3935,
      "ik": 3936,
      "io": 3937,
      "idu": 3938,
      "iff": 3939,
      "ified": 3940,
      "jur": 3941,
      "jay": 3942,
      "jack": 3943,
      "kk": 3944,
      "kur": 3945,
      "kill": 3946,
      "la": 3947,
      "ls": 3948,
      "lin": 3949,
      "lal": 3950,
      "lic": 3951,
      "leng": 3952,
      "lines": 3953,
      "ms": 3954,
      "mat": 3955,
      "may": 3956,
      "mass": 3957,
      "molog": 3958,
      "males": 3959,
      "mns": 3960,
      "nd": 3961,
      "nin": 3962,
      "nar": 3963,
      "nic": 3964,
      "nation": 3965,
      "next": 3966,
      "network": 3967,
      "oor": 3968,
      "och": 3969,
      "ove": 3970,
      "osp": 3971,
      "pa": 3972,
      "pi": 3973,
      "pil": 3974,
      "phas": 3975,
      "pot": 3976,
      "pically": 3977,
      "pants": 3978,
      "ptions": 3979,
      "paren": 3980,
      "push": 3981,
      "ranges": 3982,
      "she": 3983,
      "sli": 3984,
      "smo": 3985,
      "saw": 3986,
      "tan": 3987,
      "tand": 3988,
      "tom": 3989,
      "tun": 3990,
      "ties": 3991,
      "tection": 3992,
      "treat": 3993,
      "text": 3994,
      "tled": 3995,
      "table": 3996,
      "templ": 3997,
      "temper": 3998,
      "usu": 3999,
      "ude": 4000,
      "ufact": 4001,
      "va": 4002,
      "vas": 4003,
      "ves": 4004,
      "vary": 4005,
      "valley": 4006,
      "wing": 4007,
      "wet": 4008,
      "wel": 4009,
      "ween": 4010,
      "wood": 4011,
      "xed": 4012,
      "yal": 4013,
      "zed": 4014,
      "zes": 4015,
      "νδ": 4016,
      "ंट": 4017,
      "अग": 4018,
      "अने": 4019,
      "अति": 4020,
      "अल्": 4021,
      "आज": 4022,
      "आप": 4023,
      "आय": 4024,
      "आस": 4025,
      "इसे": 4026,
      "उसे": 4027,
      "उन्हें": 4028,
      "उष्ण": 4029,
      "एव": 4030,
      "कप": 4031,
      "कश्": 4032,
      "क्यों": 4033,
      "चो": 4034,
      "चित": 4035,
      "चली": 4036,
      "जट": 4037,
      "जों": 4038,
      "जमा": 4039,
      "टक": 4040,
      "टल": 4041,
      "टा": 4042,
      "ढा": 4043,
      "तीय": 4044,
      "तनाव": 4045,
      "दु": 4046,
      "दों": 4047,
      "पत्": 4048,
      "फा": 4049,
      "फैली": 4050,
      "बि": 4051,
      "बजट": 4052,
      "भु": 4053,
      "भ्यता": 4054,
      "मार्": 4055,
      "मस्वरूप": 4056,
      "यि": 4057,
      "यहाँ": 4058,
      "रख": 4059,
      "रल": 4060,
      "लै": 4061,
      "लौ": 4062,
      "लड़ा": 4063,
      "शहर": 4064,
      "शस्त्र": 4065,
      "शहरी": 4066,
      "शिक्": 4067,
      "सन्": 4068,
      "सहा": 4069,
      "सक्र": 4070,
      "सभ्यता": 4071,
      "हॉ": 4072,
      "ामस्वरूप": 4073,
      "ेक": 4074,
      "ेक्षा": 4075,
      "ोत्": 4076,
      "१०": 4077,
      "२२": 4078,
      "४०": 4079,
      "४७": 4080,
      "ંચ": 4081,
      "અથ": 4082,
      "આજે": 4083,
      "આંત": 4084,
      "આવી": 4085,
      "ઇસ્લામ": 4086,
      "ઉત્": 4087,
      "એશિયા": 4088,
      "ઐતિ": 4089,
      "કળ": 4090,
      "કી": 4091,
      "ક્ર": 4092,
      "કીય": 4093,
      "ગણ": 4094,
      "ગી": 4095,
      "ગુ": 4096,
      "ઘણા": 4097,
      "ચે": 4098,
      "ચ્": 4099,
      "ચાર": 4100,
      "દ્": 4101,
      "દ્ધ": 4102,
      "ધાર": 4103,
      "બ્": 4104,
      "બ્ર": 4105,
      "બંધ": 4106,
      "ભર": 4107,
      "મૂ": 4108,
      "રમ": 4109,
      "રસા": 4110,
      "લગ": 4111,
      "ળા": 4112,
      "વરસા": 4113,
      "શિ": 4114,
      "સિક": 4115,
      "હતી": 4116,
      "્મ": 4117,
      "્લા": 4118,
      "૧૯": 4119,
      "అని": 4120,
      "ఆఫ": 4121,
      "ఇవ": 4122,
      "కల": 4123,
      "ఖండ": 4124,
      "చి": 4125,
      "జి": 4126,
      "జన్": 4127,
      "టా": 4128,
      "డే": 4129,
      "ణంగా": 4130,
      "దన": 4131,
      "దీ": 4132,
      "ద్య": 4133,
      "నాయ": 4134,
      "న్యాయ": 4135,
      "పద": 4136,
      "పశ": 4137,
      "పక్ష": 4138,
      "పాత్ర": 4139,
      "మల": 4140,
      "మాలు": 4141,
      "మ్మ": 4142,
      "యాలు": 4143,
      "రే": 4144,
      "ర్య": 4145,
      "రకాల": 4146,
      "లక్ష": 4147,
      "వరి": 4148,
      "సర": 4149,
      "సూ": 4150,
      "హా": 4151,
      "ిల్": 4152,
      "ిస్త": 4153,
      "ీలు": 4154,
      "ుల": 4155,
      "ెల": 4156,
      "ోర": 4157,
      "Ἰνδ": 4158,
      "thm": 4159,
      "anat": 4160,
      "aning": 4161,
      "ined": 4162,
      "inated": 4163,
      "inform": 4164,
      "inno": 4165,
      "thes": 4166,
      "erc": 4167,
      "erly": 4168,
      "erial": 4169,
      "onic": 4170,
      "only": 4171,
      "onset": 4172,
      "ream": 4173,
      "rece": 4174,
      "reme": 4175,
      "reform": 4176,
      "relat": 4177,
      "repe": 4178,
      "rept": 4179,
      "reement": 4180,
      "refl": 4181,
      "reforms": 4182,
      "represent": 4183,
      "returned": 4184,
      "rebellion": 4185,
      "ala": 4186,
      "aled": 4187,
      "alliance": 4188,
      "alwars": 4189,
      "enn": 4190,
      "ening": 4191,
      "ences": 4192,
      "enhouse": 4193,
      "sts": 4194,
      "stant": 4195,
      "stress": 4196,
      "stud": 4197,
      "stian": 4198,
      "stiff": 4199,
      "dia": 4200,
      "did": 4201,
      "died": 4202,
      "dified": 4203,
      "atist": 4204,
      "atts": 4205,
      "attra": 4206,
      "atory": 4207,
      "atives": 4208,
      "arc": 4209,
      "aras": 4210,
      "aris": 4211,
      "arter": 4212,
      "ards": 4213,
      "ardis": 4214,
      "ands": 4215,
      "andy": 4216,
      "Inter": 4217,
      "Increasing": 4218,
      "ord": 4219,
      "oration": 4220,
      "orce": 4221,
      "orial": 4222,
      "ase": 4223,
      "asi": 4224,
      "asures": 4225,
      "asions": 4226,
      "asured": 4227,
      "ital": 4228,
      "itary": 4229,
      "itics": 4230,
      "itte": 4231,
      "itude": 4232,
      "icians": 4233,
      "icken": 4234,
      "ision": 4235,
      "ises": 4236,
      "ising": 4237,
      "isans": 4238,
      "isine": 4239,
      "isions": 4240,
      "isdic": 4241,
      "ings": 4242,
      "ently": 4243,
      "ential": 4244,
      "entually": 4245,
      "oms": 4246,
      "omic": 4247,
      "top": 4248,
      "tober": 4249,
      "ectr": 4250,
      "lying": 4251,
      "uri": 4252,
      "hest": 4253,
      "ils": 4254,
      "ilar": 4255,
      "iland": 4256,
      "iles": 4257,
      "iling": 4258,
      "ilding": 4259,
      "amy": 4260,
      "amed": 4261,
      "amend": 4262,
      "कालीन": 4263,
      "adem": 4264,
      "adwe": 4265,
      "advent": 4266,
      "olution": 4267,
      "rial": 4268,
      "riya": 4269,
      "riors": 4270,
      "ristian": 4271,
      "lig": 4272,
      "live": 4273,
      "ligion": 4274,
      "lived": 4275,
      "living": 4276,
      "They": 4277,
      "emiss": 4278,
      "emphas": 4279,
      "chap": 4280,
      "chains": 4281,
      "child": 4282,
      "chived": 4283,
      "changed": 4284,
      "ceed": 4285,
      "प्रका": 4286,
      "प्रिय": 4287,
      "प्रदान": 4288,
      "प्रणा": 4289,
      "प्रभु": 4290,
      "best": 4291,
      "begin": 4292,
      "sex": 4293,
      "seats": 4294,
      "sediment": 4295,
      "नेह": 4296,
      "isting": 4297,
      "isters": 4298,
      "force": 4299,
      "forti": 4300,
      "fortable": 4301,
      "consum": 4302,
      "राजा": 4303,
      "resolved": 4304,
      "resources": 4305,
      "open": 4306,
      "opor": 4307,
      "opped": 4308,
      "suc": 4309,
      "super": 4310,
      "supre": 4311,
      "agana": 4312,
      "agreement": 4313,
      "नागा": 4314,
      "नागर": 4315,
      "లోక్": 4316,
      "dev": 4317,
      "defe": 4318,
      "deleg": 4319,
      "devast": 4320,
      "స్లా": 4321,
      "ung": 4322,
      "united": 4323,
      "uncommon": 4324,
      "unitary": 4325,
      "unresolved": 4326,
      "iron": 4327,
      "what": 4328,
      "क्ट": 4329,
      "विरो": 4330,
      "विशेष": 4331,
      "duce": 4332,
      "excav": 4333,
      "exerc": 4334,
      "existing": 4335,
      "model": 4336,
      "impro": 4337,
      "imple": 4338,
      "immediately": 4339,
      "tside": 4340,
      "tspo": 4341,
      "माता": 4342,
      "ियां": 4343,
      "దినాలు": 4344,
      "derived": 4345,
      "angra": 4346,
      "above": 4347,
      "ప్రకారం": 4348,
      "sia": 4349,
      "side": 4350,
      "सागर": 4351,
      "mental": 4352,
      "mented": 4353,
      "overran": 4354,
      "ute": 4355,
      "utra": 4356,
      "ాలీ": 4357,
      "ాలకు": 4358,
      "न्त्र": 4359,
      "परिण": 4360,
      "ికత": 4361,
      "ిక్": 4362,
      "using": 4363,
      "संग": 4364,
      "aced": 4365,
      "action": 4366,
      "accoun": 4367,
      "according": 4368,
      "access": 4369,
      "करती": 4370,
      "करते": 4371,
      "artic": 4372,
      "artists": 4373,
      "artistic": 4374,
      "artisans": 4375,
      "क्षण": 4376,
      "etah": 4377,
      "inces": 4378,
      "त्रि": 4379,
      "electr": 4380,
      "भागी": 4381,
      "spic": 4382,
      "spending": 4383,
      "comfortable": 4384,
      "percent": 4385,
      "idence": 4386,
      "therers": 4387,
      "contra": 4388,
      "राजवंश": 4389,
      "centre": 4390,
      "वास्त": 4391,
      "cost": 4392,
      "cosine": 4393,
      "medic": 4394,
      "mega": 4395,
      "meaning": 4396,
      "shy": 4397,
      "shared": 4398,
      "ship": 4399,
      "shoulder": 4400,
      "हाल": 4401,
      "lution": 4402,
      "lowed": 4403,
      "iger": 4404,
      "plant": 4405,
      "planted": 4406,
      "కుల": 4407,
      "కుంట": 4408,
      "కుటు": 4409,
      "aps": 4410,
      "aputra": 4411,
      "నిర్": 4412,
      "त्न": 4413,
      "त्म": 4414,
      "gender": 4415,
      "ends": 4416,
      "ended": 4417,
      "atedly": 4418,
      "assical": 4419,
      "assass": 4420,
      "formally": 4421,
      "पात": 4422,
      "पान": 4423,
      "पाया": 4424,
      "पाँच": 4425,
      "ాయు": 4426,
      "larger": 4427,
      "proj": 4428,
      "produced": 4429,
      "probably": 4430,
      "produce": 4431,
      "iva": 4432,
      "ival": 4433,
      "iving": 4434,
      "hau": 4435,
      "mini": 4436,
      "minor": 4437,
      "trad": 4438,
      "2017": 4439,
      "portion": 4440,
      "affir": 4441,
      "નામ": 4442,
      "નામે": 4443,
      "ought": 4444,
      "amework": 4445,
      "किए": 4446,
      "किसी": 4447,
      "Chand": 4448,
      "Chol": 4449,
      "Chess": 4450,
      "Champ": 4451,
      "Christian": 4452,
      "Chhau": 4453,
      "రాస్య": 4454,
      "oury": 4455,
      "निम्": 4456,
      "निवेश": 4457,
      "समझ": 4458,
      "समृद्ध": 4459,
      "2003": 4460,
      "bercul": 4461,
      "marry": 4462,
      "marshy": 4463,
      "parties": 4464,
      "partially": 4465,
      "शाली": 4466,
      "ogamy": 4467,
      "लीवि": 4468,
      "osa": 4469,
      "osis": 4470,
      "osing": 4471,
      "इसमें": 4472,
      "इसका": 4473,
      "otech": 4474,
      "ములో": 4475,
      "ముంబ": 4476,
      "ર્થ": 4477,
      "ద్వీ": 4478,
      "तीन": 4479,
      "होना": 4480,
      "stitutes": 4481,
      "राज्यसभा": 4482,
      "close": 4483,
      "cloth": 4484,
      "claim": 4485,
      "neigh": 4486,
      "substant": 4487,
      "ల్లో": 4488,
      "जिन्हें": 4489,
      "पूरा": 4490,
      "पूरे": 4491,
      "1964": 4492,
      "included": 4493,
      "includes": 4494,
      "Hindus": 4495,
      "decreasing": 4496,
      "decidu": 4497,
      "company": 4498,
      "comprising": 4499,
      "Asians": 4500,
      "sci": 4501,
      "scen": 4502,
      "scale": 4503,
      "సంఘ": 4504,
      "సంప్రదాయ": 4505,
      "సంవత్": 4506,
      "book": 4507,
      "relief": 4508,
      "peace": 4509,
      "పుట్ట": 4510,
      "ganiz": 4511,
      "द्रो": 4512,
      "1990": 4513,
      "స్థాన్": 4514,
      "systems": 4515,
      "लेकर": 4516,
      "niqu": 4517,
      "pread": 4518,
      "prevent": 4519,
      "series": 4520,
      "serving": 4521,
      "vide": 4522,
      "viet": 4523,
      "view": 4524,
      "ंधु": 4525,
      "ంటే": 4526,
      "Emergency": 4527,
      "extinct": 4528,
      "extreme": 4529,
      "extends": 4530,
      "committe": 4531,
      "black": 4532,
      "भाषाएं": 4533,
      "pollution": 4534,
      "warriors": 4535,
      "countri": 4536,
      "tail": 4537,
      "जीवन": 4538,
      "limited": 4539,
      "દેશો": 4540,
      "દેશને": 4541,
      "1949": 4542,
      "క్షరాస్య": 4543,
      "domestic": 4544,
      "mainly": 4545,
      "maintain": 4546,
      "notable": 4547,
      "notably": 4548,
      "ఉన్నారు": 4549,
      "పాక్": 4550,
      "itions": 4551,
      "largely": 4552,
      "టిలో": 4553,
      "followed": 4554,
      "दिरा": 4555,
      "Major": 4556,
      "puts": 4557,
      "पुरु": 4558,
      "ological": 4559,
      "ologically": 4560,
      "18th": 4561,
      "kho": 4562,
      "khand": 4563,
      "southwest": 4564,
      "सिंधु": 4565,
      "supplanted": 4566,
      "बंधीय": 4567,
      "1974": 4568,
      "1977": 4569,
      "biodiversity": 4570,
      "biotech": 4571,
      "rative": 4572,
      "legal": 4573,
      "leges": 4574,
      "ilitated": 4575,
      "1985": 4576,
      "settle": 4577,
      "expanding": 4578,
      "speci": 4579,
      "ધર્મના": 4580,
      "मीर": 4581,
      "सदन": 4582,
      "Alliance": 4583,
      "awatts": 4584,
      "course": 4585,
      "efly": 4586,
      "humans": 4587,
      "nonviol": 4588,
      "therefore": 4589,
      "thereafter": 4590,
      "सामरिक": 4591,
      "appo": 4592,
      "applied": 4593,
      "literary": 4594,
      "literature": 4595,
      "Common": 4596,
      "જેવા": 4597,
      "ంచి": 4598,
      "उत्तरी": 4599,
      "Modi": 4600,
      "Nep": 4601,
      "New": 4602,
      "aith": 4603,
      "eventually": 4604,
      "nationalist": 4605,
      "presence": 4606,
      "तुलना": 4607,
      "రైళ్ల": 4608,
      "duction": 4609,
      "occurred": 4610,
      "occasions": 4611,
      "works": 4612,
      "markets": 4613,
      "રાજા": 4614,
      "17th": 4615,
      "मंत्रिम": 4616,
      "०००": 4617,
      "હિંદ": 4618,
      "international": 4619,
      "intervention": 4620,
      "రాష్ట్రాల": 4621,
      "Eastern": 4622,
      "Still": 4623,
      "flour": 4624,
      "greenhouse": 4625,
      "ronic": 4626,
      "వచ్చిన": 4627,
      "arms": 4628,
      "स्कृतिक": 4629,
      "ultaneously": 4630,
      "Punjabi": 4631,
      "बढ़ती": 4632,
      "ष्क": 4633,
      "కొన్ని": 4634,
      "పాలిత": 4635,
      "మైనది": 4636,
      "వేగంగా": 4637,
      "భారతదేశపు": 4638,
      "colleges": 4639,
      "gatherers": 4640,
      "उपयोग": 4641,
      "टेलीवि": 4642,
      "ાયો": 4643,
      "ణాసియా": 4644,
      "display": 4645,
      "disputed": 4646,
      "espite": 4647,
      "generated": 4648,
      "mathematicians": 4649,
      "highly": 4650,
      "Muslims": 4651,
      "airs": 4652,
      "draw": 4653,
      "lasted": 4654,
      "princes": 4655,
      "च्छ": 4656,
      "शुष्क": 4657,
      "annually": 4658,
      "annual": 4659,
      "territorial": 4660,
      "exporter": 4661,
      "exported": 4662,
      "coasts": 4663,
      "coastal": 4664,
      "coastline": 4665,
      "transformed": 4666,
      "feature": 4667,
      "భారతదేశంలోని": 4668,
      "dominion": 4669,
      "dominance": 4670,
      "techniqu": 4671,
      "Sikhs": 4672,
      "10th": 4673,
      "Religion": 4674,
      "Shastri": 4675,
      "Shiva": 4676,
      "सूची": 4677,
      "చెందిన": 4678,
      "డ్డు": 4679,
      "వ్యవస్థలో": 4680,
      "Artic": 4681,
      "Archived": 4682,
      "Democratic": 4683,
      "bread": 4684,
      "break": 4685,
      "carved": 4686,
      "descri": 4687,
      "ethical": 4688,
      "ethnic": 4689,
      "fastest": 4690,
      "figure": 4691,
      "geograph": 4692,
      "garment": 4693,
      "garlic": 4694,
      "key": 4695,
      "knit": 4696,
      "manufact": 4697,
      "ruled": 4698,
      "ruling": 4699,
      "rulers": 4700,
      "turn": 4701,
      "vene": 4702,
      "wanted": 4703,
      "गुजरा": 4704,
      "मोहन": 4705,
      "కార్య": 4706,
      "remained": 4707,
      "stead": 4708,
      "steamed": 4709,
      "divorce": 4710,
      "diffused": 4711,
      "archaic": 4712,
      "essential": 4713,
      "medieval": 4714,
      "married": 4715,
      "लोकता": 4716,
      "लोकप्रिय": 4717,
      "occupy": 4718,
      "occupation": 4719,
      "original": 4720,
      "dependent": 4721,
      "paintings": 4722,
      "industrial": 4723,
      "కరణ": 4724,
      "పరంగా": 4725,
      "పరిశ్ర": 4726,
      "మేన": 4727,
      "ప్రధానమంత్రి": 4728,
      "संबंधों": 4729,
      "స్థానంలో": 4730,
      "हिन्दु": 4731,
      "రాజ్యాలు": 4732,
      "मैदानी": 4733,
      "Biodiversity": 4734,
      "democratic": 4735,
      "democracy": 4736,
      "heredit": 4737,
      "layer": 4738,
      "promin": 4739,
      "soon": 4740,
      "sole": 4741,
      "volcan": 4742,
      "उनके": 4743,
      "उनकी": 4744,
      "వారస": 4745,
      "సభ్య": 4746,
      "headed": 4747,
      "amphi": 4748,
      "several": 4749,
      "severely": 4750,
      "defined": 4751,
      "eticide": 4752,
      "endemism": 4753,
      "service": 4754,
      "commerce": 4755,
      "historical": 4756,
      "historically": 4757,
      "historians": 4758,
      "સંસ્કૃત": 4759,
      "अवशेष": 4760,
      "ఆర్థిక": 4761,
      "రోడ్డు": 4762,
      "कार्यकाल": 4763,
      "कार्यपालिका": 4764,
      "361": 4765,
      "Bhangra": 4766,
      "Northeast": 4767,
      "Rajiv": 4768,
      "Rajputs": 4769,
      "borne": 4770,
      "borders": 4771,
      "civilian": 4772,
      "edicts": 4773,
      "factor": 4774,
      "izens": 4775,
      "mitt": 4776,
      "make": 4777,
      "payee": 4778,
      "voted": 4779,
      "villages": 4780,
      "various": 4781,
      "२००४": 4782,
      "જુદી": 4783,
      "independent": 4784,
      "regul": 4785,
      "distinct": 4786,
      "organised": 4787,
      "emperor": 4788,
      "respective": 4789,
      "spreading": 4790,
      "groups": 4791,
      "ముఖ్యమైన": 4792,
      "subsequently": 4793,
      "declared": 4794,
      "complex": 4795,
      "policy": 4796,
      "సాంప్రదాయ": 4797,
      "everyday": 4798,
      "survives": 4799,
      "births": 4800,
      "current": 4801,
      "ण्डल": 4802,
      "मौर्य": 4803,
      "బాద్": 4804,
      "जिनमें": 4805,
      "सदस्य": 4806,
      "सदस्यों": 4807,
      "కేంద్రపాలిత": 4808,
      "ప్రభుత్వం": 4809,
      "Foreign": 4810,
      "building": 4811,
      "cheetah": 4812,
      "creating": 4813,
      "creativity": 4814,
      "dense": 4815,
      "family": 4816,
      "gradient": 4817,
      "hotspo": 4818,
      "hymns": 4819,
      "passing": 4820,
      "tubercul": 4821,
      "winds": 4822,
      "लंका": 4823,
      "लंबे": 4824,
      "ટાપુ": 4825,
      "મોટ": 4826,
      "સિત": 4827,
      "હોવા": 4828,
      "కలిగి": 4829,
      "involved": 4830,
      "involving": 4831,
      "renewable": 4832,
      "ission": 4833,
      "advanced": 4834,
      "astrianism": 4835,
      "against": 4836,
      "whereas": 4837,
      "sports": 4838,
      "played": 4839,
      "associate": 4840,
      "associated": 4841,
      "producer": 4842,
      "affairs": 4843,
      "Hindustan": 4844,
      "Hindustani": 4845,
      "taxes": 4846,
      "పాకిస్తాన్": 4847,
      "పాకిస్థాన్": 4848,
      "1858": 4849,
      "expression": 4850,
      "દુનિયા": 4851,
      "દુનિયાન": 4852,
      "contributed": 4853,
      "దక్షిణాన": 4854,
      "Brahmaputra": 4855,
      "speaking": 4856,
      "speakers": 4857,
      "legislature": 4858,
      "परंपरागत": 4859,
      "आगमन": 4860,
      "ऊँची": 4861,
      "डालर": 4862,
      "सोवियत": 4863,
      "વ્યક્તિ": 4864,
      "పైగా": 4865,
      "विजय": 4866,
      "1960s": 4867,
      "సంస్కృతి": 4868,
      "సంగీతం": 4869,
      "సినిమా": 4870,
      "శాస్త్రం": 4871,
      "ઇન્ડિયા": 4872,
      "Akbar": 4873,
      "Economy": 4874,
      "Geography": 4875,
      "Lankan": 4876,
      "Malay": 4877,
      "Marath": 4878,
      "Politics": 4879,
      "Vijay": 4880,
      "bonds": 4881,
      "briefly": 4882,
      "calend": 4883,
      "cleared": 4884,
      "climatic": 4885,
      "females": 4886,
      "gained": 4887,
      "gods": 4888,
      "hubs": 4889,
      "highest": 4890,
      "iferation": 4891,
      "migration": 4892,
      "patron": 4893,
      "pastoral": 4894,
      "similar": 4895,
      "savoury": 4896,
      "varna": 4897,
      "इंदिरा": 4898,
      "इस्ला": 4899,
      "कटिबंधीय": 4900,
      "श्रीलंका": 4901,
      "ધરાવતો": 4902,
      "હાસિક": 4903,
      "ఆధార": 4904,
      "మూడు": 4905,
      "మాత్రం": 4906,
      "thorn": 4907,
      "threatened": 4908,
      "anagara": 4909,
      "initi": 4910,
      "standardis": 4911,
      "disease": 4912,
      "isolation": 4913,
      "towns": 4914,
      "levels": 4915,
      "adopted": 4916,
      "additional": 4917,
      "rapidly": 4918,
      "railways": 4919,
      "vegetari": 4920,
      "devotion": 4921,
      "స్వతంత్ర": 4922,
      "స్వామ్య": 4923,
      "untouchability": 4924,
      "सांस्कृतिक": 4925,
      "persist": 4926,
      "shores": 4927,
      "short": 4928,
      "particular": 4929,
      "વિસ્તાર": 4930,
      "१९५०": 4931,
      "extensively": 4932,
      "numerals": 4933,
      "సామ్రా": 4934,
      "Eurasia": 4935,
      "expansion": 4936,
      "merchants": 4937,
      "points": 4938,
      "अमरीकी": 4939,
      "breathing": 4940,
      "manuscript": 4941,
      "strongly": 4942,
      "structure": 4943,
      "liberalisation": 4944,
      "characteristic": 4945,
      "response": 4946,
      "బెంగాలీ": 4947,
      "బ్రిటి": 4948,
      "ప్పటికీ": 4949,
      "Gujarat": 4950,
      "habitat": 4951,
      "monsoon": 4952,
      "safeguard": 4953,
      "Pallavas": 4954,
      "victories": 4955,
      "నడిపించ": 4956,
      "discriminatory": 4957,
      "नौसेना": 4958,
      "पहुँच": 4959,
      "फ्रांस": 4960,
      "बौद्ध": 4961,
      "्ञान": 4962,
      "પૌરાણી": 4963,
      "પર્વતમા": 4964,
      "શ્રી": 4965,
      "వృద్ధి": 4966,
      "సర్వీ": 4967,
      "1930s": 4968,
      "प्रत्येक": 4969,
      "परीक्षण": 4970,
      "पर्यटन": 4971,
      "भाषी": 4972,
      "कृषि": 4973,
      "स्थिति": 4974,
      "शुरुआत": 4975,
      "पंजाब": 4976,
      "પૂર્વમાં": 4977,
      "પશ્ચિમ": 4978,
      "అభివృద్ధి": 4979,
      "Ajanta": 4980,
      "Achaem": 4981,
      "Between": 4982,
      "Classical": 4983,
      "Cups": 4984,
      "Caves": 4985,
      "Climate": 4986,
      "Carnatic": 4987,
      "Etymolog": 4988,
      "Following": 4989,
      "Factbook": 4990,
      "General": 4991,
      "Gangetic": 4992,
      "Gondwana": 4993,
      "Health": 4994,
      "History": 4995,
      "Jawahar": 4996,
      "Jharkhand": 4997,
      "Jammu": 4998,
      "Kosi": 4999,
      "Kerala": 5000,
      "Kaveri": 5001,
      "Lakshadwe": 5002,
      "Mumbai": 5003,
      "October": 5004,
      "Organiz": 5005,
      "Plain": 5006,
      "Party": 5007,
      "Proliferation": 5008,
      "Soviet": 5009,
      "Simultaneously": 5010,
      "Sabha": 5011,
      "Several": 5012,
      "Tibe": 5013,
      "Thailand": 5014,
      "Urdu": 5015,
      "Vajpayee": 5016,
      "Yakshagana": 5017,
      "Zoroastrianism": 5018,
      "bulk": 5019,
      "bottom": 5020,
      "buck": 5021,
      "brought": 5022,
      "cattle": 5023,
      "citizens": 5024,
      "cereal": 5025,
      "cake": 5026,
      "drew": 5027,
      "foeticide": 5028,
      "framework": 5029,
      "farmers": 5030,
      "flowering": 5031,
      "gonomet": 5032,
      "gigawatts": 5033,
      "half": 5034,
      "hunter": 5035,
      "houses": 5036,
      "jurisdic": 5037,
      "jackets": 5038,
      "kurta": 5039,
      "length": 5040,
      "material": 5041,
      "ninth": 5042,
      "narrow": 5043,
      "osphere": 5044,
      "parents": 5045,
      "tandoor": 5046,
      "temples": 5047,
      "usually": 5048,
      "vasive": 5049,
      "welfare": 5050,
      "yalty": 5051,
      "अनेक": 5052,
      "कश्मीर": 5053,
      "शिक्षा": 5054,
      "सहायक": 5055,
      "सक्रिय": 5056,
      "हॉकी": 5057,
      "ઐતિહાસિક": 5058,
      "ગીચ": 5059,
      "મૂળ": 5060,
      "વરસાદ": 5061,
      "ఆఫ్": 5062,
      "పశ్చ": 5063,
      "information": 5064,
      "innov": 5065,
      "relative": 5066,
      "repeatedly": 5067,
      "study": 5068,
      "attract": 5069,
      "arisen": 5070,
      "International": 5071,
      "amendments": 5072,
      "ademi": 5073,
      "emissions": 5074,
      "प्रणाली": 5075,
      "beginnings": 5076,
      "fortified": 5077,
      "consumption": 5078,
      "supercontinent": 5079,
      "supreme": 5080,
      "नागरिक": 5081,
      "defeated": 5082,
      "delegates": 5083,
      "excavated": 5084,
      "परिणामस्वरूप": 5085,
      "percentage": 5086,
      "megadiverse": 5087,
      "కుటుంబ": 5088,
      "assassinated": 5089,
      "affirm": 5090,
      "Christianity": 5091,
      "claiming": 5092,
      "neighbour": 5093,
      "substantially": 5094,
      "deciduous": 5095,
      "extremely": 5096,
      "blackbuck": 5097,
      "countries": 5098,
      "క్షరాస్యత": 5099,
      "पुरुष": 5100,
      "settlement": 5101,
      "nonviolent": 5102,
      "Commonwealth": 5103,
      "मंत्रिमण्डल": 5104,
      "hereditary": 5105,
      "hotspots": 5106,
      "tuberculosis": 5107,
      "વ્યક્તિઓ": 5108,
      "Vijayanagara": 5109,
      "standardised": 5110,
      "પૌરાણીક": 5111,
      "Achaemen": 5112,
      "Etymology": 5113,
      "Jawaharlal": 5114,
      "Lakshadweep": 5115,
      "Organization": 5116,
      "jurisdiction": 5117,
      "materials": 5118,
      "140": 5119,
      "235": 5120,
      "45": 5121,
      "49": 5122,
      "59": 5123,
      "517": 5124,
      "600": 5125,
      "7000": 5126,
      "81": 5127,
      "83": 5128,
      "900": 5129,
      "Aust": 5130,
      "BB": 5131,
      "BN": 5132,
      "IS": 5133,
      "Po": 5134,
      "Way": 5135,
      "cr": 5136,
      "ief": 5137,
      "ue": 5138,
      "ंतर": 5139,
      "ंजन": 5140,
      "अर्": 5141,
      "अनि": 5142,
      "असम": 5143,
      "अहिं": 5144,
      "अक्ट": 5145,
      "अच्छ": 5146,
      "आई": 5147,
      "आर": 5148,
      "आते": 5149,
      "आकर्म": 5150,
      "ईद": 5151,
      "ईस्ट": 5152,
      "उठ": 5153,
      "उभरा": 5154,
      "ऊपर": 5155,
      "ऑफ": 5156,
      "ऑपरे": 5157,
      "कल": 5158,
      "कमा": 5159,
      "कंप": 5160,
      "खन": 5161,
      "खर": 5162,
      "खे": 5163,
      "खंड": 5164,
      "गै": 5165,
      "ग्": 5166,
      "गों": 5167,
      "गढ़": 5168,
      "ग्री": 5169,
      "चर": 5170,
      "चौ": 5171,
      "छह": 5172,
      "जु": 5173,
      "जन्": 5174,
      "जैन": 5175,
      "झे": 5176,
      "झार": 5177,
      "टना": 5178,
      "ठक": 5179,
      "ठार": 5180,
      "डि": 5181,
      "डु": 5182,
      "डे": 5183,
      "डिया": 5184,
      "तब": 5185,
      "तार": 5186,
      "तरा": 5187,
      "थल": 5188,
      "दिक": 5189,
      "दियों": 5190,
      "नम": 5191,
      "नर": 5192,
      "नो": 5193,
      "नार": 5194,
      "नियों": 5195,
      "नृत्य": 5196,
      "नदियों": 5197,
      "पद": 5198,
      "पो": 5199,
      "पक्ष": 5200,
      "पड़ा": 5201,
      "पठार": 5202,
      "फु": 5203,
      "बद": 5204,
      "बल": 5205,
      "बहा": 5206,
      "बियों": 5207,
      "बडी": 5208,
      "बन्ध": 5209,
      "भो": 5210,
      "भरी": 5211,
      "मं": 5212,
      "मल": 5213,
      "मह": 5214,
      "मार": 5215,
      "मना": 5216,
      "मही": 5217,
      "मले": 5218,
      "यन": 5219,
      "यर": 5220,
      "यें": 5221,
      "यद्य": 5222,
      "यपालिका": 5223,
      "रों": 5224,
      "रिया": 5225,
      "रखा": 5226,
      "रत्न": 5227,
      "लू": 5228,
      "लिक": 5229,
      "वृद्ध": 5230,
      "श्र": 5231,
      "शिया": 5232,
      "शिय": 5233,
      "श्रे": 5234,
      "शक्त": 5235,
      "शैली": 5236,
      "सौ": 5237,
      "सर्": 5238,
      "सों": 5239,
      "सभी": 5240,
      "सदी": 5241,
      "समान": 5242,
      "सशस्त्र": 5243,
      "हती": 5244,
      "हार्": 5245,
      "हत्या": 5246,
      "ाफ": 5247,
      "ूत": 5248,
      "ूह": 5249,
      "ूबर": 5250,
      "्ष": 5251,
      "१७": 5252,
      "२५": 5253,
      "२६": 5254,
      "५२": 5255,
      "ંક": 5256,
      "ંના": 5257,
      "અફ": 5258,
      "અર": 5259,
      "અહી": 5260,
      "અલગ": 5261,
      "આગ": 5262,
      "આત": 5263,
      "આથી": 5264,
      "ઈસ્લામ": 5265,
      "ઉદ્": 5266,
      "કરી": 5267,
      "ખૂ": 5268,
      "ગો": 5269,
      "ઘાન": 5270,
      "ચલ": 5271,
      "ચો": 5272,
      "છતા": 5273,
      "જવા": 5274,
      "જન્": 5275,
      "જંગ": 5276,
      "ડે": 5277,
      "થા": 5278,
      "થાય": 5279,
      "દા": 5280,
      "દર્": 5281,
      "દાન": 5282,
      "દરે": 5283,
      "દરમ": 5284,
      "ધ્ય": 5285,
      "નદી": 5286,
      "પારસી": 5287,
      "ફળ": 5288,
      "બર": 5289,
      "બૌ": 5290,
      "બુદ": 5291,
      "મળ": 5292,
      "મ્ય": 5293,
      "મધ્ય": 5294,
      "રુ": 5295,
      "રતી": 5296,
      "રહે": 5297,
      "વન": 5298,
      "વહે": 5299,
      "શે": 5300,
      "શબ્": 5301,
      "સન": 5302,
      "સર": 5303,
      "સમા": 5304,
      "સાર": 5305,
      "હ્ય": 5306,
      "હતો": 5307,
      "ાપ": 5308,
      "િત": 5309,
      "ેલા": 5310,
      "ોને": 5311,
      "ంభ": 5312,
      "అహ": 5313,
      "అవి": 5314,
      "ఆక్రమ": 5315,
      "ఆహార": 5316,
      "ఇవి": 5317,
      "ఇంగ్ల": 5318,
      "ఇస్లా": 5319,
      "ఉండ": 5320,
      "కథ": 5321,
      "కూ": 5322,
      "కన్న": 5323,
      "కత్వ": 5324,
      "కింద": 5325,
      "కీర్": 5326,
      "చన": 5327,
      "చు": 5328,
      "చాల": 5329,
      "చిత్ర": 5330,
      "జీ": 5331,
      "జాలు": 5332,
      "జరు": 5333,
      "జంబ": 5334,
      "టే": 5335,
      "టై": 5336,
      "టర్": 5337,
      "టులు": 5338,
      "డిన": 5339,
      "తల": 5340,
      "తీ": 5341,
      "తె": 5342,
      "తే": 5343,
      "తము": 5344,
      "తులు": 5345,
      "తంలో": 5346,
      "తెలు": 5347,
      "దర": 5348,
      "నది": 5349,
      "పీ": 5350,
      "పార్": 5351,
      "బి": 5352,
      "బంగ్ల": 5353,
      "బంధ": 5354,
      "బడ్డ": 5355,
      "భర": 5356,
      "భౌ": 5357,
      "మర": 5358,
      "మూ": 5359,
      "మౌ": 5360,
      "మతి": 5361,
      "మంది": 5362,
      "మారు": 5363,
      "యం": 5364,
      "యింది": 5365,
      "రీ": 5366,
      "లీ": 5367,
      "లె": 5368,
      "లిం": 5369,
      "ళ్": 5370,
      "ళిక": 5371,
      "వులు": 5372,
      "వల్ల": 5373,
      "వలం": 5374,
      "శెల": 5375,
      "సహ": 5376,
      "సే": 5377,
      "స్ర": 5378,
      "సులు": 5379,
      "సైన": 5380,
      "సార్": 5381,
      "హై": 5382,
      "హిమ": 5383,
      "ాదేశ": 5384,
      "ాంగ": 5385,
      "ాపార": 5386,
      "ిగా": 5387,
      "ుకొ": 5388,
      "ూరు": 5389,
      "ెట్": 5390,
      "్వ": 5391,
      "report": 5392,
      "्रो": 5393,
      "ారంభ": 5394,
      "काज": 5395,
      "1900": 5396,
      "ोंने": 5397,
      "chine": 5398,
      "स्ति": 5399,
      "2019": 5400,
      "प्रसार": 5401,
      "प्रदेशों": 5402,
      "प्रगति": 5403,
      "नेट": 5404,
      "లోయ": 5405,
      "్యా": 5406,
      "वित": 5407,
      "विध": 5408,
      "विशा": 5409,
      "विमान": 5410,
      "विद्रो": 5411,
      "थान": 5412,
      "ప్రారంభ": 5413,
      "सामान": 5414,
      "साक्षर": 5415,
      "માર": 5416,
      "માર્": 5417,
      "માણે": 5418,
      "దేశపు": 5419,
      "దేశానికి": 5420,
      "ాలనే": 5421,
      "ాలెండ": 5422,
      "परि": 5423,
      "ికా": 5424,
      "ర్త": 5425,
      "ర్ష": 5426,
      "ర్‌": 5427,
      "ારણ": 5428,
      "करे": 5429,
      "करो": 5430,
      "करवा": 5431,
      "त्री": 5432,
      "న్నది": 5433,
      "న్నారు": 5434,
      "जाने": 5435,
      "राजभाषा": 5436,
      "राजस्थान": 5437,
      "वाम": 5438,
      "గాంధ": 5439,
      "ड़ियाँ": 5440,
      "కులు": 5441,
      "ભારતનું": 5442,
      "कारी": 5443,
      "నిస్తాన్": 5444,
      "ियो": 5445,
      "విధ్య": 5446,
      "విభిన్న": 5447,
      "విద్య": 5448,
      "पाई": 5449,
      "पाल": 5450,
      "ित्य": 5451,
      "క్తి": 5452,
      "ాతో": 5453,
      "लाल": 5454,
      "્યો": 5455,
      "્યું": 5456,
      "भारतीयों": 5457,
      "దేశంగా": 5458,
      "Chief": 5459,
      "निवास": 5460,
      "समूह": 5461,
      "నులు": 5462,
      "నుంచి": 5463,
      "्यात": 5464,
      "शामिल": 5465,
      "शास्त्र": 5466,
      "तरिक": 5467,
      "वर्षा": 5468,
      "ર્ષ": 5469,
      "ર્વે": 5470,
      "ద్వార": 5471,
      "दीव": 5472,
      "होने": 5473,
      "త్వా": 5474,
      "త్తా": 5475,
      "मिश्र": 5476,
      "जिन्ह": 5477,
      "વિકા": 5478,
      "વિખ્યા": 5479,
      "1966": 5480,
      "मुद्र": 5481,
      "సంకీర్": 5482,
      "సంబంధ": 5483,
      "1956": 5484,
      "नीति": 5485,
      "सरे": 5486,
      "పురు": 5487,
      "1996": 5488,
      "స్థి": 5489,
      "ంటు": 5490,
      "ralian": 5491,
      "लिख": 5492,
      "लिस": 5493,
      "१९४७": 5494,
      "प्ति": 5495,
      "मानव": 5496,
      "सरकारों": 5497,
      "પ્રદ": 5498,
      "પ્રભા": 5499,
      "પ્રમાણે": 5500,
      "क्षेत्रों": 5501,
      "వాహ": 5502,
      "వాణి": 5503,
      "పాటు": 5504,
      "పాదన": 5505,
      "તેઓ": 5506,
      "તેમ": 5507,
      "તેની": 5508,
      "લાલ": 5509,
      "जिसकी": 5510,
      "जिसने": 5511,
      "बहुमूल": 5512,
      "Machine": 5513,
      "पुन": 5514,
      "पुड़ा": 5515,
      "पुलिस": 5516,
      "ાનમાર": 5517,
      "अपेक्षा": 5518,
      "सीमा": 5519,
      "રીક": 5520,
      "રીતે": 5521,
      "सारी": 5522,
      "धर्मों": 5523,
      "કેન્": 5524,
      "ભાગ": 5525,
      "కూడుకు": 5526,
      "జాతి": 5527,
      "1989": 5528,
      "రాజు": 5529,
      "ધર્મની": 5530,
      "मील": 5531,
      "मीणा": 5532,
      "కోల్": 5533,
      "ंडर": 5534,
      "కాగా": 5535,
      "కాశ్": 5536,
      "ట్టమొదటి": 5537,
      "నేపాల": 5538,
      "మొట్టమొదటి": 5539,
      "बनाया": 5540,
      "మాబాద్": 5541,
      "चुकी": 5542,
      "నాగర": 5543,
      "లిచ": 5544,
      "వ్యాపార": 5545,
      "निर्भर": 5546,
      "રાજકીય": 5547,
      "ज़्यादा": 5548,
      "सेनाओं": 5549,
      "గువ": 5550,
      "గుర్త": 5551,
      "వచ్చు": 5552,
      "ద్ధం": 5553,
      "बढ़ा": 5554,
      "बढ़ने": 5555,
      "महासागर": 5556,
      "रुप": 5557,
      "పాలించ": 5558,
      "केंद्रीय": 5559,
      "स्थल": 5560,
      "एशन": 5561,
      "क्रय": 5562,
      "क्रि": 5563,
      "ఒకే": 5564,
      "ભાષામાં": 5565,
      "चाई": 5566,
      "చేసింది": 5567,
      "్‌సై": 5568,
      "વીને": 5569,
      "ఎన్నిక": 5570,
      "पहली": 5571,
      "मनमोहन": 5572,
      "मध्यम": 5573,
      "सूचना": 5574,
      "పెనీ": 5575,
      "प्राचीनतम": 5576,
      "422": 5577,
      "गुट": 5578,
      "न्यायपालिका": 5579,
      "मोर्": 5580,
      "मोदी": 5581,
      "મેદાન": 5582,
      "కేవలం": 5583,
      "కారణంగా": 5584,
      "తుంది": 5585,
      "దాపు": 5586,
      "దాదాపు": 5587,
      "హిందీ": 5588,
      "साम्राज्यों": 5589,
      "लोकसभा": 5590,
      "પરથી": 5591,
      "త్రి": 5592,
      "మతాలు": 5593,
      "सम्पूर्ण": 5594,
      "స్థానం": 5595,
      "భాషా": 5596,
      "రాజ్యాంగ": 5597,
      "पार्टियों": 5598,
      "उनका": 5599,
      "ત્વ": 5600,
      "నాలుగు": 5601,
      "వర్గ": 5602,
      "వర్ణ": 5603,
      "स्टाफ": 5604,
      "स्थानीय": 5605,
      "దక్షిణాసియా": 5606,
      "अवधि": 5607,
      "बनने": 5608,
      "શાસિત": 5609,
      "వెనుక": 5610,
      "ప్రజల": 5611,
      "સ્થાપ": 5612,
      "स्थापित": 5613,
      "హిందూదేశం": 5614,
      "सकता": 5615,
      "सकते": 5616,
      "ંગા": 5617,
      "ંગ્લા": 5618,
      "ંધુ": 5619,
      "બાહ્ય": 5620,
      "બાંગ્લા": 5621,
      "રણો": 5622,
      "పూర్వ": 5623,
      "వీటిలో": 5624,
      "శ్రీ": 5625,
      "ష్ణ": 5626,
      "స్కృతిక": 5627,
      "संसदीय": 5628,
      "१९९१": 5629,
      "సాంస్కృతిక": 5630,
      "विकासशील": 5631,
      "...": 5632,
      "इंडो": 5633,
      "दर्शन": 5634,
      "કરતા": 5635,
      "ఉంటుంది": 5636,
      "బడత": 5637,
      "బడిన": 5638,
      "బడింది": 5639,
      "మహా": 5640,
      "ుకుంట": 5641,
      "राजनीति": 5642,
      "अन्तर्": 5643,
      "अन्ततः": 5644,
      "క్రీడలు": 5645,
      "తరువాతి": 5646,
      "घोषित": 5647,
      "नियु": 5648,
      "नियंत्र": 5649,
      "पंथी": 5650,
      "२०१४": 5651,
      "પૂર્વે": 5652,
      "બીજા": 5653,
      "ભૂખંડ": 5654,
      "સિંધુ": 5655,
      "కలిసి": 5656,
      "జనగణ": 5657,
      "లేదా": 5658,
      "केन्द्रशासित": 5659,
      "कामकाज": 5660,
      "सेवाओं": 5661,
      "प्रारम्भिक": 5662,
      "సాధించ": 5663,
      "1857": 5664,
      "દક્ષિણમાં": 5665,
      "आंदोलन": 5666,
      "आंतरिक": 5667,
      "आगे": 5668,
      "ऊँचाई": 5669,
      "पहाड़ी": 5670,
      "बैठक": 5671,
      "वैदिक": 5672,
      "सतपुड़ा": 5673,
      "ઉપસાગર": 5674,
      "યેલો": 5675,
      "સુધી": 5676,
      "ఉపఖండ": 5677,
      "క్యాలెండ": 5678,
      "ుకోవడ": 5679,
      "विज्ञान": 5680,
      "ప్రతిపాదన": 5681,
      "విస్తారు": 5682,
      "वर्णन": 5683,
      "१९८४": 5684,
      "ిత్రక": 5685,
      "సినిమాలు": 5686,
      "శాస్త్రీయ": 5687,
      "వైవిధ్య": 5688,
      "సమాఖ్య": 5689,
      "కోర్టు": 5690,
      "కోర్టులు": 5691,
      "పేర్లు": 5692,
      "పేర్కొ": 5693,
      "మొదలైన": 5694,
      "పట్టణాలు": 5695,
      "ఏర్పడ్డ": 5696,
      "బహుళ": 5697,
      "సింధు": 5698,
      "प्रभावशाली": 5699,
      "घाटी": 5700,
      "चलाया": 5701,
      "छोड़कर": 5702,
      "बंगाल": 5703,
      "દ્રશાસિત": 5704,
      "కంపెనీ": 5705,
      "చారిత్రక": 5706,
      "తమిళం": 5707,
      "నగరాలు": 5708,
      "పతకాలు": 5709,
      "పొందిన": 5710,
      "పద్ధతి": 5711,
      "పండుగలు": 5712,
      "प्रचलित": 5713,
      "मालदीव": 5714,
      "साहित्य": 5715,
      "हिस्सा": 5716,
      "तीसरी": 5717,
      "पुर्तगाली": 5718,
      "लगातार": 5719,
      "ఒకటిగా": 5720,
      "వెబ్‌సై": 5721,
      "ప్రజాస్వామ్య": 5722,
      "సముద్రం": 5723,
      "अभियान": 5724,
      "స్వాతంత్ర్య": 5725,
      "నిర్వహణ": 5726,
      "હિમાલયની": 5727,
      "अगस्त": 5728,
      "आसपास": 5729,
      "पत्ति": 5730,
      "અથવા": 5731,
      "આંતરીક": 5732,
      "ઉત્તર": 5733,
      "ચ્છ": 5734,
      "બંધારણ": 5735,
      "ભરત": 5736,
      "జన్మ": 5737,
      "प्रकाश": 5738,
      "नेहरू": 5739,
      "विरोध": 5740,
      "भागीदारी": 5741,
      "वास्तविक": 5742,
      "समझौ": 5743,
      "ముంబై": 5744,
      "సంప్రదాయాలు": 5745,
      "రైళ్లను": 5746,
      "गुजरात": 5747,
      "కార్యక్రమ": 5748,
      "लोकतांत्रिक": 5749,
      "పరిశ్రమలు": 5750,
      "వారసత్వ": 5751,
      "సాంప్రదాయిక": 5752,
      "ટાપુઓ": 5753,
      "મોટું": 5754,
      "इस्लाम": 5755,
      "વિસ્તારમાં": 5756,
      "પર્વતમાળા": 5757,
      "సర్వీసులు": 5758,
      "પશ્ચિમમાં": 5759,
      "ఆఫ్ఘ": 5760,
      "पुरुषों": 5761,
      "Australian": 5762,
      "BBC": 5763,
      "ISBN": 5764,
      "Post": 5765,
      "Wayback": 5766,
      "अक्टूबर": 5767,
      "आकर्मण": 5768,
      "ऑपरेशन": 5769,
      "कमांडर": 5770,
      "गैर": 5771,
      "गोंड": 5772,
      "फुट": 5773,
      "यद्यपि": 5774,
      "वृद्धि": 5775,
      "सौहार्": 5776,
      "અફઘાન": 5777,
      "ખૂબ": 5778,
      "જંગલો": 5779,
      "દરેક": 5780,
      "દરમિયાન": 5781,
      "બૌદ્ધ": 5782,
      "મ્યાનમાર": 5783,
      "શબ્દ": 5784,
      "ఇస్లామాబాద్": 5785,
      "కన్నడ": 5786,
      "చాలా": 5787,
      "జరుపు": 5788,
      "జంబూ": 5789,
      "తెలుగు": 5790,
      "పీఠ": 5791,
      "బంగ్లాదేశ": 5792,
      "ళ్ళ": 5793,
      "శెలవు": 5794,
      "హిమాల": 5795,
      "विशाल": 5796,
      "विद्रोह": 5797,
      "साक्षरता": 5798,
      "గాంధీ": 5799,
      "ద్వారా": 5800,
      "త్వాన్ని": 5801,
      "વિકાસ": 5802,
      "વિખ્યાત": 5803,
      "వాణిజ్య": 5804,
      "बहुमूल्य": 5805,
      "કેન્દ્રશાસિત": 5806,
      "కాశ్మీ": 5807,
      "నాగరికత": 5808,
      "వెనుకటి": 5809,
      "બાંગ્લાદેશ": 5810,
      "క్యాలెండర్": 5811,
      "వెబ్‌సైటు": 5812,
      "सौहार्द": 5813,
      "અફઘાનિસ્તાન": 5814,
      "%:": 5815,
      "%;": 5816,
      "')": 5817,
      "'.": 5818,
      "('": 5819,
      "([": 5820,
      ")).": 5821,
      ".)": 5822,
      "./": 5823,
      ".\")": 5824,
      "094": 5825,
      "120": 5826,
      "1000": 5827,
      "121": 5828,
      "113": 5829,
      "23": 5830,
      "2500": 5831,
      "232": 5832,
      "2nd": 5833,
      "33": 5834,
      "380": 5835,
      "43": 5836,
      "48": 5837,
      "4th": 5838,
      "431": 5839,
      "54": 5840,
      "5th": 5841,
      "522": 5842,
      "580": 5843,
      "60": 5844,
      "68": 5845,
      "627": 5846,
      "663": 5847,
      "601": 5848,
      "75": 5849,
      "76": 5850,
      "79": 5851,
      "731": 5852,
      "85": 5853,
      "8th": 5854,
      "800": 5855,
      "97": 5856,
      "9th": 5857,
      "940": 5858,
      "Ab": 5859,
      "Ad": 5860,
      "Ap": 5861,
      "Au": 5862,
      "Az": 5863,
      "Aṣ": 5864,
      "Aver": 5865,
      "Amar": 5866,
      "Aph": 5867,
      "Ahm": 5868,
      "Atal": 5869,
      "Adiv": 5870,
      "Alig": 5871,
      "Be": 5872,
      "Br": 5873,
      "Ban": 5874,
      "Bed": 5875,
      "Bas": 5876,
      "Bol": 5877,
      "But": 5878,
      "Bhas": 5879,
      "Bak": 5880,
      "Bod": 5881,
      "Bound": 5882,
      "Bah": 5883,
      "Both": 5884,
      "Boulder": 5885,
      "CI": 5886,
      "CN": 5887,
      "Co": 5888,
      "Cr": 5889,
      "Cu": 5890,
      "Can": 5891,
      "Cre": 5892,
      "Cal": 5893,
      "Cam": 5894,
      "Col": 5895,
      "Crit": 5896,
      "Cap": 5897,
      "Cha": 5898,
      "Cold": 5899,
      "Census": 5900,
      "Clo": 5901,
      "DN": 5902,
      "Don": 5903,
      "Dic": 5904,
      "Dog": 5905,
      "Dire": 5906,
      "Dev": 5907,
      "Dhol": 5908,
      "Despite": 5909,
      "El": 5910,
      "Ep": 5911,
      "Ev": 5912,
      "Ele": 5913,
      "Esc": 5914,
      "Eigh": 5915,
      "Each": 5916,
      "Educ": 5917,
      "Eight": 5918,
      "Ell": 5919,
      "Fr": 5920,
      "Fed": 5921,
      "Fic": 5922,
      "Ful": 5923,
      "Fem": 5924,
      "From": 5925,
      "Fut": 5926,
      "Four": 5927,
      "Further": 5928,
      "Faith": 5929,
      "Go": 5930,
      "Gan": 5931,
      "Gre": 5932,
      "Gar": 5933,
      "Gow": 5934,
      "God": 5935,
      "Govern": 5936,
      "Great": 5937,
      "Gold": 5938,
      "Hy": 5939,
      "Har": 5940,
      "Hom": 5941,
      "Hell": 5942,
      "IT": 5943,
      "IU": 5944,
      "Ire": 5945,
      "Iran": 5946,
      "Ident": 5947,
      "Jap": 5948,
      "Jud": 5949,
      "Just": 5950,
      "Jains": 5951,
      "Ke": 5952,
      "Kr": 5953,
      "Kon": 5954,
      "Kar": 5955,
      "King": 5956,
      "Kad": 5957,
      "Kol": 5958,
      "Kut": 5959,
      "Ksh": 5960,
      "Kann": 5961,
      "Karnat": 5962,
      "La": 5963,
      "Lal": 5964,
      "Lat": 5965,
      "Long": 5966,
      "Loc": 5967,
      "Lok": 5968,
      "Lef": 5969,
      "Lati": 5970,
      "Lord": 5971,
      "Mor": 5972,
      "Mit": 5973,
      "Mad": 5974,
      "Mong": 5975,
      "May": 5976,
      "Mult": 5977,
      "Mig": 5978,
      "Map": 5979,
      "Medic": 5980,
      "Na": 5981,
      "Nad": 5982,
      "Nag": 5983,
      "Nain": 5984,
      "Not": 5985,
      "Nav": 5986,
      "Nations": 5987,
      "Narm": 5988,
      "Naren": 5989,
      "Naras": 5990,
      "Of": 5991,
      "On": 5992,
      "Ou": 5993,
      "Ox": 5994,
      "Oly": 5995,
      "Out": 5996,
      "Open": 5997,
      "Odish": 5998,
      "Oriya": 5999,
      "PI": 6000,
      "Pe": 6001,
      "Ph": 6002,
      "Py": 6003,
      "Pā": 6004,
      "Pri": 6005,
      "Pain": 6006,
      "Pach": 6007,
      "Pars": 6008,
      "Pali": 6009,
      "Pash": 6010,
      "Panch": 6011,
      "Pream": 6012,
      "Pandy": 6013,
      "Ra": 6014,
      "Ri": 6015,
      "Ru": 6016,
      "Rā": 6017,
      "Ras": 6018,
      "Res": 6019,
      "Rom": 6020,
      "Ram": 6021,
      "Rus": 6022,
      "Rid": 6023,
      "Rak": 6024,
      "Rig": 6025,
      "Ref": 6026,
      "Rev": 6027,
      "Rann": 6028,
      "Rice": 6029,
      "Rams": 6030,
      "SI": 6031,
      "Sr": 6032,
      "Sū": 6033,
      "San": 6034,
      "Son": 6035,
      "Sat": 6036,
      "Sch": 6037,
      "Sang": 6038,
      "Set": 6039,
      "Sig": 6040,
      "Sha": 6041,
      "Sup": 6042,
      "Since": 6043,
      "Sange": 6044,
      "Sund": 6045,
      "Soci": 6046,
      "Sanch": 6047,
      "Sched": 6048,
      "Sports": 6049,
      "Tri": 6050,
      "Tow": 6051,
      "T20": 6052,
      "Test": 6053,
      "Tel": 6054,
      "Tap": 6055,
      "Tod": 6056,
      "Tai": 6057,
      "Teth": 6058,
      "Temper": 6059,
      "Tash": 6060,
      "Tech": 6061,
      "Tiger": 6062,
      "Uni": 6063,
      "Uday": 6064,
      "Utt": 6065,
      "Vin": 6066,
      "Var": 6067,
      "Ved": 6068,
      "Virt": 6069,
      "We": 6070,
      "Whe": 6071,
      "Wid": 6072,
      "Wild": 6073,
      "When": 6074,
      "With": 6075,
      "Wik": 6076,
      "Yam": 6077,
      "az": 6078,
      "aṅ": 6079,
      "ares": 6080,
      "adic": 6081,
      "ahead": 6082,
      "br": 6083,
      "bʱ": 6084,
      "bit": 6085,
      "bic": 6086,
      "bur": 6087,
      "bol": 6088,
      "bli": 6089,
      "bate": 6090,
      "bak": 6091,
      "big": 6092,
      "bans": 6093,
      "bade": 6094,
      "blowing": 6095,
      "bust": 6096,
      "bird": 6097,
      "bility": 6098,
      "bhā": 6099,
      "bined": 6100,
      "bitions": 6101,
      "cas": 6102,
      "cli": 6103,
      "cra": 6104,
      "cres": 6105,
      "cies": 6106,
      "cab": 6107,
      "cum": 6108,
      "cted": 6109,
      "clu": 6110,
      "cig": 6111,
      "call": 6112,
      "cence": 6113,
      "cited": 6114,
      "capp": 6115,
      "cines": 6116,
      "camp": 6117,
      "cise": 6118,
      "crow": 6119,
      "cricket": 6120,
      "cended": 6121,
      "da": 6122,
      "dd": 6123,
      "dan": 6124,
      "dand": 6125,
      "dou": 6126,
      "dur": 6127,
      "dol": 6128,
      "date": 6129,
      "dro": 6130,
      "dated": 6131,
      "dhi": 6132,
      "dress": 6133,
      "dome": 6134,
      "drough": 6135,
      "daw": 6136,
      "done": 6137,
      "dai": 6138,
      "dens": 6139,
      "dden": 6140,
      "dining": 6141,
      "dasi": 6142,
      "dosa": 6143,
      "despite": 6144,
      "eat": 6145,
      "eed": 6146,
      "eing": 6147,
      "ele": 6148,
      "eper": 6149,
      "eans": 6150,
      "eigh": 6151,
      "each": 6152,
      "eking": 6153,
      "fre": 6154,
      "fle": 6155,
      "fra": 6156,
      "fun": 6157,
      "fts": 6158,
      "fut": 6159,
      "fel": 6160,
      "foc": 6161,
      "fill": 6162,
      "fted": 6163,
      "fend": 6164,
      "flat": 6165,
      "fine": 6166,
      "fire": 6167,
      "fence": 6168,
      "fically": 6169,
      "flowing": 6170,
      "free": 6171,
      "fell": 6172,
      "foss": 6173,
      "fables": 6174,
      "fought": 6175,
      "faith": 6176,
      "go": 6177,
      "ger": 6178,
      "gic": 6179,
      "ging": 6180,
      "gent": 6181,
      "gil": 6182,
      "gri": 6183,
      "gres": 6184,
      "gir": 6185,
      "gment": 6186,
      "gap": 6187,
      "graph": 6188,
      "gust": 6189,
      "gold": 6190,
      "gives": 6191,
      "gative": 6192,
      "gross": 6193,
      "gidly": 6194,
      "gala": 6195,
      "hl": 6196,
      "hr": 6197,
      "hâ": 6198,
      "hon": 6199,
      "hat": 6200,
      "hic": 6201,
      "hom": 6202,
      "hies": 6203,
      "hoc": 6204,
      "hsh": 6205,
      "hary": 6206,
      "hmin": 6207,
      "hour": 6208,
      "home": 6209,
      "hari": 6210,
      "hata": 6211,
      "hund": 6212,
      "haps": 6213,
      "hgala": 6214,
      "iw": 6215,
      "ied": 6216,
      "iand": 6217,
      "iri": 6218,
      "iation": 6219,
      "ira": 6220,
      "ider": 6221,
      "ihi": 6222,
      "ios": 6223,
      "iers": 6224,
      "iev": 6225,
      "iens": 6226,
      "iders": 6227,
      "ible": 6228,
      "idified": 6229,
      "ji": 6230,
      "ju": 6231,
      "jat": 6232,
      "jour": 6233,
      "jav": 6234,
      "jamas": 6235,
      "jured": 6236,
      "jaz": 6237,
      "jeans": 6238,
      "ka": 6239,
      "kat": 6240,
      "kent": 6241,
      "kies": 6242,
      "kne": 6243,
      "kata": 6244,
      "kani": 6245,
      "kara": 6246,
      "kirt": 6247,
      "kabad": 6248,
      "ksha": 6249,
      "kmini": 6250,
      "ler": 6251,
      "lon": 6252,
      "lar": 6253,
      "las": 6254,
      "lent": 6255,
      "lil": 6256,
      "lad": 6257,
      "lation": 6258,
      "lop": 6259,
      "lab": 6260,
      "lav": 6261,
      "lack": 6262,
      "lped": 6263,
      "luted": 6264,
      "laced": 6265,
      "laps": 6266,
      "losing": 6267,
      "mp": 6268,
      "my": 6269,
      "mā": 6270,
      "mal": 6271,
      "med": 6272,
      "mor": 6273,
      "mis": 6274,
      "ming": 6275,
      "mast": 6276,
      "mical": 6277,
      "mart": 6278,
      "mel": 6279,
      "moun": 6280,
      "mant": 6281,
      "mud": 6282,
      "must": 6283,
      "might": 6284,
      "morally": 6285,
      "mission": 6286,
      "mbol": 6287,
      "na": 6288,
      "ng": 6289,
      "ner": 6290,
      "nas": 6291,
      "nast": 6292,
      "nut": 6293,
      "noun": 6294,
      "nav": 6295,
      "ners": 6296,
      "nine": 6297,
      "napp": 6298,
      "nately": 6299,
      "ncre": 6300,
      "nearly": 6301,
      "ox": 6302,
      "oat": 6303,
      "otion": 6304,
      "oist": 6305,
      "oog": 6306,
      "odic": 6307,
      "oice": 6308,
      "oven": 6309,
      "ocean": 6310,
      "othes": 6311,
      "py": 6312,
      "pan": 6313,
      "pli": 6314,
      "put": 6315,
      "pical": 6316,
      "pac": 6317,
      "pill": 6318,
      "pure": 6319,
      "piv": 6320,
      "pav": 6321,
      "pect": 6322,
      "pron": 6323,
      "pared": 6324,
      "pines": 6325,
      "prise": 6326,
      "ppay": 6327,
      "poss": 6328,
      "poul": 6329,
      "panch": 6330,
      "panding": 6331,
      "rion": 6332,
      "ril": 6333,
      "run": 6334,
      "rical": 6335,
      "rum": 6336,
      "rank": 6337,
      "rhy": 6338,
      "ranged": 6339,
      "rush": 6340,
      "ropor": 6341,
      "san": 6342,
      "sal": 6343,
      "sar": 6344,
      "ses": 6345,
      "sit": 6346,
      "sem": 6347,
      "swi": 6348,
      "sac": 6349,
      "sap": 6350,
      "same": 6351,
      "sence": 6352,
      "slowing": 6353,
      "sions": 6354,
      "swa": 6355,
      "sales": 6356,
      "saut": 6357,
      "sources": 6358,
      "sandy": 6359,
      "sought": 6360,
      "skirt": 6361,
      "tas": 6362,
      "tes": 6363,
      "tation": 6364,
      "tch": 6365,
      "tag": 6366,
      "tro": 6367,
      "tang": 6368,
      "tel": 6369,
      "ture": 6370,
      "tally": 6371,
      "tuc": 6372,
      "tect": 6373,
      "teen": 6374,
      "tta": 6375,
      "tons": 6376,
      "tains": 6377,
      "tell": 6378,
      "tabl": 6379,
      "tight": 6380,
      "tling": 6381,
      "temple": 6382,
      "tiger": 6383,
      "ule": 6384,
      "ument": 6385,
      "uet": 6386,
      "uous": 6387,
      "ubi": 6388,
      "uistic": 6389,
      "ugu": 6390,
      "uaries": 6391,
      "ukk": 6392,
      "vul": 6393,
      "vate": 6394,
      "vac": 6395,
      "vial": 6396,
      "vals": 6397,
      "vall": 6398,
      "vati": 6399,
      "vice": 6400,
      "vara": 6401,
      "vulture": 6402,
      "vPu": 6403,
      "viron": 6404,
      "wer": 6405,
      "wat": 6406,
      "wed": 6407,
      "wil": 6408,
      "will": 6409,
      "wage": 6410,
      "wai": 6411,
      "winter": 6412,
      "wati": 6413,
      "walled": 6414,
      "wrap": 6415,
      "xal": 6416,
      "xic": 6417,
      "xuri": 6418,
      "xture": 6419,
      "yi": 6420,
      "yā": 6421,
      "yī": 6422,
      "yed": 6423,
      "yam": 6424,
      "youn": 6425,
      "yog": 6426,
      "yond": 6427,
      "ypically": 6428,
      "yards": 6429,
      "zer": 6430,
      "zone": 6431,
      "zones": 6432,
      "zoog": 6433,
      "Ön": 6434,
      "ādh": 6435,
      "ārat": 6436,
      "āham": 6437,
      "Śul": 6438,
      "ət": 6439,
      "ɦɪ": 6440,
      "ɾət": 6441,
      "ʊˈ": 6442,
      "ˈbʱ": 6443,
      "ία": 6444,
      "ός": 6445,
      "ँचा": 6446,
      "ंत": 6447,
      "ंद": 6448,
      "ंब": 6449,
      "ंश": 6450,
      "ंपर": 6451,
      "ंकि": 6452,
      "ंतु": 6453,
      "ंटे": 6454,
      "ंतीस": 6455,
      "अथ": 6456,
      "अश": 6457,
      "असं": 6458,
      "अक्ष": 6459,
      "अत्य": 6460,
      "अंति": 6461,
      "अग्र": 6462,
      "अशांति": 6463,
      "असफल": 6464,
      "असैनिक": 6465,
      "आए": 6466,
      "आठ": 6467,
      "आम": 6468,
      "आव": 6469,
      "आने": 6470,
      "आकृ": 6471,
      "आवं": 6472,
      "आपूर्": 6473,
      "आकर्": 6474,
      "आदर्": 6475,
      "आर्य": 6476,
      "आक्रम": 6477,
      "आपात": 6478,
      "इण्ड": 6479,
      "इत्या": 6480,
      "इलावा": 6481,
      "इजरा": 6482,
      "उद": 6483,
      "उल": 6484,
      "उन्ह": 6485,
      "उड़ी": 6486,
      "उभरी": 6487,
      "ऊर्": 6488,
      "एफ": 6489,
      "एस": 6490,
      "एसो": 6491,
      "ऐसे": 6492,
      "ऐसी": 6493,
      "औसत": 6494,
      "कट": 6495,
      "कू": 6496,
      "कों": 6497,
      "कला": 6498,
      "क्रा": 6499,
      "कहीं": 6500,
      "कन्न": 6501,
      "कंक": 6502,
      "खु": 6503,
      "खान": 6504,
      "खण्ड": 6505,
      "गध": 6506,
      "गह": 6507,
      "ग़": 6508,
      "गू": 6509,
      "गार": 6510,
      "गान": 6511,
      "गये": 6512,
      "घु": 6513,
      "घरा": 6514,
      "घनि": 6515,
      "घरे": 6516,
      "चों": 6517,
      "छू": 6518,
      "जह": 6519,
      "जना": 6520,
      "जवा": 6521,
      "जंग": 6522,
      "जारी": 6523,
      "ज्यादा": 6524,
      "जगह": 6525,
      "टर": 6526,
      "ठी": 6527,
      "डम": 6528,
      "तल": 6529,
      "तत्": 6530,
      "तन्त्र": 6531,
      "थम": 6532,
      "दरा": 6533,
      "दमन": 6534,
      "दलों": 6535,
      "दौर": 6536,
      "धित": 6537,
      "नई": 6538,
      "न्य": 6539,
      "नया": 6540,
      "नदी": 6541,
      "नवी": 6542,
      "नर्म": 6543,
      "नये": 6544,
      "पति": 6545,
      "पमान": 6546,
      "पत्य": 6547,
      "पब्": 6548,
      "पन्न": 6549,
      "पटल": 6550,
      "पसन्": 6551,
      "फे": 6552,
      "फै": 6553,
      "बई": 6554,
      "बॉ": 6555,
      "बलों": 6556,
      "बहती": 6557,
      "भे": 6558,
      "भक्ति": 6559,
      "म्र": 6560,
      "म्या": 6561,
      "महि": 6562,
      "मपु": 6563,
      "मजब": 6564,
      "मशी": 6565,
      "महार": 6566,
      "मृत्य": 6567,
      "मगध": 6568,
      "यं": 6569,
      "यल": 6570,
      "यी": 6571,
      "यिक": 6572,
      "यहा": 6573,
      "यदा": 6574,
      "यद्वीप": 6575,
      "रत": 6576,
      "रै": 6577,
      "रसा": 6578,
      "रक्ष": 6579,
      "रचना": 6580,
      "रंजन": 6581,
      "लत": 6582,
      "लिय": 6583,
      "लित": 6584,
      "ल्ट": 6585,
      "वस": 6586,
      "व्र": 6587,
      "वें": 6588,
      "वों": 6589,
      "वधान": 6590,
      "वस्त": 6591,
      "वरि": 6592,
      "वक्त": 6593,
      "वजह": 6594,
      "शः": 6595,
      "शै": 6596,
      "श्य": 6597,
      "शिक": 6598,
      "शब्": 6599,
      "शियन": 6600,
      "षण": 6601,
      "षित": 6602,
      "सॉ": 6603,
      "सरा": 6604,
      "सिया": 6605,
      "सकर": 6606,
      "सक्ष": 6607,
      "सिय": 6608,
      "सतर": 6609,
      "सवी": 6610,
      "स्रो": 6611,
      "हद": 6612,
      "हम": 6613,
      "ह्": 6614,
      "हस्त": 6615,
      "हस्ता": 6616,
      "हवे": 6617,
      "हारी": 6618,
      "ाया": 6619,
      "ाष्ट्र": 6620,
      "ायि": 6621,
      "िप्त": 6622,
      "ीण": 6623,
      "ुण्": 6624,
      "ूदी": 6625,
      "ेडे": 6626,
      "ॉक": 6627,
      "ोक": 6628,
      "ोरंजन": 6629,
      "्‍": 6630,
      "्ला": 6631,
      "११": 6632,
      "१३": 6633,
      "१६": 6634,
      "१०००": 6635,
      "२३": 6636,
      "२८": 6637,
      "२९": 6638,
      "३२": 6639,
      "३७": 6640,
      "३८": 6641,
      "४३": 6642,
      "६६": 6643,
      "७९": 6644,
      "८५": 6645,
      "ંકા": 6646,
      "અક": 6647,
      "અત": 6648,
      "અમુ": 6649,
      "અન્ય": 6650,
      "અર્થ": 6651,
      "આજ": 6652,
      "આઝ": 6653,
      "આશ": 6654,
      "આવ્ય": 6655,
      "આવ્યા": 6656,
      "ઇરા": 6657,
      "ઇશ્વ": 6658,
      "એટ": 6659,
      "એવા": 6660,
      "એક્": 6661,
      "કો": 6662,
      "કુદ": 6663,
      "કચ્છ": 6664,
      "ખા": 6665,
      "ખી": 6666,
      "ગા": 6667,
      "ગ્ર": 6668,
      "ચા": 6669,
      "ચંદ": 6670,
      "ચાયો": 6671,
      "છી": 6672,
      "જૂ": 6673,
      "જ્": 6674,
      "જરા": 6675,
      "ઞાન": 6676,
      "ટલી": 6677,
      "ણીય": 6678,
      "તમ": 6679,
      "તુ": 6680,
      "તું": 6681,
      "તત્": 6682,
      "તથા": 6683,
      "થઇ": 6684,
      "થમ": 6685,
      "થાર": 6686,
      "થયો": 6687,
      "દિ": 6688,
      "દો": 6689,
      "ધા": 6690,
      "ધ્ધ": 6691,
      "નથી": 6692,
      "નકે": 6693,
      "ન્યા": 6694,
      "નિક": 6695,
      "પી": 6696,
      "પૈ": 6697,
      "પહો": 6698,
      "પછી": 6699,
      "ફક્": 6700,
      "ફારસી": 6701,
      "ફેલા": 6702,
      "બળ": 6703,
      "બે": 6704,
      "બાર": 6705,
      "બર્": 6706,
      "બતા": 6707,
      "બંગા": 6708,
      "બધા": 6709,
      "ભવ": 6710,
      "ભો": 6711,
      "ભૌ": 6712,
      "ભ્ર": 6713,
      "મદ": 6714,
      "મ્": 6715,
      "યા": 6716,
      "રતા": 6717,
      "રક્": 6718,
      "રલાલ": 6719,
      "રચાયો": 6720,
      "લિ": 6721,
      "લ્": 6722,
      "લક્ષ": 6723,
      "લંકા": 6724,
      "ળથી": 6725,
      "ળનો": 6726,
      "વો": 6727,
      "વસ્": 6728,
      "વર્ષ": 6729,
      "સદી": 6730,
      "હુ": 6731,
      "હતા": 6732,
      "હવા": 6733,
      "હ્મ": 6734,
      "હશે": 6735,
      "હરલાલ": 6736,
      "ાંત": 6737,
      "ાદી": 6738,
      "ુપ": 6739,
      "ોથી": 6740,
      "ોરી": 6741,
      "્વિ": 6742,
      "૧૦૦": 6743,
      "ంక": 6744,
      "అణ": 6745,
      "అవ": 6746,
      "అంత": 6747,
      "అంట": 6748,
      "అన్ని": 6749,
      "అప్ప": 6750,
      "అమె": 6751,
      "అక్షరాస్యత": 6752,
      "ఆసియా": 6753,
      "ఇదే": 6754,
      "ఇండ": 6755,
      "ఇక్క": 6756,
      "ఇటీ": 6757,
      "ఈశ": 6758,
      "ఈస్": 6759,
      "ఎడ": 6760,
      "ఎల": 6761,
      "ఏప్ర": 6762,
      "ఐరో": 6763,
      "ఐక్య": 6764,
      "ఒలం": 6765,
      "కీ": 6766,
      "కలు": 6767,
      "కిక": 6768,
      "కాత": 6769,
      "కను": 6770,
      "కనుక": 6771,
      "కంటే": 6772,
      "కబడ్డ": 6773,
      "ఖో": 6774,
      "ఖని": 6775,
      "గత": 6776,
      "గమ": 6777,
      "గ్ర": 6778,
      "గర్": 6779,
      "గంగ": 6780,
      "గమన": 6781,
      "గ్రా": 6782,
      "గెలు": 6783,
      "చద": 6784,
      "చయ": 6785,
      "చీ": 6786,
      "చూ": 6787,
      "చవి": 6788,
      "చూడ": 6789,
      "చించిన": 6790,
      "చుకోవడ": 6791,
      "జల": 6792,
      "జో": 6793,
      "జ్": 6794,
      "జిక": 6795,
      "జ్యం": 6796,
      "జమ్మ": 6797,
      "టక": 6798,
      "ట్ర": 6799,
      "టలు": 6800,
      "టన్": 6801,
      "ట్‌": 6802,
      "టాన్": 6803,
      "టోర": 6804,
      "డైన": 6805,
      "ఢా": 6806,
      "ణులు": 6807,
      "తర్": 6808,
      "తను": 6809,
      "తంగా": 6810,
      "తత్వ": 6811,
      "తక్కువ": 6812,
      "థాలు": 6813,
      "థ్యం": 6814,
      "దర్": 6815,
      "దగా": 6816,
      "దరా": 6817,
      "దండ": 6818,
      "దులు": 6819,
      "ధీన": 6820,
      "నం": 6821,
      "నూ": 6822,
      "నిక": 6823,
      "పలు": 6824,
      "పిక": 6825,
      "పవి": 6826,
      "ప్ల": 6827,
      "పల్ల": 6828,
      "పడు": 6829,
      "పర్వ": 6830,
      "పతా": 6831,
      "పక్క": 6832,
      "పడిన": 6833,
      "ఫల": 6834,
      "బు": 6835,
      "బౌ": 6836,
      "బంగ": 6837,
      "భవ": 6838,
      "భక్తి": 6839,
      "భాతో": 6840,
      "మ్": 6841,
      "మాత": 6842,
      "మించ": 6843,
      "మిత": 6844,
      "మరో": 6845,
      "యాత్ర": 6846,
      "యమించ": 6847,
      "రకాలు": 6848,
      "రికా": 6849,
      "రచయ": 6850,
      "లౌ": 6851,
      "లకొ": 6852,
      "లమె": 6853,
      "లస్య": 6854,
      "ళా": 6855,
      "ళి": 6856,
      "వం": 6857,
      "విం": 6858,
      "వంత": 6859,
      "వరు": 6860,
      "వైన": 6861,
      "వార్": 6862,
      "వత్ర": 6863,
      "వనాలు": 6864,
      "వాయు": 6865,
      "శక": 6866,
      "శి": 6867,
      "శీ": 6868,
      "శై": 6869,
      "శో": 6870,
      "శకు": 6871,
      "షం": 6872,
      "షయాలు": 6873,
      "సన": 6874,
      "సీ": 6875,
      "సె": 6876,
      "సాల": 6877,
      "సిక్": 6878,
      "హో": 6879,
      "హ్ర": 6880,
      "ామ": 6881,
      "ాన్ని": 6882,
      "ాడే": 6883,
      "ిమాన": 6884,
      "ీం": 6885,
      "ీక్ష": 6886,
      "ీషు": 6887,
      "ుత్": 6888,
      "ూనది": 6889,
      "ౌర": 6890,
      "్మా": 6891,
      "ṇa": 6892,
      "ṇin": 6893,
      "ṭādh": 6894,
      "‌సభ": 6895,
      "‌కాత": 6896,
      "‍व": 6897,
      "thin": 6898,
      "thing": 6899,
      "thag": 6900,
      "thus": 6901,
      "thous": 6902,
      "thicken": 6903,
      "anar": 6904,
      "anistan": 6905,
      "ancy": 6906,
      "anking": 6907,
      "anuj": 6908,
      "andise": 6909,
      "anjav": 6910,
      "inst": 6911,
      "inion": 6912,
      "inve": 6913,
      "inate": 6914,
      "inet": 6915,
      "insp": 6916,
      "inted": 6917,
      "iniv": 6918,
      "inade": 6919,
      "inations": 6920,
      "inscri": 6921,
      "indefin": 6922,
      "instru": 6923,
      "inaries": 6924,
      "invention": 6925,
      "inval": 6926,
      "instead": 6927,
      "invasive": 6928,
      "theore": 6929,
      "theory": 6930,
      "eras": 6931,
      "ering": 6932,
      "erry": 6933,
      "erations": 6934,
      "eria": 6935,
      "erwan": 6936,
      "ergence": 6937,
      "erves": 6938,
      "erences": 6939,
      "onisation": 6940,
      "onists": 6941,
      "ondri": 6942,
      "onomy": 6943,
      "onwards": 6944,
      "ontally": 6945,
      "real": 6946,
      "rely": 6947,
      "reve": 6948,
      "reet": 6949,
      "repl": 6950,
      "repre": 6951,
      "recomm": 6952,
      "repres": 6953,
      "recording": 6954,
      "refin": 6955,
      "regar": 6956,
      "rehab": 6957,
      "reported": 6958,
      "reject": 6959,
      "repul": 6960,
      "redient": 6961,
      "reports": 6962,
      "retreat": 6963,
      "remental": 6964,
      "recourse": 6965,
      "return": 6966,
      "remitt": 6967,
      "reorganised": 6968,
      "retch": 6969,
      "alo": 6970,
      "alam": 6971,
      "alter": 6972,
      "allu": 6973,
      "alry": 6974,
      "alwar": 6975,
      "although": 6976,
      "allowing": 6977,
      "alised": 6978,
      "alge": 6979,
      "almon": 6980,
      "allows": 6981,
      "enli": 6982,
      "ende": 6983,
      "enab": 6984,
      "encomp": 6985,
      "enistic": 6986,
      "enabl": 6987,
      "endit": 6988,
      "encro": 6989,
      "environ": 6990,
      "ster": 6991,
      "sting": 6992,
      "stra": 6993,
      "stain": 6994,
      "stment": 6995,
      "start": 6996,
      "still": 6997,
      "stage": 6998,
      "stup": 6999,
      "stics": 7000,
      "story": 7001,
      "strate": 7002,
      "stable": 7003,
      "stood": 7004,
      "stone": 7005,
      "stamp": 7006,
      "staː": 7007,
      "stream": 7008,
      "stopped": 7009,
      "stretch": 7010,
      "dial": 7011,
      "dies": 7012,
      "dili": 7013,
      "dicl": 7014,
      "diers": 7015,
      "dity": 7016,
      "dici": 7017,
      "dible": 7018,
      "dieval": 7019,
      "divide": 7020,
      "diox": 7021,
      "ator": 7022,
      "atur": 7023,
      "atol": 7024,
      "atop": 7025,
      "atical": 7026,
      "atism": 7027,
      "atant": 7028,
      "atures": 7029,
      "atite": 7030,
      "attu": 7031,
      "attain": 7032,
      "atriya": 7033,
      "atypically": 7034,
      "arp": 7035,
      "aran": 7036,
      "arri": 7037,
      "arra": 7038,
      "arial": 7039,
      "arhi": 7040,
      "arose": 7041,
      "araj": 7042,
      "arsha": 7043,
      "arless": 7044,
      "arbans": 7045,
      "arji": 7046,
      "arranged": 7047,
      "edom": 7048,
      "edabad": 7049,
      "anded": 7050,
      "andmast": 7051,
      "Instead": 7052,
      "Intel": 7053,
      "ora": 7054,
      "orad": 7055,
      "order": 7056,
      "orism": 7057,
      "ords": 7058,
      "orities": 7059,
      "orders": 7060,
      "orship": 7061,
      "offer": 7062,
      "ofess": 7063,
      "ofenac": 7064,
      "ofile": 7065,
      "ioned": 7066,
      "ionals": 7067,
      "asa": 7068,
      "asy": 7069,
      "asis": 7070,
      "asing": 7071,
      "asants": 7072,
      "asaras": 7073,
      "aspect": 7074,
      "esi": 7075,
      "esans": 7076,
      "espread": 7077,
      "escence": 7078,
      "itan": 7079,
      "itated": 7080,
      "itous": 7081,
      "itage": 7082,
      "itud": 7083,
      "itime": 7084,
      "itself": 7085,
      "icity": 7086,
      "icated": 7087,
      "icide": 7088,
      "iconic": 7089,
      "isi": 7090,
      "isak": 7091,
      "isive": 7092,
      "island": 7093,
      "isational": 7094,
      "isines": 7095,
      "inga": 7096,
      "ingest": 7097,
      "ingredient": 7098,
      "्रवा": 7099,
      "ents": 7100,
      "ented": 7101,
      "entire": 7102,
      "entral": 7103,
      "entren": 7104,
      "entered": 7105,
      "entments": 7106,
      "entrepre": 7107,
      "केट": 7108,
      "omot": 7109,
      "omically": 7110,
      "omerations": 7111,
      "tour": 7112,
      "toad": 7113,
      "towards": 7114,
      "toler": 7115,
      "ouse": 7116,
      "oured": 7117,
      "outside": 7118,
      "ेंद्र": 7119,
      "ece": 7120,
      "ects": 7121,
      "ecog": 7122,
      "ecked": 7123,
      "ecologically": 7124,
      "मेंट": 7125,
      "lywood": 7126,
      "urt": 7127,
      "uru": 7128,
      "urial": 7129,
      "urgen": 7130,
      "urally": 7131,
      "urgence": 7132,
      "ley": 7133,
      "leaf": 7134,
      "leav": 7135,
      "lexic": 7136,
      "heart": 7137,
      "heav": 7138,
      "hewing": 7139,
      "helped": 7140,
      "hemical": 7141,
      "ili": 7142,
      "ilip": 7143,
      "illegal": 7144,
      "भारतवर्ष": 7145,
      "ampl": 7146,
      "amma": 7147,
      "amese": 7148,
      "amah": 7149,
      "amtre": 7150,
      "ambitions": 7151,
      "ారి": 7152,
      "verbal": 7153,
      "कांश": 7154,
      "193": 7155,
      "1920": 7156,
      "1921": 7157,
      "1928": 7158,
      "1911": 7159,
      "1901": 7160,
      "adru": 7161,
      "administer": 7162,
      "adversity": 7163,
      "adverse": 7164,
      "adual": 7165,
      "adjo": 7166,
      "adasis": 7167,
      "र्ता": 7168,
      "oli": 7169,
      "olving": 7170,
      "olars": 7171,
      "olished": 7172,
      "olith": 7173,
      "olonisation": 7174,
      "olitan": 7175,
      "ried": 7176,
      "riage": 7177,
      "rific": 7178,
      "riff": 7179,
      "rigation": 7180,
      "rigidly": 7181,
      "లుగా": 7182,
      "lie": 7183,
      "lier": 7184,
      "list": 7185,
      "lide": 7186,
      "liqu": 7187,
      "ligence": 7188,
      "lihood": 7189,
      "ula": 7190,
      "ulating": 7191,
      "ulaic": 7192,
      "ulgation": 7193,
      "याब": 7194,
      "ema": 7195,
      "ems": 7196,
      "emits": 7197,
      "empor": 7198,
      "embo": 7199,
      "embro": 7200,
      "emergency": 7201,
      "emergence": 7202,
      "chain": 7203,
      "chall": 7204,
      "chta": 7205,
      "chose": 7206,
      "chik": 7207,
      "chicken": 7208,
      "chronic": 7209,
      "choice": 7210,
      "cherry": 7211,
      "chatur": 7212,
      "chasing": 7213,
      "checked": 7214,
      "choli": 7215,
      "कीर्": 7216,
      "raw": 7217,
      "raid": 7218,
      "raco": 7219,
      "rainf": 7220,
      "raga": 7221,
      "raising": 7222,
      "rastructure": 7223,
      "raiders": 7224,
      "raksha": 7225,
      "rarely": 7226,
      "rachta": 7227,
      "सेमी": 7228,
      "सेल्": 7229,
      "cept": 7230,
      "ceptions": 7231,
      "204": 7232,
      "20s": 7233,
      "2030": 7234,
      "tionary": 7235,
      "tionately": 7236,
      "bylon": 7237,
      "प्रसि": 7238,
      "प्रमाण": 7239,
      "प्रदर्शन": 7240,
      "प्रथम": 7241,
      "bel": 7242,
      "beach": 7243,
      "bears": 7244,
      "beyond": 7245,
      "seal": 7246,
      "seen": 7247,
      "seas": 7248,
      "seaf": 7249,
      "segre": 7250,
      "seven": 7251,
      "seams": 7252,
      "sealed": 7253,
      "seeking": 7254,
      "नेता": 7255,
      "नेशिया": 7256,
      "नेपाल": 7257,
      "veill": 7258,
      "vehic": 7259,
      "istance": 7260,
      "istics": 7261,
      "istered": 7262,
      "istently": 7263,
      "ford": 7264,
      "foray": 7265,
      "forces": 7266,
      "forced": 7267,
      "forbade": 7268,
      "astal": 7269,
      "astring": 7270,
      "consu": 7271,
      "conqu": 7272,
      "condition": 7273,
      "conserv": 7274,
      "consequent": 7275,
      "conifer": 7276,
      "conduct": 7277,
      "conspic": 7278,
      "constitutes": 7279,
      "consci": 7280,
      "contour": 7281,
      "ests": 7282,
      "राम": 7283,
      "राशि": 7284,
      "resolution": 7285,
      "resentments": 7286,
      "resurgence": 7287,
      "resistance": 7288,
      "opy": 7289,
      "oposed": 7290,
      "ophies": 7291,
      "opolitan": 7292,
      "sue": 7293,
      "sukh": 7294,
      "superi": 7295,
      "suspending": 7296,
      "sung": 7297,
      "sustain": 7298,
      "aged": 7299,
      "aging": 7300,
      "agro": 7301,
      "agos": 7302,
      "agup": 7303,
      "aggl": 7304,
      "agement": 7305,
      "ters": 7306,
      "tery": 7307,
      "tered": 7308,
      "termin": 7309,
      "terren": 7310,
      "terculture": 7311,
      "terraco": 7312,
      "नाटक": 7313,
      "नाडु": 7314,
      "లోను": 7315,
      "లోమీ": 7316,
      "wides": 7317,
      "deal": 7318,
      "deforest": 7319,
      "defeat": 7320,
      "death": 7321,
      "deep": 7322,
      "detail": 7323,
      "debate": 7324,
      "defence": 7325,
      "deems": 7326,
      "determin": 7327,
      "స్వీ": 7328,
      "స్కరణ": 7329,
      "స్లిం": 7330,
      "una": 7331,
      "units": 7332,
      "unpre": 7333,
      "unities": 7334,
      "unanim": 7335,
      "unconstitutional": 7336,
      "unrest": 7337,
      "unlin": 7338,
      "undisputed": 7339,
      "unwanted": 7340,
      "unleav": 7341,
      "irreg": 7342,
      "irrigation": 7343,
      "whim": 7344,
      "white": 7345,
      "while": 7346,
      "क्स": 7347,
      "तापमान": 7348,
      "ghten": 7349,
      "ghanistan": 7350,
      "gharial": 7351,
      "विभा": 7352,
      "वित्": 7353,
      "विंध": 7354,
      "विधि": 7355,
      "विभाग": 7356,
      "विभाज": 7357,
      "dual": 7358,
      "ducherry": 7359,
      "exe": 7360,
      "export": 7361,
      "experi": 7362,
      "excur": 7363,
      "exchanged": 7364,
      "exceed": 7365,
      "exogamy": 7366,
      "exclu": 7367,
      "except": 7368,
      "moved": 7369,
      "moving": 7370,
      "mohan": 7371,
      "mobility": 7372,
      "modated": 7373,
      "root": 7374,
      "royalty": 7375,
      "imum": 7376,
      "imha": 7377,
      "impor": 7378,
      "immen": 7379,
      "improv": 7380,
      "imitated": 7381,
      "थाई": 7382,
      "माने": 7383,
      "मात्र": 7384,
      "माला": 7385,
      "मानी": 7386,
      "मामले": 7387,
      "arel": 7388,
      "arett": 7389,
      "దిన": 7390,
      "dering": 7391,
      "derately": 7392,
      "derives": 7393,
      "derabad": 7394,
      "deriving": 7395,
      "derecog": 7396,
      "romos": 7397,
      "abatic": 7398,
      "absol": 7399,
      "aboration": 7400,
      "abhata": 7401,
      "abjured": 7402,
      "absence": 7403,
      "abolished": 7404,
      "ప్రదేశ": 7405,
      "ప్రాయ": 7406,
      "ప్రసి": 7407,
      "ప్రత్య": 7408,
      "ప్రయో": 7409,
      "ప్రీం": 7410,
      "sie": 7411,
      "sided": 7412,
      "sible": 7413,
      "size": 7414,
      "sizes": 7415,
      "साफ़": 7416,
      "सावादी": 7417,
      "साझे": 7418,
      "mentioned": 7419,
      "માન": 7420,
      "માન્ય": 7421,
      "overall": 7422,
      "overlaps": 7423,
      "దేశీ": 7424,
      "దేశాలు": 7425,
      "utan": 7426,
      "uttu": 7427,
      "ాలే": 7428,
      "परन्तु": 7429,
      "परंतु": 7430,
      "uses": 7431,
      "usage": 7432,
      "usher": 7433,
      "संक्ष": 7434,
      "संसार": 7435,
      "संचा": 7436,
      "संगठ": 7437,
      "संबर": 7438,
      "संबो": 7439,
      "aces": 7440,
      "acity": 7441,
      "accom": 7442,
      "accomp": 7443,
      "actional": 7444,
      "acute": 7445,
      "aciers": 7446,
      "ర్తి": 7447,
      "ర్పు": 7448,
      "ర్జాతీయ": 7449,
      "ర్చు": 7450,
      "ర్థ్యం": 7451,
      "భారతం": 7452,
      "భారత్‌": 7453,
      "eties": 7454,
      "etry": 7455,
      "etnam": 7456,
      "inction": 7457,
      "incial": 7458,
      "inctions": 7459,
      "incremental": 7460,
      "న్నీ": 7461,
      "న్నై": 7462,
      "कोपे": 7463,
      "eld": 7464,
      "ellate": 7465,
      "elite": 7466,
      "elders": 7467,
      "elagos": 7468,
      "ock": 7469,
      "ayat": 7470,
      "भाबर": 7471,
      "earth": 7472,
      "जातीय": 7473,
      "जापान": 7474,
      "spok": 7475,
      "split": 7476,
      "spite": 7477,
      "spons": 7478,
      "spices": 7479,
      "spring": 7480,
      "compl": 7481,
      "combined": 7482,
      "perform": 7483,
      "perman": 7484,
      "pervasive": 7485,
      "perhaps": 7486,
      "perceptions": 7487,
      "idli": 7488,
      "idate": 7489,
      "rite": 7490,
      "rition": 7491,
      "ritory": 7492,
      "ritual": 7493,
      "ritsar": 7494,
      "content": 7495,
      "contexts": 7496,
      "contempor": 7497,
      "નેપા": 7498,
      "वाँ": 7499,
      "वाज": 7500,
      "वाला": 7501,
      "वाधिक": 7502,
      "वाले": 7503,
      "वालों": 7504,
      "aka": 7505,
      "akti": 7506,
      "akening": 7507,
      "देता": 7508,
      "देते": 7509,
      "గాన్ని": 7510,
      "core": 7511,
      "coher": 7512,
      "coins": 7513,
      "cosm": 7514,
      "cooperation": 7515,
      "cott": 7516,
      "codified": 7517,
      "codili": 7518,
      "meal": 7519,
      "meter": 7520,
      "meet": 7521,
      "meets": 7522,
      "measures": 7523,
      "measured": 7524,
      "shap": 7525,
      "shirt": 7526,
      "shalwars": 7527,
      "sherwan": 7528,
      "shalwar": 7529,
      "sharp": 7530,
      "ड़े": 7531,
      "luxuri": 7532,
      "lowest": 7533,
      "lowered": 7534,
      "ounced": 7535,
      "igai": 7536,
      "pled": 7537,
      "plus": 7538,
      "plural": 7539,
      "plann": 7540,
      "plants": 7541,
      "places": 7542,
      "worship": 7543,
      "ભારતે": 7544,
      "ભારતનો": 7545,
      "कारों": 7546,
      "कार्रवा": 7547,
      "నిపు": 7548,
      "నిడి": 7549,
      "నియమించ": 7550,
      "त्मा": 7551,
      "त्‍व": 7552,
      "geny": 7553,
      "genres": 7554,
      "genders": 7555,
      "genetic": 7556,
      "విలు": 7557,
      "విమాన": 7558,
      "విశ్": 7559,
      "విషయాలు": 7560,
      "విదేశీ": 7561,
      "endogamy": 7562,
      "assing": 7563,
      "asslands": 7564,
      "formations": 7565,
      "formerly": 7566,
      "formulaic": 7567,
      "पांड": 7568,
      "पाइन": 7569,
      "product": 7570,
      "protection": 7571,
      "prostitutes": 7572,
      "provide": 7573,
      "proclaiming": 7574,
      "protag": 7575,
      "ivite": 7576,
      "క్టోర": 7577,
      "ాతం": 7578,
      "ాతి": 7579,
      "ాత్మా": 7580,
      "लाइ": 7581,
      "लाई": 7582,
      "્યંત": 7583,
      "havi": 7584,
      "hava": 7585,
      "minster": 7586,
      "tras": 7587,
      "trough": 7588,
      "trous": 7589,
      "trine": 7590,
      "ishing": 7591,
      "ishment": 7592,
      "ishya": 7593,
      "ishna": 7594,
      "ishvara": 7595,
      "portra": 7596,
      "rupe": 7597,
      "rupt": 7598,
      "ruction": 7599,
      "નાનકે": 7600,
      "ానీ": 7601,
      "ాను": 7602,
      "ాన్య": 7603,
      "ousands": 7604,
      "ageable": 7605,
      "किनार": 7606,
      "Chot": 7607,
      "Chenn": 7608,
      "Chronic": 7609,
      "Cheras": 7610,
      "Charan": 7611,
      "Chords": 7612,
      "Chromos": 7613,
      "ground": 7614,
      "gramm": 7615,
      "granted": 7616,
      "grands": 7617,
      "grandmast": 7618,
      "gradual": 7619,
      "grasslands": 7620,
      "twice": 7621,
      "anti": 7622,
      "antly": 7623,
      "anticide": 7624,
      "antaged": 7625,
      "समे": 7626,
      "सम्रा": 7627,
      "નીકળ": 7628,
      "નીચે": 7629,
      "्यालय": 7630,
      "्याचल": 7631,
      "2006": 7632,
      "beration": 7633,
      "becau": 7634,
      "marma": 7635,
      "marble": 7636,
      "marital": 7637,
      "marinade": 7638,
      "maritime": 7639,
      "partners": 7640,
      "द्वि": 7641,
      "शाही": 7642,
      "शाखा": 7643,
      "alling": 7644,
      "norm": 7645,
      "northeast": 7646,
      "osite": 7647,
      "upon": 7648,
      "upsur": 7649,
      "upati": 7650,
      "ंगो": 7651,
      "ंगीण": 7652,
      "ंग्ला": 7653,
      "इसने": 7654,
      "तरी": 7655,
      "्टवे": 7656,
      "ote": 7657,
      "oti": 7658,
      "otal": 7659,
      "ండ్": 7660,
      "ములు": 7661,
      "ముడి": 7662,
      "ముస్లిం": 7663,
      "CEE": 7664,
      "economies": 7665,
      "economics": 7666,
      "economically": 7667,
      "वर्गी": 7668,
      "ినీ": 7669,
      "तीव्र": 7670,
      "होली": 7671,
      "stitched": 7672,
      "ctory": 7673,
      "ctuaries": 7674,
      "clans": 7675,
      "clothes": 7676,
      "dings": 7677,
      "few": 7678,
      "feud": 7679,
      "need": 7680,
      "neem": 7681,
      "neither": 7682,
      "negative": 7683,
      "neurial": 7684,
      "neolith": 7685,
      "orean": 7686,
      "बाल": 7687,
      "बाढ़": 7688,
      "बांग्ला": 7689,
      "ressed": 7690,
      "subcaste": 7691,
      "subtropical": 7692,
      "subject": 7693,
      "subdue": 7694,
      "subduct": 7695,
      "subord": 7696,
      "subduction": 7697,
      "તામાં": 7698,
      "తిరు": 7699,
      "స్తులు": 7700,
      "స్తారు": 7701,
      "avor": 7702,
      "avari": 7703,
      "aveng": 7704,
      "avati": 7705,
      "avira": 7706,
      "avarsha": 7707,
      "lating": 7708,
      "latitude": 7709,
      "latitud": 7710,
      "जिसे": 7711,
      "जिमेंट": 7712,
      "तेज़ी": 7713,
      "तेमाल": 7714,
      "रूपरे": 7715,
      "Through": 7716,
      "Three": 7717,
      "Thanjav": 7718,
      "Thousands": 7719,
      "રાંત": 7720,
      "વિશા": 7721,
      "ineal": 7722,
      "ineering": 7723,
      "butaries": 7724,
      "1961": 7725,
      "inclusive": 7726,
      "ministrative": 7727,
      "ired": 7728,
      "ందింది": 7729,
      "decimal": 7730,
      "decline": 7731,
      "decenn": 7732,
      "decoration": 7733,
      "decisions": 7734,
      "decisive": 7735,
      "decentral": 7736,
      "decolonisation": 7737,
      "pride": 7738,
      "private": 7739,
      "priorities": 7740,
      "priests": 7741,
      "quate": 7742,
      "quite": 7743,
      "quely": 7744,
      "quarter": 7745,
      "quitous": 7746,
      "quadru": 7747,
      "मुम्": 7748,
      "मुक्त": 7749,
      "regionally": 7750,
      "compared": 7751,
      "composition": 7752,
      "composite": 7753,
      "worldwide": 7754,
      "Asiatic": 7755,
      "scuring": 7756,
      "symbol": 7757,
      "syncre": 7758,
      "udra": 7759,
      "udhary": 7760,
      "षाण": 7761,
      "సంస్కరణ": 7762,
      "1957": 7763,
      "1958": 7764,
      "bodia": 7765,
      "bodies": 7766,
      "landed": 7767,
      "landown": 7768,
      "landmark": 7769,
      "landmass": 7770,
      "training": 7771,
      "relied": 7772,
      "derness": 7773,
      "peak": 7774,
      "peep": 7775,
      "pehl": 7776,
      "peasants": 7777,
      "పుకో": 7778,
      "పుతూ": 7779,
      "hadur": 7780,
      "longest": 7781,
      "longitude": 7782,
      "1992": 7783,
      "1994": 7784,
      "1995": 7785,
      "స్థావర": 7786,
      "afterwards": 7787,
      "systematic": 7788,
      "लेखन": 7789,
      "लेशिय": 7790,
      "स्थाई": 7791,
      "स्थानों": 7792,
      "cedented": 7793,
      "casts": 7794,
      "nized": 7795,
      "previ": 7796,
      "prefer": 7797,
      "prehen": 7798,
      "preva": 7799,
      "preexisting": 7800,
      "precise": 7801,
      "prepared": 7802,
      "preyed": 7803,
      "parity": 7804,
      "paralle": 7805,
      "parks": 7806,
      "vidual": 7807,
      "વાની": 7808,
      "ంటి": 7809,
      "Embra": 7810,
      "Empi": 7811,
      "ficial": 7812,
      "phin": 7813,
      "phanta": 7814,
      "rice": 7815,
      "rict": 7816,
      "rictions": 7817,
      "భావిస్తారు": 7818,
      "భాగాన్ని": 7819,
      "ecting": 7820,
      "ectancy": 7821,
      "extens": 7822,
      "extinction": 7823,
      "moreover": 7824,
      "commission": 7825,
      "communities": 7826,
      "bled": 7827,
      "blurred": 7828,
      "blouse": 7829,
      "block": 7830,
      "मानों": 7831,
      "मान्यता": 7832,
      "banned": 7833,
      "dhu": 7834,
      "dhya": 7835,
      "dhanar": 7836,
      "dhamma": 7837,
      "dhoti": 7838,
      "ptember": 7839,
      "polling": 7840,
      "polluted": 7841,
      "ward": 7842,
      "warmer": 7843,
      "उत्थान": 7844,
      "infection": 7845,
      "inflows": 7846,
      "infections": 7847,
      "infrastructure": 7848,
      "infanticide": 7849,
      "versities": 7850,
      "adequate": 7851,
      "क्षेप": 7852,
      "increase": 7853,
      "रीति": 7854,
      "रीबी": 7855,
      "सरकारी": 7856,
      "Afghanistan": 7857,
      "causing": 7858,
      "causes": 7859,
      "coral": 7860,
      "coriand": 7861,
      "cordial": 7862,
      "counted": 7863,
      "council": 7864,
      "counterculture": 7865,
      "taugh": 7866,
      "जीविका": 7867,
      "जीडी": 7868,
      "પ્રજા": 7869,
      "પ્રથમ": 7870,
      "arithm": 7871,
      "arippay": 7872,
      "limit": 7873,
      "grown": 7874,
      "દેશની": 7875,
      "यहूदी": 7876,
      "వాదం": 7877,
      "సాహ": 7878,
      "సామా": 7879,
      "1946": 7880,
      "1948": 7881,
      "रूपए": 7882,
      "culturally": 7883,
      "ffs": 7884,
      "ffed": 7885,
      "ffalo": 7886,
      "mainland": 7887,
      "maintains": 7888,
      "mainstream": 7889,
      "socially": 7890,
      "typically": 7891,
      "typical": 7892,
      "పావ": 7893,
      "పాంత": 7894,
      "పాడు": 7895,
      "learned": 7896,
      "underwent": 7897,
      "underskirt": 7898,
      "underground": 7899,
      "newly": 7900,
      "कृत": 7901,
      "प्राप्ति": 7902,
      "प्रायद्वीप": 7903,
      "प्रावधान": 7904,
      "Under": 7905,
      "Until": 7906,
      "Untouch": 7907,
      "eastward": 7908,
      "follows": 7909,
      "folio": 7910,
      "roughly": 7911,
      "दिए": 7912,
      "दिवाली": 7913,
      "दिवस": 7914,
      "दिसंबर": 7915,
      "बहुपक्ष": 7916,
      "incely": 7917,
      "enges": 7918,
      "engineering": 7919,
      "outpo": 7920,
      "outcastes": 7921,
      "output": 7922,
      "continental": 7923,
      "Mathemat": 7924,
      "Mahan": 7925,
      "Maith": 7926,
      "Mahā": 7927,
      "Mahat": 7928,
      "Maoist": 7929,
      "Mahavi": 7930,
      "Indos": 7931,
      "ologic": 7932,
      "owned": 7933,
      "portant": 7934,
      "portfolio": 7935,
      "1891": 7936,
      "1848": 7937,
      "1885": 7938,
      "1820s": 7939,
      "Any": 7940,
      "Anand": 7941,
      "Conserv": 7942,
      "Convention": 7943,
      "Concurrent": 7944,
      "glaciers": 7945,
      "khar": 7946,
      "little": 7947,
      "सिख": 7948,
      "सिन्ध": 7949,
      "सिएशन": 7950,
      "जोर": 7951,
      "1970": 7952,
      "1972": 7953,
      "स्वरुप": 7954,
      "स्वतन्त्र": 7955,
      "bias": 7956,
      "bians": 7957,
      "biological": 7958,
      "biosphere": 7959,
      "observed": 7960,
      "obstru": 7961,
      "obstruct": 7962,
      "oblig": 7963,
      "obscuring": 7964,
      "powers": 7965,
      "rata": 7966,
      "rating": 7967,
      "ratri": 7968,
      "rators": 7969,
      "ratio": 7970,
      "ratios": 7971,
      "risen": 7972,
      "risks": 7973,
      "web": 7974,
      "weigh": 7975,
      "webs": 7976,
      "weakening": 7977,
      "धर्मनिरपेक्ष": 7978,
      "ભાષ": 7979,
      "కూడి": 7980,
      "కూడుకొ": 7981,
      "జాతులు": 7982,
      "्राम": 7983,
      "legraph": 7984,
      "legacy": 7985,
      "1981": 7986,
      "1987": 7987,
      "1988": 7988,
      "setback": 7989,
      "settled": 7990,
      "settling": 7991,
      "राष्ट्रों": 7992,
      "राष्ट्रपति": 7993,
      "expected": 7994,
      "expendit": 7995,
      "expanded": 7996,
      "expectancy": 7997,
      "ધર્મનો": 7998,
      "264": 7999,
      "268": 8000,
      "26న": 8001,
      "lately": 8002,
      "अधिकारी": 8003,
      "पारसी": 8004,
      "पारंपर": 8005,
      "కోట్ల": 8006,
      "క్రి": 8007,
      "मिलित": 8008,
      "Almost": 8009,
      "awed": 8010,
      "away": 8011,
      "efied": 8012,
      "herds": 8013,
      "herbal": 8014,
      "heritage": 8015,
      "humid": 8016,
      "humped": 8017,
      "ighat": 8018,
      "ooding": 8019,
      "pleated": 8020,
      "pleasures": 8021,
      "रेशियन": 8022,
      "रेजिमेंट": 8023,
      "ल्म": 8024,
      "కాహార": 8025,
      "కాపాడు": 8026,
      "చ్చే": 8027,
      "నేరే": 8028,
      "మొగలు": 8029,
      "insurgen": 8030,
      "thereby": 8031,
      "itely": 8032,
      "ularities": 8033,
      "नामों": 8034,
      "सामने": 8035,
      "सामना": 8036,
      "appa": 8037,
      "apparel": 8038,
      "appellate": 8039,
      "peoples": 8040,
      "Buddhists": 8041,
      "velopment": 8042,
      "literally": 8043,
      "15th": 8044,
      "1500": 8045,
      "1525": 8046,
      "Comprehen": 8047,
      "कुलीन": 8048,
      "बनाए": 8049,
      "જેવી": 8050,
      "ంచిన": 8051,
      "దుగా": 8052,
      "మాట్ల": 8053,
      "యాళం": 8054,
      "उत्तरदा": 8055,
      "Most": 8056,
      "Movement": 8057,
      "Moderately": 8058,
      "Mughals": 8059,
      "achment": 8060,
      "achings": 8061,
      "achiev": 8062,
      "basis": 8063,
      "evolved": 8064,
      "evidence": 8065,
      "evolving": 8066,
      "harsh": 8067,
      "histories": 8068,
      "kriti": 8069,
      "musical": 8070,
      "musics": 8071,
      "midriff": 8072,
      "militants": 8073,
      "nationalism": 8074,
      "સાં": 8075,
      "నాథ": 8076,
      "rendering": 8077,
      "developing": 8078,
      "worker": 8079,
      "working": 8080,
      "Chinese": 8081,
      "निर्माता": 8082,
      "अनुसूची": 8083,
      "172": 8084,
      "1765": 8085,
      "चिन": 8086,
      "ज़न": 8087,
      "म्बे": 8088,
      "मंत्रण": 8089,
      "वार्य": 8090,
      "वार्ष": 8091,
      "व्यक्ति": 8092,
      "હિં": 8093,
      "తరాలు": 8094,
      "interest": 8095,
      "internal": 8096,
      "intervene": 8097,
      "intermitt": 8098,
      "intervals": 8099,
      "ignated": 8100,
      "Indoi": 8101,
      "Music": 8102,
      "Statist": 8103,
      "Street": 8104,
      "Westminster": 8105,
      "flank": 8106,
      "floods": 8107,
      "flung": 8108,
      "flanking": 8109,
      "flawed": 8110,
      "flooding": 8111,
      "giant": 8112,
      "trial": 8113,
      "triad": 8114,
      "tribes": 8115,
      "trigonomet": 8116,
      "tributaries": 8117,
      "yaṇa": 8118,
      "दादरा": 8119,
      "ંતુ": 8120,
      "గుబా": 8121,
      "వచ్చని": 8122,
      "throughout": 8123,
      "army": 8124,
      "Industri": 8125,
      "officially": 8126,
      "leads": 8127,
      "कालिक": 8128,
      "emerge": 8129,
      "emerging": 8130,
      "ography": 8131,
      "socialist": 8132,
      "Bengali": 8133,
      "Bengaluru": 8134,
      "210": 8135,
      "21st": 8136,
      "308": 8137,
      "गाँ": 8138,
      "तिकर्ता": 8139,
      "महात्मा": 8140,
      "સંખ્યા": 8141,
      "સંપ્રદ": 8142,
      "వేద": 8143,
      "వేల": 8144,
      "केंद्रशासित": 8145,
      "signing": 8146,
      "Centred": 8147,
      "Sikk": 8148,
      "canon": 8149,
      "canals": 8150,
      "canalled": 8151,
      "canopy": 8152,
      "cold": 8153,
      "fires": 8154,
      "fixed": 8155,
      "field": 8156,
      "ideas": 8157,
      "idelines": 8158,
      "ideological": 8159,
      "kingly": 8160,
      "meric": 8161,
      "native": 8162,
      "natural": 8163,
      "natyam": 8164,
      "surround": 8165,
      "surpassing": 8166,
      "surveill": 8167,
      "उपग्र": 8168,
      "क्री": 8169,
      "खासकर": 8170,
      "కాలే": 8171,
      "డిస్": 8172,
      "ద్రా": 8173,
      "direction": 8174,
      "directions": 8175,
      "displaced": 8176,
      "dispropor": 8177,
      "identity": 8178,
      "generic": 8179,
      "generation": 8180,
      "generate": 8181,
      "generational": 8182,
      "higher": 8183,
      "religiosa": 8184,
      "politics": 8185,
      "musicians": 8186,
      "चालु": 8187,
      "శాసన": 8188,
      "దేశాలను": 8189,
      "Across": 8190,
      "Academi": 8191,
      "Energy": 8192,
      "create": 8193,
      "draped": 8194,
      "drafted": 8195,
      "final": 8196,
      "greatly": 8197,
      "lasting": 8198,
      "locations": 8199,
      "post": 8200,
      "poetry": 8201,
      "proper": 8202,
      "prana": 8203,
      "propor": 8204,
      "profess": 8205,
      "proposed": 8206,
      "princely": 8207,
      "scholars": 8208,
      "इनका": 8209,
      "दशहरा": 8210,
      "સમય": 8211,
      "સમયે": 8212,
      "ఎన్నుకో": 8213,
      "ఎన్నుకుంట": 8214,
      "కిలోమీ": 8215,
      "annexe": 8216,
      "atiya": 8217,
      "origins": 8218,
      "consistently": 8219,
      "territory": 8220,
      "deposition": 8221,
      "sively": 8222,
      "controlled": 8223,
      "centralised": 8224,
      "coalescence": 8225,
      "transmission": 8226,
      "transactional": 8227,
      "translating": 8228,
      "featuring": 8229,
      "scripts": 8230,
      "landslide": 8231,
      "dominions": 8232,
      "Amritsar": 8233,
      "Report": 8234,
      "Reorganisation": 8235,
      "Rebellion": 8236,
      "Shank": 8237,
      "Shalwars": 8238,
      "Shudra": 8239,
      "nological": 8240,
      "अंग्रेजों": 8241,
      "मनु": 8242,
      "मनोरंजन": 8243,
      "मध्यप्रदेश": 8244,
      "मध्यकालीन": 8245,
      "योग्य": 8246,
      "सूत्र": 8247,
      "हरलाल": 8248,
      "આવેલો": 8249,
      "చెప్": 8250,
      "చెంద": 8251,
      "చెందు": 8252,
      "చెన్నై": 8253,
      "त्वपूर्ण": 8254,
      "एशियाई": 8255,
      "వ్యవస్థకు": 8256,
      "1300": 8257,
      "16th": 8258,
      "351": 8259,
      "423": 8260,
      "428": 8261,
      "Art": 8262,
      "Arund": 8263,
      "Ardhanar": 8264,
      "Democracy": 8265,
      "author": 8266,
      "balance": 8267,
      "balanced": 8268,
      "birch": 8269,
      "biryan": 8270,
      "carry": 8271,
      "cardam": 8272,
      "carbon": 8273,
      "carrion": 8274,
      "carried": 8275,
      "curtail": 8276,
      "descended": 8277,
      "designated": 8278,
      "epic": 8279,
      "eping": 8280,
      "epics": 8281,
      "ethos": 8282,
      "ethically": 8283,
      "farther": 8284,
      "faraway": 8285,
      "faster": 8286,
      "fastening": 8287,
      "founded": 8288,
      "foundation": 8289,
      "foundations": 8290,
      "geologically": 8291,
      "geologic": 8292,
      "garh": 8293,
      "garments": 8294,
      "keeping": 8295,
      "lost": 8296,
      "loor": 8297,
      "loyalty": 8298,
      "lineages": 8299,
      "management": 8300,
      "ruler": 8301,
      "singers": 8302,
      "southeast": 8303,
      "teak": 8304,
      "teams": 8305,
      "telegraph": 8306,
      "teachings": 8307,
      "tala": 8308,
      "tality": 8309,
      "talkies": 8310,
      "turmeric": 8311,
      "wani": 8312,
      "દીવ": 8313,
      "મહાન": 8314,
      "મહત્વ": 8315,
      "కేతిక": 8316,
      "తులతో": 8317,
      "ankari": 8318,
      "steadi": 8319,
      "steeper": 8320,
      "steatite": 8321,
      "dives": 8322,
      "divine": 8323,
      "divided": 8324,
      "divisions": 8325,
      "archip": 8326,
      "essed": 8327,
      "movements": 8328,
      "rochemical": 8329,
      "etymons": 8330,
      "median": 8331,
      "meditation": 8332,
      "province": 8333,
      "provision": 8334,
      "provincial": 8335,
      "marries": 8336,
      "marriageable": 8337,
      "cessful": 8338,
      "sculpting": 8339,
      "sculptors": 8340,
      "લોકશા": 8341,
      "લોકજી": 8342,
      "occupies": 8343,
      "occupational": 8344,
      "occupations": 8345,
      "అధికారం": 8346,
      "directives": 8347,
      "directors": 8348,
      "localised": 8349,
      "originated": 8350,
      "backdr": 8351,
      "backsli": 8352,
      "गठित": 8353,
      "चलने": 8354,
      "ब्रह्": 8355,
      "यूना": 8356,
      "यूपी": 8357,
      "यूरेशियन": 8358,
      "કાના": 8359,
      "કાલિ": 8360,
      "કાળથી": 8361,
      "પરંતુ": 8362,
      "త్యం": 8363,
      "పర్యాయ": 8364,
      "పరీక్ష": 8365,
      "పరిపాలన": 8366,
      "మీదగా": 8367,
      "వరీ": 8368,
      "సుప్రీం": 8369,
      "ప్రపంచములో": 8370,
      "न्नति": 8371,
      "सम्प्रभु": 8372,
      "सम्मिलित": 8373,
      "స్థానాలను": 8374,
      "భాషలను": 8375,
      "ప్రాంతీయ": 8376,
      "ప్రాంతాల్లో": 8377,
      "రాజ్యంగా": 8378,
      "पार्टियां": 8379,
      "રાજ્યને": 8380,
      "मैदानों": 8381,
      "Araval": 8382,
      "Arabic": 8383,
      "Aravall": 8384,
      "Bihar": 8385,
      "Biosphere": 8386,
      "Bibli": 8387,
      "Bihari": 8388,
      "See": 8389,
      "September": 8390,
      "capability": 8391,
      "capacity": 8392,
      "dropped": 8393,
      "demand": 8394,
      "demarc": 8395,
      "heredity": 8396,
      "ipation": 8397,
      "ipuri": 8398,
      "layered": 8399,
      "monary": 8400,
      "montan": 8401,
      "monkey": 8402,
      "promised": 8403,
      "promotion": 8404,
      "promulgation": 8405,
      "promote": 8406,
      "sojour": 8407,
      "tier": 8408,
      "tied": 8409,
      "फ़ि": 8410,
      "फ़ेडे": 8411,
      "बेटे": 8412,
      "దాయంలో": 8413,
      "వారి": 8414,
      "వర్తి": 8415,
      "సభను": 8416,
      "intment": 8417,
      "indica": 8418,
      "individual": 8419,
      "enslav": 8420,
      "statues": 8421,
      "statuet": 8422,
      "statistics": 8423,
      "disband": 8424,
      "disadv": 8425,
      "discontent": 8426,
      "disrupt": 8427,
      "heads": 8428,
      "severe": 8429,
      "severity": 8430,
      "नेतृत्‍व": 8431,
      "summary": 8432,
      "defining": 8433,
      "definition": 8434,
      "definitions": 8435,
      "executives": 8436,
      "earlier": 8437,
      "endemics": 8438,
      "popularity": 8439,
      "serves": 8440,
      "servants": 8441,
      "technological": 8442,
      "peninsula": 8443,
      "rocky": 8444,
      "rocked": 8445,
      "Persia": 8446,
      "bodyguard": 8447,
      "Andamanese": 8448,
      "अवसा": 8449,
      "कर्नाटक": 8450,
      "ोषण": 8451,
      "મુખ": 8452,
      "શાસન": 8453,
      "జనాభాతో": 8454,
      "మిస్తు": 8455,
      "రెండవ": 8456,
      "రెండో": 8457,
      "లంక": 8458,
      "లాహో": 8459,
      "వెల్ల": 8460,
      "ప్రజలు": 8461,
      "ప్రభుత్వాన్ని": 8462,
      "न्यायाधिकार": 8463,
      "Bhārat": 8464,
      "Bhutan": 8465,
      "Bhakti": 8466,
      "Brahmin": 8467,
      "Bharatiya": 8468,
      "Rajya": 8469,
      "border": 8470,
      "broken": 8471,
      "civilisation": 8472,
      "factors": 8473,
      "guidelines": 8474,
      "housie": 8475,
      "izontally": 8476,
      "joint": 8477,
      "lingered": 8478,
      "linguistic": 8479,
      "mixed": 8480,
      "mixture": 8481,
      "members": 8482,
      "nomadic": 8483,
      "payers": 8484,
      "payments": 8485,
      "riches": 8486,
      "secure": 8487,
      "varied": 8488,
      "variations": 8489,
      "variety": 8490,
      "ईसाई": 8491,
      "गतिशील": 8492,
      "बोला": 8493,
      "बोली": 8494,
      "सकल": 8495,
      "सहित": 8496,
      "२००९": 8497,
      "ંધી": 8498,
      "પુત્ર": 8499,
      "પુષ્": 8500,
      "పూర్తి": 8501,
      "పోయింది": 8502,
      "మనదేశం": 8503,
      "వుతుంది": 8504,
      "registers": 8505,
      "registered": 8506,
      "record": 8507,
      "string": 8508,
      "strung": 8509,
      "distance": 8510,
      "distinctions": 8511,
      "district": 8512,
      "ार्कटि": 8513,
      "administrative": 8514,
      "administrators": 8515,
      "liberty": 8516,
      "liberties": 8517,
      "charts": 8518,
      "chartered": 8519,
      "estimating": 8520,
      "establishment": 8521,
      "speed": 8522,
      "हालांकि": 8523,
      "plainly": 8524,
      "groupings": 8525,
      "निर्यात": 8526,
      "ముఖ్యంగా": 8527,
      "స్త్రీలు": 8528,
      "declining": 8529,
      "declined": 8530,
      "declares": 8531,
      "completed": 8532,
      "complete": 8533,
      "complemented": 8534,
      "continue": 8535,
      "१९९०": 8536,
      "१९९६": 8537,
      "१९९८": 8538,
      "युद्धों": 8539,
      "సాంకేతిక": 8540,
      "everywhere": 8541,
      "socio": 8542,
      "societies": 8543,
      "मुख्यरूप": 8544,
      "globally": 8545,
      "supplied": 8546,
      "supplies": 8547,
      "supplying": 8548,
      "supplier": 8549,
      "suppressed": 8550,
      "legislation": 8551,
      "courtesans": 8552,
      "significantly": 8553,
      "survive": 8554,
      "survived": 8555,
      "surviving": 8556,
      "birthplace": 8557,
      "differences": 8558,
      "employing": 8559,
      "employment": 8560,
      "Persianised": 8561,
      "Kashmiri": 8562,
      "ઓળખવામાં": 8563,
      "considered": 8564,
      "considering": 8565,
      "considerable": 8566,
      "Desai": 8567,
      "दर्ज़": 8568,
      "पैंतीस": 8569,
      "पैमाने": 8570,
      "मौसम": 8571,
      "सुधार": 8572,
      "કર્યો": 8573,
      "అతిపెద్ద": 8574,
      "జరిగే": 8575,
      "మహి": 8576,
      "మహాత్మా": 8577,
      "वायुसेना": 8578,
      "देखो": 8579,
      "देखने": 8580,
      "देखते": 8581,
      "जिनके": 8582,
      "క్రీడా": 8583,
      "క్రీడలలో": 8584,
      "అయినా": 8585,
      "Aryabhata": 8586,
      "Assamese": 8587,
      "Deve": 8588,
      "Devi": 8589,
      "Deterren": 8590,
      "Development": 8591,
      "Declar": 8592,
      "Forest": 8593,
      "Forecasts": 8594,
      "Guptas": 8595,
      "Greeks": 8596,
      "Gujral": 8597,
      "Project": 8598,
      "Protection": 8599,
      "Proclaiming": 8600,
      "Progres": 8601,
      "adirachta": 8602,
      "buffalo": 8603,
      "bark": 8604,
      "barley": 8605,
      "bandhan": 8606,
      "bandhgala": 8607,
      "cheap": 8608,
      "cheesi": 8609,
      "drive": 8610,
      "driving": 8611,
      "drift": 8612,
      "downtro": 8613,
      "equates": 8614,
      "equival": 8615,
      "equator": 8616,
      "equalling": 8617,
      "eographic": 8618,
      "famine": 8619,
      "famines": 8620,
      "grain": 8621,
      "grazed": 8622,
      "host": 8623,
      "hosts": 8624,
      "hydro": 8625,
      "multiling": 8626,
      "othly": 8627,
      "pura": 8628,
      "purchasing": 8629,
      "pursue": 8630,
      "passes": 8631,
      "passages": 8632,
      "safety": 8633,
      "ticoat": 8634,
      "taker": 8635,
      "taken": 8636,
      "takes": 8637,
      "taking": 8638,
      "winning": 8639,
      "wearer": 8640,
      "writing": 8641,
      "तमिलनाडु": 8642,
      "बनीं": 8643,
      "शिखर": 8644,
      "शक्तियों": 8645,
      "२०११": 8646,
      "ભૂતાન": 8647,
      "મોટા": 8648,
      "મોકાના": 8649,
      "గోదా": 8650,
      "గోళిక": 8651,
      "గినది": 8652,
      "జనతా": 8653,
      "జనవరి": 8654,
      "లేదు": 8655,
      "anied": 8656,
      "renewal": 8657,
      "renewed": 8658,
      "reaching": 8659,
      "केन्द्रीय": 8660,
      "कामयाब": 8661,
      "advances": 8662,
      "प्रभावित": 8663,
      "selective": 8664,
      "opping": 8665,
      "opposed": 8666,
      "opposition": 8667,
      "opposing": 8668,
      "unei": 8669,
      "uneasy": 8670,
      "arenas": 8671,
      "ప్రస్తుతము": 8672,
      "sport": 8673,
      "sporting": 8674,
      "showing": 8675,
      "plateau": 8676,
      "plays": 8677,
      "playback": 8678,
      "producing": 8679,
      "production": 8680,
      "processes": 8681,
      "క్కను": 8682,
      "affection": 8683,
      "affected": 8684,
      "partitioned": 8685,
      "ectively": 8686,
      "taxation": 8687,
      "taxpayers": 8688,
      "సాధించిన": 8689,
      "Mauryan": 8690,
      "Constituted": 8691,
      "weapon": 8692,
      "expressed": 8693,
      "expressing": 8694,
      "కాంగ్రెస్": 8695,
      "ాబ్ది": 8696,
      "consolidation": 8697,
      "consolidate": 8698,
      "consolidated": 8699,
      "consolidations": 8700,
      "contributing": 8701,
      "contributors": 8702,
      "crustal": 8703,
      "architectural": 8704,
      "capital": 8705,
      "introduction": 8706,
      "commercialisation": 8707,
      "waistline": 8708,
      "न्यायालयों": 8709,
      "Brahmanism": 8710,
      "Brahmagup": 8711,
      "Bharatavarsha": 8712,
      "Bharatnatyam": 8713,
      "nominated": 8714,
      "smaller": 8715,
      "legislative": 8716,
      "legislatures": 8717,
      "differentiation": 8718,
      "मूल्यों": 8719,
      "practice": 8720,
      "कहला": 8721,
      "जैसी": 8722,
      "पहाड़ियाँ": 8723,
      "बैंक": 8724,
      "भरत": 8725,
      "सतों": 8726,
      "१८५": 8727,
      "ઉપખંડ": 8728,
      "ઉપરાંત": 8729,
      "કારણે": 8730,
      "બોઝ": 8731,
      "ఉపయో": 8732,
      "భూభాగం": 8733,
      "భూటాన్": 8734,
      "మానం": 8735,
      "యుగ": 8736,
      "రంగంలో": 8737,
      "వలన": 8738,
      "వలస": 8739,
      "ప్రతిపక్ష": 8740,
      "માલદીવ": 8741,
      "విస్తీర్": 8742,
      "वर्णित": 8743,
      "વિશ્વમાં": 8744,
      "जनतांत्रिक": 8745,
      "१९७१": 8746,
      "१९७५": 8747,
      "१९७७": 8748,
      "१९८०": 8749,
      "१९८९": 8750,
      "હિન્દી": 8751,
      "महाद्वीपों": 8752,
      "જાતિઓ": 8753,
      "જાતિવાદ": 8754,
      "पर्वतश्रे": 8755,
      "पर्वतमाला": 8756,
      "પોતાનો": 8757,
      "ઇન્ડોને": 8758,
      "अमेरिकी": 8759,
      "Akademi": 8760,
      "Atomic": 8761,
      "Atlas": 8762,
      "Dalit": 8763,
      "Dalhousie": 8764,
      "External": 8765,
      "Expanding": 8766,
      "Exampl": 8767,
      "Economic": 8768,
      "Geographic": 8769,
      "Kalinga": 8770,
      "Kalarippay": 8771,
      "Kalighat": 8772,
      "Lanka": 8773,
      "Measured": 8774,
      "Mehr": 8775,
      "Medieval": 8776,
      "Maldives": 8777,
      "Marriage": 8778,
      "Polo": 8779,
      "Shekhar": 8780,
      "Vaisak": 8781,
      "Vaigai": 8782,
      "Vaishya": 8783,
      "Vietnam": 8784,
      "autonomy": 8785,
      "automot": 8786,
      "beset": 8787,
      "bride": 8788,
      "cuisine": 8789,
      "cuisines": 8790,
      "cuffed": 8791,
      "calcul": 8792,
      "clean": 8793,
      "cutta": 8794,
      "critical": 8795,
      "critically": 8796,
      "criteria": 8797,
      "cavalry": 8798,
      "climate": 8799,
      "effect": 8800,
      "effects": 8801,
      "effectively": 8802,
      "eighteen": 8803,
      "female": 8804,
      "falls": 8805,
      "hub": 8806,
      "higarhi": 8807,
      "iii": 8808,
      "migrating": 8809,
      "namon": 8810,
      "namic": 8811,
      "patril": 8812,
      "pulses": 8813,
      "pulmonary": 8814,
      "pastime": 8815,
      "petrole": 8816,
      "petrochemical": 8817,
      "petticoat": 8818,
      "silk": 8819,
      "silt": 8820,
      "silver": 8821,
      "solidified": 8822,
      "soldiers": 8823,
      "simple": 8824,
      "slowly": 8825,
      "saved": 8826,
      "trees": 8827,
      "treated": 8828,
      "testing": 8829,
      "value": 8830,
      "visit": 8831,
      "visited": 8832,
      "visible": 8833,
      "varnas": 8834,
      "zebu": 8835,
      "अधिराज्य": 8836,
      "अधिकांश": 8837,
      "आयात": 8838,
      "आयातक": 8839,
      "इस्तेमाल": 8840,
      "गोल": 8841,
      "गोवा": 8842,
      "दूसरे": 8843,
      "नवत": 8844,
      "नवगठित": 8845,
      "नगरों": 8846,
      "हनन": 8847,
      "ધરાવે": 8848,
      "గణతంత్ర": 8849,
      "నెలకొ": 8850,
      "మాత్రమే": 8851,
      "సమాజ": 8852,
      "threats": 8853,
      "anagari": 8854,
      "initially": 8855,
      "institutionalised": 8856,
      "restrictions": 8857,
      "reference": 8858,
      "referred": 8859,
      "referring": 8860,
      "stands": 8861,
      "strike": 8862,
      "strident": 8863,
      "orogeny": 8864,
      "isolates": 8865,
      "enterprise": 8866,
      "town": 8867,
      "adopting": 8868,
      "adhered": 8869,
      "adhering": 8870,
      "adherents": 8871,
      "likely": 8872,
      "likelihood": 8873,
      "beliefs": 8874,
      "separated": 8875,
      "separatist": 8876,
      "separatism": 8877,
      "vegetables": 8878,
      "concept": 8879,
      "concepts": 8880,
      "concealed": 8881,
      "estication": 8882,
      "reserve": 8883,
      "reserved": 8884,
      "reserves": 8885,
      "delta": 8886,
      "devotional": 8887,
      "స్వతం": 8888,
      "uniform": 8889,
      "uniquely": 8890,
      "universities": 8891,
      "untouchables": 8892,
      "moisture": 8893,
      "imedia": 8894,
      "sixth": 8895,
      "sixteen": 8896,
      "person": 8897,
      "shares": 8898,
      "shook": 8899,
      "shorter": 8900,
      "participation": 8901,
      "વિસ્તરે": 8902,
      "predominate": 8903,
      "predominates": 8904,
      "predominantly": 8905,
      "१९६२": 8906,
      "numerous": 8907,
      "उत्पादन": 8908,
      "సామర్థ్యం": 8909,
      "Eurasian": 8910,
      "wealthy": 8911,
      "settings": 8912,
      "expansions": 8913,
      "appearance": 8914,
      "markedly": 8915,
      "collision": 8916,
      "collarless": 8917,
      "collaboration": 8918,
      "merchandise": 8919,
      "क्रमशः": 8920,
      "pointed": 8921,
      "scripture": 8922,
      "अमरीका": 8923,
      "loosely": 8924,
      "manuscripts": 8925,
      "wanathan": 8926,
      "broadly": 8927,
      "liberalise": 8928,
      "characterised": 8929,
      "responsible": 8930,
      "ఉత్తరాన": 8931,
      "బ్రిటీ": 8932,
      "ప్పటికినీ": 8933,
      "Gujarati": 8934,
      "habitats": 8935,
      "multiple": 8936,
      "monsoons": 8937,
      "సింధూనది": 8938,
      "సరిహద్దుగా": 8939,
      "Pallava": 8940,
      "victory": 8941,
      "సౌకర్యాలు": 8942,
      "సౌకర్యాలలో": 8943,
      "recognition": 8944,
      "recognised": 8945,
      "recognises": 8946,
      "discrimination": 8947,
      "mandate": 8948,
      "mandating": 8949,
      "एनएस": 8950,
      "कर्मियों": 8951,
      "घाट": 8952,
      "तटों": 8953,
      "फिर": 8954,
      "फिल्म": 8955,
      "દ્રુપ": 8956,
      "ધીમે": 8957,
      "વ્યાખ્યા": 8958,
      "కళలు": 8959,
      "చైనా": 8960,
      "చైనాను": 8961,
      "తూర్పు": 8962,
      "తమిళ": 8963,
      "రూపాంత": 8964,
      "సమరం": 8965,
      "సారస్వతం": 8966,
      "प्रशासनिक": 8967,
      "प्रचलन": 8968,
      "हिस्सों": 8969,
      "तीसरे": 8970,
      "సంఖ్యా": 8971,
      "પ્રાંત": 8972,
      "પ્રાચીન": 8973,
      "पुराने": 8974,
      "पुराना": 8975,
      "पुर्तगाल": 8976,
      "రైల్వేశాఖ": 8977,
      "పాలనలో": 8978,
      "सैनिकों": 8979,
      "आधारित": 8980,
      "પાકિસ્તાનમાં": 8981,
      "ప్రపంచంలోని": 8982,
      "સીમાઓ": 8983,
      "వెబ్": 8984,
      "ప్రజాదర": 8985,
      "તરફથી": 8986,
      "મહાસાગરમાં": 8987,
      "సముద్రతీ": 8988,
      "अभियानों": 8989,
      "స్వాతంత్ర్యం": 8990,
      "నిర్వహించింది": 8991,
      "હિમાલયમાંથી": 8992,
      "(\"...": 8993,
      "343": 8994,
      "Babylon": 8995,
      "Bahadur": 8996,
      "Baloch": 8997,
      "Balasaras": 8998,
      "Country": 8999,
      "Council": 9000,
      "Discover": 9001,
      "Disaffection": 9002,
      "Dominion": 9003,
      "Domestication": 9004,
      "Group": 9005,
      "Gradually": 9006,
      "Immediately": 9007,
      "Important": 9008,
      "Libr": 9009,
      "Liberation": 9010,
      "Manmohan": 9011,
      "Manipuri": 9012,
      "Ministers": 9013,
      "Minimum": 9014,
      "Nihâ": 9015,
      "Niamtre": 9016,
      "Noted": 9017,
      "Natak": 9018,
      "Nataraj": 9019,
      "Networks": 9020,
      "Overview": 9021,
      "PPP": 9022,
      "Pradesh": 9023,
      "Profile": 9024,
      "Puducherry": 9025,
      "Parvati": 9026,
      "Parcheesi": 9027,
      "Sindhi": 9028,
      "Sindhu": 9029,
      "Santal": 9030,
      "Santali": 9031,
      "Sarnath": 9032,
      "Sarnaism": 9033,
      "Trade": 9034,
      "Trophies": 9035,
      "Terukk": 9036,
      "Territory": 9037,
      "Visual": 9038,
      "Viswanathan": 9039,
      "aːɾət": 9040,
      "bronze": 9041,
      "bronzes": 9042,
      "cinema": 9043,
      "cinnamon": 9044,
      "crocodili": 9045,
      "caretaker": 9046,
      "covering": 9047,
      "crises": 9048,
      "crisis": 9049,
      "custom": 9050,
      "customs": 9051,
      "dynast": 9052,
      "dynamic": 9053,
      "destinations": 9054,
      "destruction": 9055,
      "document": 9056,
      "doctrine": 9057,
      "film": 9058,
      "films": 9059,
      "full": 9060,
      "festive": 9061,
      "festival": 9062,
      "faces": 9063,
      "facilitated": 9064,
      "founder": 9065,
      "founding": 9066,
      "favour": 9067,
      "favoured": 9068,
      "fashion": 9069,
      "fashions": 9070,
      "groom": 9071,
      "grooms": 9072,
      "governed": 9073,
      "governing": 9074,
      "horse": 9075,
      "horizontally": 9076,
      "hamstrung": 9077,
      "holding": 9078,
      "hooded": 9079,
      "killed": 9080,
      "killing": 9081,
      "label": 9082,
      "links": 9083,
      "ndʊˈ": 9084,
      "networks": 9085,
      "ochondri": 9086,
      "paper": 9087,
      "paid": 9088,
      "piece": 9089,
      "piled": 9090,
      "pilaf": 9091,
      "pottery": 9092,
      "sheared": 9093,
      "sheets": 9094,
      "slid": 9095,
      "smoking": 9096,
      "smoothly": 9097,
      "tunic": 9098,
      "tunics": 9099,
      "treatment": 9100,
      "textile": 9101,
      "textiles": 9102,
      "tempered": 9103,
      "temperate": 9104,
      "varying": 9105,
      "wetlands": 9106,
      "अल्पाइन": 9107,
      "आपके": 9108,
      "एवम": 9109,
      "क्योंकि": 9110,
      "ढाँचा": 9111,
      "फायदा": 9112,
      "मार्च": 9113,
      "रखने": 9114,
      "लैंड": 9115,
      "लौटना": 9116,
      "लड़ाकू": 9117,
      "शहरों": 9118,
      "शहरीकरण": 9119,
      "ोत्तर": 9120,
      "ંચવાની": 9121,
      "એશિયામાં": 9122,
      "ક્રમે": 9123,
      "ગણરાજ્ય": 9124,
      "ગુજરા": 9125,
      "ધાર્મ": 9126,
      "શિધ્ધ": 9127,
      "૧૯૫": 9128,
      "చిరు": 9129,
      "నాయకత్వ": 9130,
      "పదవి": 9131,
      "మలయాళం": 9132,
      "సూచించిన": 9133,
      "హాకీ": 9134,
      "ిస్తారు": 9135,
      "Ἰνδία": 9136,
      "Ἰνδός": 9137,
      "thmic": 9138,
      "anatomy": 9139,
      "anatomically": 9140,
      "receive": 9141,
      "received": 9142,
      "reptile": 9143,
      "reptiles": 9144,
      "reflected": 9145,
      "reflecting": 9146,
      "representatives": 9147,
      "stressed": 9148,
      "stiffer": 9149,
      "arteries": 9150,
      "Increasingly": 9151,
      "emphasis": 9152,
      "emphasising": 9153,
      "chapati": 9154,
      "chapters": 9155,
      "ceeded": 9156,
      "राजाओं": 9157,
      "successful": 9158,
      "succeeded": 9159,
      "agreements": 9160,
      "లోక్‌సభ": 9161,
      "devdasi": 9162,
      "devadasis": 9163,
      "devastation": 9164,
      "devastating": 9165,
      "exercised": 9166,
      "exercises": 9167,
      "improved": 9168,
      "improvement": 9169,
      "implements": 9170,
      "implemented": 9171,
      "sideline": 9172,
      "संगम": 9173,
      "संग्राम": 9174,
      "accounts": 9175,
      "accounting": 9176,
      "articles": 9177,
      "articulating": 9178,
      "electrical": 9179,
      "electricity": 9180,
      "spiced": 9181,
      "contravene": 9182,
      "contrasting": 9183,
      "medicine": 9184,
      "medicines": 9185,
      "కులాలు": 9186,
      "కుంటూ": 9187,
      "కుంటారు": 9188,
      "నిర్మ": 9189,
      "त्मक": 9190,
      "ాయుత": 9191,
      "projected": 9192,
      "projections": 9193,
      "miniature": 9194,
      "minority": 9195,
      "traded": 9196,
      "traders": 9197,
      "Chandra": 9198,
      "Chola": 9199,
      "Cholas": 9200,
      "Champion": 9201,
      "Champions": 9202,
      "निम्न": 9203,
      "निम्नवत": 9204,
      "marrying": 9205,
      "ద్వీప": 9206,
      "science": 9207,
      "scene": 9208,
      "scenes": 9209,
      "సంవత్సర": 9210,
      "reliefs": 9211,
      "viewed": 9212,
      "committee": 9213,
      "committees": 9214,
      "maintained": 9215,
      "maintaining": 9216,
      "southwesterly": 9217,
      "specific": 9218,
      "specifically": 9219,
      "appointed": 9220,
      "appointment": 9221,
      "Nepal": 9222,
      "Nepali": 9223,
      "News": 9224,
      "Newly": 9225,
      "flourished": 9226,
      "flourishing": 9227,
      "टेलीविजन": 9228,
      "टेलीविज़न": 9229,
      "displayed": 9230,
      "drawn": 9231,
      "drawstring": 9232,
      "technique": 9233,
      "techniques": 9234,
      "Article": 9235,
      "Articles": 9236,
      "breakfast": 9237,
      "breakdown": 9238,
      "describes": 9239,
      "description": 9240,
      "ethnicity": 9241,
      "geographical": 9242,
      "geographically": 9243,
      "manufacturing": 9244,
      "manufactured": 9245,
      "occupying": 9246,
      "మేనని": 9247,
      "हिन्दुस्तान": 9248,
      "రాజ్యాలుగా": 9249,
      "prominent": 9250,
      "prominence": 9251,
      "volcanic": 9252,
      "volcanism": 9253,
      "సభ్యు": 9254,
      "సభ్యులు": 9255,
      "amphibian": 9256,
      "amphibians": 9257,
      "regulation": 9258,
      "regulated": 9259,
      "distinctly": 9260,
      "distinctive": 9261,
      "respectively": 9262,
      "gradients": 9263,
      "હોવાથી": 9264,
      "દુનિયામાં": 9265,
      "દુનિયાનો": 9266,
      "દુનિયાનું": 9267,
      "विजयनगर": 9268,
      "Malaysia": 9269,
      "Malayalam": 9270,
      "Marathi": 9271,
      "Marathas": 9272,
      "calendar": 9273,
      "calendrical": 9274,
      "patronage": 9275,
      "patronised": 9276,
      "ఆధారపడిన": 9277,
      "initiative": 9278,
      "initiatives": 9279,
      "vegetarian": 9280,
      "vegetarians": 9281,
      "persistent": 9282,
      "సామ్రాజ్య": 9283,
      "సామ్రాజ్యం": 9284,
      "బ్రిటిష్": 9285,
      "బ్రిటిషు": 9286,
      "શ્રીલંકા": 9287,
      "Tibet": 9288,
      "Tibetan": 9289,
      "gonometry": 9290,
      "tandoori": 9291,
      "పశ్చిమ": 9292,
      "పశ్చిమాన": 9293,
      "innovations": 9294,
      "innovative": 9295,
      "attracting": 9296,
      "attractive": 9297,
      "नागरिकों": 9298,
      "affirmative": 9299,
      "neighbours": 9300,
      "Achaemenid": 9301,
      "Achaemenian": 9302,
      "596": 9303,
      "cropping": 9304,
      "अर्ध": 9305,
      "अनिवार्य": 9306,
      "अहिंसावादी": 9307,
      "उठाया": 9308,
      "कंपनियों": 9309,
      "ग्लेशिय": 9310,
      "चरम": 9311,
      "जन्म": 9312,
      "झारखंड": 9313,
      "डिग्री": 9314,
      "तराई": 9315,
      "नरेंद्र": 9316,
      "पोर्": 9317,
      "बदला": 9318,
      "मंचों": 9319,
      "महत्वपूर्ण": 9320,
      "मनाए": 9321,
      "महीने": 9322,
      "रियासतों": 9323,
      "ંકવાદ": 9324,
      "અરબી": 9325,
      "અહીંના": 9326,
      "આગળ": 9327,
      "આતંકવાદ": 9328,
      "ઉદ્‌": 9329,
      "જવાહરલાલ": 9330,
      "નદીઓ": 9331,
      "ફળદ્રુપ": 9332,
      "બુદ્ધ": 9333,
      "ఆహారం": 9334,
      "ఇంగ్లీషు": 9335,
      "ఉండటం": 9336,
      "కిందకు": 9337,
      "టైటి": 9338,
      "టర్లకు": 9339,
      "పార్లమె": 9340,
      "భరత": 9341,
      "భౌగోళిక": 9342,
      "మూల": 9343,
      "మౌర్య": 9344,
      "సహస్ర": 9345,
      "సైనిక": 9346,
      "సార్వత్ర": 9347,
      "హైదరా": 9348,
      "प्रसारण": 9349,
      "विधायि": 9350,
      "ప్రారంభించ": 9351,
      "सामान्य": 9352,
      "ర్షణ": 9353,
      "ర్‌ల": 9354,
      "करेगी": 9355,
      "करोड": 9356,
      "करवाने": 9357,
      "वामपंथी": 9358,
      "విద్యుత్": 9359,
      "मिश्रित": 9360,
      "जिन्हे": 9361,
      "मुद्रा": 9362,
      "సంకీర్ణ": 9363,
      "పురుషు": 9364,
      "స్థితి": 9365,
      "પ્રભાવ": 9366,
      "కూడుకుని": 9367,
      "కోల్‌కాత": 9368,
      "నేపాల్": 9369,
      "పాలించారు": 9370,
      "क्रयशक्ति": 9371,
      "क्रिकेट": 9372,
      "ఎన్నికల్లో": 9373,
      "मध्यमवर्ग": 9374,
      "मोर्चा": 9375,
      "రాజ్యాంగం": 9376,
      "સ્થાપના": 9377,
      "इंडोनेशिया": 9378,
      "బడతారు": 9379,
      "మహాసముద్రం": 9380,
      "अन्तर्गत": 9381,
      "नियुक्ति": 9382,
      "नियंत्रण": 9383,
      "జనగణన": 9384,
      "ప్రతిపాదనకు": 9385,
      "మొదలైనవి": 9386,
      "ఏర్పడ్డాయి": 9387,
      "समझौते": 9388,
      "కార్యక్రమాలు": 9389,
      "ఆఫ్ఘనిస్తాన్": 9390,
      "జరుపుకుంటారు": 9391,
      "పీఠభూ": 9392,
      "బంగ్లాదేశ్‌": 9393,
      "శెలవుదినాలు": 9394,
      "హిమాలయ": 9395,
      "सौहार्दपूर्ण": 9396,
      "1206": 9397,
      "About": 9398,
      "Administrative": 9399,
      "Appointed": 9400,
      "August": 9401,
      "Azadirachta": 9402,
      "Aṣṭādh": 9403,
      "Averaging": 9404,
      "Amaravati": 9405,
      "Aphorism": 9406,
      "Ahmedabad": 9407,
      "Adivasi": 9408,
      "Aligned": 9409,
      "Before": 9410,
      "Brunei": 9411,
      "Beddome": 9412,
      "Based": 9413,
      "Bollywood": 9414,
      "Bhaskara": 9415,
      "Bakhsh": 9416,
      "Bodo": 9417,
      "Bounded": 9418,
      "Bahá": 9419,
      "CIA": 9420,
      "Coastal": 9421,
      "Crown": 9422,
      "Cuisine": 9423,
      "Canada": 9424,
      "Credible": 9425,
      "Calcutta": 9426,
      "Cambodia": 9427,
      "Colorad": 9428,
      "Critically": 9429,
      "Capital": 9430,
      "Chaudhary": 9431,
      "Clothing": 9432,
      "DNA": 9433,
      "Donyi": 9434,
      "Dictionary": 9435,
      "Dogri": 9436,
      "Directory": 9437,
      "Devanagari": 9438,
      "Dholavira": 9439,
      "Elections": 9440,
      "Epic": 9441,
      "Evidence": 9442,
      "Elephanta": 9443,
      "Eschewing": 9444,
      "Eighth": 9445,
      "Education": 9446,
      "Ellora": 9447,
      "France": 9448,
      "Ficus": 9449,
      "Fully": 9450,
      "Female": 9451,
      "Futures": 9452,
      "GovPu": 9453,
      "Ganwer": 9454,
      "Green": 9455,
      "Garba": 9456,
      "Gowda": 9457,
      "Godavari": 9458,
      "Governor": 9459,
      "Greater": 9460,
      "Golden": 9461,
      "Hyderabad": 9462,
      "Harappa": 9463,
      "Homo": 9464,
      "Hellenistic": 9465,
      "IUCN": 9466,
      "Ireland": 9467,
      "Iranis": 9468,
      "Identified": 9469,
      "Japan": 9470,
      "Judaism": 9471,
      "Justice": 9472,
      "Key": 9473,
      "Krishna": 9474,
      "Konkani": 9475,
      "Karla": 9476,
      "Kingdom": 9477,
      "Kadai": 9478,
      "Kolkata": 9479,
      "Kutch": 9480,
      "Kshatriya": 9481,
      "Kannada": 9482,
      "Karnataka": 9483,
      "Laos": 9484,
      "Latin": 9485,
      "Local": 9486,
      "Left": 9487,
      "Latika": 9488,
      "Morarji": 9489,
      "Mitochondri": 9490,
      "Madhava": 9491,
      "Mongol": 9492,
      "Multi": 9493,
      "Migration": 9494,
      "Medical": 9495,
      "Naxal": 9496,
      "Nadu": 9497,
      "Nagpur": 9498,
      "Nainsukh": 9499,
      "Notes": 9500,
      "Navratri": 9501,
      "Narmada": 9502,
      "Narendra": 9503,
      "Narasimha": 9504,
      "Official": 9505,
      "Onions": 9506,
      "Outside": 9507,
      "Oxford": 9508,
      "Olymp": 9509,
      "Outline": 9510,
      "OpenStreet": 9511,
      "Odisha": 9512,
      "Peace": 9513,
      "Philip": 9514,
      "Pythag": 9515,
      "Pāṇin": 9516,
      "Primary": 9517,
      "Painted": 9518,
      "Pachisi": 9519,
      "Parsis": 9520,
      "Pashupati": 9521,
      "Panchatant": 9522,
      "Preamble": 9523,
      "Pandyas": 9524,
      "Rao": 9525,
      "River": 9526,
      "Rukmini": 9527,
      "Rāmā": 9528,
      "Raslil": 9529,
      "Reserves": 9530,
      "Roman": 9531,
      "Ramanuj": 9532,
      "Russia": 9533,
      "Ridge": 9534,
      "Rakhigarhi": 9535,
      "References": 9536,
      "Revolution": 9537,
      "Ramsar": 9538,
      "Sriniv": 9539,
      "Sūtras": 9540,
      "Sanamah": 9541,
      "Sonia": 9542,
      "Satpura": 9543,
      "School": 9544,
      "Sangam": 9545,
      "Settled": 9546,
      "Significant": 9547,
      "Shaivite": 9548,
      "Suppli": 9549,
      "Sangeet": 9550,
      "Sundarbans": 9551,
      "Society": 9552,
      "Sanchi": 9553,
      "Schedule": 9554,
      "Trigonometry": 9555,
      "Towards": 9556,
      "Telugu": 9557,
      "Tapti": 9558,
      "Toda": 9559,
      "Tethyan": 9560,
      "Temperatures": 9561,
      "Tashkent": 9562,
      "Technological": 9563,
      "University": 9564,
      "Uttar": 9565,
      "Vindhya": 9566,
      "Varāham": 9567,
      "Veda": 9568,
      "Virtually": 9569,
      "Web": 9570,
      "Whether": 9571,
      "Widespread": 9572,
      "Wildlife": 9573,
      "Wikimedia": 9574,
      "Yamuna": 9575,
      "aṅga": 9576,
      "bitter": 9577,
      "burden": 9578,
      "baking": 9579,
      "bustard": 9580,
      "bhārata": 9581,
      "cases": 9582,
      "cliffs": 9583,
      "crafts": 9584,
      "crescent": 9585,
      "cabinet": 9586,
      "cumin": 9587,
      "cigarett": 9588,
      "calls": 9589,
      "capped": 9590,
      "camps": 9591,
      "crowded": 9592,
      "ddled": 9593,
      "dancing": 9594,
      "danda": 9595,
      "doubled": 9596,
      "durable": 9597,
      "dolphin": 9598,
      "droughts": 9599,
      "dawnings": 9600,
      "daily": 9601,
      "density": 9602,
      "eaten": 9603,
      "elements": 9604,
      "eighty": 9605,
      "freedom": 9606,
      "fleeing": 9607,
      "fragment": 9608,
      "functions": 9609,
      "future": 9610,
      "felt": 9611,
      "focused": 9612,
      "filled": 9613,
      "flats": 9614,
      "finely": 9615,
      "firepower": 9616,
      "fossils": 9617,
      "goals": 9618,
      "ginger": 9619,
      "gentry": 9620,
      "gilli": 9621,
      "griddled": 9622,
      "girls": 9623,
      "graphic": 9624,
      "honour": 9625,
      "homes": 9626,
      "hockey": 9627,
      "hourly": 9628,
      "hundred": 9629,
      "iwala": 9630,
      "idered": 9631,
      "ihira": 9632,
      "judici": 9633,
      "jatis": 9634,
      "jazz": 9635,
      "katabatic": 9636,
      "knees": 9637,
      "kabaddi": 9638,
      "lentils": 9639,
      "laden": 9640,
      "labour": 9641,
      "mystics": 9642,
      "malnut": 9643,
      "medals": 9644,
[...]
