{
  "version": "1.0",
  "truncation": null,
  "padding": null,
  "added_tokens": [],
  "normalizer": {
    "type": "Lowercase"
  },
  "pre_tokenizer": {
    "type": "Whitespace"
  },
  "post_processor": null,
  "decoder": null,
  "model": {
    "type": "BPE",
    "dropout": null,
    "unk_token": null,
    "continuing_subword_prefix": null,
    "end_of_word_suffix": null,
    "fuse_unk": false,
    "byte_fallback": false,
    "ignore_merges": false,
    "vocab": {
      "\"": 0,
      "$": 1,
      "%": 2,
      "'": 3,
      "(": 4,
      ")": 5,
      ",": 6,
      "-": 7,
      ".": 8,
      "0": 9,
      "1": 10,
      "2": 11,
      "3": 12,
      "4": 13,
      "5": 14,
      "6": 15,
      "7": 16,
      "8": 17,
      "9": 18,
      ":": 19,
      ";": 20,
      "=": 21,
      "[": 22,
      "]": 23,
      "a": 24,
      "b": 25,
      "c": 26,
      "d": 27,
      "e": 28,
      "f": 29,
      "g": 30,
      "h": 31,
      "i": 32,
      "j": 33,
      "k": 34,
      "l": 35,
      "m": 36,
      "n": 37,
      "o": 38,
      "p": 39,
      "q": 40,
      "r": 41,
      "s": 42,
      "t": 43,
      "u": 44,
      "v": 45,
      "w": 46,
      "x": 47,
      "y": 48,
      "z": 49,
      "°": 50,
      "á": 51,
      "â": 52,
      "í": 53,
      "ö": 54,
      "ā": 55,
      "ī": 56,
      "ś": 57,
      "ū": 58,
      "ə": 59,
      "ɦ": 60,
      "ɪ": 61,
      "ɾ": 62,
      "ʊ": 63,
      "ʱ": 64,
      "ˈ": 65,
      "ː": 66,
      "ί": 67,
      "α": 68,
      "δ": 69,
      "ν": 70,
      "ς": 71,
      "ό": 72,
      "ṅ": 73,
      "ṇ": 74,
      "ṣ": 75,
      "ṭ": 76,
      "ἰ": 77,
      "–": 78,
      "—": 79,
      "′": 80,
      "₹": 81,
      "in": 82,
      "th": 83,
      "an": 84,
      "the": 85,
      "er": 86,
      "on": 87,
      "re": 88,
      "al": 89,
      "en": 90,
      "st": 91,
      "di": 92,
      "at": 93,
      "ar": 94,
      "ed": 95,
      "and": 96,
      "or": 97,
      "of": 98,
      "as": 99,
      "it": 100,
      "indi": 101,
      "ion": 102,
      "es": 103,
      "ic": 104,
      "is": 105,
      "ing": 106,
      "ent": 107,
      "to": 108,
      "om": 109,
      "india": 110,
      "ou": 111,
      "ec": 112,
      "ly": 113,
      "ur": 114,
      "==": 115,
      "le": 116,
      "ch": 117,
      "am": 118,
      "de": 119,
      "li": 120,
      "ver": 121,
      "ce": 122,
      "il": 123,
      "con": 124,
      "ri": 125,
      "ra": 126,
      "ol": 127,
      "ul": 128,
      "se": 129,
      "ation": 130,
      "by": 131,
      "ro": 132,
      "ve": 133,
      "ad": 134,
      "be": 135,
      "tion": 136,
      "em": 137,
      "for": 138,
      "indian": 139,
      "mo": 140,
      "un": 141,
      "ist": 142,
      "ge": 143,
      "us": 144,
      "ast": 145,
      "lo": 146,
      "res": 147,
      "19": 148,
      "ter": 149,
      "we": 150,
      "wi": 151,
      "wh": 152,
      "gh": 153,
      "ma": 154,
      "ir": 155,
      "20": 156,
      "ex": 157,
      "su": 158,
      "with": 159,
      "im": 160,
      "ment": 161,
      "ate": 162,
      "was": 163,
      "ac": 164,
      "ab": 165,
      "are": 166,
      "du": 167,
      "der": 168,
      "po": 169,
      "rom": 170,
      "art": 171,
      "===": 172,
      "ies": 173,
      "ut": 174,
      "over": 175,
      "wer": 176,
      "ical": 177,
      "com": 178,
      "has": 179,
      "per": 180,
      "ts": 181,
      "from": 182,
      "ich": 183,
      "ag": 184,
      "so": 185,
      "ang": 186,
      "cent": 187,
      "ial": 188,
      "inc": 189,
      "sh": 190,
      "its": 191,
      "ill": 192,
      "which": 193,
      "af": 194,
      "pl": 195,
      "me": 196,
      "si": 197,
      "wor": 198,
      "00": 199,
      "ay": 200,
      "ain": 201,
      "ear": 202,
      "ity": 203,
      "et": 204,
      "pro": 205,
      "ong": 206,
      "ther": 207,
      "cont": 208,
      "rit": 209,
      "sou": 210,
      "um": 211,
      "ure": 212,
      "ult": 213,
      "co": 214,
      "ld": 215,
      "ted": 216,
      "ary": 217,
      "sp": 218,
      "ak": 219,
      "id": 220,
      "ive": 221,
      "lu": 222,
      "oun": 223,
      "were": 224,
      "lar": 225,
      "no": 226,
      "ap": 227,
      "gen": 228,
      "ans": 229,
      "ated": 230,
      "econ": 231,
      "form": 232,
      "ig": 233,
      "min": 234,
      "ne": 235,
      "el": 236,
      "mar": 237,
      "west": 238,
      "gion": 239,
      "iv": 240,
      "nor": 241,
      "part": 242,
      "ass": 243,
      "large": 244,
      "od": 245,
      "por": 246,
      "ru": 247,
      "all": 248,
      "ish": 249,
      "ism": 250,
      "gover": 251,
      "av": 252,
      "age": 253,
      "hi": 254,
      "op": 255,
      "end": 256,
      "ous": 257,
      "ough": 258,
      "ame": 259,
      "low": 260,
      "after": 261,
      "world": 262,
      "govern": 263,
      "est": 264,
      "fo": 265,
      "up": 266,
      "ant": 267,
      "south": 268,
      "econom": 269,
      "ber": 270,
      "bec": 271,
      "indu": 272,
      "any": 273,
      "ally": 274,
      "our": 275,
      "emp": 276,
      "government": 277,
      "ind": 278,
      "ance": 279,
      "uring": 280,
      "mill": 281,
      "into": 282,
      "centur": 283,
      "dec": 284,
      "lat": 285,
      "pul": 286,
      "tra": 287,
      "ern": 288,
      "stit": 289,
      "asi": 290,
      "201": 291,
      "ding": 292,
      "during": 293,
      "fe": 294,
      "ha": 295,
      "lang": 296,
      "ution": 297,
      "ates": 298,
      "ress": 299,
      "sub": 300,
      "comp": 301,
      "langu": 302,
      "but": 303,
      "og": 304,
      "ry": 305,
      "uc": 306,
      "anc": 307,
      "minist": 308,
      "cl": 309,
      "east": 310,
      "fir": 311,
      "pri": 312,
      "year": 313,
      "ine": 314,
      "fore": 315,
      "bo": 316,
      "gan": 317,
      "gre": 318,
      "ire": 319,
      "qu": 320,
      "ud": 321,
      "ved": 322,
      "reli": 323,
      "region": 324,
      "200": 325,
      "popul": 326,
      "inclu": 327,
      "hindu": 328,
      "sc": 329,
      "sy": 330,
      "war": 331,
      "ers": 332,
      "eral": 333,
      "constit": 334,
      "first": 335,
      "ho": 336,
      "land": 337,
      "pe": 338,
      "pol": 339,
      "vi": 340,
      "reas": 341,
      "ence": 342,
      "dition": 343,
      "ection": 344,
      "moder": 345,
      "duc": 346,
      "had": 347,
      "long": 348,
      "mus": 349,
      "ni": 350,
      "ric": 351,
      "eng": 352,
      "stem": 353,
      "ect": 354,
      "row": 355,
      "used": 356,
      "comm": 357,
      "soc": 358,
      "became": 359,
      "system": 360,
      "modern": 361,
      "cast": 362,
      "fic": 363,
      "jor": 364,
      "nation": 365,
      "pre": 366,
      "par": 367,
      "ser": 368,
      "this": 369,
      "them": 370,
      "also": 371,
      "ome": 372,
      "been": 373,
      "most": 374,
      "major": 375,
      "increas": 376,
      "contin": 377,
      "western": 378,
      "largest": 379,
      "empire": 380,
      "century": 381,
      "class": 382,
      "ban": 383,
      "gress": 384,
      "hist": 385,
      "ph": 386,
      "ral": 387,
      "ta": 388,
      "wo": 389,
      "there": 390,
      "their": 391,
      "ics": 392,
      "ural": 393,
      "congress": 394,
      "more": 395,
      "ext": 396,
      "such": 397,
      "ages": 398,
      "thern": 399,
      "million": 400,
      "have": 401,
      "ct": 402,
      "cult": 403,
      "coun": 404,
      "dom": 405,
      "her": 406,
      "many": 407,
      "num": 408,
      "pt": 409,
      "wn": 410,
      "inf": 411,
      "that": 412,
      "among": 413,
      "vers": 414,
      "bet": 415,
      "who": 416,
      "new": 417,
      "tradition": 418,
      "asia": 419,
      "years": 420,
      "both": 421,
      "constitution": 422,
      "bl": 423,
      "ca": 424,
      "cor": 425,
      "dance": 426,
      "grow": 427,
      "mu": 428,
      "two": 429,
      "ures": 430,
      "ari": 431,
      "ess": 432,
      "lim": 433,
      "under": 434,
      "imal": 435,
      "ound": 436,
      "not": 437,
      "north": 438,
      "prime": 439,
      "national": 440,
      "bi": 441,
      "bce": 442,
      "ff": 443,
      "fol": 444,
      "he": 445,
      "rough": 446,
      "though": 447,
      "ition": 448,
      "isation": 449,
      "out": 450,
      "urban": 451,
      "lear": 452,
      "istan": 453,
      "195": 454,
      "196": 455,
      "199": 456,
      "ween": 457,
      "main": 458,
      "central": 459,
      "election": 460,
      "minister": 461,
      "caste": 462,
      "between": 463,
      "brit": 464,
      "bud": 465,
      "des": 466,
      "king": 467,
      "led": 468,
      "non": 469,
      "nuc": 470,
      "ince": 471,
      "ament": 472,
      "life": 473,
      "202": 474,
      "sup": 475,
      "economic": 476,
      "language": 477,
      "population": 478,
      "continent": 479,
      "number": 480,
      "british": 481,
      "budd": 482,
      "nuclear": 483,
      "gra": 484,
      "ke": 485,
      "mid": 486,
      "oc": 487,
      "pu": 488,
      "pak": 489,
      "ty": 490,
      "ting": 491,
      "tec": 492,
      "ens": 493,
      "ory": 494,
      "olog": 495,
      "set": 496,
      "began": 497,
      "emer": 498,
      "exp": 499,
      "ically": 500,
      "peri": 501,
      "anges": 502,
      "ially": 503,
      "lowing": 504,
      "economy": 505,
      "classical": 506,
      "pakistan": 507,
      "ach": 508,
      "bal": 509,
      "cre": 510,
      "cal": 511,
      "ded": 512,
      "eur": 513,
      "har": 514,
      "ked": 515,
      "lit": 516,
      "os": 517,
      "ped": 518,
      "pres": 519,
      "rat": 520,
      "ris": 521,
      "rate": 522,
      "sing": 523,
      "since": 524,
      "tim": 525,
      "than": 526,
      "als": 527,
      "enc": 528,
      "states": 529,
      "ited": 530,
      "del": 531,
      "deve": 532,
      "ilit": 533,
      "ations": 534,
      "ght": 535,
      "act": 536,
      "able": 537,
      "power": 538,
      "spec": 539,
      "general": 540,
      "northern": 541,
      "port": 542,
      "later": 543,
      "versity": 544,
      "18": 545,
      "bas": 546,
      "cour": 547,
      "dra": 548,
      "gr": 549,
      "hum": 550,
      "kh": 551,
      "lish": 552,
      "other": 553,
      "ins": 554,
      "inter": 555,
      "one": 556,
      "dic": 557,
      "ite": 558,
      "ions": 559,
      "leg": 560,
      "ular": 561,
      "plate": 562,
      "000": 563,
      "2011": 564,
      "subcontinent": 565,
      "languages": 566,
      "religion": 567,
      "including": 568,
      "polit": 569,
      "increased": 570,
      "count": 571,
      "influ": 572,
      "blic": 573,
      "public": 574,
      "period": 575,
      "liter": 576,
      "develo": 577,
      "aw": 578,
      "col": 579,
      "ient": 580,
      "jp": 581,
      "ks": 582,
      "krit": 583,
      "les": 584,
      "milit": 585,
      "nat": 586,
      "some": 587,
      "te": 588,
      "ten": 589,
      "val": 590,
      "ina": 591,
      "through": 592,
      "ren": 593,
      "sty": 594,
      "state": 595,
      "dis": 596,
      "diversity": 597,
      "offic": 598,
      "ised": 599,
      "liament": 600,
      "river": 601,
      "union": 602,
      "194": 603,
      "ately": 604,
      "pos": 605,
      "early": 606,
      "ign": 607,
      "rule": 608,
      "high": 609,
      "ople": 610,
      "indus": 611,
      "ancient": 612,
      "forest": 613,
      "people": 614,
      "parliament": 615,
      "culture": 616,
      "mugh": 617,
      "occ": 618,
      "tech": 619,
      "species": 620,
      "ai": 621,
      "au": 622,
      "beng": 623,
      "can": 624,
      "ds": 625,
      "fi": 626,
      "gi": 627,
      "gu": 628,
      "jab": 629,
      "man": 630,
      "pun": 631,
      "ron": 632,
      "sch": 633,
      "sans": 634,
      "ti": 635,
      "tr": 636,
      "tro": 637,
      "vent": 638,
      "ya": 639,
      "enni": 640,
      "dire": 641,
      "arm": 642,
      "ities": 643,
      "lead": 644,
      "china": 645,
      "dem": 646,
      "demo": 647,
      "vement": 648,
      "mathem": 649,
      "plain": 650,
      "sig": 651,
      "ultan": 652,
      "coo": 653,
      "ident": 654,
      "party": 655,
      "ope": 656,
      "indo": 657,
      "millenni": 658,
      "company": 659,
      "music": 660,
      "common": 661,
      "soci": 662,
      "social": 663,
      "served": 664,
      "caused": 665,
      "following": 666,
      "1950": 667,
      "europe": 668,
      "country": 669,
      "military": 670,
      "mughal": 671,
      "bengal": 672,
      "punjab": 673,
      "sanskrit": 674,
      "mathemat": 675,
      "millennium": 676,
      "bill": 677,
      "cy": 678,
      "car": 679,
      "civ": 680,
      "ei": 681,
      "fer": 682,
      "fam": 683,
      "ga": 684,
      "himal": 685,
      "jan": 686,
      "ll": 687,
      "mer": 688,
      "ned": 689,
      "ple": 690,
      "rural": 691,
      "ss": 692,
      "sur": 693,
      "tri": 694,
      "ving": 695,
      "vol": 696,
      "thre": 697,
      "they": 698,
      "these": 699,
      "theast": 700,
      "ered": 701,
      "ash": 702,
      "united": 703,
      "198": 704,
      "territ": 705,
      "wever": 706,
      "wide": 707,
      "ird": 708,
      "expor": 709,
      "ared": 710,
      "medi": 711,
      "ety": 712,
      "coast": 713,
      "app": 714,
      "gener": 715,
      "centuries": 716,
      "great": 717,
      "religi": 718,
      "however": 719,
      "duced": 720,
      "muslim": 721,
      "majority": 722,
      "domin": 723,
      "cording": 724,
      "emerg": 725,
      "billion": 726,
      "himalay": 727,
      "%.": 728,
      "),": 729,
      "15": 730,
      "17": 731,
      "26": 732,
      "ace": 733,
      "air": 734,
      "cap": 735,
      "cens": 736,
      "dle": 737,
      "day": 738,
      "ef": 739,
      "fl": 740,
      "ft": 741,
      "fin": 742,
      "fed": 743,
      "gar": 744,
      "ide": 745,
      "ili": 746,
      "jain": 747,
      "ket": 748,
      "last": 749,
      "ob": 750,
      "ose": 751,
      "own": 752,
      "pain": 753,
      "pend": 754,
      "ran": 755,
      "rol": 756,
      "sultan": 757,
      "tre": 758,
      "ust": 759,
      "wom": 760,
      "ines": 761,
      "third": 762,
      "ants": 763,
      "red": 764,
      "republic": 765,
      "ats": 766,
      "arch": 767,
      "ories": 768,
      "orig": 769,
      "omet": 770,
      "ected": 771,
      "dev": 772,
      "very": 773,
      "sever": 774,
      "indians": 775,
      "movement": 776,
      "lower": 777,
      "local": 778,
      "197": 779,
      "made": 780,
      "ments": 781,
      "acy": 782,
      "according": 783,
      "areas": 784,
      "ago": 785,
      "agric": 786,
      "sikh": 787,
      "contri": 788,
      "control": 789,
      "coal": 790,
      "forms": 791,
      "marri": 792,
      "ives": 793,
      "indust": 794,
      "feat": 795,
      "ances": 796,
      "eastern": 797,
      "include": 798,
      "hinduism": 799,
      "scri": 800,
      "lands": 801,
      "growth": 802,
      "bio": 803,
      "middle": 804,
      "time": 805,
      "delhi": 806,
      "based": 807,
      "human": 808,
      "political": 809,
      "influenc": 810,
      "1947": 811,
      "trans": 812,
      "direct": 813,
      "religious": 814,
      "emerged": 815,
      "census": 816,
      "sultanate": 817,
      "women": 818,
      "agricult": 819,
      "%,": 820,
      ").": 821,
      "30": 822,
      "ath": 823,
      "bre": 824,
      "bra": 825,
      "bir": 826,
      "bod": 827,
      "bjp": 828,
      "cur": 829,
      "cial": 830,
      "cru": 831,
      "cess": 832,
      "ep": 833,
      "far": 834,
      "fast": 835,
      "fig": 836,
      "found": 837,
      "gand": 838,
      "ganges": 839,
      "hindi": 840,
      "hru": 841,
      "hism": 842,
      "ian": 843,
      "ka": 844,
      "ling": 845,
      "mi": 846,
      "mon": 847,
      "men": 848,
      "nolog": 849,
      "pec": 850,
      "rul": 851,
      "rates": 852,
      "secon": 853,
      "tal": 854,
      "tur": 855,
      "ually": 856,
      "ven": 857,
      "vis": 858,
      "wan": 859,
      "ann": 860,
      "animal": 861,
      "rel": 862,
      "remain": 863,
      "ste": 864,
      "stat": 865,
      "diff": 866,
      "ata": 867,
      "ati": 868,
      "educ": 869,
      "ors": 870,
      "organ": 871,
      "ites": 872,
      "espec": 873,
      "ice": 874,
      "isl": 875,
      "ley": 876,
      "aman": 877,
      "depend": 878,
      "verse": 879,
      "ild": 880,
      "raph": 881,
      "ulpt": 882,
      "ades": 883,
      "und": 884,
      "istic": 885,
      "ack": 886,
      "ders": 887,
      "sho": 888,
      "formed": 889,
      "nehru": 890,
      "ograph": 891,
      "grew": 892,
      "regions": 893,
      "2001": 894,
      "sculpt": 895,
      "english": 896,
      "increasing": 897,
      "1991": 898,
      "elections": 899,
      "religions": 900,
      "literacy": 901,
      "develop": 902,
      "official": 903,
      "parliamentary": 904,
      "occup": 905,
      "technolog": 906,
      "fied": 907,
      "democ": 908,
      "european": 909,
      "civil": 910,
      "painting": 911,
      "origin": 912,
      "gandhi": 913,
      "second": 914,
      "education": 915,
      "especially": 916,
      "10": 917,
      "13": 918,
      "35": 919,
      "42": 920,
      "400": 921,
      "ba": 922,
      "bh": 923,
      "ck": 924,
      "clo": 925,
      "cities": 926,
      "da": 927,
      "dp": 928,
      "eth": 929,
      "fur": 930,
      "five": 931,
      "four": 932,
      "fact": 933,
      "go": 934,
      "gdp": 935,
      "hy": 936,
      "ians": 937,
      "la": 938,
      "line": 939,
      "mal": 940,
      "mit": 941,
      "na": 942,
      "nal": 943,
      "ok": 944,
      "pen": 945,
      "prom": 946,
      "ration": 947,
      "sist": 948,
      "tam": 949,
      "til": 950,
      "use": 951,
      "va": 952,
      "vid": 953,
      "won": 954,
      "way": 955,
      "yan": 956,
      "ere": 957,
      "ert": 958,
      "ons": 959,
      "although": 960,
      "endem": 961,
      "stru": 962,
      "diverse": 963,
      "ating": 964,
      "andaman": 965,
      "often": 966,
      "oup": 967,
      "ould": 968,
      "ecut": 969,
      "left": 970,
      "amp": 971,
      "defin": 972,
      "liber": 973,
      "sequ": 974,
      "administ": 975,
      "tions": 976,
      "ember": 977,
      "until": 978,
      "geograph": 979,
      "loy": 980,
      "term": 981,
      "well": 982,
      "execut": 983,
      "sum": 984,
      "import": 985,
      "compos": 986,
      "persi": 987,
      "play": 988,
      "sive": 989,
      "work": 990,
      "ains": 991,
      "earli": 992,
      "southern": 993,
      "southeast": 994,
      "ods": 995,
      "alled": 996,
      "become": 997,
      "foreign": 998,
      "regional": 999,
      "popular": 1000,
      "viol": 1001,
      "longer": 1002,
      "nific": 1003,
      "commer": 1004,
      "serv": 1005,
      "histor": 1006,
      "history": 1007,
      "here": 1008,
      "whose": 1009,
      "traditional": 1010,
      "growing": 1011,
      "head": 1012,
      "kingdom": 1013,
      "supp": 1014,
      "buddhist": 1015,
      "buddhism": 1016,
      "created": 1017,
      "rise": 1018,
      "group": 1019,
      "valley": 1020,
      "styles": 1021,
      "signific": 1022,
      "three": 1023,
      "widely": 1024,
      "himalayas": 1025,
      "federal": 1026,
      "body": 1027,
      "islam": 1028,
      "further": 1029,
      "penins": 1030,
      "tamil": 1031,
      "sequent": 1032,
      "significant": 1033,
      "14": 1034,
      "16": 1035,
      "21": 1036,
      "31": 1037,
      "50": 1038,
      "adi": 1039,
      "bor": 1040,
      "ble": 1041,
      "bro": 1042,
      "bhar": 1043,
      "cri": 1044,
      "cav": 1045,
      "clim": 1046,
      "den": 1047,
      "dances": 1048,
      "every": 1049,
      "glo": 1050,
      "gup": 1051,
      "hou": 1052,
      "hav": 1053,
      "ia": 1054,
      "ii": 1055,
      "ip": 1056,
      "iz": 1057,
      "jo": 1058,
      "just": 1059,
      "kno": 1060,
      "kash": 1061,
      "lf": 1062,
      "mult": 1063,
      "mary": 1064,
      "member": 1065,
      "nic": 1066,
      "ning": 1067,
      "nom": 1068,
      "ool": 1069,
      "pp": 1070,
      "pra": 1071,
      "pical": 1072,
      "ram": 1073,
      "rich": 1074,
      "sec": 1075,
      "sim": 1076,
      "tu": 1077,
      "tic": 1078,
      "tle": 1079,
      "tem": 1080,
      "ual": 1081,
      "uary": 1082,
      "var": 1083,
      "vast": 1084,
      "vill": 1085,
      "vari": 1086,
      "wa": 1087,
      "wild": 1088,
      "independ": 1089,
      "ange": 1090,
      "reg": 1091,
      "read": 1092,
      "recor": 1093,
      "ale": 1094,
      "ali": 1095,
      "alth": 1096,
      "alli": 1097,
      "along": 1098,
      "enac": 1099,
      "str": 1100,
      "dist": 1101,
      "disp": 1102,
      "atic": 1103,
      "ative": 1104,
      "ard": 1105,
      "ars": 1106,
      "around": 1107,
      "off": 1108,
      "ise": 1109,
      "che": 1110,
      "char": 1111,
      "changes": 1112,
      "dest": 1113,
      "lid": 1114,
      "ility": 1115,
      "consi": 1116,
      "conduc": 1117,
      "ross": 1118,
      "rock": 1119,
      "before": 1120,
      "resp": 1121,
      "ternal": 1122,
      "when": 1123,
      "ghts": 1124,
      "external": 1125,
      "about": 1126,
      "ablish": 1127,
      "poin": 1128,
      "utes": 1129,
      "peration": 1130,
      "angered": 1131,
      "sha": 1132,
      "she": 1133,
      "place": 1134,
      "worn": 1135,
      "produc": 1136,
      "spe": 1137,
      "spor": 1138,
      "spread": 1139,
      "now": 1140,
      "market": 1141,
      "ived": 1142,
      "endangered": 1143,
      "estim": 1144,
      "establish": 1145,
      "employ": 1146,
      "asian": 1147,
      "subsequent": 1148,
      "comple": 1149,
      "polic": 1150,
      "continu": 1151,
      "traditions": 1152,
      "held": 1153,
      "thought": 1154,
      "1965": 1155,
      "gradu": 1156,
      "graph": 1157,
      "present": 1158,
      "president": 1159,
      "times": 1160,
      "court": 1161,
      "courts": 1162,
      "plateau": 1163,
      "developed": 1164,
      "style": 1165,
      "school": 1166,
      "leading": 1167,
      "cooked": 1168,
      "mathematics": 1169,
      "famili": 1170,
      "january": 1171,
      "surv": 1172,
      "territories": 1173,
      "greater": 1174,
      "capit": 1175,
      "jainism": 1176,
      "treat": 1177,
      "coalition": 1178,
      "industry": 1179,
      "influenced": 1180,
      "brah": 1181,
      "birth": 1182,
      "curren": 1183,
      "figures": 1184,
      "differ": 1185,
      "sculpture": 1186,
      "development": 1187,
      "technology": 1188,
      "executive": 1189,
      "important": 1190,
      "persian": 1191,
      "earliest": 1192,
      "kingdoms": 1193,
      "peninsular": 1194,
      "known": 1195,
      "consider": 1196,
      "families": 1197,
      "12": 1198,
      "1200": 1199,
      "24": 1200,
      "25": 1201,
      "28": 1202,
      "300": 1203,
      "40": 1204,
      "55": 1205,
      "ade": 1206,
      "aver": 1207,
      "bs": 1208,
      "bu": 1209,
      "bar": 1210,
      "band": 1211,
      "bution": 1212,
      "back": 1213,
      "cu": 1214,
      "ces": 1215,
      "crit": 1216,
      "called": 1217,
      "dri": 1218,
      "down": 1219,
      "dram": 1220,
      "equ": 1221,
      "fem": 1222,
      "fund": 1223,
      "gy": 1224,
      "gon": 1225,
      "hu": 1226,
      "han": 1227,
      "hen": 1228,
      "his": 1229,
      "hab": 1230,
      "kan": 1231,
      "ken": 1232,
      "kar": 1233,
      "ls": 1234,
      "lin": 1235,
      "lay": 1236,
      "mb": 1237,
      "mir": 1238,
      "mig": 1239,
      "mall": 1240,
      "net": 1241,
      "otion": 1242,
      "operation": 1243,
      "pr": 1244,
      "pur": 1245,
      "pass": 1246,
      "saf": 1247,
      "sine": 1248,
      "sari": 1249,
      "small": 1250,
      "tain": 1251,
      "tak": 1252,
      "test": 1253,
      "ues": 1254,
      "uch": 1255,
      "went": 1256,
      "writ": 1257,
      "xim": 1258,
      "intro": 1259,
      "invol": 1260,
      "ergy": 1261,
      "ones": 1262,
      "renew": 1263,
      "reach": 1264,
      "refer": 1265,
      "reduced": 1266,
      "ality": 1267,
      "energy": 1268,
      "stan": 1269,
      "div": 1270,
      "dian": 1271,
      "arma": 1272,
      "arab": 1273,
      "aries": 1274,
      "associ": 1275,
      "itect": 1276,
      "indigen": 1277,
      "ices": 1278,
      "iss": 1279,
      "islat": 1280,
      "ents": 1281,
      "took": 1282,
      "touch": 1283,
      "oul": 1284,
      "====": 1285,
      "change": 1286,
      "amm": 1287,
      "ceut": 1288,
      "conso": 1289,
      "consist": 1290,
      "right": 1291,
      "rights": 1292,
      "old": 1293,
      "oldest": 1294,
      "sea": 1295,
      "adv": 1296,
      "below": 1297,
      "uni": 1298,
      "untouch": 1299,
      "astri": 1300,
      "reser": 1301,
      "result": 1302,
      "wear": 1303,
      "weap": 1304,
      "where": 1305,
      "ghats": 1306,
      "maur": 1307,
      "exam": 1308,
      "exts": 1309,
      "within": 1310,
      "across": 1311,
      "ably": 1312,
      "ability": 1313,
      "aren": 1314,
      "arts": 1315,
      "artic": 1316,
      "uted": 1317,
      "again": 1318,
      "inct": 1319,
      "aff": 1320,
      "afric": 1321,
      "ples": 1322,
      "meat": 1323,
      "works": 1324,
      "process": 1325,
      "proxim": 1326,
      "ured": 1327,
      "aksh": 1328,
      "ively": 1329,
      "approxim": 1330,
      "ell": 1331,
      "elected": 1332,
      "elites": 1333,
      "partition": 1334,
      "portion": 1335,
      "ported": 1336,
      "ously": 1337,
      "upper": 1338,
      "decades": 1339,
      "trade": 1340,
      "2010": 1341,
      "2013": 1342,
      "compan": 1343,
      "ministers": 1344,
      "primary": 1345,
      "gree": 1346,
      "quality": 1347,
      "hindustan": 1348,
      "wars": 1349,
      "wards": 1350,
      "vidian": 1351,
      "pharma": 1352,
      "tax": 1353,
      "extant": 1354,
      "traditionally": 1355,
      "constitutional": 1356,
      "1951": 1357,
      "amental": 1358,
      "2026": 1359,
      "support": 1360,
      "numbers": 1361,
      "kets": 1362,
      "emergen": 1363,
      "expand": 1364,
      "express": 1365,
      "ratic": 1366,
      "singh": 1367,
      "single": 1368,
      "dravidian": 1369,
      "international": 1370,
      "legislat": 1371,
      "influence": 1372,
      "guj": 1373,
      "sched": 1374,
      "tropical": 1375,
      "vention": 1376,
      "leader": 1377,
      "cooking": 1378,
      "commonly": 1379,
      "society": 1380,
      "eight": 1381,
      "exports": 1382,
      "architect": 1383,
      "several": 1384,
      "contribut": 1385,
      "contribution": 1386,
      "features": 1387,
      "biodiversity": 1388,
      "directly": 1389,
      "agriculture": 1390,
      "agricultural": 1391,
      "crust": 1392,
      "turned": 1393,
      "relations": 1394,
      "show": 1395,
      "increasingly": 1396,
      "democratic": 1397,
      "civilisation": 1398,
      "vided": 1399,
      "composed": 1400,
      "violence": 1401,
      "commercial": 1402,
      "suppli": 1403,
      "bharat": 1404,
      "global": 1405,
      "gupta": 1406,
      "house": 1407,
      "kashmir": 1408,
      "multi": 1409,
      "nomin": 1410,
      "pract": 1411,
      "secular": 1412,
      "waist": 1413,
      "wildlife": 1414,
      "recorded": 1415,
      "alliance": 1416,
      "enacted": 1417,
      "conducted": 1418,
      "speak": 1419,
      "estimated": 1420,
      "established": 1421,
      "continued": 1422,
      "gradually": 1423,
      "different": 1424,
      "dramas": 1425,
      "fundamental": 1426,
      "indigenous": 1427,
      "ceutical": 1428,
      "consolid": 1429,
      "resulting": 1430,
      "africa": 1431,
      "approximately": 1432,
      "pharmaceutical": 1433,
      "\".": 1434,
      ");": 1435,
      "11": 1436,
      "100": 1437,
      "27": 1438,
      "36": 1439,
      "58": 1440,
      "500": 1441,
      "63": 1442,
      "70": 1443,
      "ah": 1444,
      "aj": 1445,
      "aic": 1446,
      "bon": 1447,
      "bes": 1448,
      "bri": 1449,
      "bang": 1450,
      "bay": 1451,
      "ced": 1452,
      "cle": 1453,
      "cul": 1454,
      "cut": 1455,
      "came": 1456,
      "cric": 1457,
      "could": 1458,
      "do": 1459,
      "dal": 1460,
      "dar": 1461,
      "dro": 1462,
      "ez": 1463,
      "ely": 1464,
      "eff": 1465,
      "eval": 1466,
      "eign": 1467,
      "fr": 1468,
      "ful": 1469,
      "fall": 1470,
      "fron": 1471,
      "gn": 1472,
      "gth": 1473,
      "ger": 1474,
      "gas": 1475,
      "gation": 1476,
      "gain": 1477,
      "gins": 1478,
      "hor": 1479,
      "ham": 1480,
      "ily": 1481,
      "ile": 1482,
      "jam": 1483,
      "ject": 1484,
      "kes": 1485,
      "kil": 1486,
      "kame": 1487,
      "lan": 1488,
      "lal": 1489,
      "less": 1490,
      "law": 1491,
      "lades": 1492,
      "mor": 1493,
      "myan": 1494,
      "mamm": 1495,
      "nar": 1496,
      "nam": 1497,
      "near": 1498,
      "name": 1499,
      "nda": 1500,
      "oce": 1501,
      "pat": 1502,
      "ption": 1503,
      "past": 1504,
      "put": 1505,
      "pts": 1506,
      "pet": 1507,
      "pall": 1508,
      "ring": 1509,
      "round": 1510,
      "son": 1511,
      "sar": 1512,
      "sil": 1513,
      "sri": 1514,
      "smo": 1515,
      "sover": 1516,
      "sav": 1517,
      "slow": 1518,
      "sect": 1519,
      "somet": 1520,
      "sites": 1521,
      "temp": 1522,
      "texts": 1523,
      "uent": 1524,
      "vic": 1525,
      "would": 1526,
      "ze": 1527,
      "init": 1528,
      "ining": 1529,
      "incom": 1530,
      "instit": 1531,
      "inning": 1532,
      "thar": 1533,
      "thor": 1534,
      "those": 1535,
      "anch": 1536,
      "anag": 1537,
      "anted": 1538,
      "another": 1539,
      "then": 1540,
      "era": 1541,
      "onial": 1542,
      "rest": 1543,
      "rebe": 1544,
      "recent": 1545,
      "reco": 1546,
      "reven": 1547,
      "ales": 1548,
      "ened": 1549,
      "ensive": 1550,
      "stre": 1551,
      "stand": 1552,
      "still": 1553,
      "stren": 1554,
      "dit": 1555,
      "dise": 1556,
      "diment": 1557,
      "dish": 1558,
      "discri": 1559,
      "atom": 1560,
      "ature": 1561,
      "arav": 1562,
      "oro": 1563,
      "oral": 1564,
      "asse": 1565,
      "asho": 1566,
      "indira": 1567,
      "icide": 1568,
      "isol": 1569,
      "islands": 1570,
      "ings": 1571,
      "enter": 1572,
      "town": 1573,
      "today": 1574,
      "total": 1575,
      "oming": 1576,
      "urid": 1577,
      "urred": 1578,
      "leve": 1579,
      "cho": 1580,
      "chos": 1581,
      "churid": 1582,
      "like": 1583,
      "lief": 1584,
      "verty": 1585,
      "ilway": 1586,
      "conce": 1587,
      "rid": 1588,
      "ries": 1589,
      "rivers": 1590,
      "raj": 1591,
      "rap": 1592,
      "rather": 1593,
      "racy": 1594,
      "railway": 1595,
      "uled": 1596,
      "separ": 1597,
      "seals": 1598,
      "self": 1599,
      "role": 1600,
      "vege": 1601,
      "ada": 1602,
      "adop": 1603,
      "addition": 1604,
      "adher": 1605,
      "added": 1606,
      "being": 1607,
      "belong": 1608,
      "belief": 1609,
      "moist": 1610,
      "mohen": 1611,
      "une": 1612,
      "ung": 1613,
      "ists": 1614,
      "ush": 1615,
      "uscri": 1616,
      "loss": 1617,
      "loose": 1618,
      "resol": 1619,
      "resident": 1620,
      "19th": 1621,
      "1935": 1622,
      "wealth": 1623,
      "may": 1624,
      "makes": 1625,
      "irt": 1626,
      "20th": 1627,
      "exchange": 1628,
      "ime": 1629,
      "imes": 1630,
      "impro": 1631,
      "immedi": 1632,
      "action": 1633,
      "acter": 1634,
      "abad": 1635,
      "ables": 1636,
      "area": 1637,
      "due": 1638,
      "post": 1639,
      "poverty": 1640,
      "romise": 1641,
      "ute": 1642,
      "soon": 1643,
      "anged": 1644,
      "shal": 1645,
      "shor": 1646,
      "share": 1647,
      "plac": 1648,
      "meas": 1649,
      "six": 1650,
      "prot": 1651,
      "protec": 1652,
      "provided": 1653,
      "contain": 1654,
      "contains": 1655,
      "aryan": 1656,
      "idly": 1657,
      "appoin": 1658,
      "formal": 1659,
      "nei": 1660,
      "marked": 1661,
      "margins": 1662,
      "ivity": 1663,
      "northeast": 1664,
      "parts": 1665,
      "partic": 1666,
      "assert": 1667,
      "open": 1668,
      "ending": 1669,
      "lows": 1670,
      "estic": 1671,
      "upa": 1672,
      "anta": 1673,
      "becoming": 1674,
      "governments": 1675,
      "indones": 1676,
      "deccan": 1677,
      "decade": 1678,
      "latter": 1679,
      "2018": 1680,
      "compromise": 1681,
      "anced": 1682,
      "inequality": 1683,
      "green": 1684,
      "2008": 1685,
      "2009": 1686,
      "populous": 1687,
      "constituent": 1688,
      "peace": 1689,
      "viet": 1690,
      "castes": 1691,
      "predomin": 1692,
      "classes": 1693,
      "extensive": 1694,
      "cultural": 1695,
      "cultures": 1696,
      "domestic": 1697,
      "cause": 1698,
      "much": 1699,
      "northwest": 1700,
      "folk": 1701,
      "itions": 1702,
      "urbanisation": 1703,
      "1962": 1704,
      "1967": 1705,
      "desert": 1706,
      "2022": 1707,
      "2023": 1708,
      "2024": 1709,
      "supported": 1710,
      "buddha": 1711,
      "key": 1712,
      "sett": 1713,
      "setting": 1714,
      "expans": 1715,
      "rising": 1716,
      "basin": 1717,
      "drain": 1718,
      "others": 1719,
      "diction": 1720,
      "politics": 1721,
      "colonial": 1722,
      "natal": 1723,
      "office": 1724,
      "forests": 1725,
      "guard": 1726,
      "manuscri": 1727,
      "armies": 1728,
      "demograph": 1729,
      "plains": 1730,
      "signed": 1731,
      "1950s": 1732,
      "mathematical": 1733,
      "gave": 1734,
      "janata": 1735,
      "llion": 1736,
      "merch": 1737,
      "tribal": 1738,
      "medieval": 1739,
      "coastal": 1740,
      "appear": 1741,
      "generally": 1742,
      "dominion": 1743,
      "himalayan": 1744,
      "obar": 1745,
      "range": 1746,
      "ometres": 1747,
      "devotion": 1748,
      "sikhism": 1749,
      "marriages": 1750,
      "script": 1751,
      "influences": 1752,
      "transmit": 1753,
      "breath": 1754,
      "crucial": 1755,
      "wana": 1756,
      "animals": 1757,
      "related": 1758,
      "remaining": 1759,
      "status": 1760,
      "organisation": 1761,
      "occupation": 1762,
      "democracy": 1763,
      "originally": 1764,
      "13th": 1765,
      "cloth": 1766,
      "goods": 1767,
      "endemic": 1768,
      "struct": 1769,
      "liberal": 1770,
      "administrat": 1771,
      "administration": 1772,
      "summer": 1773,
      "played": 1774,
      "islamic": 1775,
      "broad": 1776,
      "climate": 1777,
      "having": 1778,
      "nicobar": 1779,
      "temper": 1780,
      "village": 1781,
      "independence": 1782,
      "strong": 1783,
      "disputes": 1784,
      "character": 1785,
      "respon": 1786,
      "sports": 1787,
      "employed": 1788,
      "policies": 1789,
      "schools": 1790,
      "capita": 1791,
      "treaty": 1792,
      "brahma": 1793,
      "currency": 1794,
      "average": 1795,
      "cuis": 1796,
      "habit": 1797,
      "mbly": 1798,
      "migration": 1799,
      "safe": 1800,
      "written": 1801,
      "introduced": 1802,
      "reached": 1803,
      "arabian": 1804,
      "oulder": 1805,
      "consists": 1806,
      "untouchability": 1807,
      "weapons": 1808,
      "maurya": 1809,
      "example": 1810,
      "companies": 1811,
      "greek": 1812,
      "emergency": 1813,
      "expanding": 1814,
      "gujar": 1815,
      "scheduled": 1816,
      "architecture": 1817,
      "contributions": 1818,
      "nominal": 1819,
      "practices": 1820,
      "banglades": 1821,
      "cricket": 1822,
      "daro": 1823,
      "eignty": 1824,
      "front": 1825,
      "kilometres": 1826,
      "kameez": 1827,
      "laws": 1828,
      "myanmar": 1829,
      "mammals": 1830,
      "ocean": 1831,
      "pallav": 1832,
      "sovereignty": 1833,
      "sector": 1834,
      "sometimes": 1835,
      "temple": 1836,
      "vict": 1837,
      "income": 1838,
      "institution": 1839,
      "rebellion": 1840,
      "recogn": 1841,
      "revenues": 1842,
      "strength": 1843,
      "dishes": 1844,
      "discrimin": 1845,
      "assembly": 1846,
      "ashoka": 1847,
      "chosen": 1848,
      "churidars": 1849,
      "veget": 1850,
      "mohenjo": 1851,
      "residents": 1852,
      "immediately": 1853,
      "protected": 1854,
      "indonesia": 1855,
      "demographics": 1856,
      "transmitted": 1857,
      "bangladesh": 1858,
      "\")": 1859,
      ",\"": 1860,
      "01": 1861,
      "0s": 1862,
      "1st": 1863,
      "22": 1864,
      "29": 1865,
      "32": 1866,
      "34": 1867,
      "39": 1868,
      "41": 1869,
      "44": 1870,
      "46": 1871,
      "53": 1872,
      "64": 1873,
      "65": 1874,
      "6th": 1875,
      "74": 1876,
      "7th": 1877,
      "700": 1878,
      "80": 1879,
      "82": 1880,
      "91": 1881,
      "94": 1882,
      "az": 1883,
      "aː": 1884,
      "ail": 1885,
      "aem": 1886,
      "aim": 1887,
      "ahar": 1888,
      "adem": 1889,
      "br": 1890,
      "bul": 1891,
      "bac": 1892,
      "bak": 1893,
      "bour": 1894,
      "buc": 1895,
      "brough": 1896,
      "bai": 1897,
      "bron": 1898,
      "bably": 1899,
      "cin": 1900,
      "cat": 1901,
      "cit": 1902,
      "cil": 1903,
      "cro": 1904,
      "ction": 1905,
      "care": 1906,
      "city": 1907,
      "cup": 1908,
      "crow": 1909,
      "cris": 1910,
      "cust": 1911,
      "cere": 1912,
      "ctions": 1913,
      "dy": 1914,
      "dre": 1915,
      "dates": 1916,
      "dry": 1917,
      "data": 1918,
      "dwana": 1919,
      "ee": 1920,
      "ew": 1921,
      "ele": 1922,
      "ets": 1923,
      "each": 1924,
      "edic": 1925,
      "event": 1926,
      "evol": 1927,
      "evid": 1928,
      "eously": 1929,
      "fre": 1930,
      "fil": 1931,
      "flo": 1932,
      "fac": 1933,
      "fut": 1934,
      "foun": 1935,
      "fish": 1936,
      "fav": 1937,
      "flow": 1938,
      "fest": 1939,
      "fai": 1940,
      "farm": 1941,
      "fash": 1942,
      "flower": 1943,
      "gl": 1944,
      "gro": 1945,
      "give": 1946,
      "gig": 1947,
      "god": 1948,
      "gods": 1949,
      "ginning": 1950,
      "hal": 1951,
      "hom": 1952,
      "hol": 1953,
      "hun": 1954,
      "hous": 1955,
      "hindus": 1956,
      "ira": 1957,
      "idu": 1958,
      "iff": 1959,
      "ified": 1960,
      "jur": 1961,
      "jac": 1962,
      "jay": 1963,
      "jhar": 1964,
      "jaw": 1965,
      "june": 1966,
      "kk": 1967,
      "kn": 1968,
      "ko": 1969,
      "kal": 1970,
      "kur": 1971,
      "kill": 1972,
      "keral": 1973,
      "kho": 1974,
      "lon": 1975,
      "lic": 1976,
      "late": 1977,
      "lab": 1978,
      "leng": 1979,
      "lared": 1980,
      "laksh": 1981,
      "mn": 1982,
      "ms": 1983,
      "mat": 1984,
      "med": 1985,
      "mand": 1986,
      "mum": 1987,
      "mass": 1988,
      "molog": 1989,
      "nd": 1990,
      "nin": 1991,
      "nas": 1992,
      "nav": 1993,
      "next": 1994,
      "ox": 1995,
      "oor": 1996,
      "och": 1997,
      "ove": 1998,
      "oted": 1999,
      "pa": 2000,
      "py": 2001,
      "pil": 2002,
      "pay": 2003,
      "pically": 2004,
      "pite": 2005,
      "pants": 2006,
      "ptions": 2007,
      "pali": 2008,
      "paren": 2009,
      "panch": 2010,
      "push": 2011,
      "rical": 2012,
      "ranges": 2013,
      "sol": 2014,
      "sab": 2015,
      "sant": 2016,
      "sind": 2017,
      "saw": 2018,
      "tt": 2019,
      "tand": 2020,
      "tto": 2021,
      "tun": 2022,
      "ties": 2023,
      "tig": 2024,
      "tel": 2025,
      "text": 2026,
      "table": 2027,
      "ude": 2028,
      "ufact": 2029,
      "vas": 2030,
      "ves": 2031,
      "vary": 2032,
      "voted": 2033,
      "wing": 2034,
      "wind": 2035,
      "xed": 2036,
      "yam": 2037,
      "yaksh": 2038,
      "zed": 2039,
      "zes": 2040,
      "zoro": 2041,
      "ārat": 2042,
      "νδ": 2043,
      "ἰνδ": 2044,
      "inno": 2045,
      "inated": 2046,
      "inform": 2047,
      "inste": 2048,
      "thic": 2049,
      "thous": 2050,
      "thail": 2051,
      "ana": 2052,
      "aning": 2053,
      "anism": 2054,
      "anatom": 2055,
      "thes": 2056,
      "erc": 2057,
      "erly": 2058,
      "erial": 2059,
      "onic": 2060,
      "only": 2061,
      "onset": 2062,
      "rece": 2063,
      "reem": 2064,
      "reme": 2065,
      "reform": 2066,
      "relat": 2067,
      "repe": 2068,
      "rept": 2069,
      "report": 2070,
      "refl": 2071,
      "reforms": 2072,
      "represent": 2073,
      "returned": 2074,
      "ala": 2075,
      "aled": 2076,
      "alty": 2077,
      "enn": 2078,
      "ening": 2079,
      "enab": 2080,
      "stant": 2081,
      "stress": 2082,
      "stud": 2083,
      "stian": 2084,
      "stiff": 2085,
      "dia": 2086,
      "did": 2087,
      "died": 2088,
      "dified": 2089,
      "dients": 2090,
      "atts": 2091,
      "attra": 2092,
      "atory": 2093,
      "atives": 2094,
      "atened": 2095,
      "ativity": 2096,
      "ara": 2097,
      "aris": 2098,
      "arter": 2099,
      "ardis": 2100,
      "andy": 2101,
      "ord": 2102,
      "orce": 2103,
      "oration": 2104,
      "orial": 2105,
      "orally": 2106,
      "ase": 2107,
      "asions": 2108,
      "itary": 2109,
      "itte": 2110,
      "itude": 2111,
      "ese": 2112,
      "icians": 2113,
      "ises": 2114,
      "ising": 2115,
      "isans": 2116,
      "isdiction": 2117,
      "ently": 2118,
      "ential": 2119,
      "top": 2120,
      "tober": 2121,
      "towards": 2122,
      "oms": 2123,
      "outs": 2124,
      "lying": 2125,
      "uri": 2126,
      "urdu": 2127,
      "urgen": 2128,
      "chi": 2129,
      "cher": 2130,
      "ched": 2131,
      "chand": 2132,
      "chri": 2133,
      "chol": 2134,
      "chap": 2135,
      "chha": 2136,
      "chess": 2137,
      "chron": 2138,
      "child": 2139,
      "champ": 2140,
      "chains": 2141,
      "changed": 2142,
      "ams": 2143,
      "amy": 2144,
      "amed": 2145,
      "amend": 2146,
      "deter": 2147,
      "defe": 2148,
      "deleg": 2149,
      "lied": 2150,
      "lies": 2151,
      "live": 2152,
      "lived": 2153,
      "lifer": 2154,
      "living": 2155,
      "veri": 2156,
      "ceed": 2157,
      "ils": 2158,
      "ilar": 2159,
      "iles": 2160,
      "iling": 2161,
      "ilding": 2162,
      "consum": 2163,
      "conserv": 2164,
      "rig": 2165,
      "rial": 2166,
      "riors": 2167,
      "rajp": 2168,
      "see": 2169,
      "sex": 2170,
      "seats": 2171,
      "sediment": 2172,
      "vedic": 2173,
      "adwe": 2174,
      "advent": 2175,
      "best": 2176,
      "beginning": 2177,
      "emper": 2178,
      "emiss": 2179,
      "force": 2180,
      "forti": 2181,
      "fortable": 2182,
      "modi": 2183,
      "model": 2184,
      "uncommon": 2185,
      "unresol": 2186,
      "unitary": 2187,
      "isting": 2188,
      "geolog": 2189,
      "getic": 2190,
      "using": 2191,
      "usually": 2192,
      "resour": 2193,
      "1930": 2194,
      "web": 2195,
      "wet": 2196,
      "welf": 2197,
      "wides": 2198,
      "what": 2199,
      "ghbour": 2200,
      "mah": 2201,
      "make": 2202,
      "iron": 2203,
      "excav": 2204,
      "exerc": 2205,
      "existing": 2206,
      "suc": 2207,
      "super": 2208,
      "supre": 2209,
      "imper": 2210,
      "imple": 2211,
      "mental": 2212,
      "mented": 2213,
      "accoun": 2214,
      "access": 2215,
      "above": 2216,
      "duce": 2217,
      "derived": 2218,
      "pop": 2219,
      "pot": 2220,
      "pots": 2221,
      "artistic": 2222,
      "artists": 2223,
      "artisans": 2224,
      "uts": 2225,
      "overran": 2226,
      "comfortable": 2227,
      "percent": 2228,
      "persist": 2229,
      "tspots": 2230,
      "agenc": 2231,
      "agana": 2232,
      "agreem": 2233,
      "sole": 2234,
      "soviet": 2235,
      "angra": 2236,
      "centre": 2237,
      "inces": 2238,
      "shy": 2239,
      "shiv": 2240,
      "shared": 2241,
      "ship": 2242,
      "shastri": 2243,
      "shoulder": 2244,
      "affir": 2245,
      "plant": 2246,
      "planted": 2247,
      "medic": 2248,
      "mega": 2249,
      "meaning": 2250,
      "sia": 2251,
      "ayat": 2252,
      "ayee": 2253,
      "etah": 2254,
      "eticide": 2255,
      "proj": 2256,
      "prov": 2257,
      "procl": 2258,
      "produced": 2259,
      "proportion": 2260,
      "probably": 2261,
      "prolifer": 2262,
      "produce": 2263,
      "therers": 2264,
      "contra": 2265,
      "cost": 2266,
      "cosine": 2267,
      "spic": 2268,
      "sphere": 2269,
      "ake": 2270,
      "akbar": 2271,
      "lution": 2272,
      "larger": 2273,
      "aps": 2274,
      "gender": 2275,
      "atedly": 2276,
      "formally": 2277,
      "mini": 2278,
      "minor": 2279,
      "elect": 2280,
      "marit": 2281,
      "marry": 2282,
      "marath": 2283,
      "markets": 2284,
      "marshy": 2285,
      "ival": 2286,
      "iving": 2287,
      "parties": 2288,
      "partially": 2289,
      "assass": 2290,
      "largely": 2291,
      "ports": 2292,
      "ished": 2293,
      "hibi": 2294,
      "oppos": 2295,
      "ends": 2296,
      "ended": 2297,
      "amework": 2298,
      "lowed": 2299,
      "food": 2300,
      "foeticide": 2301,
      "southwest": 2302,
      "bercul": 2303,
      "oury": 2304,
      "emphas": 2305,
      "decis": 2306,
      "decreas": 2307,
      "declin": 2308,
      "decidu": 2309,
      "declared": 2310,
      "asians": 2311,
      "2014": 2312,
      "2017": 2313,
      "subduc": 2314,
      "substant": 2315,
      "comprising": 2316,
      "ogamy": 2317,
      "botto": 2318,
      "gangetic": 2319,
      "que": 2320,
      "relief": 2321,
      "2004": 2322,
      "2007": 2323,
      "includes": 2324,
      "included": 2325,
      "sci": 2326,
      "scen": 2327,
      "scale": 2328,
      "warriors": 2329,
      "erals": 2330,
      "host": 2331,
      "hood": 2332,
      "hotspots": 2333,
      "pollution": 2334,
      "vide": 2335,
      "view": 2336,
      "vijay": 2337,
      "ections": 2338,
      "rice": 2339,
      "ective": 2340,
      "ectively": 2341,
      "committe": 2342,
      "systems": 2343,
      "pread": 2344,
      "prevent": 2345,
      "series": 2346,
      "serving": 2347,
      "tail": 2348,
      "wood": 2349,
      "thereafter": 2350,
      "therefore": 2351,
      "extinct": 2352,
      "extreme": 2353,
      "extends": 2354,
      "council": 2355,
      "numerals": 2356,
      "newly": 2357,
      "black": 2358,
      "essential": 2359,
      "limited": 2360,
      "notable": 2361,
      "notably": 2362,
      "nationalist": 2363,
      "followed": 2364,
      "health": 2365,
      "1964": 2366,
      "1960s": 2367,
      "1998": 2368,
      "1999": 2369,
      "mainly": 2370,
      "maintain": 2371,
      "descri": 2372,
      "despite": 2373,
      "nonviol": 2374,
      "2021": 2375,
      "supplanted": 2376,
      "october": 2377,
      "ological": 2378,
      "settle": 2379,
      "achaem": 2380,
      "creating": 2381,
      "creativity": 2382,
      "calend": 2383,
      "eurasia": 2384,
      "osa": 2385,
      "osis": 2386,
      "presence": 2387,
      "rati": 2388,
      "ences": 2389,
      "ilitated": 2390,
      "speci": 2391,
      "18th": 2392,
      "1858": 2393,
      "course": 2394,
      "grand": 2395,
      "humans": 2396,
      "khand": 2397,
      "intervention": 2398,
      "legal": 2399,
      "leges": 2400,
      "countries": 2401,
      "literary": 2402,
      "literature": 2403,
      "awatts": 2404,
      "cold": 2405,
      "colleges": 2406,
      "jpayee": 2407,
      "natic": 2408,
      "natak": 2409,
      "throughout": 2410,
      "1949": 2411,
      "highly": 2412,
      "highest": 2413,
      "occurred": 2414,
      "occasions": 2415,
      "techni": 2416,
      "manufact": 2417,
      "tibet": 2418,
      "arms": 2419,
      "ultaneously": 2420,
      "commonwealth": 2421,
      "punjabi": 2422,
      "mathematicians": 2423,
      "carved": 2424,
      "carnatic": 2425,
      "civili": 2426,
      "eigh": 2427,
      "either": 2428,
      "family": 2429,
      "gatherers": 2430,
      "trigon": 2431,
      "volcan": 2432,
      "threatened": 2433,
      "1980": 2434,
      "1984": 2435,
      "1985": 2436,
      "territory": 2437,
      "territorial": 2438,
      "exporter": 2439,
      "exported": 2440,
      "etymolog": 2441,
      "coasts": 2442,
      "coastline": 2443,
      "applied": 2444,
      "generation": 2445,
      "generated": 2446,
      "muslims": 2447,
      "dominance": 2448,
      "17th": 2449,
      "airs": 2450,
      "efly": 2451,
      "flan": 2452,
      "flour": 2453,
      "garment": 2454,
      "garlic": 2455,
      "lasted": 2456,
      "archaic": 2457,
      "devast": 2458,
      "severely": 2459,
      "1971": 2460,
      "1975": 2461,
      "sikhs": 2462,
      "married": 2463,
      "marriage": 2464,
      "industrial": 2465,
      "feature": 2466,
      "biotech": 2467,
      "biosphere": 2468,
      "transformed": 2469,
      "bread": 2470,
      "break": 2471,
      "epic": 2472,
      "fastest": 2473,
      "figure": 2474,
      "kaveri": 2475,
      "ruled": 2476,
      "ruling": 2477,
      "rulers": 2478,
      "turn": 2479,
      "vene": 2480,
      "wanted": 2481,
      "annually": 2482,
      "annual": 2483,
      "remained": 2484,
      "steamed": 2485,
      "statist": 2486,
      "diffused": 2487,
      "organised": 2488,
      "organiz": 2489,
      "dependent": 2490,
      "shores": 2491,
      "occupy": 2492,
      "technological": 2493,
      "paintings": 2494,
      "original": 2495,
      "10th": 2496,
      "bhārat": 2497,
      "bhangra": 2498,
      "close": 2499,
      "ethical": 2500,
      "ethnic": 2501,
      "factor": 2502,
      "hymn": 2503,
      "males": 2504,
      "malay": 2505,
      "mitt": 2506,
      "promin": 2507,
      "vajpayee": 2508,
      "endemism": 2509,
      "amphibi": 2510,
      "defined": 2511,
      "geography": 2512,
      "geographic": 2513,
      "commerce": 2514,
      "service": 2515,
      "historical": 2516,
      "historically": 2517,
      "historians": 2518,
      "heredit": 2519,
      "headed": 2520,
      "groups": 2521,
      "borne": 2522,
      "borders": 2523,
      "caves": 2524,
      "climatic": 2525,
      "dense": 2526,
      "everyday": 2527,
      "izens": 2528,
      "similar": 2529,
      "simultaneously": 2530,
      "tubercul": 2531,
      "temples": 2532,
      "varna": 2533,
      "villages": 2534,
      "various": 2535,
      "independent": 2536,
      "regul": 2537,
      "regist": 2538,
      "distinct": 2539,
      "disputed": 2540,
      "cheetah": 2541,
      "points": 2542,
      "producer": 2543,
      "spreading": 2544,
      "subsequently": 2545,
      "complex": 2546,
      "policy": 2547,
      "survives": 2548,
      "capital": 2549,
      "births": 2550,
      "current": 2551,
      "building": 2552,
      "critically": 2553,
      "female": 2554,
      "females": 2555,
      "gondwana": 2556,
      "hubs": 2557,
      "layer": 2558,
      "network": 2559,
      "networks": 2560,
      "princes": 2561,
      "passing": 2562,
      "involved": 2563,
      "involving": 2564,
      "renewable": 2565,
      "divorce": 2566,
      "associate": 2567,
      "associated": 2568,
      "ission": 2569,
      "advanced": 2570,
      "astrianism": 2571,
      "reserves": 2572,
      "whereas": 2573,
      "articles": 2574,
      "against": 2575,
      "affairs": 2576,
      "hindustani": 2577,
      "taxes": 2578,
      "expression": 2579,
      "legislature": 2580,
      "contributed": 2581,
      "speaking": 2582,
      "speakers": 2583,
      "361": 2584,
      "ajanta": 2585,
      "bonds": 2586,
      "briefly": 2587,
      "cleared": 2588,
      "drop": 2589,
      "framework": 2590,
      "gained": 2591,
      "jammu": 2592,
      "lankan": 2593,
      "narrow": 2594,
      "patron": 2595,
      "pastoral": 2596,
      "putra": 2597,
      "savoury": 2598,
      "initi": 2599,
      "thorn": 2600,
      "anagara": 2601,
      "standardis": 2602,
      "disease": 2603,
      "isolation": 2604,
      "towns": 2605,
      "levels": 2606,
      "rajiv": 2607,
      "rapidly": 2608,
      "railways": 2609,
      "separat": 2610,
      "adopted": 2611,
      "additional": 2612,
      "shalwars": 2613,
      "short": 2614,
      "placed": 2615,
      "measured": 2616,
      "protection": 2617,
      "appointed": 2618,
      "neighbour": 2619,
      "particular": 2620,
      "greenhouse": 2621,
      "extensively": 2622,
      "settled": 2623,
      "expansion": 2624,
      "manuscript": 2625,
      "merchants": 2626,
      "breathing": 2627,
      "structure": 2628,
      "liberalisation": 2629,
      "administrative": 2630,
      "strongly": 2631,
      "characteristic": 2632,
      "response": 2633,
      "brahmaputra": 2634,
      "cuisine": 2635,
      "habitat": 2636,
      "safeguard": 2637,
      "gujarat": 2638,
      "pallavas": 2639,
      "victories": 2640,
      "discriminatory": 2641,
      "vegetari": 2642,
      "aiming": 2643,
      "aharlal": 2644,
      "ademi": 2645,
      "bulk": 2646,
      "backs": 2647,
      "buck": 2648,
      "brought": 2649,
      "cattle": 2650,
      "citizens": 2651,
      "cups": 2652,
      "cereal": 2653,
      "drew": 2654,
      "edicts": 2655,
      "eventually": 2656,
      "evidence": 2657,
      "faith": 2658,
      "farmers": 2659,
      "flowering": 2660,
      "gigawatts": 2661,
      "half": 2662,
      "hunter": 2663,
      "houses": 2664,
      "jurisdiction": 2665,
      "jackets": 2666,
      "jharkhand": 2667,
      "jawaharlal": 2668,
      "knit": 2669,
      "kosi": 2670,
      "kurta": 2671,
      "kerala": 2672,
      "length": 2673,
      "lakshadwe": 2674,
      "material": 2675,
      "mumbai": 2676,
      "ninth": 2677,
      "parents": 2678,
      "sabha": 2679,
      "tandoor": 2680,
      "tiger": 2681,
      "vasive": 2682,
      "winds": 2683,
      "yakshagana": 2684,
      "zoroastrianism": 2685,
      "innov": 2686,
      "information": 2687,
      "instead": 2688,
      "thousand": 2689,
      "thailand": 2690,
      "relative": 2691,
      "repeatedly": 2692,
      "study": 2693,
      "stianity": 2694,
      "attract": 2695,
      "arisen": 2696,
      "outside": 2697,
      "christianity": 2698,
      "chhau": 2699,
      "chronic": 2700,
      "amendments": 2701,
      "defeated": 2702,
      "delegates": 2703,
      "consumption": 2704,
      "rajputs": 2705,
      "beginnings": 2706,
      "emperor": 2707,
      "emissions": 2708,
      "fortified": 2709,
      "unresolved": 2710,
      "resources": 2711,
      "1930s": 2712,
      "welfare": 2713,
      "widespread": 2714,
      "excavated": 2715,
      "supercontinent": 2716,
      "supreme": 2717,
      "imperial": 2718,
      "percentage": 2719,
      "agency": 2720,
      "shiva": 2721,
      "affirm": 2722,
      "megadiverse": 2723,
      "proclaiming": 2724,
      "proliferation": 2725,
      "assassinated": 2726,
      "decreasing": 2727,
      "deciduous": 2728,
      "substantially": 2729,
      "bottom": 2730,
      "vijayanagara": 2731,
      "extremely": 2732,
      "blackbuck": 2733,
      "nonviolent": 2734,
      "settlement": 2735,
      "achaemen": 2736,
      "civilian": 2737,
      "trigonomet": 2738,
      "etymology": 2739,
      "organization": 2740,
      "hymns": 2741,
      "hereditary": 2742,
      "tuberculosis": 2743,
      "standardised": 2744,
      "lakshadweep": 2745,
      "materials": 2746,
      "\",": 2747,
      "%:": 2748,
      "%;": 2749,
      "')": 2750,
      "'.": 2751,
      "(\"": 2752,
      "('": 2753,
      "([": 2754,
      "(\".": 2755,
      ")).": 2756,
      ".)": 2757,
      "..": 2758,
      ".\")": 2759,
      "04": 2760,
      "094": 2761,
      "120": 2762,
      "113": 2763,
      "210": 2764,
      "235": 2765,
      "232": 2766,
      "2nd": 2767,
      "380": 2768,
      "43": 2769,
      "45": 2770,
      "48": 2771,
      "49": 2772,
      "4th": 2773,
      "431": 2774,
      "54": 2775,
      "57": 2776,
      "59": 2777,
      "5th": 2778,
      "517": 2779,
      "522": 2780,
      "60": 2781,
      "68": 2782,
      "600": 2783,
      "627": 2784,
      "663": 2785,
      "601": 2786,
      "72": 2787,
      "79": 2788,
      "7000": 2789,
      "731": 2790,
      "81": 2791,
      "85": 2792,
      "8th": 2793,
      "800": 2794,
      "93": 2795,
      "97": 2796,
      "9th": 2797,
      "900": 2798,
      "940": 2799,
      "aṅ": 2800,
      "aṣ": 2801,
      "aut": 2802,
      "aism": 2803,
      "aud": 2804,
      "adic": 2805,
      "ahism": 2806,
      "ahead": 2807,
      "aute": 2808,
      "bb": 2809,
      "bʱ": 2810,
      "bin": 2811,
      "bed": 2812,
      "bit": 2813,
      "bur": 2814,
      "bli": 2815,
      "bol": 2816,
      "blo": 2817,
      "bate": 2818,
      "bhas": 2819,
      "bans": 2820,
      "big": 2821,
      "bally": 2822,
      "bound": 2823,
      "blowing": 2824,
      "bird": 2825,
      "bust": 2826,
      "bility": 2827,
      "bitions": 2828,
      "boulder": 2829,
      "cas": 2830,
      "cing": 2831,
      "cam": 2832,
      "cli": 2833,
      "cra": 2834,
      "cation": 2835,
      "cres": 2836,
      "cab": 2837,
      "cies": 2838,
      "cover": 2839,
      "cum": 2840,
      "cted": 2841,
      "cig": 2842,
      "call": 2843,
      "cence": 2844,
      "cused": 2845,
      "cked": 2846,
      "cited": 2847,
      "cations": 2848,
      "cines": 2849,
      "camp": 2850,
      "cise": 2851,
      "ckey": 2852,
      "cake": 2853,
      "cended": 2854,
      "don": 2855,
      "dand": 2856,
      "dou": 2857,
      "dur": 2858,
      "dam": 2859,
      "dol": 2860,
      "date": 2861,
      "dated": 2862,
      "dasi": 2863,
      "dress": 2864,
      "dog": 2865,
      "danc": 2866,
      "dho": 2867,
      "dome": 2868,
      "drough": 2869,
      "dled": 2870,
      "doc": 2871,
      "dens": 2872,
      "done": 2873,
      "dai": 2874,
      "dhy": 2875,
      "dna": 2876,
      "dden": 2877,
      "dham": 2878,
      "dining": 2879,
      "dhol": 2880,
      "dosa": 2881,
      "een": 2882,
      "eat": 2883,
      "eing": 2884,
      "eper": 2885,
      "ether": 2886,
      "eld": 2887,
      "eans": 2888,
      "epul": 2889,
      "evement": 2890,
      "fle": 2891,
      "fra": 2892,
      "fun": 2893,
      "fts": 2894,
      "fill": 2895,
      "fted": 2896,
      "fel": 2897,
      "fend": 2898,
      "fough": 2899,
      "flat": 2900,
      "fine": 2901,
      "fire": 2902,
      "fence": 2903,
      "fically": 2904,
      "flowing": 2905,
      "fell": 2906,
      "fables": 2907,
      "gic": 2908,
      "ging": 2909,
      "gent": 2910,
      "gil": 2911,
      "gol": 2912,
      "gres": 2913,
      "gir": 2914,
      "gment": 2915,
      "gap": 2916,
      "gated": 2917,
      "gives": 2918,
      "gative": 2919,
      "gross": 2920,
      "gold": 2921,
      "grid": 2922,
      "gala": 2923,
      "hl": 2924,
      "hr": 2925,
      "há": 2926,
      "hâ": 2927,
      "hon": 2928,
      "hic": 2929,
      "hsh": 2930,
      "hary": 2931,
      "hel": 2932,
      "hour": 2933,
      "home": 2934,
      "hari": 2935,
      "hya": 2936,
      "hata": 2937,
      "hund": 2938,
      "hell": 2939,
      "haps": 2940,
      "hgala": 2941,
      "iw": 2942,
      "ith": 2943,
      "ied": 2944,
      "iand": 2945,
      "iec": 2946,
      "iation": 2947,
      "ires": 2948,
      "ider": 2949,
      "iary": 2950,
      "ihi": 2951,
      "iuc": 2952,
      "iers": 2953,
      "iens": 2954,
      "idel": 2955,
      "iya": 2956,
      "ifer": 2957,
      "ika": 2958,
      "iders": 2959,
      "ible": 2960,
      "ights": 2961,
      "ievement": 2962,
      "ji": 2963,
      "ju": 2964,
      "jat": 2965,
      "jap": 2966,
      "jav": 2967,
      "jour": 2968,
      "jud": 2969,
      "jured": 2970,
      "jaz": 2971,
      "jeans": 2972,
      "kr": 2973,
      "kon": 2974,
      "kat": 2975,
      "kent": 2976,
      "kol": 2977,
      "kad": 2978,
      "kies": 2979,
      "kut": 2980,
      "ksh": 2981,
      "kne": 2982,
      "kari": 2983,
      "khar": 2984,
      "kann": 2985,
      "kata": 2986,
      "kali": 2987,
      "ksha": 2988,
      "kirt": 2989,
      "kime": 2990,
      "kabad": 2991,
      "kmini": 2992,
      "ler": 2993,
      "las": 2994,
      "lis": 2995,
      "lent": 2996,
      "lad": 2997,
      "lus": 2998,
      "lav": 2999,
      "lately": 3000,
      "lines": 3001,
      "lack": 3002,
      "luted": 3003,
      "lord": 3004,
      "laps": 3005,
      "lective": 3006,
      "mp": 3007,
      "my": 3008,
      "mā": 3009,
      "mic": 3010,
      "mis": 3011,
      "ming": 3012,
      "mad": 3013,
      "mast": 3014,
      "mart": 3015,
      "mong": 3016,
      "moun": 3017,
      "mant": 3018,
      "mud": 3019,
      "mission": 3020,
      "ner": 3021,
      "nad": 3022,
      "nast": 3023,
      "nut": 3024,
      "nag": 3025,
      "nain": 3026,
      "noun": 3027,
      "nine": 3028,
      "ners": 3029,
      "ness": 3030,
      "ncre": 3031,
      "nately": 3032,
      "nearly": 3033,
      "narm": 3034,
      "napp": 3035,
      "nath": 3036,
      "naren": 3037,
      "oo": 3038,
      "ot": 3039,
      "oth": 3040,
      "ore": 3041,
      "odi": 3042,
      "oat": 3043,
      "oly": 3044,
      "oli": 3045,
      "oist": 3046,
      "ood": 3047,
      "ote": 3048,
      "otal": 3049,
      "oven": 3050,
      "oples": 3051,
      "pā": 3052,
      "pal": 3053,
      "pac": 3054,
      "pill": 3055,
      "pure": 3056,
      "piv": 3057,
      "pav": 3058,
      "phi": 3059,
      "panc": 3060,
      "pect": 3061,
      "pach": 3062,
      "pron": 3063,
      "pash": 3064,
      "pared": 3065,
      "pran": 3066,
      "prise": 3067,
      "poul": 3068,
      "pandy": 3069,
      "piec": 3070,
      "rā": 3071,
      "rin": 3072,
      "ras": 3073,
      "rion": 3074,
      "ril": 3075,
      "run": 3076,
      "rus": 3077,
      "rits": 3078,
      "rum": 3079,
      "rine": 3080,
      "raman": 3081,
      "rhy": 3082,
      "rces": 3083,
      "rush": 3084,
      "ranged": 3085,
      "sū": 3086,
      "san": 3087,
      "sal": 3088,
      "sat": 3089,
      "sit": 3090,
      "ses": 3091,
      "sis": 3092,
      "sus": 3093,
      "swi": 3094,
      "sac": 3095,
      "spo": 3096,
      "sang": 3097,
      "spl": 3098,
      "sap": 3099,
      "same": 3100,
      "sanc": 3101,
      "sence": 3102,
      "sess": 3103,
      "slowing": 3104,
      "sions": 3105,
      "sund": 3106,
      "swa": 3107,
      "sange": 3108,
      "slid": 3109,
      "sanch": 3110,
      "sales": 3111,
      "sung": 3112,
      "sandy": 3113,
      "saute": 3114,
      "skirt": 3115,
      "srin": 3116,
      "tw": 3117,
      "tan": 3118,
      "tar": 3119,
      "tas": 3120,
      "tes": 3121,
      "tch": 3122,
      "tation": 3123,
      "t20": 3124,
      "tment": 3125,
      "tab": 3126,
      "tang": 3127,
      "ture": 3128,
      "tive": 3129,
      "tap": 3130,
      "tally": 3131,
      "try": 3132,
      "tuc": 3133,
      "tect": 3134,
      "tta": 3135,
      "trough": 3136,
      "tash": 3137,
      "tons": 3138,
      "tains": 3139,
      "tivity": 3140,
      "ue": 3141,
      "ule": 3142,
      "ument": 3143,
      "uet": 3144,
      "uous": 3145,
      "ubi": 3146,
      "ught": 3147,
      "ujan": 3148,
      "uistic": 3149,
      "ukk": 3150,
      "vul": 3151,
      "vate": 3152,
      "vac": 3153,
      "vial": 3154,
      "vult": 3155,
      "vind": 3156,
      "vasi": 3157,
      "visation": 3158,
      "vpu": 3159,
      "vals": 3160,
      "vati": 3161,
      "vice": 3162,
      "virt": 3163,
      "viron": 3164,
      "win": 3165,
      "wat": 3166,
      "wed": 3167,
      "wil": 3168,
      "will": 3169,
      "wage": 3170,
      "winter": 3171,
      "wai": 3172,
      "wati": 3173,
      "wda": 3174,
      "walled": 3175,
      "wstr": 3176,
      "winning": 3177,
      "wrap": 3178,
      "xal": 3179,
      "xic": 3180,
      "xuri": 3181,
      "xture": 3182,
      "yi": 3183,
      "yī": 3184,
      "yon": 3185,
      "yar": 3186,
      "yed": 3187,
      "youn": 3188,
      "yog": 3189,
      "ypically": 3190,
      "yalty": 3191,
      "zer": 3192,
      "zone": 3193,
      "zones": 3194,
      "zoo": 3195,
      "ön": 3196,
      "āham": 3197,
      "ābhārat": 3198,
      "ādhy": 3199,
      "āyī": 3200,
      "śul": 3201,
      "ət": 3202,
      "ɦɪ": 3203,
      "ɾət": 3204,
      "ʊˈ": 3205,
      "ˈbʱ": 3206,
      "ία": 3207,
      "ός": 3208,
      "ṇa": 3209,
      "ṇin": 3210,
      "ṭādhy": 3211,
      "int": 3212,
      "inst": 3213,
      "inve": 3214,
      "inate": 3215,
      "inet": 3216,
      "insp": 3217,
      "inations": 3218,
      "inval": 3219,
      "inscri": 3220,
      "instru": 3221,
      "indefin": 3222,
      "invention": 3223,
      "intel": 3224,
      "invasive": 3225,
      "thin": 3226,
      "thus": 3227,
      "thme": 3228,
      "thago": 3229,
      "thyan": 3230,
      "thmic": 3231,
      "anand": 3232,
      "anis": 3233,
      "anim": 3234,
      "anistan": 3235,
      "ankar": 3236,
      "andise": 3237,
      "theory": 3238,
      "theore": 3239,
      "ering": 3240,
      "erous": 3241,
      "erations": 3242,
      "erwan": 3243,
      "eria": 3244,
      "onom": 3245,
      "onisation": 3246,
      "onions": 3247,
      "ondri": 3248,
      "onwards": 3249,
      "onists": 3250,
      "ontally": 3251,
      "rean": 3252,
      "real": 3253,
      "rely": 3254,
      "reve": 3255,
      "repul": 3256,
      "recomm": 3257,
      "repre": 3258,
      "repres": 3259,
      "revol": 3260,
      "recording": 3261,
      "refin": 3262,
      "regar": 3263,
      "retreat": 3264,
      "rehen": 3265,
      "rehab": 3266,
      "reported": 3267,
      "reject": 3268,
      "reorganisation": 3269,
      "redients": 3270,
      "remental": 3271,
      "reports": 3272,
      "recourse": 3273,
      "return": 3274,
      "reorganised": 3275,
      "remitt": 3276,
      "replaced": 3277,
      "alo": 3278,
      "alle": 3279,
      "alam": 3280,
      "alge": 3281,
      "alter": 3282,
      "allu": 3283,
      "alism": 3284,
      "alry": 3285,
      "almost": 3286,
      "allowing": 3287,
      "alised": 3288,
      "align": 3289,
      "almon": 3290,
      "allows": 3291,
      "enth": 3292,
      "ende": 3293,
      "enli": 3294,
      "enge": 3295,
      "enment": 3296,
      "encomp": 3297,
      "enistic": 3298,
      "endit": 3299,
      "environ": 3300,
      "ster": 3301,
      "sting": 3302,
      "stri": 3303,
      "stra": 3304,
      "stment": 3305,
      "start": 3306,
      "stain": 3307,
      "stage": 3308,
      "stop": 3309,
      "stup": 3310,
      "stral": 3311,
      "stics": 3312,
      "story": 3313,
      "strate": 3314,
      "stable": 3315,
      "stone": 3316,
      "stamp": 3317,
      "strid": 3318,
      "staː": 3319,
      "stood": 3320,
      "dial": 3321,
      "dies": 3322,
      "dient": 3323,
      "dili": 3324,
      "dicl": 3325,
      "disc": 3326,
      "diers": 3327,
      "dity": 3328,
      "divis": 3329,
      "dible": 3330,
      "divided": 3331,
      "diox": 3332,
      "divide": 3333,
      "atal": 3334,
      "ator": 3335,
      "atur": 3336,
      "atri": 3337,
      "atol": 3338,
      "atma": 3339,
      "atical": 3340,
      "atop": 3341,
      "atant": 3342,
      "atures": 3343,
      "atite": 3344,
      "attain": 3345,
      "atlas": 3346,
      "atypically": 3347,
      "arc": 3348,
      "arp": 3349,
      "aras": 3350,
      "arri": 3351,
      "arra": 3352,
      "arial": 3353,
      "arish": 3354,
      "arhi": 3355,
      "arose": 3356,
      "arund": 3357,
      "arsha": 3358,
      "araj": 3359,
      "arbans": 3360,
      "arji": 3361,
      "arranged": 3362,
      "edom": 3363,
      "ora": 3364,
      "orad": 3365,
      "order": 3366,
      "ords": 3367,
      "orities": 3368,
      "orders": 3369,
      "orship": 3370,
      "oriya": 3371,
      "ofess": 3372,
      "offer": 3373,
      "ofenac": 3374,
      "asa": 3375,
      "asy": 3376,
      "asis": 3377,
      "asing": 3378,
      "asim": 3379,
      "asures": 3380,
      "asants": 3381,
      "aspect": 3382,
      "asaras": 3383,
      "itated": 3384,
      "itage": 3385,
      "itous": 3386,
      "itud": 3387,
      "itself": 3388,
      "indivi": 3389,
      "indica": 3390,
      "ional": 3391,
      "ioned": 3392,
      "ionals": 3393,
      "esi": 3394,
      "esans": 3395,
      "esche": 3396,
      "escence": 3397,
      "icated": 3398,
      "icken": 3399,
      "iconic": 3400,
      "isi": 3401,
      "isak": 3402,
      "island": 3403,
      "inga": 3404,
      "ingest": 3405,
      "ingredients": 3406,
      "ented": 3407,
      "entire": 3408,
      "entral": 3409,
      "entren": 3410,
      "entered": 3411,
      "entments": 3412,
      "entrepre": 3413,
      "tour": 3414,
      "toad": 3415,
      "tomo": 3416,
      "toda": 3417,
      "toler": 3418,
      "omerations": 3419,
      "ouse": 3420,
      "oured": 3421,
      "ects": 3422,
      "ecog": 3423,
      "ecolog": 3424,
      "ecked": 3425,
      "lywood": 3426,
      "urt": 3427,
      "uru": 3428,
      "urial": 3429,
      "urally": 3430,
      "leaf": 3431,
      "leav": 3432,
      "legraph": 3433,
      "lexic": 3434,
      "chem": 3435,
      "chrom": 3436,
      "chain": 3437,
      "chall": 3438,
      "chine": 3439,
      "chta": 3440,
      "chose": 3441,
      "chines": 3442,
      "charts": 3443,
      "chenn": 3444,
      "chaud": 3445,
      "chatur": 3446,
      "chords": 3447,
      "chasing": 3448,
      "chicken": 3449,
      "checked": 3450,
      "amtre": 3451,
      "amble": 3452,
      "amarav": 3453,
      "amese": 3454,
      "amahism": 3455,
      "ambitions": 3456,
      "amrits": 3457,
      "deal": 3458,
      "deem": 3459,
      "demar": 3460,
      "devi": 3461,
      "depos": 3462,
      "deforest": 3463,
      "defeat": 3464,
      "death": 3465,
      "deep": 3466,
      "destru": 3467,
      "detail": 3468,
      "debate": 3469,
      "defence": 3470,
      "lie": 3471,
      "lio": 3472,
      "list": 3473,
      "lide": 3474,
      "ligen": 3475,
      "liding": 3476,
      "lila": 3477,
      "lipp": 3478,
      "libr": 3479,
      "lidified": 3480,
      "lique": 3481,
      "lihood": 3482,
      "ligated": 3483,
      "verbal": 3484,
      "cept": 3485,
      "ceptions": 3486,
      "illegal": 3487,
      "consu": 3488,
      "conqu": 3489,
      "condition": 3490,
      "consequent": 3491,
      "convention": 3492,
      "conspic": 3493,
      "consci": 3494,
      "concurrent": 3495,
      "conifer": 3496,
      "contour": 3497,
      "ried": 3498,
      "rific": 3499,
      "riff": 3500,
      "rigation": 3501,
      "rao": 3502,
      "raw": 3503,
      "raco": 3504,
      "raid": 3505,
      "rainf": 3506,
      "rakh": 3507,
      "raga": 3508,
      "raising": 3509,
      "rastructure": 3510,
      "raiders": 3511,
      "raksha": 3512,
      "rarely": 3513,
      "rachta": 3514,
      "olars": 3515,
      "olished": 3516,
      "olonisation": 3517,
      "ula": 3518,
      "ulating": 3519,
      "ulaic": 3520,
      "ulgation": 3521,
      "seal": 3522,
      "seen": 3523,
      "seas": 3524,
      "seaf": 3525,
      "semin": 3526,
      "segre": 3527,
      "sept": 3528,
      "seven": 3529,
      "sealed": 3530,
      "seams": 3531,
      "selective": 3532,
      "bylon": 3533,
      "roach": 3534,
      "rocked": 3535,
      "root": 3536,
      "royalty": 3537,
      "rochem": 3538,
      "veill": 3539,
      "vehic": 3540,
      "adru": 3541,
      "administer": 3542,
      "adversity": 3543,
      "adverse": 3544,
      "adjo": 3545,
      "adasis": 3546,
      "bel": 3547,
      "beach": 3548,
      "bears": 3549,
      "beyon": 3550,
      "ema": 3551,
      "ement": 3552,
      "emits": 3553,
      "empor": 3554,
      "embo": 3555,
      "embra": 3556,
      "embro": 3557,
      "ford": 3558,
      "foray": 3559,
      "forba": 3560,
      "forces": 3561,
      "forced": 3562,
      "moved": 3563,
      "moving": 3564,
      "mohan": 3565,
      "mobility": 3566,
      "modated": 3567,
      "una": 3568,
      "units": 3569,
      "unpre": 3570,
      "unities": 3571,
      "unei": 3572,
      "unlin": 3573,
      "unconstitutional": 3574,
      "unrest": 3575,
      "unwanted": 3576,
      "undisputed": 3577,
      "unanim": 3578,
      "unleav": 3579,
      "istance": 3580,
      "gest": 3581,
      "uses": 3582,
      "usage": 3583,
      "usher": 3584,
      "usively": 3585,
      "astring": 3586,
      "lok": 3587,
      "lop": 3588,
      "lost": 3589,
      "loor": 3590,
      "lowest": 3591,
      "losing": 3592,
      "lodic": 3593,
      "locations": 3594,
      "resurgen": 3595,
      "resentments": 3596,
      "resistance": 3597,
      "193": 3598,
      "1920": 3599,
      "1900": 3600,
      "1921": 3601,
      "1928": 3602,
      "1911": 3603,
      "1901": 3604,
      "ters": 3605,
      "tery": 3606,
      "tered": 3607,
      "terculture": 3608,
      "terukk": 3609,
      "terraco": 3610,
      "weak": 3611,
      "webs": 3612,
      "weights": 3613,
      "wikime": 3614,
      "whim": 3615,
      "white": 3616,
      "while": 3617,
      "whether": 3618,
      "ghat": 3619,
      "ghanistan": 3620,
      "gharial": 3621,
      "map": 3622,
      "mahav": 3623,
      "mahan": 3624,
      "maith": 3625,
      "maoist": 3626,
      "machine": 3627,
      "irreg": 3628,
      "iranis": 3629,
      "irrigation": 3630,
      "204": 3631,
      "20s": 3632,
      "2019": 3633,
      "2020": 3634,
      "2030": 3635,
      "exe": 3636,
      "excl": 3637,
      "experi": 3638,
      "excur": 3639,
      "exchanged": 3640,
      "exceed": 3641,
      "exogamy": 3642,
      "except": 3643,
      "sue": 3644,
      "superi": 3645,
      "sukh": 3646,
      "sustain": 3647,
      "imum": 3648,
      "impor": 3649,
      "immen": 3650,
      "imitated": 3651,
      "mentioned": 3652,
      "accom": 3653,
      "acity": 3654,
      "accompan": 3655,
      "acute": 3656,
      "academi": 3657,
      "aciers": 3658,
      "abatic": 3659,
      "absol": 3660,
      "abhata": 3661,
      "abjured": 3662,
      "absence": 3663,
      "abolished": 3664,
      "arel": 3665,
      "arett": 3666,
      "dual": 3667,
      "ducher": 3668,
      "dering": 3669,
      "derives": 3670,
      "derabad": 3671,
      "deriving": 3672,
      "derness": 3673,
      "derecog": 3674,
      "poet": 3675,
      "posing": 3676,
      "roman": 3677,
      "utan": 3678,
      "uttu": 3679,
      "uttar": 3680,
      "overy": 3681,
      "overall": 3682,
      "overview": 3683,
      "overlaps": 3684,
      "weriw": 3685,
      "compl": 3686,
      "combin": 3687,
      "perform": 3688,
      "perman": 3689,
      "person": 3690,
      "pervasive": 3691,
      "perhaps": 3692,
      "perceptions": 3693,
      "aged": 3694,
      "aging": 3695,
      "agro": 3696,
      "agos": 3697,
      "aggl": 3698,
      "agonists": 3699,
      "agement": 3700,
      "soons": 3701,
      "sojour": 3702,
      "solidified": 3703,
      "centred": 3704,
      "inction": 3705,
      "incial": 3706,
      "inctions": 3707,
      "inclus": 3708,
      "incremental": 3709,
      "shap": 3710,
      "shud": 3711,
      "shirt": 3712,
      "shankar": 3713,
      "sherwan": 3714,
      "sharp": 3715,
      "afghanistan": 3716,
      "pled": 3717,
      "plus": 3718,
      "plural": 3719,
      "plants": 3720,
      "plann": 3721,
      "meal": 3722,
      "meter": 3723,
      "meet": 3724,
      "meets": 3725,
      "mehr": 3726,
      "melodic": 3727,
      "sie": 3728,
      "side": 3729,
      "sided": 3730,
      "sidel": 3731,
      "sible": 3732,
      "size": 3733,
      "sikk": 3734,
      "sizes": 3735,
      "working": 3736,
      "worship": 3737,
      "earth": 3738,
      "etic": 3739,
      "eties": 3740,
      "etmap": 3741,
      "proper": 3742,
      "prostit": 3743,
      "propos": 3744,
      "provis": 3745,
      "project": 3746,
      "provide": 3747,
      "progres": 3748,
      "content": 3749,
      "contexts": 3750,
      "contempor": 3751,
      "rite": 3752,
      "rition": 3753,
      "ritual": 3754,
      "sought": 3755,
      "sources": 3756,
      "core": 3757,
      "coher": 3758,
      "coins": 3759,
      "cosmo": 3760,
      "cott": 3761,
      "codified": 3762,
      "codili": 3763,
      "aryabhata": 3764,
      "spite": 3765,
      "spons": 3766,
      "spices": 3767,
      "spring": 3768,
      "spending": 3769,
      "akti": 3770,
      "akademi": 3771,
      "idli": 3772,
      "idate": 3773,
      "lugu": 3774,
      "luxuri": 3775,
      "ounced": 3776,
      "laration": 3777,
      "larless": 3778,
      "noted": 3779,
      "aphor": 3780,
      "geny": 3781,
      "genres": 3782,
      "genders": 3783,
      "genetic": 3784,
      "formations": 3785,
      "formerly": 3786,
      "formulaic": 3787,
      "igai": 3788,
      "igarhi": 3789,
      "mined": 3790,
      "minster": 3791,
      "minimum": 3792,
      "need": 3793,
      "neem": 3794,
      "nepali": 3795,
      "negative": 3796,
      "neoli": 3797,
      "nepal": 3798,
      "neurial": 3799,
      "elite": 3800,
      "elders": 3801,
      "elagos": 3802,
      "mark": 3803,
      "marma": 3804,
      "marina": 3805,
      "marble": 3806,
      "westminster": 3807,
      "ivite": 3808,
      "ivasa": 3809,
      "norm": 3810,
      "partners": 3811,
      "assing": 3812,
      "asslands": 3813,
      "assamese": 3814,
      "oding": 3815,
      "portra": 3816,
      "rupe": 3817,
      "rupt": 3818,
      "rukmini": 3819,
      "allis": 3820,
      "alling": 3821,
      "ishing": 3822,
      "ishya": 3823,
      "ishna": 3824,
      "isms": 3825,
      "governor": 3826,
      "avor": 3827,
      "avari": 3828,
      "avily": 3829,
      "avira": 3830,
      "avenge": 3831,
      "avarsha": 3832,
      "opy": 3833,
      "opposing": 3834,
      "endogamy": 3835,
      "ousers": 3836,
      "afterwards": 3837,
      "worldwide": 3838,
      "governed": 3839,
      "governing": 3840,
      "ests": 3841,
      "foss": 3842,
      "focused": 3843,
      "folio": 3844,
      "upon": 3845,
      "upsur": 3846,
      "upati": 3847,
      "anti": 3848,
      "antly": 3849,
      "anticide": 3850,
      "antaged": 3851,
      "economies": 3852,
      "economics": 3853,
      "economically": 3854,
      "becau": 3855,
      "empires": 3856,
      "indos": 3857,
      "decimal": 3858,
      "decla": 3859,
      "decline": 3860,
      "decenn": 3861,
      "decoration": 3862,
      "decentral": 3863,
      "decolonisation": 3864,
      "declaration": 3865,
      "latin": 3866,
      "lating": 3867,
      "latitude": 3868,
      "latika": 3869,
      "latitud": 3870,
      "pulmon": 3871,
      "pulses": 3872,
      "traded": 3873,
      "traders": 3874,
      "training": 3875,
      "stitched": 3876,
      "asiatic": 3877,
      "2012": 3878,
      "dings": 3879,
      "few": 3880,
      "feud": 3881,
      "ressed": 3882,
      "subcaste": 3883,
      "subtropical": 3884,
      "subject": 3885,
      "subdue": 3886,
      "subord": 3887,
      "compared": 3888,
      "comprehen": 3889,
      "butaries": 3890,
      "ancy": 3891,
      "clans": 3892,
      "eastwar": 3893,
      "pride": 3894,
      "private": 3895,
      "priorities": 3896,
      "priests": 3897,
      "ineal": 3898,
      "ineering": 3899,
      "forecast": 3900,
      "book": 3901,
      "bodia": 3902,
      "bodies": 3903,
      "ganweriw": 3904,
      "ired": 3905,
      "ireland": 3906,
      "ques": 3907,
      "quate": 3908,
      "quite": 3909,
      "quely": 3910,
      "quarter": 3911,
      "quitous": 3912,
      "quadru": 3913,
      "uday": 3914,
      "veda": 3915,
      "relied": 3916,
      "regionally": 3917,
      "2006": 3918,
      "scuring": 3919,
      "symb": 3920,
      "syncre": 3921,
      "warmer": 3922,
      "constitutes": 3923,
      "constituted": 3924,
      "hockey": 3925,
      "landed": 3926,
      "landown": 3927,
      "landmass": 3928,
      "landmark": 3929,
      "peak": 3930,
      "peepul": 3931,
      "pehl": 3932,
      "peoples": 3933,
      "peasants": 3934,
      "polo": 3935,
      "polling": 3936,
      "polluted": 3937,
      "vious": 3938,
      "moderately": 3939,
      "duction": 3940,
      "hadur": 3941,
      "longitude": 3942,
      "musical": 3943,
      "musics": 3944,
      "nized": 3945,
      "nihâ": 3946,
      "niamtre": 3947,
      "rict": 3948,
      "ricity": 3949,
      "rictions": 3950,
      "enges": 3951,
      "engineering": 3952,
      "ecting": 3953,
      "ectancy": 3954,
      "commission": 3955,
      "communities": 3956,
      "socially": 3957,
      "systematic": 3958,
      "ficus": 3959,
      "nations": 3960,
      "prefer": 3961,
      "preva": 3962,
      "preexisting": 3963,
      "precise": 3964,
      "prepared": 3965,
      "preyed": 3966,
      "preamble": 3967,
      "previous": 3968,
      "parity": 3969,
      "parks": 3970,
      "parche": 3971,
      "parsis": 3972,
      "parvati": 3973,
      "paralle": 3974,
      "increase": 3975,
      "banned": 3976,
      "histories": 3977,
      "phin": 3978,
      "phies": 3979,
      "phanta": 3980,
      "tai": 3981,
      "taught": 3982,
      "thereby": 3983,
      "moreover": 3984,
      "extens": 3985,
      "extinction": 3986,
      "ctrine": 3987,
      "culturally": 3988,
      "counted": 3989,
      "counterculture": 3990,
      "herbal": 3991,
      "herds": 3992,
      "heritage": 3993,
      "numerous": 3994,
      "wnings": 3995,
      "infection": 3996,
      "inflows": 3997,
      "infections": 3998,
      "infrastructure": 3999,
      "infanticide": 4000,
      "versities": 4001,
      "news": 4002,
      "bled": 4003,
      "blurred": 4004,
      "blouse": 4005,
      "causing": 4006,
      "causes": 4007,
      "coral": 4008,
      "coriand": 4009,
      "cordial": 4010,
      "grown": 4011,
      "must": 4012,
      "aripp": 4013,
      "arithme": 4014,
      "limit": 4015,
      "undergr": 4016,
      "underwent": 4017,
      "underskirt": 4018,
      "notes": 4019,
      "nationalism": 4020,
      "bias": 4021,
      "bihar": 4022,
      "biological": 4023,
      "bibli": 4024,
      "bihari": 4025,
      "ffs": 4026,
      "ffed": 4027,
      "ffalo": 4028,
      "follows": 4029,
      "heart": 4030,
      "heavily": 4031,
      "roughly": 4032,
      "outline": 4033,
      "output": 4034,
      "outpost": 4035,
      "outcastes": 4036,
      "learned": 4037,
      "1956": 4038,
      "1957": 4039,
      "1966": 4040,
      "1990": 4041,
      "1992": 4042,
      "1994": 4043,
      "1995": 4044,
      "1996": 4045,
      "mainland": 4046,
      "mainstre": 4047,
      "maintains": 4048,
      "centralised": 4049,
      "desh": 4050,
      "design": 4051,
      "desai": 4052,
      "descended": 4053,
      "kingly": 4054,
      "incely": 4055,
      "continental": 4056,
      "grain": 4057,
      "grazed": 4058,
      "gradients": 4059,
      "gradient": 4060,
      "keep": 4061,
      "midriff": 4062,
      "puducher": 4063,
      "typical": 4064,
      "typically": 4065,
      "enslav": 4066,
      "setbacks": 4067,
      "emerge": 4068,
      "expected": 4069,
      "expendit": 4070,
      "expectancy": 4071,
      "achings": 4072,
      "achievement": 4073,
      "balance": 4074,
      "balanced": 4075,
      "baloch": 4076,
      "balasaras": 4077,
      "create": 4078,
      "credible": 4079,
      "calcul": 4080,
      "calcut": 4081,
      "eurasian": 4082,
      "harsh": 4083,
      "harapp": 4084,
      "little": 4085,
      "osome": 4086,
      "rating": 4087,
      "ratri": 4088,
      "risen": 4089,
      "risks": 4090,
      "singers": 4091,
      "thanjav": 4092,
      "encroach": 4093,
      "delta": 4094,
      "ghtly": 4095,
      "ghtenment": 4096,
      "powers": 4097,
      "portfolio": 4098,
      "1891": 4099,
      "1848": 4100,
      "1857": 4101,
      "1885": 4102,
      "1820s": 4103,
      "basis": 4104,
      "drawn": 4105,
      "draped": 4106,
      "drafted": 4107,
      "drawstr": 4108,
      "gramm": 4109,
      "granted": 4110,
      "grasslands": 4111,
      "humid": 4112,
      "humped": 4113,
      "insurgen": 4114,
      "interest": 4115,
      "internal": 4116,
      "intervene": 4117,
      "intermitt": 4118,
      "intervals": 4119,
      "diciary": 4120,
      "itely": 4121,
      "legacy": 4122,
      "legisl": 4123,
      "ularities": 4124,
      "politan": 4125,
      "literally": 4126,
      "awed": 4127,
      "away": 4128,
      "collab": 4129,
      "collis": 4130,
      "colorad": 4131,
      "collarless": 4132,
      "kriti": 4133,
      "militants": 4134,
      "native": 4135,
      "natural": 4136,
      "natyam": 4137,
      "nataraj": 4138,
      "teak": 4139,
      "teams": 4140,
      "tethyan": 4141,
      "teenth": 4142,
      "telegraph": 4143,
      "telugu": 4144,
      "teachings": 4145,
      "value": 4146,
      "rence": 4147,
      "rendering": 4148,
      "display": 4149,
      "disband": 4150,
      "disadv": 4151,
      "disaff": 4152,
      "displayed": 4153,
      "disproportion": 4154,
      "displaced": 4155,
      "discontent": 4156,
      "disrupt": 4157,
      "officially": 4158,
      "1946": 4159,
      "possess": 4160,
      "higher": 4161,
      "mughals": 4162,
      "augu": 4163,
      "author": 4164,
      "austral": 4165,
      "automo": 4166,
      "canon": 4167,
      "canals": 4168,
      "canalled": 4169,
      "canada": 4170,
      "canopy": 4171,
      "fires": 4172,
      "fixed": 4173,
      "field": 4174,
      "giant": 4175,
      "guidel": 4176,
      "manism": 4177,
      "manip": 4178,
      "manmohan": 4179,
      "management": 4180,
      "scholars": 4181,
      "tier": 4182,
      "tied": 4183,
      "tightly": 4184,
      "tras": 4185,
      "trousers": 4186,
      "trodden": 4187,
      "trophies": 4188,
      "yaṇa": 4189,
      "direction": 4190,
      "directions": 4191,
      "army": 4192,
      "leads": 4193,
      "demand": 4194,
      "plainly": 4195,
      "signing": 4196,
      "cooperation": 4197,
      "identity": 4198,
      "identified": 4199,
      "indoi": 4200,
      "musicians": 4201,
      "socio": 4202,
      "societies": 4203,
      "socialist": 4204,
      "bengali": 4205,
      "bengaluru": 4206,
      "carry": 4207,
      "carbon": 4208,
      "cardam": 4209,
      "carrion": 4210,
      "carried": 4211,
      "famine": 4212,
      "famines": 4213,
      "meric": 4214,
      "pleated": 4215,
      "pleasures": 4216,
      "surround": 4217,
      "surpassing": 4218,
      "surveill": 4219,
      "trial": 4220,
      "triad": 4221,
      "tribes": 4222,
      "tributaries": 4223,
      "threats": 4224,
      "1981": 4225,
      "1988": 4226,
      "1989": 4227,
      "exporting": 4228,
      "median": 4229,
      "medical": 4230,
      "meditation": 4231,
      "etymon": 4232,
      "appell": 4233,
      "apparel": 4234,
      "generic": 4235,
      "generate": 4236,
      "greatly": 4237,
      "religiosa": 4238,
      "dominions": 4239,
      "emerging": 4240,
      "15th": 4241,
      "1500": 4242,
      "1525": 4243,
      "172": 4244,
      "1765": 4245,
      "264": 4246,
      "268": 4247,
      "capped": 4248,
      "capability": 4249,
      "capacity": 4250,
      "flung": 4251,
      "flawed": 4252,
      "final": 4253,
      "garh": 4254,
      "garments": 4255,
      "garba": 4256,
      "ideas": 4257,
      "ideological": 4258,
      "jains": 4259,
      "lasting": 4260,
      "observed": 4261,
      "obstru": 4262,
      "obstruct": 4263,
      "obligated": 4264,
      "obscuring": 4265,
      "owned": 4266,
      "painted": 4267,
      "pending": 4268,
      "rann": 4269,
      "ranks": 4270,
      "trees": 4271,
      "treated": 4272,
      "archip": 4273,
      "archived": 4274,
      "origins": 4275,
      "devanag": 4276,
      "devdasi": 4277,
      "devadasis": 4278,
      "severe": 4279,
      "severity": 4280,
      "movements": 4281,
      "lowered": 4282,
      "localised": 4283,
      "1970": 4284,
      "1972": 4285,
      "1974": 4286,
      "1977": 4287,
      "controlled": 4288,
      "coalescence": 4289,
      "marries": 4290,
      "industries": 4291,
      "featuring": 4292,
      "scripts": 4293,
      "landslide": 4294,
      "transaction": 4295,
      "transmission": 4296,
      "translating": 4297,
      "directory": 4298,
      "directives": 4299,
      "directors": 4300,
      "308": 4301,
      "birch": 4302,
      "biryan": 4303,
      "bodo": 4304,
      "curtail": 4305,
      "cessful": 4306,
      "epics": 4307,
      "farther": 4308,
      "faraway": 4309,
      "faster": 4310,
      "fastening": 4311,
      "founded": 4312,
      "foundation": 4313,
      "foundations": 4314,
      "lingered": 4315,
      "linguistic": 4316,
      "miri": 4317,
      "might": 4318,
      "mixed": 4319,
      "mixture": 4320,
      "monsoon": 4321,
      "monkey": 4322,
      "montan": 4323,
      "monsoons": 4324,
      "ruler": 4325,
      "tala": 4326,
      "tality": 4327,
      "talkies": 4328,
      "turmeric": 4329,
      "visit": 4330,
      "visited": 4331,
      "visual": 4332,
      "viswana": 4333,
      "visible": 4334,
      "wani": 4335,
      "annexe": 4336,
      "steadi": 4337,
      "steeper": 4338,
      "steatite": 4339,
      "statues": 4340,
      "statuet": 4341,
      "atiya": 4342,
      "shook": 4343,
      "ography": 4344,
      "sculpting": 4345,
      "sculptors": 4346,
      "developing": 4347,
      "occupies": 4348,
      "occupations": 4349,
      "originated": 4350,
      "1300": 4351,
      "351": 4352,
      "422": 4353,
      "423": 4354,
      "428": 4355,
      "bahá": 4356,
      "babylon": 4357,
      "bahadur": 4358,
      "bhutan": 4359,
      "bhakti": 4360,
      "clothes": 4361,
      "dawnings": 4362,
      "ethically": 4363,
      "ethos": 4364,
      "factors": 4365,
      "factbook": 4366,
      "goals": 4367,
      "govpu": 4368,
      "gowda": 4369,
      "hydro": 4370,
      "hyderabad": 4371,
      "laos": 4372,
      "label": 4373,
      "lineages": 4374,
      "maldiv": 4375,
      "malnut": 4376,
      "mitoch": 4377,
      "naism": 4378,
      "naxal": 4379,
      "promised": 4380,
      "promotion": 4381,
      "promote": 4382,
      "promulgation": 4383,
      "vaisak": 4384,
      "vaigai": 4385,
      "vaishya": 4386,
      "wayback": 4387,
      "endemics": 4388,
      "andamanese": 4389,
      "defining": 4390,
      "definition": 4391,
      "definitions": 4392,
      "liberation": 4393,
      "liberty": 4394,
      "liberties": 4395,
      "geographical": 4396,
      "geographically": 4397,
      "loyalty": 4398,
      "executives": 4399,
      "summary": 4400,
      "composite": 4401,
      "compositions": 4402,
      "persia": 4403,
      "plays": 4404,
      "playback": 4405,
      "worker": 4406,
      "earlier": 4407,
      "popularity": 4408,
      "serves": 4409,
      "servants": 4410,
      "heredity": 4411,
      "heads": 4412,
      "supplying": 4413,
      "suppressed": 4414,
      "buddhists": 4415,
      "groupings": 4416,
      "bodyguard": 4417,
      "peninsula": 4418,
      "significantly": 4419,
      "140": 4420,
      "16th": 4421,
      "21st": 4422,
      "adivasi": 4423,
      "adirachta": 4424,
      "border": 4425,
      "broken": 4426,
      "bharatiya": 4427,
      "cavalry": 4428,
      "everywhere": 4429,
      "globally": 4430,
      "guptas": 4431,
      "housie": 4432,
      "hava": 4433,
      "iii": 4434,
      "ipation": 4435,
      "izontally": 4436,
      "joint": 4437,
      "justice": 4438,
      "kashmiri": 4439,
      "multiling": 4440,
      "members": 4441,
      "nomadic": 4442,
      "ppp": 4443,
      "pping": 4444,
      "pradesh": 4445,
      "ramsar": 4446,
      "riches": 4447,
      "secure": 4448,
      "simple": 4449,
      "tuaries": 4450,
      "ticoat": 4451,
      "vara": 4452,
      "varnas": 4453,
      "varāham": 4454,
      "varied": 4455,
      "variations": 4456,
      "variety": 4457,
      "record": 4458,
      "strung": 4459,
      "distance": 4460,
      "distinctions": 4461,
      "district": 4462,
      "ardhan": 4463,
      "cheap": 4464,
      "charan": 4465,
      "chartered": 4466,
      "destinations": 4467,
      "conduct": 4468,
      "rocky": 4469,
      "respective": 4470,
      "respectively": 4471,
      "shares": 4472,
      "shaivite": 4473,
      "sheared": 4474,
      "sheets": 4475,
      "shekhar": 4476,
      "producing": 4477,
      "production": 4478,
      "productivity": 4479,
      "speed": 4480,
      "sport": 4481,
      "sporting": 4482,
      "estimating": 4483,
      "establishment": 4484,
      "employing": 4485,
      "employment": 4486,
      "completed": 4487,
      "complete": 4488,
      "complemented": 4489,
      "continue": 4490,
      "gradual": 4491,
      "graphic": 4492,
      "courtesans": 4493,
      "survive": 4494,
      "survived": 4495,
      "surviving": 4496,
      "treatment": 4497,
      "brahmin": 4498,
      "brahmanism": 4499,
      "birthplace": 4500,
      "differences": 4501,
      "persianised": 4502,
      "considered": 4503,
      "considering": 4504,
      "considerable": 4505,
      "2500": 4506,
      "adequate": 4507,
      "averaging": 4508,
      "buffalo": 4509,
      "bark": 4510,
      "barley": 4511,
      "bandhan": 4512,
      "bandhgala": 4513,
      "backdrop": 4514,
      "cuffed": 4515,
      "critical": 4516,
      "criteria": 4517,
      "drive": 4518,
      "driving": 4519,
      "drift": 4520,
      "downtrodden": 4521,
      "equates": 4522,
      "equival": 4523,
      "equator": 4524,
      "equalling": 4525,
      "hub": 4526,
      "kani": 4527,
      "kankari": 4528,
      "kening": 4529,
      "kara": 4530,
      "karla": 4531,
      "karnatak": 4532,
      "links": 4533,
      "layered": 4534,
      "migrating": 4535,
      "profess": 4536,
      "princely": 4537,
      "pura": 4538,
      "purchasing": 4539,
      "pursue": 4540,
      "passes": 4541,
      "passages": 4542,
      "safety": 4543,
      "smaller": 4544,
      "taker": 4545,
      "taken": 4546,
      "takes": 4547,
      "taking": 4548,
      "testing": 4549,
      "writing": 4550,
      "introduction": 4551,
      "renewal": 4552,
      "renewed": 4553,
      "reaching": 4554,
      "reference": 4555,
      "referred": 4556,
      "referring": 4557,
      "references": 4558,
      "divine": 4559,
      "arabic": 4560,
      "consistently": 4561,
      "advances": 4562,
      "uniform": 4563,
      "university": 4564,
      "uniquely": 4565,
      "universities": 4566,
      "untouchables": 4567,
      "reserve": 4568,
      "reserved": 4569,
      "wearer": 4570,
      "weapon": 4571,
      "mauryan": 4572,
      "examples": 4573,
      "arenas": 4574,
      "article": 4575,
      "articulating": 4576,
      "affected": 4577,
      "processes": 4578,
      "ellora": 4579,
      "partitioned": 4580,
      "greeks": 4581,
      "taxation": 4582,
      "taxpay": 4583,
      "emergence": 4584,
      "expanded": 4585,
      "expressed": 4586,
      "expressing": 4587,
      "legislative": 4588,
      "legislatures": 4589,
      "gujral": 4590,
      "schedule": 4591,
      "eighteen": 4592,
      "architectural": 4593,
      "contributing": 4594,
      "contributors": 4595,
      "crustal": 4596,
      "showing": 4597,
      "commercialisation": 4598,
      "supplier": 4599,
      "supplied": 4600,
      "supplies": 4601,
      "suppliers": 4602,
      "bharatavarsha": 4603,
      "bharatnatyam": 4604,
      "multiple": 4605,
      "nominated": 4606,
      "practice": 4607,
      "waistline": 4608,
      "differentiation": 4609,
      "consolidation": 4610,
      "consolidate": 4611,
      "consolidated": 4612,
      "consolidations": 4613,
      "580": 4614,
      "ahmed": 4615,
      "beset": 4616,
      "bride": 4617,
      "cedented": 4618,
      "clean": 4619,
      "doctrine": 4620,
      "dalit": 4621,
      "dalhousie": 4622,
      "effect": 4623,
      "effectively": 4624,
      "effects": 4625,
      "france": 4626,
      "full": 4627,
      "fully": 4628,
      "falls": 4629,
      "horse": 4630,
      "horizontally": 4631,
      "hamstrung": 4632,
      "jamas": 4633,
      "lanka": 4634,
      "morally": 4635,
      "morarji": 4636,
      "mortality": 4637,
      "narasim": 4638,
      "namon": 4639,
      "namic": 4640,
      "patril": 4641,
      "pastime": 4642,
      "petrole": 4643,
      "petrochem": 4644,
      "petticoat": 4645,
      "sonia": 4646,
      "sarnath": 4647,
      "sarnaism": 4648,
      "silk": 4649,
      "silt": 4650,
      "silver": 4651,
      "smoking": 4652,
      "smooth": 4653,
      "saved": 4654,
      "slowly": 4655,
      "zebu": 4656,
      "initially": 4657,
      "restrictions": 4658,
      "stretch": 4659,
      "streetmap": 4660,
      "stands": 4661,
      "atomic": 4662,
      "aravalli": 4663,
      "aravallis": 4664,
      "orogeny": 4665,
      "isolates": 4666,
      "enterprise": 4667,
      "level": 4668,
      "choli": 4669,
      "chota": 4670,
      "choice": 4671,
      "likely": 4672,
      "likelihood": 4673,
      "concept": 4674,
      "concepts": 4675,
      "concealed": 4676,
      "ridge": 4677,
      "rajya": 4678,
      "separated": 4679,
      "adopting": 4680,
      "adhered": 4681,
      "adhering": 4682,
      "adherents": 4683,
      "beliefs": 4684,
      "moisture": 4685,
      "uneasy": 4686,
      "loosely": 4687,
      "resolution": 4688,
      "wealthy": 4689,
      "improved": 4690,
      "improvement": 4691,
      "improvisation": 4692,
      "shalwar": 4693,
      "shorter": 4694,
      "places": 4695,
      "measures": 4696,
      "sixth": 4697,
      "sixteenth": 4698,
      "protagonists": 4699,
      "appointment": 4700,
      "neither": 4701,
      "markedly": 4702,
      "participation": 4703,
      "openstreetmap": 4704,
      "vietnam": 4705,
      "predominate": 4706,
      "predominates": 4707,
      "predominantly": 4708,
      "domestication": 4709,
      "settling": 4710,
      "settings": 4711,
      "expansions": 4712,
      "dictionary": 4713,
      "manuscripts": 4714,
      "merchandise": 4715,
      "appearance": 4716,
      "devotional": 4717,
      "scripture": 4718,
      "occupational": 4719,
      "clothing": 4720,
      "liberalise": 4721,
      "administrators": 4722,
      "broadly": 4723,
      "tempered": 4724,
      "temperate": 4725,
      "temperatures": 4726,
      "characterised": 4727,
      "responsible": 4728,
      "brahmagupta": 4729,
      "cuisines": 4730,
      "habitats": 4731,
      "gujarati": 4732,
      "oceanic": 4733,
      "pallava": 4734,
      "victory": 4735,
      "institutionalised": 4736,
      "recognition": 4737,
      "recognised": 4738,
      "recognises": 4739,
      "discrimination": 4740,
      "vegetables": 4741,
      "343": 4742,
      "azadirachta": 4743,
      "aːɾət": 4744,
      "brunei": 4745,
      "baking": 4746,
      "bakhsh": 4747,
      "bronze": 4748,
      "bronzes": 4749,
      "cinema": 4750,
      "cinnamon": 4751,
      "crocodili": 4752,
      "cropping": 4753,
      "caretaker": 4754,
      "crown": 4755,
      "crowded": 4756,
      "crises": 4757,
      "crisis": 4758,
      "custom": 4759,
      "customs": 4760,
      "dynast": 4761,
      "dynamic": 4762,
      "elements": 4763,
      "elephanta": 4764,
      "evolved": 4765,
      "evolving": 4766,
      "free": 4767,
      "freedom": 4768,
      "film": 4769,
      "films": 4770,
      "floods": 4771,
      "flooding": 4772,
      "faces": 4773,
      "facilitated": 4774,
      "future": 4775,
      "futures": 4776,
      "founder": 4777,
      "founding": 4778,
      "favour": 4779,
      "favoured": 4780,
      "festive": 4781,
      "festival": 4782,
      "fashion": 4783,
      "fashions": 4784,
      "glaciers": 4785,
      "groom": 4786,
      "grooms": 4787,
      "godavari": 4788,
      "homo": 4789,
      "homes": 4790,
      "holding": 4791,
      "kalinga": 4792,
      "kalaripp": 4793,
      "killed": 4794,
      "killing": 4795,
      "longest": 4796,
      "labour": 4797,
      "medals": 4798,
      "mandate": 4799,
      "mandating": 4800,
      "ndʊˈ": 4801,
      "nascent": 4802,
      "naval": 4803,
      "navratri": 4804,
      "oxford": 4805,
      "paper": 4806,
      "paid": 4807,
      "pythago": 4808,
      "pyjamas": 4809,
      "piled": 4810,
      "pilaf": 4811,
      "payments": 4812,
      "panchayat": 4813,
      "panchatant": 4814,
      "soldiers": 4815,
      "santal": 4816,
      "santali": 4817,
      "sindhi": 4818,
      "sindhu": 4819,
      "tunic": 4820,
      "tunics": 4821,
      "telling": 4822,
      "textile": 4823,
      "textiles": 4824,
      "varying": 4825,
      "yamuna": 4826,
      "ἰνδία": 4827,
      "ἰνδός": 4828,
      "thickening": 4829,
      "anatomy": 4830,
      "anatomically": 4831,
      "receive": 4832,
      "received": 4833,
      "reptile": 4834,
      "reptiles": 4835,
      "reflected": 4836,
      "reflecting": 4837,
      "representatives": 4838,
      "enabled": 4839,
      "enabling": 4840,
      "stressed": 4841,
      "stiffer": 4842,
      "arteries": 4843,
      "&": 4844,
      "/": 4845,
      "^": 4846,
      "ం": 4847,
      "ః": 4848,
      "అ": 4849,
      "ఆ": 4850,
      "ఇ": 4851,
      "ఈ": 4852,
      "ఉ": 4853,
      "ఋ": 4854,
      "ఎ": 4855,
      "ఏ": 4856,
      "ఐ": 4857,
      "ఒ": 4858,
      "ఓ": 4859,
      "ఔ": 4860,
      "క": 4861,
      "ఖ": 4862,
      "గ": 4863,
      "ఘ": 4864,
      "చ": 4865,
      "ఛ": 4866,
      "జ": 4867,
      "ఞ": 4868,
      "ట": 4869,
      "ఠ": 4870,
      "డ": 4871,
      "ఢ": 4872,
      "ణ": 4873,
      "త": 4874,
      "థ": 4875,
      "ద": 4876,
      "ధ": 4877,
      "న": 4878,
      "ప": 4879,
      "ఫ": 4880,
      "బ": 4881,
      "భ": 4882,
      "మ": 4883,
      "య": 4884,
      "ర": 4885,
      "ల": 4886,
      "ళ": 4887,
      "వ": 4888,
      "శ": 4889,
      "ష": 4890,
      "స": 4891,
      "హ": 4892,
      "ా": 4893,
      "ి": 4894,
      "ీ": 4895,
      "ు": 4896,
      "ూ": 4897,
      "ృ": 4898,
      "ె": 4899,
      "ే": 4900,
      "ై": 4901,
      "ొ": 4902,
      "ో": 4903,
      "ౌ": 4904,
      "్": 4905,
      "‌": 4906,
      "్ర": 4907,
      "ార": 4908,
      "లు": 4909,
      "లో": 4910,
      "స్": 4911,
      "్య": 4912,
      "న్": 4913,
      "ది": 4914,
      "దే": 4915,
      "ప్ర": 4916,
      "ిం": 4917,
      "దేశ": 4918,
      "ాల": 4919,
      "ిక": 4920,
      "ర్": 4921,
      "భార": 4922,
      "భారత": 4923,
      "న్న": 4924,
      "ాలు": 4925,
      "గా": 4926,
      "కు": 4927,
      "ని": 4928,
      "వి": 4929,
      "ాయ": 4930,
      "క్": 4931,
      "ాత": 4932,
      "దేశం": 4933,
      "ాన": 4934,
      "రా": 4935,
      "్ట": 4936,
      "ను": 4937,
      "ండ": 4938,
      "ము": 4939,
      "ీయ": 4940,
      "ద్": 4941,
      "ిన": 4942,
      "త్": 4943,
      "తి": 4944,
      "ల్": 4945,
      "స్త": 4946,
      "ించ": 4947,
      "ంది": 4948,
      "ంత": 4949,
      "రి": 4950,
      "సం": 4951,
      "రు": 4952,
      "పు": 4953,
      "ులు": 4954,
      "స్థ": 4955,
      "ింది": 4956,
      "ంట": 4957,
      "ాయి": 4958,
      "భారతదేశం": 4959,
      "ంలో": 4960,
      "భా": 4961,
      "ైన": 4962,
      "ంగ": 4963,
      "ూడ": 4964,
      "ంగా": 4965,
      "ధిక": 4966,
      "వా": 4967,
      "సా": 4968,
      "క్ష": 4969,
      "ఉన్న": 4970,
      "పా": 4971,
      "ారు": 4972,
      "టి": 4973,
      "ార్": 4974,
      "ిత": 4975,
      "్చ": 4976,
      "ష్ట": 4977,
      "కూడ": 4978,
      "జాత": 4979,
      "ప్రా": 4980,
      "రాజ": 4981,
      "కో": 4982,
      "క్ర": 4983,
      "కా": 4984,
      "చ్చ": 4985,
      "ట్ట": 4986,
      "నే": 4987,
      "మొ": 4988,
      "ంచ": 4989,
      "దు": 4990,
      "పే": 4991,
      "మా": 4992,
      "యా": 4993,
      "భారతీయ": 4994,
      "నా": 4995,
      "రై": 4996,
      "లి": 4997,
      "వ్య": 4998,
      "సి": 4999,
      "్ల": 5000,
      "త్వ": 5001,
      "తర": 5002,
      "వాత": 5003,
      "రాష్ట": 5004,
      "జాతీయ": 5005,
      "రాష్ట్ర": 5006,
      "గు": 5007,
      "తం": 5008,
      "తో": 5009,
      "వచ్చ": 5010,
      "ికి": 5011,
      "ద్ధ": 5012,
      "ల్ల": 5013,
      "అధిక": 5014,
      "కొ": 5015,
      "ఖ్య": 5016,
      "డు": 5017,
      "పాల": 5018,
      "మైన": 5019,
      "వే": 5020,
      "భారతదేశ": 5021,
      "ంత్ర": 5022,
      "ఒక": 5023,
      "కాల": 5024,
      "డి": 5025,
      "ణా": 5026,
      "ద్ర": 5027,
      "మార్": 5028,
      "ండి": 5029,
      "ఉంది": 5030,
      "చే": 5031,
      "ధ్య": 5032,
      "శా": 5033,
      "్‌": 5034,
      "ింద": 5035,
      "దేశాల": 5036,
      "ఉన్నాయి": 5037,
      "వ్యవ": 5038,
      "ఎన్న": 5039,
      "కి": 5040,
      "టు": 5041,
      "పార": 5042,
      "పంచ": 5043,
      "ాబ": 5044,
      "ాన్": 5045,
      "న్ని": 5046,
      "భారతదేశంలో": 5047,
      "చె": 5048,
      "డ్": 5049,
      "ధాన": 5050,
      "పె": 5051,
      "ిన్న": 5052,
      "ెండ": 5053,
      "ర్వ": 5054,
      "మార్గ": 5055,
      "వ్యవస్థ": 5056,
      "ంబ": 5057,
      "కృ": 5058,
      "కే": 5059,
      "కార": 5060,
      "తు": 5061,
      "దా": 5062,
      "హింద": 5063,
      "ానికి": 5064,
      "స్తు": 5065,
      "కూడా": 5066,
      "మొద": 5067,
      "అధికార": 5068,
      "కర": 5069,
      "ట్": 5070,
      "త్ర": 5071,
      "త్య": 5072,
      "దక్ష": 5073,
      "పర": 5074,
      "పరి": 5075,
      "మత": 5076,
      "మీ": 5077,
      "మే": 5078,
      "మధ్య": 5079,
      "వర": 5080,
      "సు": 5081,
      "ప్రపంచ": 5082,
      "ప్రధాన": 5083,
      "ద్ద": 5084,
      "స్థాన": 5085,
      "భాష": 5086,
      "ప్రాంత": 5087,
      "రాజ్య": 5088,
      "పేరు": 5089,
      "రైలు": 5090,
      "దాయ": 5091,
      "నాలు": 5092,
      "ప్": 5093,
      "వార": 5094,
      "వర్": 5095,
      "సభ": 5096,
      "క్కు": 5097,
      "ాత్ర": 5098,
      "దేశంలో": 5099,
      "్టీ": 5100,
      "క్రీ": 5101,
      "పార్టీ": 5102,
      "దక్షి": 5103,
      "అయ": 5104,
      "ఆర్": 5105,
      "జనా": 5106,
      "భు": 5107,
      "మి": 5108,
      "రో": 5109,
      "రెండ": 5110,
      "లం": 5111,
      "లా": 5112,
      "వె": 5113,
      "్యం": 5114,
      "ప్రజ": 5115,
      "ప్రభు": 5116,
      "ించింది": 5117,
      "హిందూ": 5118,
      "ంద్ర": 5119,
      "ఇతర": 5120,
      "గి": 5121,
      "తా": 5122,
      "తరు": 5123,
      "పూ": 5124,
      "పో": 5125,
      "మన": 5126,
      "లకు": 5127,
      "వీ": 5128,
      "వు": 5129,
      "శ్ర": 5130,
      "ష్": 5131,
      "ీన": 5132,
      "స్కృ": 5133,
      "ాల్": 5134,
      "ముఖ్య": 5135,
      "స్త్ర": 5136,
      "ించిన": 5137,
      "సాం": 5138,
      "వచ్చింది": 5139,
      "పెద్ద": 5140,
      "క్కువ": 5141,
      "అతి": 5142,
      "ఉత్": 5143,
      "ఉంట": 5144,
      "గర": 5145,
      "గీ": 5146,
      "జరి": 5147,
      "పట్ట": 5148,
      "బడ": 5149,
      "బా": 5150,
      "బె": 5151,
      "బ్ర": 5152,
      "మహ": 5153,
      "లలో": 5154,
      "వంట": 5155,
      "ుకు": 5156,
      "విధ": 5157,
      "భాగ": 5158,
      "వాణా": 5159,
      "మార్గాలు": 5160,
      "కేంద్ర": 5161,
      "ప్ప": 5162,
      "క్రీడ": 5163,
      "అయిన": 5164,
      "జనాభా": 5165,
      "ప్రభుత్వ": 5166,
      "తరువాత": 5167,
      "అనే": 5168,
      "ఇది": 5169,
      "ఎక్కువ": 5170,
      "ఏర్": 5171,
      "కీయ": 5172,
      "కలి": 5173,
      "గో": 5174,
      "గ్": 5175,
      "గిన": 5176,
      "జన": 5177,
      "టిక": 5178,
      "ణం": 5179,
      "బహ": 5180,
      "మంత్ర": 5181,
      "రవాణా": 5182,
      "లే": 5183,
      "లను": 5184,
      "సిం": 5185,
      "సరి": 5186,
      "ిల్ల": 5187,
      "్రా": 5188,
      "్రె": 5189,
      "ప్రస్తు": 5190,
      "ప్రదాయ": 5191,
      "క్క": 5192,
      "స్తాన్": 5193,
      "ందిన": 5194,
      "ంగ్రె": 5195,
      "సాధ": 5196,
      "పాకి": 5197,
      "రాజకీయ": 5198,
      "కాంగ్రె": 5199,
      "కాలంలో": 5200,
      "ఎన్నో": 5201,
      "ాబ్": 5202,
      "మొదటి": 5203,
      "దక్షిణ": 5204,
      "అత్య": 5205,
      "ఇండి": 5206,
      "ఉప": 5207,
      "క్య": 5208,
      "గల": 5209,
      "చిన్న": 5210,
      "దం": 5211,
      "పం": 5212,
      "పై": 5213,
      "పతి": 5214,
      "భూ": 5215,
      "మై": 5216,
      "మాన": 5217,
      "యు": 5218,
      "యో": 5219,
      "రంగ": 5220,
      "లతో": 5221,
      "వల": 5222,
      "శ్": 5223,
      "షు": 5224,
      "ావర": 5225,
      "ుకో": 5226,
      "ెలు": 5227,
      "్మ": 5228,
      "ప్రతి": 5229,
      "ాలలో": 5230,
      "ాలను": 5231,
      "విస్త": 5232,
      "ండు": 5233,
      "ించి": 5234,
      "సంస్కృ": 5235,
      "సంగీ": 5236,
      "ంగ్ల": 5237,
      "ిత్ర": 5238,
      "ప్రాచ": 5239,
      "క్రమ": 5240,
      "సిని": 5241,
      "సియా": 5242,
      "ద్ధి": 5243,
      "శాస్త్ర": 5244,
      "ఆర్ధిక": 5245,
      "సరిహ": 5246,
      "అత్యధిక": 5247,
      "ఇండియా": 5248,
      "ంధ": 5249,
      "ఆధ": 5250,
      "కాలు": 5251,
      "గణ": 5252,
      "గలు": 5253,
      "జాబ": 5254,
      "ట్ల": 5255,
      "ఢిల్ల": 5256,
      "ణి": 5257,
      "తిక": 5258,
      "తంత్ర": 5259,
      "దార": 5260,
      "ధి": 5261,
      "నీ": 5262,
      "నె": 5263,
      "నడి": 5264,
      "భిన్న": 5265,
      "మె": 5266,
      "మూడ": 5267,
      "మాత్ర": 5268,
      "రం": 5269,
      "రహ": 5270,
      "వై": 5271,
      "సౌ": 5272,
      "సము": 5273,
      "సింది": 5274,
      "సమా": 5275,
      "హార": 5276,
      "ీర్": 5277,
      "స్య": 5278,
      "స్వ": 5279,
      "స్వా": 5280,
      "్యాయ": 5281,
      "ప్రము": 5282,
      "భారత్": 5283,
      "వివిధ": 5284,
      "ద్దు": 5285,
      "ంతో": 5286,
      "సామ": 5287,
      "కోర్": 5288,
      "పేర్": 5289,
      "రాష్ట్రాలు": 5290,
      "రాష్ట్రపతి": 5291,
      "శాఖ": 5292,
      "డ్డ": 5293,
      "మొదల": 5294,
      "కర్య": 5295,
      "ప్రాంతాలు": 5296,
      "దేశంలోని": 5297,
      "రెండు": 5298,
      "ాల్లో": 5299,
      "ఉత్తర": 5300,
      "పట్టణ": 5301,
      "బెంగ": 5302,
      "బ్రి": 5303,
      "భాగం": 5304,
      "ప్పటిక": 5305,
      "ఏర్ప": 5306,
      "బహు": 5307,
      "మంత్రి": 5308,
      "సింధ": 5309,
      "సరిహద్దు": 5310,
      "ఢిల్లీ": 5311,
      "దారులు": 5312,
      "నడిప": 5313,
      "సౌకర్య": 5314,
      "ప్రముఖ": 5315,
      "ంద": 5316,
      "ందు": 5317,
      "అభ": 5318,
      "అను": 5319,
      "కం": 5320,
      "కళ": 5321,
      "కల్": 5322,
      "గే": 5323,
      "గంగా": 5324,
      "చార": 5325,
      "చరి": 5326,
      "చైన": 5327,
      "జ్య": 5328,
      "టం": 5329,
      "టీ": 5330,
      "టె": 5331,
      "తన": 5332,
      "తూ": 5333,
      "తమి": 5334,
      "తాబ్": 5335,
      "థిక": 5336,
      "నగర": 5337,
      "పత": 5338,
      "పొ": 5339,
      "పద్ధ": 5340,
      "పండు": 5341,
      "మలు": 5342,
      "మ్య": 5343,
      "రూ": 5344,
      "ళం": 5345,
      "ళ్ల": 5346,
      "వడ": 5347,
      "వహ": 5348,
      "వృ": 5349,
      "వత్": 5350,
      "శతాబ్": 5351,
      "సమ": 5352,
      "సై": 5353,
      "సార": 5354,
      "సర్వ": 5355,
      "ిమ": 5356,
      "ుంది": 5357,
      "స్వాత": 5358,
      "ాలతో": 5359,
      "న్నాయి": 5360,
      "నిర్వ": 5361,
      "నుక": 5362,
      "నుండి": 5363,
      "త్తం": 5364,
      "ల్వే": 5365,
      "ించే": 5366,
      "సంఖ్య": 5367,
      "ితా": 5368,
      "కూడిన": 5369,
      "మొత్తం": 5370,
      "రైల్వే": 5371,
      "వాతావర": 5372,
      "పాలన": 5373,
      "భారతదేశానికి": 5374,
      "ఒకటి": 5375,
      "చేయ": 5376,
      "దేశాలలో": 5377,
      "కారం": 5378,
      "తున్న": 5379,
      "అధికారిక": 5380,
      "ట్లు": 5381,
      "ప్రపంచంలో": 5382,
      "భాషలు": 5383,
      "వెబ": 5384,
      "ప్రజా": 5385,
      "ఉంటాయి": 5386,
      "జరిగిన": 5387,
      "వంటి": 5388,
      "అనేక": 5389,
      "ఎక్కువగా": 5390,
      "ప్రస్తుతం": 5391,
      "కాంగ్రెసు": 5392,
      "ప్రాచీన": 5393,
      "జాబితా": 5394,
      "రహదారులు": 5395,
      "సముద్ర": 5396,
      "అభి": 5397,
      "చరిత్ర": 5398,
      "శతాబ్దం": 5399,
      "స్వాతంత్ర": 5400,
      "నిర్వహ": 5401,
      "వాతావరణం": 5402,
      "%),": 5403,
      "23": 5404,
      "అని": 5405,
      "ఆఫ": 5406,
      "ఇవ": 5407,
      "కల": 5408,
      "ఖండ": 5409,
      "చి": 5410,
      "జి": 5411,
      "జన్": 5412,
      "టా": 5413,
      "డే": 5414,
      "ణంగా": 5415,
      "దన": 5416,
      "దీ": 5417,
      "ద్య": 5418,
      "నాయ": 5419,
      "న్యాయ": 5420,
      "పద": 5421,
      "పశ": 5422,
      "పక్ష": 5423,
      "పాత్ర": 5424,
      "మల": 5425,
      "మాలు": 5426,
      "మ్మ": 5427,
      "యాలు": 5428,
      "రే": 5429,
      "ర్య": 5430,
      "రకాల": 5431,
      "లక్ష": 5432,
      "వరి": 5433,
      "సర": 5434,
      "సూ": 5435,
      "హా": 5436,
      "ిల్": 5437,
      "ిస్త": 5438,
      "ీలు": 5439,
      "ుల": 5440,
      "ెల": 5441,
      "ోర": 5442,
      "లోక్": 5443,
      "స్లా": 5444,
      "దినాలు": 5445,
      "ప్రకారం": 5446,
      "ాలీ": 5447,
      "ాలకు": 5448,
      "ికత": 5449,
      "ిక్": 5450,
      "కుల": 5451,
      "కుంట": 5452,
      "కుటు": 5453,
      "నిర్": 5454,
      "ాయు": 5455,
      "రాస్య": 5456,
      "ములో": 5457,
      "ముంబ": 5458,
      "ద్వీ": 5459,
      "ల్లో": 5460,
      "సంఘ": 5461,
      "సంప్రదాయ": 5462,
      "సంవత్": 5463,
      "పుట్ట": 5464,
      "స్థాన్": 5465,
      "ంటే": 5466,
      "క్షరాస్య": 5467,
      "ఉన్నారు": 5468,
      "పాక్": 5469,
      "టిలో": 5470,
      "ంచి": 5471,
      "రైళ్ల": 5472,
      "రాష్ట్రాల": 5473,
      "వచ్చిన": 5474,
      "కొన్ని": 5475,
      "పాలిత": 5476,
      "మైనది": 5477,
      "వేగంగా": 5478,
      "భారతదేశపు": 5479,
      "ణాసియా": 5480,
      "భారతదేశంలోని": 5481,
      "చెందిన": 5482,
      "డ్డు": 5483,
      "వ్యవస్థలో": 5484,
      "కార్య": 5485,
      "కరణ": 5486,
      "పరంగా": 5487,
      "పరిశ్ర": 5488,
      "మేన": 5489,
      "ప్రధానమంత్రి": 5490,
      "స్థానంలో": 5491,
      "రాజ్యాలు": 5492,
      "వారస": 5493,
      "సభ్య": 5494,
      "ఆర్థిక": 5495,
      "రోడ్డు": 5496,
      "ముఖ్యమైన": 5497,
      "సాంప్రదాయ": 5498,
      "బాద్": 5499,
      "కేంద్రపాలిత": 5500,
      "ప్రభుత్వం": 5501,
      "కలిగి": 5502,
      "పాకిస్తాన్": 5503,
      "పాకిస్థాన్": 5504,
      "దక్షిణాన": 5505,
      "పైగా": 5506,
      "సంస్కృతి": 5507,
      "సంగీతం": 5508,
      "సినిమా": 5509,
      "శాస్త్రం": 5510,
      "ఆధార": 5511,
      "మూడు": 5512,
      "మాత్రం": 5513,
      "స్వతంత్ర": 5514,
      "స్వామ్య": 5515,
      "సామ్రా": 5516,
      "బెంగాలీ": 5517,
      "బ్రిటి": 5518,
      "ప్పటికీ": 5519,
      "నడిపించ": 5520,
      "వృద్ధి": 5521,
      "సర్వీ": 5522,
      "అభివృద్ధి": 5523,
      "ఆఫ్": 5524,
      "పశ్చ": 5525,
      "కుటుంబ": 5526,
      "క్షరాస్యత": 5527,
      "bn": 5528,
      "ంభ": 5529,
      "అహ": 5530,
      "అవి": 5531,
      "ఆక్రమ": 5532,
      "ఆహార": 5533,
      "ఇవి": 5534,
      "ఇంగ్ల": 5535,
      "ఇస్లా": 5536,
      "ఉండ": 5537,
      "కథ": 5538,
      "కూ": 5539,
      "కన్న": 5540,
      "కత్వ": 5541,
      "కింద": 5542,
      "కీర్": 5543,
      "చన": 5544,
      "చు": 5545,
      "చాల": 5546,
      "చిత్ర": 5547,
      "జీ": 5548,
      "జాలు": 5549,
      "జరు": 5550,
      "జంబ": 5551,
      "టే": 5552,
      "టై": 5553,
      "టర్": 5554,
      "టులు": 5555,
      "డిన": 5556,
      "తల": 5557,
      "తీ": 5558,
      "తె": 5559,
      "తే": 5560,
      "తము": 5561,
      "తులు": 5562,
      "తంలో": 5563,
      "తెలు": 5564,
      "దర": 5565,
      "నది": 5566,
      "పీ": 5567,
      "పార్": 5568,
      "బి": 5569,
      "బంగ్ల": 5570,
      "బంధ": 5571,
      "బడ్డ": 5572,
      "భర": 5573,
      "భౌ": 5574,
      "మర": 5575,
      "మూ": 5576,
      "మౌ": 5577,
      "మతి": 5578,
      "మంది": 5579,
      "మారు": 5580,
      "యం": 5581,
      "యింది": 5582,
      "రీ": 5583,
      "లీ": 5584,
      "లె": 5585,
      "లిం": 5586,
      "ళ్": 5587,
      "ళిక": 5588,
      "వులు": 5589,
      "వల్ల": 5590,
      "వలం": 5591,
      "శెల": 5592,
      "సహ": 5593,
      "సే": 5594,
      "స్ర": 5595,
      "సులు": 5596,
      "సైన": 5597,
      "సార్": 5598,
      "హై": 5599,
      "హిమ": 5600,
      "ాదేశ": 5601,
      "ాంగ": 5602,
      "ాపార": 5603,
      "ిగా": 5604,
      "ుకొ": 5605,
      "ూరు": 5606,
      "ెట్": 5607,
      "్వ": 5608,
      "ారంభ": 5609,
      "లోయ": 5610,
      "్యా": 5611,
      "ప్రారంభ": 5612,
      "దేశపు": 5613,
      "దేశానికి": 5614,
      "ాలనే": 5615,
      "ాలెండ": 5616,
      "ికా": 5617,
      "ర్త": 5618,
      "ర్ష": 5619,
      "ర్‌": 5620,
      "న్నది": 5621,
      "న్నారు": 5622,
      "గాంధ": 5623,
      "కులు": 5624,
      "నిస్తాన్": 5625,
      "విధ్య": 5626,
      "విభిన్న": 5627,
      "విద్య": 5628,
      "క్తి": 5629,
      "ాతో": 5630,
      "దేశంగా": 5631,
      "నులు": 5632,
      "నుంచి": 5633,
      "ద్వార": 5634,
      "త్వా": 5635,
      "త్తా": 5636,
      "సంకీర్": 5637,
      "సంబంధ": 5638,
      "పురు": 5639,
      "స్థి": 5640,
      "ంటు": 5641,
      "వాహ": 5642,
      "వాణి": 5643,
      "పాటు": 5644,
      "పాదన": 5645,
      "కూడుకు": 5646,
      "జాతి": 5647,
      "రాజు": 5648,
      "కోల్": 5649,
      "కాగా": 5650,
      "కాశ్": 5651,
      "ట్టమొదటి": 5652,
      "నేపాల": 5653,
      "మొట్టమొదటి": 5654,
      "మాబాద్": 5655,
      "నాగర": 5656,
      "లిచ": 5657,
      "వ్యాపార": 5658,
      "గువ": 5659,
      "గుర్త": 5660,
      "వచ్చు": 5661,
      "ద్ధం": 5662,
      "పాలించ": 5663,
      "ఒకే": 5664,
      "చేసింది": 5665,
      "్‌సై": 5666,
      "ఎన్నిక": 5667,
      "పెనీ": 5668,
      "కేవలం": 5669,
      "కారణంగా": 5670,
      "తుంది": 5671,
      "దాపు": 5672,
      "దాదాపు": 5673,
      "హిందీ": 5674,
      "త్రి": 5675,
      "మతాలు": 5676,
      "స్థానం": 5677,
      "భాషా": 5678,
      "రాజ్యాంగ": 5679,
      "నాలుగు": 5680,
      "వర్గ": 5681,
      "వర్ణ": 5682,
      "దక్షిణాసియా": 5683,
      "వెనుక": 5684,
      "ప్రజల": 5685,
      "హిందూదేశం": 5686,
      "పూర్వ": 5687,
      "వీటిలో": 5688,
      "శ్రీ": 5689,
      "ష్ణ": 5690,
      "స్కృతిక": 5691,
      "సాంస్కృతిక": 5692,
      "ఉంటుంది": 5693,
      "బడత": 5694,
      "బడిన": 5695,
      "బడింది": 5696,
      "మహా": 5697,
      "ుకుంట": 5698,
      "క్రీడలు": 5699,
      "తరువాతి": 5700,
      "కలిసి": 5701,
      "జనగణ": 5702,
      "లేదా": 5703,
      "సాధించ": 5704,
      "ఉపఖండ": 5705,
      "క్యాలెండ": 5706,
      "ుకోవడ": 5707,
      "ప్రతిపాదన": 5708,
      "విస్తారు": 5709,
      "ిత్రక": 5710,
      "సినిమాలు": 5711,
      "శాస్త్రీయ": 5712,
      "వైవిధ్య": 5713,
      "సమాఖ్య": 5714,
      "కోర్టు": 5715,
      "కోర్టులు": 5716,
      "పేర్లు": 5717,
      "పేర్కొ": 5718,
      "మొదలైన": 5719,
      "పట్టణాలు": 5720,
      "ఏర్పడ్డ": 5721,
      "బహుళ": 5722,
      "సింధు": 5723,
      "కంపెనీ": 5724,
      "చారిత్రక": 5725,
      "తమిళం": 5726,
      "నగరాలు": 5727,
      "పతకాలు": 5728,
      "పొందిన": 5729,
      "పద్ధతి": 5730,
      "పండుగలు": 5731,
      "ఒకటిగా": 5732,
      "వెబ్‌సై": 5733,
      "ప్రజాస్వామ్య": 5734,
      "సముద్రం": 5735,
      "స్వాతంత్ర్య": 5736,
      "నిర్వహణ": 5737,
      "జన్మ": 5738,
      "ముంబై": 5739,
      "సంప్రదాయాలు": 5740,
      "రైళ్లను": 5741,
      "కార్యక్రమ": 5742,
      "పరిశ్రమలు": 5743,
      "వారసత్వ": 5744,
      "సాంప్రదాయిక": 5745,
      "సర్వీసులు": 5746,
      "ఆఫ్ఘ": 5747,
      "isbn": 5748,
      "ఇస్లామాబాద్": 5749,
      "కన్నడ": 5750,
      "చాలా": 5751,
      "జరుపు": 5752,
      "జంబూ": 5753,
      "తెలుగు": 5754,
      "పీఠ": 5755,
      "బంగ్లాదేశ": 5756,
      "ళ్ళ": 5757,
      "శెలవు": 5758,
      "హిమాల": 5759,
      "గాంధీ": 5760,
      "ద్వారా": 5761,
      "త్వాన్ని": 5762,
      "వాణిజ్య": 5763,
      "కాశ్మీ": 5764,
      "నాగరికత": 5765,
      "వెనుకటి": 5766,
      "క్యాలెండర్": 5767,
      "వెబ్‌సైటు": 5768,
      "1లో": 5769,
      "56": 5770,
      "62": 5771,
      "7లో": 5772,
      "83": 5773,
      "8లో": 5774,
      "cia": 5775,
      "nt": 5776,
      "tbo": 5777,
      "unt": 5778,
      "ంక": 5779,
      "అణ": 5780,
      "అవ": 5781,
      "అంత": 5782,
      "అంట": 5783,
      "అన్ని": 5784,
      "అప్ప": 5785,
      "అమె": 5786,
      "అక్షరాస్యత": 5787,
      "ఆసియా": 5788,
      "ఇదే": 5789,
      "ఇండ": 5790,
      "ఇక్క": 5791,
      "ఇటీ": 5792,
      "ఈశ": 5793,
      "ఈస్": 5794,
      "ఎడ": 5795,
      "ఎల": 5796,
      "ఏప్ర": 5797,
      "ఐరో": 5798,
      "ఐక్య": 5799,
      "ఒలం": 5800,
      "కీ": 5801,
      "కలు": 5802,
      "కిక": 5803,
      "కాత": 5804,
      "కను": 5805,
      "కనుక": 5806,
      "కంటే": 5807,
      "కబడ్డ": 5808,
      "ఖో": 5809,
      "ఖని": 5810,
      "గత": 5811,
      "గమ": 5812,
      "గ్ర": 5813,
      "గర్": 5814,
      "గంగ": 5815,
      "గమన": 5816,
      "గ్రా": 5817,
      "గెలు": 5818,
      "చద": 5819,
      "చయ": 5820,
      "చీ": 5821,
      "చూ": 5822,
      "చవి": 5823,
      "చూడ": 5824,
      "చించిన": 5825,
      "చుకోవడ": 5826,
      "జల": 5827,
      "జో": 5828,
      "జ్": 5829,
      "జిక": 5830,
      "జ్యం": 5831,
      "జమ్మ": 5832,
      "టక": 5833,
      "ట్ర": 5834,
      "టలు": 5835,
      "టన్": 5836,
      "ట్‌": 5837,
      "టాన్": 5838,
      "టోర": 5839,
      "డైన": 5840,
      "ఢా": 5841,
      "ణులు": 5842,
      "తర్": 5843,
      "తను": 5844,
      "తంగా": 5845,
      "తత్వ": 5846,
      "తక్కువ": 5847,
      "థాలు": 5848,
      "థ్యం": 5849,
      "దర్": 5850,
      "దగా": 5851,
      "దరా": 5852,
      "దండ": 5853,
      "దులు": 5854,
      "ధీన": 5855,
      "నం": 5856,
      "నూ": 5857,
      "నిక": 5858,
      "పలు": 5859,
      "పిక": 5860,
      "పవి": 5861,
      "ప్ల": 5862,
      "పల్ల": 5863,
      "పడు": 5864,
      "పర్వ": 5865,
      "పతా": 5866,
      "పక్క": 5867,
      "పడిన": 5868,
      "ఫల": 5869,
      "బు": 5870,
      "బౌ": 5871,
      "బంగ": 5872,
      "భవ": 5873,
      "భక్తి": 5874,
      "భాతో": 5875,
      "మ్": 5876,
      "మాత": 5877,
      "మించ": 5878,
      "మిత": 5879,
      "మరో": 5880,
      "యాత్ర": 5881,
      "యమించ": 5882,
      "రకాలు": 5883,
      "రికా": 5884,
      "రచయ": 5885,
      "లౌ": 5886,
      "లకొ": 5887,
      "లమె": 5888,
      "లస్య": 5889,
      "ళా": 5890,
      "ళి": 5891,
      "వం": 5892,
      "విం": 5893,
      "వంత": 5894,
      "వరు": 5895,
      "వైన": 5896,
      "వార్": 5897,
      "వత్ర": 5898,
      "వనాలు": 5899,
      "వాయు": 5900,
      "శక": 5901,
      "శి": 5902,
      "శీ": 5903,
      "శై": 5904,
      "శో": 5905,
      "శకు": 5906,
      "షం": 5907,
      "షయాలు": 5908,
      "సన": 5909,
      "సీ": 5910,
      "సె": 5911,
      "సాల": 5912,
      "సిక్": 5913,
      "హో": 5914,
      "హ్ర": 5915,
      "ామ": 5916,
      "ాన్ని": 5917,
      "ాడే": 5918,
      "ిమాన": 5919,
      "ీం": 5920,
      "ీక్ష": 5921,
      "ీషు": 5922,
      "ుత్": 5923,
      "ూనది": 5924,
      "ౌర": 5925,
      "్మా": 5926,
      "‌సభ": 5927,
      "‌కాత": 5928,
      "ారి": 5929,
      "లుగా": 5930,
      "లోమీ": 5931,
      "స్వీ": 5932,
      "స్కరణ": 5933,
      "స్లిం": 5934,
      "దిన": 5935,
      "ప్రదేశ": 5936,
      "ప్రాయ": 5937,
      "ప్రసి": 5938,
      "ప్రత్య": 5939,
      "ప్రయో": 5940,
      "ప్రీం": 5941,
      "దేశీ": 5942,
      "దేశాలు": 5943,
      "ాలే": 5944,
      "ర్తి": 5945,
      "ర్పు": 5946,
      "ర్జాతీయ": 5947,
      "ర్చు": 5948,
      "ర్థ్యం": 5949,
      "భారతం": 5950,
      "భారత్‌": 5951,
      "న్నీ": 5952,
      "న్నై": 5953,
      "గాన్ని": 5954,
      "నిపు": 5955,
      "నిడి": 5956,
      "నియమించ": 5957,
      "విలు": 5958,
      "విమాన": 5959,
      "విశ్": 5960,
      "విషయాలు": 5961,
      "విదేశీ": 5962,
      "క్టోర": 5963,
      "ాతం": 5964,
      "ాతి": 5965,
      "ాత్మా": 5966,
      "ానీ": 5967,
      "ాను": 5968,
      "ాన్య": 5969,
      "ండ్": 5970,
      "ములు": 5971,
      "ముడి": 5972,
      "ముస్లిం": 5973,
      "ినీ": 5974,
      "తిరు": 5975,
      "స్తులు": 5976,
      "స్తారు": 5977,
      "ందింది": 5978,
      "సంస్కరణ": 5979,
      "పుకో": 5980,
      "పుతూ": 5981,
      "స్థావర": 5982,
      "ంటి": 5983,
      "భావిస్తారు": 5984,
      "భాగాన్ని": 5985,
      "వాదం": 5986,
      "సాహ": 5987,
      "సామా": 5988,
      "పావ": 5989,
      "పాంత": 5990,
      "పాడు": 5991,
      "కూడి": 5992,
      "కూడుకొ": 5993,
      "జాతులు": 5994,
      "కోట్ల": 5995,
      "క్రి": 5996,
      "కాహార": 5997,
      "కాపాడు": 5998,
      "చ్చే": 5999,
      "నేరే": 6000,
      "మొగలు": 6001,
      "ంచిన": 6002,
      "దుగా": 6003,
      "మాట్ల": 6004,
      "యాళం": 6005,
      "నాథ": 6006,
      "తరాలు": 6007,
      "గుబా": 6008,
      "వచ్చని": 6009,
      "వేద": 6010,
      "వేల": 6011,
      "కాలే": 6012,
      "డిస్": 6013,
      "ద్రా": 6014,
      "శాసన": 6015,
      "దేశాలను": 6016,
      "ఎన్నుకో": 6017,
      "ఎన్నుకుంట": 6018,
      "కిలోమీ": 6019,
      "చెప్": 6020,
      "చెంద": 6021,
      "చెందు": 6022,
      "చెన్నై": 6023,
      "వ్యవస్థకు": 6024,
      "కేతిక": 6025,
      "తులతో": 6026,
      "అధికారం": 6027,
      "త్యం": 6028,
      "పర్యాయ": 6029,
      "పరీక్ష": 6030,
      "పరిపాలన": 6031,
      "మీదగా": 6032,
      "వరీ": 6033,
      "సుప్రీం": 6034,
      "ప్రపంచములో": 6035,
      "స్థానాలను": 6036,
      "భాషలను": 6037,
      "ప్రాంతీయ": 6038,
      "ప్రాంతాల్లో": 6039,
      "రాజ్యంగా": 6040,
      "దాయంలో": 6041,
      "వారి": 6042,
      "వర్తి": 6043,
      "సభను": 6044,
      "జనాభాతో": 6045,
      "మిస్తు": 6046,
      "రెండవ": 6047,
      "రెండో": 6048,
      "లంక": 6049,
      "లాహో": 6050,
      "వెల్ల": 6051,
      "ప్రజలు": 6052,
      "ప్రభుత్వాన్ని": 6053,
      "పూర్తి": 6054,
      "పోయింది": 6055,
      "మనదేశం": 6056,
      "వుతుంది": 6057,
      "ముఖ్యంగా": 6058,
      "స్త్రీలు": 6059,
      "సాంకేతిక": 6060,
      "అతిపెద్ద": 6061,
      "జరిగే": 6062,
      "మహి": 6063,
      "మహాత్మా": 6064,
      "క్రీడా": 6065,
      "క్రీడలలో": 6066,
      "అయినా": 6067,
      "గోదా": 6068,
      "గోళిక": 6069,
      "గినది": 6070,
      "జనతా": 6071,
      "జనవరి": 6072,
      "లేదు": 6073,
      "ప్రస్తుతము": 6074,
      "క్కను": 6075,
      "సాధించిన": 6076,
      "కాంగ్రెస్": 6077,
      "ాబ్ది": 6078,
      "ఉపయో": 6079,
      "భూభాగం": 6080,
      "భూటాన్": 6081,
      "మానం": 6082,
      "యుగ": 6083,
      "రంగంలో": 6084,
      "వలన": 6085,
      "వలస": 6086,
      "ప్రతిపక్ష": 6087,
      "విస్తీర్": 6088,
      "గణతంత్ర": 6089,
      "నెలకొ": 6090,
      "మాత్రమే": 6091,
      "సమాజ": 6092,
      "స్వతం": 6093,
      "సామర్థ్యం": 6094,
      "ఉత్తరాన": 6095,
      "బ్రిటీ": 6096,
      "ప్పటికినీ": 6097,
      "సింధూనది": 6098,
      "సరిహద్దుగా": 6099,
      "సౌకర్యాలు": 6100,
      "సౌకర్యాలలో": 6101,
      "2003": 6102,
      "కళలు": 6103,
      "చైనా": 6104,
      "చైనాను": 6105,
      "తూర్పు": 6106,
      "తమిళ": 6107,
      "రూపాంత": 6108,
      "సమరం": 6109,
      "సారస్వతం": 6110,
      "సంఖ్యా": 6111,
      "రైల్వేశాఖ": 6112,
      "పాలనలో": 6113,
      "ప్రపంచంలోని": 6114,
      "వెబ్": 6115,
      "ప్రజాదర": 6116,
      "సముద్రతీ": 6117,
      "స్వాతంత్ర్యం": 6118,
      "నిర్వహించింది": 6119,
      "26న": 6120,
      "చిరు": 6121,
      "నాయకత్వ": 6122,
      "పదవి": 6123,
      "మలయాళం": 6124,
      "సూచించిన": 6125,
      "హాకీ": 6126,
      "ిస్తారు": 6127,
      "లోక్‌సభ": 6128,
      "కులాలు": 6129,
      "కుంటూ": 6130,
      "కుంటారు": 6131,
      "నిర్మ": 6132,
      "ాయుత": 6133,
      "ద్వీప": 6134,
      "సంవత్సర": 6135,
      "మేనని": 6136,
      "రాజ్యాలుగా": 6137,
      "సభ్యు": 6138,
      "సభ్యులు": 6139,
      "ఆధారపడిన": 6140,
      "సామ్రాజ్య": 6141,
      "సామ్రాజ్యం": 6142,
      "బ్రిటిష్": 6143,
      "బ్రిటిషు": 6144,
      "పశ్చిమ": 6145,
      "పశ్చిమాన": 6146,
      "185": 6147,
      "ofil": 6148,
      "ఆహారం": 6149,
      "ఇంగ్లీషు": 6150,
      "ఉండటం": 6151,
      "కిందకు": 6152,
      "టైటి": 6153,
      "టర్లకు": 6154,
      "పార్లమె": 6155,
      "భరత": 6156,
      "భౌగోళిక": 6157,
      "మూల": 6158,
      "మౌర్య": 6159,
      "సహస్ర": 6160,
      "సైనిక": 6161,
      "సార్వత్ర": 6162,
      "హైదరా": 6163,
      "ప్రారంభించ": 6164,
      "ర్షణ": 6165,
      "ర్‌ల": 6166,
      "విద్యుత్": 6167,
      "సంకీర్ణ": 6168,
      "పురుషు": 6169,
      "స్థితి": 6170,
      "కూడుకుని": 6171,
      "కోల్‌కాత": 6172,
      "నేపాల్": 6173,
      "పాలించారు": 6174,
      "ఎన్నికల్లో": 6175,
      "రాజ్యాంగం": 6176,
      "బడతారు": 6177,
      "మహాసముద్రం": 6178,
      "జనగణన": 6179,
      "ప్రతిపాదనకు": 6180,
      "మొదలైనవి": 6181,
      "ఏర్పడ్డాయి": 6182,
      "కార్యక్రమాలు": 6183,
      "ఆఫ్ఘనిస్తాన్": 6184,
      "జరుపుకుంటారు": 6185,
      "పీఠభూ": 6186,
      "బంగ్లాదేశ్‌": 6187,
      "శెలవుదినాలు": 6188,
      "హిమాలయ": 6189,
      "cee": 6190,
      "factbo": 6191,
      "profil": 6192,
      "అంతర్జాతీయ": 6193,
      "అమెరికా": 6194,
      "ఇండో": 6195,
      "ఈశాన్య": 6196,
      "ఈస్ట్": 6197,
      "ఎలక్టోర": 6198,
      "ఏప్రిల్": 6199,
      "ఐరోపా": 6200,
      "కనుమలు": 6201,
      "కబడ్డీ": 6202,
      "ఖనిజాలు": 6203,
      "గెలుచుకోవడ": 6204,
      "చూడండి": 6205,
      "జమ్మూ": 6206,
      "ట్రో": 6207,
      "ఢాకా": 6208,
      "తర్వాత": 6209,
      "పిక్‌": 6210,
      "పవిత్ర": 6211,
      "పక్కన": 6212,
      "బౌద్ధ": 6213,
      "బంగారు": 6214,
      "రచయిత": 6215,
      "లౌకిక": 6216,
      "ప్రసిద్ధి": 6217,
      "భారత్‌లో": 6218,
      "నిపుణులు": 6219,
      "నిడివి": 6220,
      "తిరుగుబా": 6221,
      "స్థావరాలు": 6222,
      "సామాజిక": 6223,
      "కూడుకొని": 6224,
      "కాపాడుకుంటూ": 6225,
      "నేరేడు": 6226,
      "మాట్లాడే": 6227,
      "ఎన్నుకోబడతారు": 6228,
      "కిలోమీటర్లకు": 6229,
      "చెప్పుకో": 6230,
      "చెందాయి": 6231,
      "చెందుతున్న": 6232,
      "పర్యాయాలు": 6233,
      "పూర్తిగా": 6234,
      "ఉపయోగి": 6235,
      "ప్రజాదరణ": 6236,
      "సూచించినట్లు": 6237,
      "సహస్రాబ్ది": 6238,
      "సార్వత్రిక": 6239,
      "కోల్‌కాతా": 6240,
      "profile": 6241,
      "ఎలక్టోరల్": 6242,
      "గెలుచుకోవడం": 6243,
      "తిరుగుబాటు": 6244,
      "%)": 6245,
      "%).": 6246,
      "):": 6247,
      ".).": 6248,
      "05": 6249,
      "07": 6250,
      "1000": 6251,
      "4లో": 6252,
      "421": 6253,
      "52": 6254,
      "546": 6255,
      "75": 6256,
      "740": 6257,
      "87": 6258,
      "hz": 6259,
      "hin": 6260,
      "mac": 6261,
      "pin": 6262,
      "rep": 6263,
      "ంజ": 6264,
      "ంతి": 6265,
      "ంకా": 6266,
      "ంకాగా": 6267,
      "ంథాలు": 6268,
      "అర": 6269,
      "అల": 6270,
      "అస్": 6271,
      "అది": 6272,
      "అన్న": 6273,
      "అల్": 6274,
      "అంది": 6275,
      "అరు": 6276,
      "అక్ష": 6277,
      "అవర": 6278,
      "అద్ద": 6279,
      "అలం": 6280,
      "అధి": 6281,
      "అంద": 6282,
      "అఖండ": 6283,
      "అమల": 6284,
      "అరే": 6285,
      "అంటే": 6286,
      "అంక": 6287,
      "అధీన": 6288,
      "అశో": 6289,
      "ఆగ": 6290,
      "ఆలో": 6291,
      "ఆవి": 6292,
      "ఆతి": 6293,
      "ఆక్ర": 6294,
      "ఆయా": 6295,
      "ఆనా": 6296,
      "ఆడు": 6297,
      "ఆధ్య": 6298,
      "ఆదాయ": 6299,
      "ఆగ్": 6300,
      "ఆవల": 6301,
      "ఆంగ్ల": 6302,
      "ఆణి": 6303,
      "ఆచార": 6304,
      "ఆర్య": 6305,
      "ఆక్షరాస్యత": 6306,
      "ఆటలు": 6307,
      "ఆనం": 6308,
      "ఆలస్య": 6309,
      "ఆదేశాలు": 6310,
      "ఇయ": 6311,
      "ఇన్": 6312,
      "ఇను": 6313,
      "ఇము": 6314,
      "ఇతి": 6315,
      "ఇస్త": 6316,
      "ఇంది": 6317,
      "ఇతరు": 6318,
      "ఇందు": 6319,
      "ఇప్పటికీ": 6320,
      "ఇతను": 6321,
      "ఇంటి": 6322,
      "ఇచ్చే": 6323,
      "ఇంకా": 6324,
      "ఉర్": 6325,
      "ఉద్": 6326,
      "ఉపా": 6327,
      "ఉండి": 6328,
      "ఉదా": 6329,
      "ఉండు": 6330,
      "ఉష్ణ": 6331,
      "ఉనిక": 6332,
      "ఋతు": 6333,
      "ఎమ": 6334,
      "ఎదు": 6335,
      "ఎగు": 6336,
      "ఎల్ల": 6337,
      "ఎంతో": 6338,
      "ఎగువ": 6339,
      "ఏక": 6340,
      "ఏడ": 6341,
      "ఏడు": 6342,
      "ఏటా": 6343,
      "ఏకత్వ": 6344,
      "ఏళ్ళ": 6345,
      "ఐదు": 6346,
      "ఒక్": 6347,
      "ఒరి": 6348,
      "ఒలిం": 6349,
      "ఒడిస్": 6350,
      "ఓడ": 6351,
      "ఓటర్": 6352,
      "ఔట్‌": 6353,
      "కిం": 6354,
      "కర్": 6355,
      "కని": 6356,
      "కాయ": 6357,
      "కరా": 6358,
      "కము": 6359,
      "కంట": 6360,
      "కార్": 6361,
      "కిత": 6362,
      "కష్ట": 6363,
      "కట్ట": 6364,
      "కమైన": 6365,
      "కమీ": 6366,
      "క్యం": 6367,
      "కమల": 6368,
      "కమేన": 6369,
      "కెట్": 6370,
      "కర్‌": 6371,
      "కత్తా": 6372,
      "కానీ": 6373,
      "కవరీ": 6374,
      "ఖిక": 6375,
      "ఖగో": 6376,
      "ఖర్చు": 6377,
      "ఖాతం": 6378,
      "గృ": 6379,
      "గె": 6380,
      "గతి": 6381,
      "గల్": 6382,
      "గించ": 6383,
      "గులు": 6384,
      "గింది": 6385,
      "గలి": 6386,
      "గిన్న": 6387,
      "గనులు": 6388,
      "గౌర": 6389,
      "ఘన": 6390,
      "ఘు": 6391,
      "ఘిక": 6392,
      "ఘట్ట": 6393,
      "ఘోర": 6394,
      "ఘర్షణ": 6395,
      "చా": 6396,
      "చో": 6397,
      "చ్": 6398,
      "చర్": 6399,
      "చము": 6400,
      "చిన": 6401,
      "చులు": 6402,
      "చింది": 6403,
      "చిత": 6404,
      "చక్ర": 6405,
      "చట్ట": 6406,
      "ఛాయుత": 6407,
      "జా": 6408,
      "జె": 6409,
      "జై": 6410,
      "జౌ": 6411,
      "జ్ర": 6412,
      "జాన": 6413,
      "జిన": 6414,
      "జంత": 6415,
      "జైన": 6416,
      "జపా": 6417,
      "జిత": 6418,
      "జ్‌": 6419,
      "జెండ": 6420,
      "జనాలు": 6421,
      "జిల్ల": 6422,
      "జవహ": 6423,
      "జెట్": 6424,
      "ఞాన": 6425,
      "టన": 6426,
      "టో": 6427,
      "టస్": 6428,
      "టండ": 6429,
      "టిన": 6430,
      "టాయి": 6431,
      "టంలో": 6432,
      "టచే": 6433,
      "ట్యం": 6434,
      "ట్రా": 6435,
      "టంతో": 6436,
      "టమూ": 6437,
      "ఠీ": 6438,
      "డ్ర": 6439,
      "డ్య": 6440,
      "డాల": 6441,
      "డాలు": 6442,
      "డింది": 6443,
      "డ్చ": 6444,
      "డ్ల": 6445,
      "డ్‌": 6446,
      "డానికి": 6447,
      "డించింది": 6448,
      "డబు": 6449,
      "డమ్": 6450,
      "ఢవి": 6451,
      "ణే": 6452,
      "ణిక": 6453,
      "ణాలు": 6454,
      "ణించ": 6455,
      "ణంతో": 6456,
      "ణదారులు": 6457,
      "ణుల": 6458,
      "తార": 6459,
      "తాయ": 6460,
      "తాన": 6461,
      "తరా": 6462,
      "తాయి": 6463,
      "తదు": 6464,
      "తక్కు": 6465,
      "తలం": 6466,
      "తగ్": 6467,
      "తమై": 6468,
      "తమ్య": 6469,
      "తాలతో": 6470,
      "తదేశపు": 6471,
      "థన": 6472,
      "థమ": 6473,
      "థి": 6474,
      "థాత": 6475,
      "థాన": 6476,
      "థార్": 6477,
      "దశ": 6478,
      "దస": 6479,
      "దూ": 6480,
      "దృ": 6481,
      "దాన": 6482,
      "దీయ": 6483,
      "దైన": 6484,
      "దారు": 6485,
      "దాబ": 6486,
      "దీన": 6487,
      "దగ్": 6488,
      "దీర్": 6489,
      "దగినది": 6490,
      "దక్కను": 6491,
      "ధం": 6492,
      "ధర": 6493,
      "ధు": 6494,
      "ధాల": 6495,
      "ధిన": 6496,
      "ధరి": 6497,
      "ధనా": 6498,
      "ధిల్ల": 6499,
      "నృ": 6500,
      "నై": 6501,
      "నో": 6502,
      "నలు": 6503,
      "న్య": 6504,
      "నాల": 6505,
      "నర్": 6506,
      "నవి": 6507,
      "నంలో": 6508,
      "నసా": 6509,
      "నికి": 6510,
      "నడు": 6511,
      "ననీ": 6512,
      "నాలతో": 6513,
      "నవచ్చు": 6514,
      "నబడిన": 6515,
      "నదులు": 6516,
      "నప్పటికినీ": 6517,
      "పక": 6518,
      "పబ": 6519,
      "పి": 6520,
      "పస్": 6521,
      "పది": 6522,
      "పిన": 6523,
      "పింది": 6524,
      "పంలో": 6525,
      "పూడ": 6526,
      "పిత": 6527,
      "పరాజ": 6528,
      "పచ్చ": 6529,
      "పలి": 6530,
      "పట్": 6531,
      "పించింది": 6532,
      "పకళ": 6533,
      "పటం": 6534,
      "పించే": 6535,
      "పిక్": 6536,
      "పస్ర": 6537,
      "పర్ష": 6538,
      "పబడింది": 6539,
      "పవనాలు": 6540,
      "పౌర": 6541,
      "పండ్": 6542,
      "పత్యం": 6543,
      "పటంలో": 6544,
      "ఫు": 6545,
      "ఫ్ర": 6546,
      "ఫర్": 6547,
      "ఫరా": 6548,
      "ఫ్ట": 6549,
      "ఫలం": 6550,
      "ఫిక్": 6551,
      "బల": 6552,
      "బై": 6553,
      "బొ": 6554,
      "బాల": 6555,
      "బండ": 6556,
      "బంగా": 6557,
      "బడ్": 6558,
      "బిన్న": 6559,
      "బాబ్": 6560,
      "బ్యా": 6561,
      "బద్ధం": 6562,
      "భ్య": 6563,
      "భిం": 6564,
      "భంగ": 6565,
      "భదాయ": 6566,
      "భజిత": 6567,
      "మయ": 6568,
      "మో": 6569,
      "మార": 6570,
      "మస్": 6571,
      "మిం": 6572,
      "మాల": 6573,
      "మాయ": 6574,
      "మరా": 6575,
      "మిన": 6576,
      "మంత": 6577,
      "మంలో": 6578,
      "మలి": 6579,
      "మతం": 6580,
      "మికి": 6581,
      "మ్‌": 6582,
      "మాల్": 6583,
      "మిత్ర": 6584,
      "మణి": 6585,
      "మంచి": 6586,
      "మసాల": 6587,
      "మద్రా": 6588,
      "మంజ": 6589,
      "యి": 6590,
      "యూ": 6591,
      "యస్": 6592,
      "యము": 6593,
      "యిన": 6594,
      "యులు": 6595,
      "యంలో": 6596,
      "యంతో": 6597,
      "యనులు": 6598,
      "యథాత": 6599,
      "రొ": 6600,
      "ర‌": 6601,
      "రలో": 6602,
      "రాలు": 6603,
      "రకు": 6604,
      "రాయ": 6605,
      "రము": 6606,
      "రద్": 6607,
      "రత్": 6608,
      "రంగా": 6609,
      "రక్ష": 6610,
      "రమైన": 6611,
      "రవే": 6612,
      "రమే": 6613,
      "రవీ": 6614,
      "రించిన": 6615,
      "రక్షరాస్యత": 6616,
      "రారి": 6617,
      "రాతి": 6618,
      "రతాయ": 6619,
      "రబద్ధం": 6620,
      "లిక": 6621,
      "లిన": 6622,
      "లైన": 6623,
      "లకాల": 6624,
      "లబె": 6625,
      "లపై": 6626,
      "లహా": 6627,
      "లమానం": 6628,
      "లఘు": 6629,
      "లబై": 6630,
      "లభ్య": 6631,
      "ళల": 6632,
      "ళు": 6633,
      "ళులు": 6634,
      "ళూరు": 6635,
      "ళవిం": 6636,
      "వత": 6637,
      "వూ": 6638,
      "వ‌": 6639,
      "వలి": 6640,
      "వస్తు": 6641,
      "వద్ద": 6642,
      "వమి": 6643,
      "వలను": 6644,
      "వస్థానంలో": 6645,
      "వనాథ": 6646,
      "వజ్ర": 6647,
      "వన్య": 6648,
      "శే": 6649,
      "శాల": 6650,
      "శక్": 6651,
      "శంలో": 6652,
      "శించే": 6653,
      "శిల్": 6654,
      "శక్తి": 6655,
      "శాతం": 6656,
      "శరద్": 6657,
      "షే": 6658,
      "షన్": 6659,
      "షాలు": 6660,
      "షులు": 6661,
      "షకాహార": 6662,
      "సొ": 6663,
      "సాలు": 6664,
      "సగా": 6665,
      "సాయ": 6666,
      "సిన": 6667,
      "సల్": 6668,
      "సభా": 6669,
      "సవా": 6670,
      "సత్య": 6671,
      "సమి": 6672,
      "సరం": 6673,
      "సీలు": 6674,
      "సత్తా": 6675,
      "సాయుత": 6676,
      "సలహా": 6677,
      "హె": 6678,
      "హొ": 6679,
      "హ్": 6680,
      "హిం": 6681,
      "హర్": 6682,
      "హాలు": 6683,
      "హాయ": 6684,
      "హస్త": 6685,
      "హపు": 6686,
      "హక్కు": 6687,
      "హ్మ": 6688,
      "హ్వ": 6689,
      "ాలో": 6690,
      "ాము": 6691,
      "ాదు": 6692,
      "ాంబ": 6693,
      "ాశ్ర": 6694,
      "ాలోయ": 6695,
      "ానిస్తాన్": 6696,
      "ాదాయంలో": 6697,
      "ాంతి": 6698,
      "ాడ్‌": 6699,
      "ాధిన": 6700,
      "ాపక": 6701,
      "ిని": 6702,
      "ిచె": 6703,
      "ిశ్ర": 6704,
      "ిలే": 6705,
      "ిరంగ": 6706,
      "ిద్ధి": 6707,
      "ిళ్ళ": 6708,
      "ిటన్": 6709,
      "ియనులు": 6710,
      "ీకృ": 6711,
      "ీకరణ": 6712,
      "ీకులు": 6713,
      "ుని": 6714,
      "ును": 6715,
      "ుల్": 6716,
      "ువు": 6717,
      "ుర్య": 6718,
      "ుపూర్వ": 6719,
      "ుడైన": 6720,
      "ునిక": 6721,
      "ుళూరు": 6722,
      "ూలా": 6723,
      "ూపం": 6724,
      "ృతంగా": 6725,
      "ెస్": 6726,
      "ెర్": 6727,
      "ెన్న": 6728,
      "ెనే": 6729,
      "ెడ్": 6730,
      "ెల్లో": 6731,
      "ెక్కను": 6732,
      "ేత": 6733,
      "ేష్": 6734,
      "ేకమైన": 6735,
      "ేననీ": 6736,
      "ేయులు": 6737,
      "ైక": 6738,
      "ైస్త": 6739,
      "ైపో": 6740,
      "ైవరు": 6741,
      "ోత్": 6742,
      "ోంది": 6743,
      "+": 6744,
      "|": 6745,
      "ँ": 6746,
      "ं": 6747,
      "ः": 6748,
      "अ": 6749,
      "आ": 6750,
      "इ": 6751,
      "ई": 6752,
      "उ": 6753,
      "ऊ": 6754,
      "ऋ": 6755,
      "ए": 6756,
      "ऐ": 6757,
      "ऑ": 6758,
      "ओ": 6759,
      "औ": 6760,
      "क": 6761,
      "ख": 6762,
      "ग": 6763,
      "घ": 6764,
      "च": 6765,
      "छ": 6766,
      "ज": 6767,
      "झ": 6768,
      "ञ": 6769,
      "ट": 6770,
      "ठ": 6771,
      "ड": 6772,
      "ढ": 6773,
      "ण": 6774,
      "त": 6775,
      "थ": 6776,
      "द": 6777,
      "ध": 6778,
      "न": 6779,
      "प": 6780,
      "फ": 6781,
      "ब": 6782,
      "भ": 6783,
      "म": 6784,
      "य": 6785,
      "र": 6786,
      "ऱ": 6787,
      "ल": 6788,
      "ळ": 6789,
      "व": 6790,
      "श": 6791,
      "ष": 6792,
      "स": 6793,
      "ह": 6794,
      "़": 6795,
      "ा": 6796,
      "ि": 6797,
      "ी": 6798,
      "ु": 6799,
      "ू": 6800,
      "ृ": 6801,
      "ॅ": 6802,
      "े": 6803,
      "ै": 6804,
      "ॉ": 6805,
      "ो": 6806,
      "ौ": 6807,
      "्": 6808,
      "ॠ": 6809,
      "।": 6810,
      "०": 6811,
      "१": 6812,
      "२": 6813,
      "३": 6814,
      "४": 6815,
      "५": 6816,
      "६": 6817,
      "७": 6818,
      "८": 6819,
      "९": 6820,
      "॰": 6821,
      "ॲ": 6822,
      "‍": 6823,
      "‘": 6824,
      "’": 6825,
      "“": 6826,
      "”": 6827,
      "†": 6828,
      "्य": 6829,
      "ार": 6830,
      "्र": 6831,
      "्या": 6832,
      "के": 6833,
      "ारत": 6834,
      "ात": 6835,
      "भारत": 6836,
      "र्": 6837,
      "स्": 6838,
      "का": 6839,
      "ें": 6840,
      "प्र": 6841,
      "या": 6842,
      "में": 6843,
      "ान": 6844,
      "िक": 6845,
      "है": 6846,
      "रा": 6847,
      "हे": 6848,
      "सा": 6849,
      "वि": 6850,
      "ला": 6851,
      "ने": 6852,
      "ना": 6853,
      "से": 6854,
      "वा": 6855,
      "क्": 6856,
      "ों": 6857,
      "की": 6858,
      "ीय": 6859,
      "आहे": 6860,
      "ले": 6861,
      "सं": 6862,
      "और": 6863,
      "ली": 6864,
      "त्र": 6865,
      "ां": 6866,
      "क्ष": 6867,
      "ती": 6868,
      "दे": 6869,
      "कर": 6870,
      "च्या": 6871,
      "मा": 6872,
      "भा": 6873,
      "पर": 6874,
      "राज": 6875,
      "त्": 6876,
      "था": 6877,
      "िया": 6878,
      "ची": 6879,
      "हा": 6880,
      "ष्": 6881,
      "मु": 6882,
      "तर": 6883,
      "ता": 6884,
      "ति": 6885,
      "हि": 6886,
      "कार": 6887,
      "ील": 6888,
      "न्": 6889,
      "चे": 6890,
      "ही": 6891,
      "द्": 6892,
      "ते": 6893,
      "पा": 6894,
      "हो": 6895,
      "भारतीय": 6896,
      "देश": 6897,
      "ंग": 6898,
      "को": 6899,
      "नि": 6900,
      "ून": 6901,
      "जात": 6902,
      "चा": 6903,
      "हु": 6904,
      "मि": 6905,
      "ित": 6906,
      "र्व": 6907,
      "ष्ट": 6908,
      "मध": 6909,
      "कि": 6910,
      "पू": 6911,
      "हैं": 6912,
      "मान": 6913,
      "दी": 6914,
      "वर्": 6915,
      "्ये": 6916,
      "शा": 6917,
      "एक": 6918,
      "सम": 6919,
      "ड़": 6920,
      "पु": 6921,
      "द्र": 6922,
      "वर": 6923,
      "त्या": 6924,
      "स्त": 6925,
      "वे": 6926,
      "वी": 6927,
      "लि": 6928,
      "नी": 6929,
      "श्": 6930,
      "दि": 6931,
      "राज्य": 6932,
      "प्रा": 6933,
      "सर": 6934,
      "अस": 6935,
      "द्ध": 6936,
      "बा": 6937,
      "आहेत": 6938,
      "चि": 6939,
      "भी": 6940,
      "भारता": 6941,
      "कृ": 6942,
      "ल्": 6943,
      "ार्": 6944,
      "ंत्र": 6945,
      "१९": 6946,
      "धिक": 6947,
      "रू": 6948,
      "लो": 6949,
      "ये": 6950,
      "र्म": 6951,
      "स्थ": 6952,
      "ष्ट्र": 6953,
      "ल्या": 6954,
      "इस": 6955,
      "मुख": 6956,
      "मो": 6957,
      "विध": 6958,
      "तथा": 6959,
      "स्था": 6960,
      "झा": 6961,
      "िण": 6962,
      "्रा": 6963,
      "उत्": 6964,
      "यु": 6965,
      "षा": 6966,
      "मी": 6967,
      "म्": 6968,
      "पूर्व": 6969,
      "री": 6970,
      "ातील": 6971,
      "जी": 6972,
      "प्": 6973,
      "तात": 6974,
      "ारा": 6975,
      "सि": 6976,
      "्यां": 6977,
      "जि": 6978,
      "भारतात": 6979,
      "मध्ये": 6980,
      "दक्ष": 6981,
      "दक्षिण": 6982,
      "ंड": 6983,
      "जन": 6984,
      "िय": 6985,
      "ंध": 6986,
      "वर्ष": 6987,
      "णा": 6988,
      "त्य": 6989,
      "दा": 6990,
      "भू": 6991,
      "ंत": 6992,
      "जा": 6993,
      "चीन": 6994,
      "दो": 6995,
      "धर्म": 6996,
      "राष्ट्र": 6997,
      "सु": 6998,
      "ाने": 6999,
      "बहु": 7000,
      "स्कृ": 7001,
      "र्थ": 7002,
      "अन": 7003,
      "साम": 7004,
      "भाग": 7005,
      "क्र": 7006,
      "व्य": 7007,
      "तक": 7008,
      "किया": 7009,
      "सरकार": 7010,
      "शास": 7011,
      "ळे": 7012,
      "सद": 7013,
      "क्षे": 7014,
      "रे": 7015,
      "्रे": 7016,
      "संस्कृ": 7017,
      "खा": 7018,
      "रु": 7019,
      "भाषा": 7020,
      "स्व": 7021,
      "क्षेत्र": 7022,
      "माण": 7023,
      "सी": 7024,
      "टि": 7025,
      "सार": 7026,
      "साथ": 7027,
      "अने": 7028,
      "िक्": 7029,
      "लोक": 7030,
      "लय": 7031,
      "स्थान": 7032,
      "पट": 7033,
      "ारी": 7034,
      "्यात": 7035,
      "उत्तर": 7036,
      "नाव": 7037,
      "बाद": 7038,
      "अनेक": 7039,
      "अधिक": 7040,
      "लग": 7041,
      "प्रदेश": 7042,
      "भारताच्या": 7043,
      "स्थाप": 7044,
      "यह": 7045,
      "काळ": 7046,
      "हिन्": 7047,
      "निर्": 7048,
      "हर": 7049,
      "ंगा": 7050,
      "वै": 7051,
      "ोग": 7052,
      "जाती": 7053,
      "धान": 7054,
      "ओं": 7055,
      "गया": 7056,
      "बी": 7057,
      "्राज": 7058,
      "साम्राज": 7059,
      "प्राचीन": 7060,
      "गर": 7061,
      "टी": 7062,
      "००": 7063,
      "णी": 7064,
      "उप": 7065,
      "ठा": 7066,
      "तो": 7067,
      "मह": 7068,
      "शी": 7069,
      "प्रकार": 7070,
      "प्त": 7071,
      "ंतर": 7072,
      "ंद्र": 7073,
      "तु": 7074,
      "दल": 7075,
      "द्य": 7076,
      "मंत्र": 7077,
      "चित्र": 7078,
      "जो": 7079,
      "ढ़": 7080,
      "रो": 7081,
      "गे": 7082,
      "थी": 7083,
      "होता": 7084,
      "बसे": 7085,
      "सबसे": 7086,
      "्रि": 7087,
      "जिस": 7088,
      "कड": 7089,
      "ठी": 7090,
      "बंध": 7091,
      "अप": 7092,
      "बन": 7093,
      "मुळे": 7094,
      "मिळ": 7095,
      "व्यव": 7096,
      "चित्रपट": 7097,
      "च्": 7098,
      "महा": 7099,
      "विविध": 7100,
      "वन": 7101,
      "कु": 7102,
      "नाम": 7103,
      "यां": 7104,
      "ंप": 7105,
      "ैन": 7106,
      "रूप": 7107,
      "साहि": 7108,
      "ंग्रे": 7109,
      "इंड": 7110,
      "गण": 7111,
      "व्या": 7112,
      "शिक्": 7113,
      "क्षा": 7114,
      "आण": 7115,
      "वं": 7116,
      "मुख्य": 7117,
      "शासन": 7118,
      "मे": 7119,
      "शिया": 7120,
      "सर्": 7121,
      "हिमा": 7122,
      "गु": 7123,
      "णे": 7124,
      "ब्रि": 7125,
      "आध": 7126,
      "पश्": 7127,
      "पश्चि": 7128,
      "अनु": 7129,
      "शि": 7130,
      "पद": 7131,
      "विश्": 7132,
      "स्तान": 7133,
      "टिश": 7134,
      "ब्रिटिश": 7135,
      "असे": 7136,
      "दिया": 7137,
      "काल": 7138,
      "तील": 7139,
      "हिं": 7140,
      "मध्य": 7141,
      "पूर्वी": 7142,
      "धी": 7143,
      "स्त्र": 7144,
      "पास": 7145,
      "गा": 7146,
      "सो": 7147,
      "द्वी": 7148,
      "सर्वा": 7149,
      "पूर्": 7150,
      "षण": 7151,
      "केंद्र": 7152,
      "हण": 7153,
      "माज": 7154,
      "झाले": 7155,
      "होते": 7156,
      "सर्व": 7157,
      "तिहा": 7158,
      "द्वीप": 7159,
      "कर्": 7160,
      "विश्व": 7161,
      "ंब": 7162,
      "मंत्री": 7163,
      "जे": 7164,
      "ऱ्या": 7165,
      "काही": 7166,
      "मधील": 7167,
      "म्हण": 7168,
      "शे": 7169,
      "चु": 7170,
      "दू": 7171,
      "बड़": 7172,
      "मत": 7173,
      "हुआ": 7174,
      "हुई": 7175,
      "बहुत": 7176,
      "अर्थ": 7177,
      "प्रमुख": 7178,
      "राष्ट्रीय": 7179,
      "व्यवस्था": 7180,
      "तिक": 7181,
      "मू": 7182,
      "रि": 7183,
      "प्रधान": 7184,
      "साम्राज्य": 7185,
      "इतिहा": 7186,
      "मै": 7187,
      "शक": 7188,
      "सभा": 7189,
      "त्व": 7190,
      "पाकि": 7191,
      "विधान": 7192,
      "संस्कृती": 7193,
      "पाकिस्तान": 7194,
      "गी": 7195,
      "गो": 7196,
      "ज़": 7197,
      "ृष्ट": 7198,
      "सेना": 7199,
      "ष्ठ": 7200,
      "जाता": 7201,
      "हिन्दी": 7202,
      "पूर्ण": 7203,
      "भर": 7204,
      "संख": 7205,
      "होती": 7206,
      "टे": 7207,
      "दु": 7208,
      "दान": 7209,
      "आज": 7210,
      "थे": 7211,
      "तिश": 7212,
      "ज्": 7213,
      "टक्": 7214,
      "ण्यात": 7215,
      "तंत्र": 7216,
      "ोड़": 7217,
      "प्रजाती": 7218,
      "मिल": 7219,
      "समय": 7220,
      "आणि": 7221,
      "पार": 7222,
      "ब्": 7223,
      "स्ट": 7224,
      "डी": 7225,
      "ृत": 7226,
      "संघ": 7227,
      "साहित्य": 7228,
      "हिमालय": 7229,
      "न्या": 7230,
      "बढ़": 7231,
      "हीं": 7232,
      "राज्यों": 7233,
      "इंग": 7234,
      "तसे": 7235,
      "नंतर": 7236,
      "बंगा": 7237,
      "मन": 7238,
      "वळ": 7239,
      "वार": 7240,
      "साठी": 7241,
      "पर्य": 7242,
      "ल्ली": 7243,
      "इंडिया": 7244,
      "शिक्षण": 7245,
      "तसेच": 7246,
      "शु": 7247,
      "आर्थ": 7248,
      "पी": 7249,
      "क्त": 7250,
      "लीन": 7251,
      "आर्थिक": 7252,
      "चल": 7253,
      "मं": 7254,
      "शन": 7255,
      "सह": 7256,
      "जाते": 7257,
      "लिए": 7258,
      "अन्य": 7259,
      "पै": 7260,
      "बां": 7261,
      "सिंध": 7262,
      "पह": 7263,
      "पे": 7264,
      "पती": 7265,
      "बौ": 7266,
      "योग": 7267,
      "्याने": 7268,
      "केले": 7269,
      "संसद": 7270,
      "दिल्ली": 7271,
      "युद्ध": 7272,
      "दोन": 7273,
      "इतिहास": 7274,
      "टक्के": 7275,
      "बौद्ध": 7276,
      "अर": 7277,
      "अन्": 7278,
      "दर": 7279,
      "पड": 7280,
      "बर": 7281,
      "रहा": 7282,
      "शह": 7283,
      "क्रम": 7284,
      "पश्चिम": 7285,
      "मार": 7286,
      "कां": 7287,
      "देशों": 7288,
      "महारा": 7289,
      "द्योग": 7290,
      "दिक": 7291,
      "मुद्र": 7292,
      "वैदिक": 7293,
      "त्ये": 7294,
      "दर्": 7295,
      "संविधान": 7296,
      "ग्र": 7297,
      "घे": 7298,
      "दार": 7299,
      "पृ": 7300,
      "सू": 7301,
      "सैन": 7302,
      "कारण": 7303,
      "पुर": 7304,
      "असते": 7305,
      "ार्थ": 7306,
      "झाला": 7307,
      "पासून": 7308,
      "इन": 7309,
      "इस्": 7310,
      "पर्व": 7311,
      "बना": 7312,
      "करने": 7313,
      "च्च": 7314,
      "जग": 7315,
      "विस्त": 7316,
      "वाद": 7317,
      "संख्या": 7318,
      "नाट": 7319,
      "बंगाल": 7320,
      "पार्": 7321,
      "विक": 7322,
      "वारा": 7323,
      "हार": 7324,
      "कालीन": 7325,
      "प्रत्ये": 7326,
      "भूमि": 7327,
      "प्रत्येक": 7328,
      "अंग्रे": 7329,
      "इतर": 7330,
      "एशिया": 7331,
      "कई": 7332,
      "जून": 7333,
      "डा": 7334,
      "नहीं": 7335,
      "यों": 7336,
      "हवा": 7337,
      "केली": 7338,
      "जाति": 7339,
      "हुए": 7340,
      "१९९": 7341,
      "इसके": 7342,
      "झाली": 7343,
      "अनुसार": 7344,
      "चुनाव": 7345,
      "ज्ञ": 7346,
      "हवामान": 7347,
      "आप": 7348,
      "उदा": 7349,
      "चार": 7350,
      "दृष्ट": 7351,
      "उन": 7352,
      "ाता": 7353,
      "नेत": 7354,
      "निर्माण": 7355,
      "महाराष्ट्र": 7356,
      "घो": 7357,
      "निक": 7358,
      "पठ": 7359,
      "साय": 7360,
      "लाल": 7361,
      "संबंध": 7362,
      "न्न": 7363,
      "द्वारा": 7364,
      "मैदान": 7365,
      "कॉ": 7366,
      "दशक": 7367,
      "श्र": 7368,
      "ौर": 7369,
      "क्ति": 7370,
      "करोड़": 7371,
      "ड़ा": 7372,
      "भाषाओं": 7373,
      "इस्ला": 7374,
      "टा": 7375,
      "ण्या": 7376,
      "शै": 7377,
      "सण": 7378,
      "समुद्र": 7379,
      "ृत्य": 7380,
      "वेश": 7381,
      "मोठ": 7382,
      "अभ": 7383,
      "अव": 7384,
      "वली": 7385,
      "लाग": 7386,
      "सर्वाधिक": 7387,
      "अर्थव्यवस्था": 7388,
      "ण्": 7389,
      "भे": 7390,
      "१८": 7391,
      "प्रमाण": 7392,
      "विका": 7393,
      "सैन्य": 7394,
      "नेतृ": 7395,
      "गठ": 7396,
      "तन": 7397,
      "ूह": 7398,
      "ारिक": 7399,
      "स्वर": 7400,
      "काम": 7401,
      "शास्त्र": 7402,
      "सम्": 7403,
      "स्वतंत्र": 7404,
      "बीच": 7405,
      "ंग्रेस": 7406,
      "चुनावों": 7407,
      "घोष": 7408,
      "क्षण": 7409,
      "देख": 7410,
      "च्छ": 7411,
      "जय": 7412,
      "फ्र": 7413,
      "बदल": 7414,
      "२००": 7415,
      "५०": 7416,
      "प्रां": 7417,
      "सामाज": 7418,
      "विष": 7419,
      "संगी": 7420,
      "ांचा": 7421,
      "भाज": 7422,
      "जातो": 7423,
      "किल्": 7424,
      "वेग": 7425,
      "असले": 7426,
      "असून": 7427,
      "येथ": 7428,
      "काळात": 7429,
      "शेष": 7430,
      "इंग्र": 7431,
      "पर्यंत": 7432,
      "सिंधू": 7433,
      "सामाजिक": 7434,
      "लन": 7435,
      "लु": 7436,
      "लिया": 7437,
      "व्": 7438,
      "समा": 7439,
      "विद्य": 7440,
      "उदाहर": 7441,
      "फ़": 7442,
      "बे": 7443,
      "यू": 7444,
      "परंत": 7445,
      "न्ह": 7446,
      "१९७": 7447,
      "संस्कृत": 7448,
      "कॉंग्रेस": 7449,
      "परंतु": 7450,
      "पं": 7451,
      "पक्ष": 7452,
      "शो": 7453,
      "सित": 7454,
      "िका": 7455,
      "ुनिक": 7456,
      "२०": 7457,
      "ाती": 7458,
      "सेवा": 7459,
      "शासित": 7460,
      "आधुनिक": 7461,
      "गंगा": 7462,
      "बो": 7463,
      "यात": 7464,
      "स्थित": 7465,
      "अतिश": 7466,
      "ग्": 7467,
      "द्या": 7468,
      "धि": 7469,
      "भग": 7470,
      "रक्षा": 7471,
      "शिय": 7472,
      "सक": 7473,
      "समाज": 7474,
      "ांशी": 7475,
      "करून": 7476,
      "भाष": 7477,
      "राज्यां": 7478,
      "निर": 7479,
      "वरील": 7480,
      "त्यां": 7481,
      "प्राप्त": 7482,
      "युक्त": 7483,
      "आधार": 7484,
      "बांध": 7485,
      "जगातील": 7486,
      "ण्ड": 7487,
      "संगीत": 7488,
      "येथील": 7489,
      "ंह": 7490,
      "जब": 7491,
      "ध्या": 7492,
      "लर": 7493,
      "ूप": 7494,
      "्यों": 7495,
      "यास": 7496,
      "भाव": 7497,
      "परमाण": 7498,
      "ष्ण": 7499,
      "कार्य": 7500,
      "वीं": 7501,
      "जनजाति": 7502,
      "गणराज्य": 7503,
      "सर्वो": 7504,
      "प्रधानमंत्री": 7505,
      "न्याया": 7506,
      "स्वरूप": 7507,
      "परमाणु": 7508,
      "अथ": 7509,
      "अम": 7510,
      "आक्रम": 7511,
      "कला": 7512,
      "जै": 7513,
      "नदी": 7514,
      "बार": 7515,
      "यी": 7516,
      "्यता": 7517,
      "वादी": 7518,
      "तरी": 7519,
      "युग": 7520,
      "अमे": 7521,
      "खन": 7522,
      "गों": 7523,
      "जल": 7524,
      "डॉ": 7525,
      "नृत्य": 7526,
      "प्रति": 7527,
      "धार": 7528,
      "बि": 7529,
      "रिक": 7530,
      "वृ": 7531,
      "साल": 7532,
      "सागर": 7533,
      "शहरी": 7534,
      "भूमिका": 7535,
      "अं": 7536,
      "आर": 7537,
      "आले": 7538,
      "आहार": 7539,
      "इम": 7540,
      "ईसा": 7541,
      "ओर": 7542,
      "ओळ": 7543,
      "गई": 7544,
      "तमिळ": 7545,
      "मसा": 7546,
      "मां": 7547,
      "मार्": 7548,
      "यार": 7549,
      "लों": 7550,
      "ळी": 7551,
      "वड": 7552,
      "शता": 7553,
      "ातंत्र": 7554,
      "ाना": 7555,
      "ांमध्ये": 7556,
      "भाई": 7557,
      "त्वा": 7558,
      "हाला": 7559,
      "न्द्र": 7560,
      "न्तु": 7561,
      "निवड": 7562,
      "वरून": 7563,
      "त्याचे": 7564,
      "लिये": 7565,
      "दक्षिणे": 7566,
      "ियों": 7567,
      "वर्षों": 7568,
      "वर्षां": 7569,
      "राष्ट्रपती": 7570,
      "स्वातंत्र": 7571,
      "क्षेत्रीय": 7572,
      "जिसमें": 7573,
      "गुप्त": 7574,
      "धीरे": 7575,
      "सर्वांत": 7576,
      "बहुतांशी": 7577,
      "ब्दी": 7578,
      "पहले": 7579,
      "अरब": 7580,
      "मोठ्या": 7581,
      "विकास": 7582,
      "नेतृत्व": 7583,
      "अतिशय": 7584,
      "इमारत": 7585,
      "ओळख": 7586,
      "शताब्दी": 7587,
      "उद्योग": 7588,
      "पीय": 7589,
      "राण": 7590,
      "वाह": 7591,
      "शिष्ट": 7592,
      "उदाहरण": 7593,
      "सर्वोच्च": 7594,
      "गत": 7595,
      "गां": 7596,
      "ज्या": 7597,
      "पहा": 7598,
      "नाड": 7599,
      "करण": 7600,
      "त्तर": 7601,
      "देशी": 7602,
      "वर्ण": 7603,
      "पुत्र": 7604,
      "वरी": 7605,
      "दिव": 7606,
      "सिद्ध": 7607,
      "भरत": 7608,
      "पर्वत": 7609,
      "अथवा": 7610,
      "गांधी": 7611,
      "ंती": 7612,
      "ऑफ": 7613,
      "जैन": 7614,
      "डे": 7615,
      "शां": 7616,
      "स्ति": 7617,
      "परंप": 7618,
      "किन": 7619,
      "सीमा": 7620,
      "गोल": 7621,
      "परंपरा": 7622,
      "एँ": 7623,
      "एवं": 7624,
      "पो": 7625,
      "पत्": 7626,
      "१५": 7627,
      "वायु": 7628,
      "राजनी": 7629,
      "हाँ": 7630,
      "ड़ी": 7631,
      "मोह": 7632,
      "म्भ": 7633,
      "प्ले": 7634,
      "जिन": 7635,
      "जनसंख्या": 7636,
      "दोलन": 7637,
      "सदस": 7638,
      "संस्कृति": 7639,
      "लगभग": 7640,
      "बंधन": 7641,
      "अपने": 7642,
      "कुछ": 7643,
      "कुल": 7644,
      "गुज": 7645,
      "दोनों": 7646,
      "अन्त": 7647,
      "स्वतंत्रता": 7648,
      "न्हें": 7649,
      "अजून": 7650,
      "आढ": 7651,
      "आली": 7652,
      "ख्": 7653,
      "घल": 7654,
      "घा": 7655,
      "चना": 7656,
      "ण्यां": 7657,
      "तयार": 7658,
      "नै": 7659,
      "नगर": 7660,
      "सभे": 7661,
      "सध्या": 7662,
      "ुसार": 7663,
      "नावा": 7664,
      "वाळ": 7665,
      "ांची": 7666,
      "मुघल": 7667,
      "होत": 7668,
      "देशा": 7669,
      "प्रामुख": 7670,
      "भारताचे": 7671,
      "मोठा": 7672,
      "सिंह": 7673,
      "सुरू": 7674,
      "सुरु": 7675,
      "भागात": 7676,
      "सदार": 7677,
      "खासदार": 7678,
      "स्थानिक": 7679,
      "निर्मि": 7680,
      "गेट": 7681,
      "कडे": 7682,
      "पैकी": 7683,
      "पृष्ठ": 7684,
      "विकसित": 7685,
      "दृष्ट्या": 7686,
      "किल्ला": 7687,
      "वेगळे": 7688,
      "पंजा": 7689,
      "प्रामुख्याने": 7690,
      "सुरुव": 7691,
      "आदि": 7692,
      "टन": 7693,
      "बत": 7694,
      "भि": 7695,
      "मरा": 7696,
      "सात": 7697,
      "सां": 7698,
      "श्च": 7699,
      "अधिकार": 7700,
      "स्थापना": 7701,
      "रोपीय": 7702,
      "इस्लामी": 7703,
      "इत्या": 7704,
      "उस": 7705,
      "कू": 7706,
      "ग्रा": 7707,
      "मिक": 7708,
      "सत": 7709,
      "ारे": 7710,
      "सम्रा": 7711,
      "लिय": 7712,
      "१९८": 7713,
      "बहुमत": 7714,
      "खास": 7715,
      "वंश": 7716,
      "सम्राट": 7717,
      "ँकि": 7718,
      "अप्र": 7719,
      "अलग": 7720,
      "आधिक": 7721,
      "जु": 7722,
      "डि": 7723,
      "तमिल": 7724,
      "थिय": 7725,
      "पड़": 7726,
      "बद": 7727,
      "बने": 7728,
      "बनी": 7729,
      "मक": 7730,
      "रहे": 7731,
      "वल": 7732,
      "शक्ति": 7733,
      "हथिय": 7734,
      "्ट": 7735,
      "१७": 7736,
      "२६": 7737,
      "ारम्भ": 7738,
      "केन्द्र": 7739,
      "स्तर": 7740,
      "प्रारम्भ": 7741,
      "संयुक्त": 7742,
      "करना": 7743,
      "ियाँ": 7744,
      "निभाई": 7745,
      "वर्ग": 7746,
      "समूह": 7747,
      "इसी": 7748,
      "अपनी": 7749,
      "बड़ा": 7750,
      "मूल": 7751,
      "ज़ी": 7752,
      "पार्टी": 7753,
      "पठार": 7754,
      "शैली": 7755,
      "गठबंधन": 7756,
      "भाजपा": 7757,
      "न्यायालय": 7758,
      "हालाँकि": 7759,
      "प्लेट": 7760,
      "आधिकारिक": 7761,
      "हथियार": 7762,
      "उष्ण": 7763,
      "पान": 7764,
      "फा": 7765,
      "मौर": 7766,
      "१०": 7767,
      "ात्": 7768,
      "प्रग": 7769,
      "प्रिय": 7770,
      "राजा": 7771,
      "ष्क": 7772,
      "पुरु": 7773,
      "ज्ञान": 7774,
      "पंजाब": 7775,
      "ंचा": 7776,
      "अशी": 7777,
      "उभ": 7778,
      "कमी": 7779,
      "चळ": 7780,
      "ठिका": 7781,
      "तां": 7782,
      "दख्": 7783,
      "ध्य": 7784,
      "नौ": 7785,
      "पंत": 7786,
      "भवन": 7787,
      "यक": 7788,
      "ळा": 7789,
      "शत": 7790,
      "हज": 7791,
      "ातून": 7792,
      "भारताने": 7793,
      "लां": 7794,
      "वापर": 7795,
      "ांच्या": 7796,
      "करतात": 7797,
      "करण्यात": 7798,
      "माध्य": 7799,
      "राज्या": 7800,
      "ष्ठा": 7801,
      "मानवी": 7802,
      "त्यात": 7803,
      "प्राण्यां": 7804,
      "सरे": 7805,
      "बाह": 7806,
      "भारताची": 7807,
      "मीर": 7808,
      "भूमी": 7809,
      "जास्त": 7810,
      "वैशिष्ट": 7811,
      "साम्राज्या": 7812,
      "गेली": 7813,
      "कडील": 7814,
      "यांनी": 7815,
      "हिंदू": 7816,
      "पूर्वीचे": 7817,
      "सोबत": 7818,
      "ंबे": 7819,
      "म्हणून": 7820,
      "म्हणजे": 7821,
      "पृष्ठा": 7822,
      "ार्थ्यां": 7823,
      "ण्यास": 7824,
      "घोषणा": 7825,
      "इंग्रजी": 7826,
      "व्हा": 7827,
      "विद्यार्थ्यां": 7828,
      "तमिळनाड": 7829,
      "आढळ": 7830,
      "निर्मिती": 7831,
      "चळवळ": 7832,
      "पंतप्रधान": 7833,
      "तमिळनाडू": 7834,
      "ंची": 7835,
      "अधि": 7836,
      "अस्ति": 7837,
      "ऋष": 7838,
      "कटि": 7839,
      "खो": 7840,
      "गंग": 7841,
      "तः": 7842,
      "धो": 7843,
      "धार्": 7844,
      "पि": 7845,
      "रण": 7846,
      "वसाय": 7847,
      "१२": 7848,
      "स्वी": 7849,
      "िकी": 7850,
      "त्रिक": 7851,
      "करता": 7852,
      "माना": 7853,
      "१९६": 7854,
      "व्यु": 7855,
      "स्थापत्य": 7856,
      "वंट": 7857,
      "मंदि": 7858,
      "जयंती": 7859,
      "धारण": 7860,
      "धार्मिक": 7861,
      "ँच": 7862,
      "ऊँ": 7863,
      "एं": 7864,
      "कह": 7865,
      "गए": 7866,
      "जवा": 7867,
      "जंग": 7868,
      "तत्": 7869,
      "नवी": 7870,
      "फल": 7871,
      "फे": 7872,
      "बै": 7873,
      "बॉ": 7874,
      "११": 7875,
      "१६": 7876,
      "प्रसिद्ध": 7877,
      "विभाग": 7878,
      "विदेशी": 7879,
      "लावा": 7880,
      "पालि": 7881,
      "किन्तु": 7882,
      "मान्य": 7883,
      "वर्त": 7884,
      "वेद": 7885,
      "ल्प": 7886,
      "जिसके": 7887,
      "महाद्वीप": 7888,
      "कर्ज": 7889,
      "बड़ी": 7890,
      "बड़े": 7891,
      "शुरू": 7892,
      "सहयोग": 7893,
      "विस्तृत": 7894,
      "अंग्रेजी": 7895,
      "आधारित": 7896,
      "डॉलर": 7897,
      "दिवस": 7898,
      "शांति": 7899,
      "पालिका": 7900,
      "खंड": 7901,
      "जाने": 7902,
      "लू": 7903,
      "राजस्थान": 7904,
      "लोकसभा": 7905,
      "महासागर": 7906,
      "इंडो": 7907,
      "चो": 7908,
      "भु": 7909,
      "४७": 7910,
      "नेह": 7911,
      "नागर": 7912,
      "वास्त": 7913,
      "तीन": 7914,
      "त्न": 7915,
      "ियां": 7916,
      "पाल": 7917,
      "श्मीर": 7918,
      "राज्यसभा": 7919,
      "१९५०": 7920,
      "०००": 7921,
      "उपयोग": 7922,
      "शुष्क": 7923,
      "गुजर": 7924,
      "मौर्य": 7925,
      "पुरुष": 7926,
      "घड": 7927,
      "चला": 7928,
      "छो": 7929,
      "जवळ": 7930,
      "णात": 7931,
      "द्यां": 7932,
      "नद्यां": 7933,
      "रंग": 7934,
      "वान": 7935,
      "वारी": 7936,
      "सून": 7937,
      "सस्त": 7938,
      "सल्": 7939,
      "सऱ्या": 7940,
      "सृष्ट": 7941,
      "ह्या": 7942,
      "ाला": 7943,
      "ूण": 7944,
      "१४": 7945,
      "केला": 7946,
      "भारती": 7947,
      "र्त": 7948,
      "स्लि": 7949,
      "स्पती": 7950,
      "स्मार": 7951,
      "प्रचल": 7952,
      "साग": 7953,
      "साली": 7954,
      "विद्या": 7955,
      "वाघ": 7956,
      "लेला": 7957,
      "क्षर": 7958,
      "देव": 7959,
      "राज्ये": 7960,
      "राजधान": 7961,
      "त्त्वा": 7962,
      "मुस्लि": 7963,
      "द्दल": 7964,
      "निय": 7965,
      "पूर": 7966,
      "त्यामुळे": 7967,
      "भारताला": 7968,
      "कृष": 7969,
      "येतात": 7970,
      "वर्षात": 7971,
      "णाऱ्या": 7972,
      "प्रदेशात": 7973,
      "वैविध": 7974,
      "प्रकारच्या": 7975,
      "गेल्या": 7976,
      "वनस्पती": 7977,
      "यांच्या": 7978,
      "व्यावसाय": 7979,
      "पदवी": 7980,
      "हिंदी": 7981,
      "सोयी": 7982,
      "रिका": 7983,
      "इंग्": 7984,
      "वारे": 7985,
      "पेक्ष": 7986,
      "पेक्षा": 7987,
      "पडले": 7988,
      "कांच्या": 7989,
      "विस्तार": 7990,
      "नाटके": 7991,
      "बंगालच्या": 7992,
      "तनत": 7993,
      "निरपेक्ष": 7994,
      "अमेरिका": 7995,
      "वर्षांपूर्वी": 7996,
      "स्वातंत्र्य": 7997,
      "अजूनही": 7998,
      "वाळवंट": 7999,
      "इत्यादी": 8000,
      "लियन": 8001,
      "दख्खन": 8002,
      "माध्यम": 8003,
      "गंगे": 8004,
      "सस्तन": 8005,
      "सल्तनत": 8006,
      "राजधानी": 8007,
      "मुस्लिम": 8008,
      "ns": 8009,
      "अब": 8010,
      "अभी": 8011,
      "अफ्र": 8012,
      "आर्": 8013,
      "आन्": 8014,
      "इं": 8015,
      "ऋतु": 8016,
      "कम": 8017,
      "जलो": 8018,
      "जाना": 8019,
      "धर्": 8020,
      "फै": 8021,
      "लया": 8022,
      "िम": 8023,
      "ीका": 8024,
      "ैल": 8025,
      "ोसी": 8026,
      "केवल": 8027,
      "र्ष": 8028,
      "प्रतिश": 8029,
      "प्रयास": 8030,
      "प्रभाव": 8031,
      "विवाद": 8032,
      "विभि": 8033,
      "लाख": 8034,
      "वाली": 8035,
      "ियान": 8036,
      "पाद": 8037,
      "मिला": 8038,
      "समर्थ": 8039,
      "वेष": 8040,
      "कृष्ट": 8041,
      "इसकी": 8042,
      "उत्पाद": 8043,
      "हिन्दू": 8044,
      "बनाने": 8045,
      "वन्य": 8046,
      "व्यापार": 8047,
      "अंग्रेज़ी": 8048,
      "यूरोपीय": 8049,
      "जबकि": 8050,
      "अमरी": 8051,
      "जलवायु": 8052,
      "राजनीतिक": 8053,
      "अप्रैल": 8054,
      "पड़ोसी": 8055,
      "ऋषभ": 8056,
      "वर्तमान": 8057,
      "अफ्रीका": 8058,
      "आन्दोलन": 8059,
      "जलोढ़": 8060,
      "धर्मा": 8061,
      "प्रतिशत": 8062,
      "विभिन्न": 8063,
      "समर्थन": 8064,
      "ंद": 8065,
      "आम": 8066,
      "आकर्": 8067,
      "उद": 8068,
      "उठा": 8069,
      "कल": 8070,
      "गम": 8071,
      "महि": 8072,
      "रचना": 8073,
      "१३": 8074,
      "त्त": 8075,
      "चाल": 8076,
      "केंद्रशासित": 8077,
      "कर्नाट": 8078,
      "तत्कालीन": 8079,
      "कर्नाटक": 8080,
      "ईस्ट": 8081,
      "कंप": 8082,
      "टना": 8083,
      "तरा": 8084,
      "वत": 8085,
      "सरा": 8086,
      "परि": 8087,
      "मिश्र": 8088,
      "मानव": 8089,
      "लिख": 8090,
      "१९४७": 8091,
      "ग्री": 8092,
      "इस्लाम": 8093,
      "घोषित": 8094,
      "गोंड": 8095,
      "गुजरात": 8096,
      "ंका": 8097,
      "अग": 8098,
      "कों": 8099,
      "टर": 8100,
      "डर": 8101,
      "डिया": 8102,
      "रल": 8103,
      "शहर": 8104,
      "शस्त्र": 8105,
      "सन्": 8106,
      "सक्र": 8107,
      "हॉ": 8108,
      "ाम": 8109,
      "ेक्षा": 8110,
      "४०": 8111,
      "प्रणा": 8112,
      "वित": 8113,
      "विजय": 8114,
      "वास": 8115,
      "क्ट": 8116,
      "त्री": 8117,
      "करते": 8118,
      "हाल": 8119,
      "ीलंका": 8120,
      "जीवन": 8121,
      "स्कृतिक": 8122,
      "लोकप्रिय": 8123,
      "पर्यटन": 8124,
      "सूची": 8125,
      "मैदानी": 8126,
      "श्रीलंका": 8127,
      "सांस्कृतिक": 8128,
      "कटिबंध": 8129,
      "नागरिक": 8130,
      "प्रणाली": 8131,
      "ंवर": 8132,
      "ंनी": 8133,
      "अशिया": 8134,
      "अलावा": 8135,
      "आत": 8136,
      "आस": 8137,
      "आला": 8138,
      "उच्च": 8139,
      "एन": 8140,
      "कले": 8141,
      "कच्छ": 8142,
      "गति": 8143,
      "घात": 8144,
      "छोड़": 8145,
      "जां": 8146,
      "जहाँ": 8147,
      "णु": 8148,
      "णारे": 8149,
      "तम": 8150,
      "थार": 8151,
      "दारी": 8152,
      "नदिया": 8153,
      "नद्या": 8154,
      "नुसार": 8155,
      "पर्": 8156,
      "पहि": 8157,
      "पहु": 8158,
      "पद्ध": 8159,
      "पणे": 8160,
      "फि": 8161,
      "बरो": 8162,
      "बद्दल": 8163,
      "भार": 8164,
      "भील": 8165,
      "मौ": 8166,
      "यत": 8167,
      "यश": 8168,
      "रह": 8169,
      "रही": 8170,
      "ळू": 8171,
      "ळूह": 8172,
      "वू": 8173,
      "वणात": 8174,
      "षणा": 8175,
      "हारा": 8176,
      "हळूह": 8177,
      "ाचा": 8178,
      "ेत": 8179,
      "ैकी": 8180,
      "ौद्योग": 8181,
      "२४": 8182,
      "्याद्र": 8183,
      "केवळ": 8184,
      "ातन": 8185,
      "स्कार": 8186,
      "प्रशासन": 8187,
      "प्रौद्योग": 8188,
      "विले": 8189,
      "वियत": 8190,
      "नेमा": 8191,
      "नाही": 8192,
      "वाढ": 8193,
      "वाटा": 8194,
      "लेय": 8195,
      "लेल्या": 8196,
      "लेणी": 8197,
      "ांत": 8198,
      "ांना": 8199,
      "देवा": 8200,
      "देखा": 8201,
      "करणे": 8202,
      "माल": 8203,
      "परी": 8204,
      "परे": 8205,
      "राज्यात": 8206,
      "राजनै": 8207,
      "त्त्व": 8208,
      "चीफ": 8209,
      "मुंब": 8210,
      "तरह": 8211,
      "हिस्": 8212,
      "न्ध": 8213,
      "होत्या": 8214,
      "कोई": 8215,
      "कोटी": 8216,
      "जातात": 8217,
      "मिलियन": 8218,
      "किये": 8219,
      "मानसून": 8220,
      "शालेय": 8221,
      "एकूण": 8222,
      "पुरा": 8223,
      "पुर्त": 8224,
      "स्तरा": 8225,
      "लिवू": 8226,
      "असल्या": 8227,
      "भारताचा": 8228,
      "रूस": 8229,
      "लोगों": 8230,
      "येते": 8231,
      "येथे": 8232,
      "स्थि": 8233,
      "झाल्या": 8234,
      "जीत": 8235,
      "सिनेमा": 8236,
      "जनता": 8237,
      "जनवरी": 8238,
      "भूषा": 8239,
      "सरकारें": 8240,
      "सदन": 8241,
      "खाली": 8242,
      "भाषाएँ": 8243,
      "उत्तरे": 8244,
      "नावाने": 8245,
      "स्थापन": 8246,
      "काळा": 8247,
      "काळातील": 8248,
      "उपमहाद्वीप": 8249,
      "महत्त्वा": 8250,
      "गेले": 8251,
      "जिसका": 8252,
      "अपना": 8253,
      "मिळते": 8254,
      "मिळतात": 8255,
      "चित्रपटसृष्ट": 8256,
      "ंपारिक": 8257,
      "ंपैकी": 8258,
      "गणला": 8259,
      "शिक्षणा": 8260,
      "पश्चिमी": 8261,
      "पदार्थ": 8262,
      "पदव्यु": 8263,
      "द्वीपसमूह": 8264,
      "जेवणात": 8265,
      "म्हणतात": 8266,
      "शेती": 8267,
      "पारंपारिक": 8268,
      "संघीय": 8269,
      "संघर्ष": 8270,
      "बढ़कर": 8271,
      "शुरु": 8272,
      "मंचा": 8273,
      "सह्याद्र": 8274,
      "युद्धात": 8275,
      "अन्तर": 8276,
      "पुरातन": 8277,
      "पुरस्कार": 8278,
      "बनाई": 8279,
      "पार्ट": 8280,
      "दृष्टि": 8281,
      "ण्याची": 8282,
      "अभियान": 8283,
      "लागले": 8284,
      "प्रमाणात": 8285,
      "क्षणिक": 8286,
      "प्रांत": 8287,
      "प्रांतात": 8288,
      "असलेली": 8289,
      "समाप्त": 8290,
      "समावेश": 8291,
      "जैसे": 8292,
      "ओळखले": 8293,
      "नावाचा": 8294,
      "सुरुवाती": 8295,
      "उसके": 8296,
      "ठिकाणी": 8297,
      "तांत्रिक": 8298,
      "बाहरी": 8299,
      "वैशिष्ट्य": 8300,
      "आढळतात": 8301,
      "चळवळी": 8302,
      "अस्तित्त्व": 8303,
      "मंदिरे": 8304,
      "कहते": 8305,
      "बॉलिवू": 8306,
      "छोटे": 8307,
      "व्यावसायिक": 8308,
      "अशियाई": 8309,
      "थारचे": 8310,
      "नदियाँ": 8311,
      "पद्धती": 8312,
      "बरोबर": 8313,
      "हळूहळू": 8314,
      "प्रौद्योगिकी": 8315,
      "राजनैतिक": 8316,
      "मुंबई": 8317,
      "पुर्तगा": 8318,
      "पदव्युत्तर": 8319,
      "सह्याद्री": 8320,
      "बॉलिवूड": 8321,
      "अज": 8322,
      "एका": 8323,
      "ओडि": 8324,
      "ख्या": 8325,
      "गि": 8326,
      "ग्रे": 8327,
      "ट्ट": 8328,
      "णि": 8329,
      "म्या": 8330,
      "सव": 8331,
      "सत्": 8332,
      "्न": 8333,
      "प्रे": 8334,
      "प्रश्": 8335,
      "वाय": 8336,
      "कीय": 8337,
      "ांग": 8338,
      "ांचे": 8339,
      "पुराण": 8340,
      "द्रा": 8341,
      "दिला": 8342,
      "उत्कृष्ट": 8343,
      "प्पा": 8344,
      "भूभाग": 8345,
      "धर्मीय": 8346,
      "अधिकृत": 8347,
      "अरबी": 8348,
      "शास्त्रीय": 8349,
      "अशो": 8350,
      "खु": 8351,
      "चर": 8352,
      "ज्य": 8353,
      "जरा": 8354,
      "पात": 8355,
      "पां": 8356,
      "यदा": 8357,
      "रत": 8358,
      "लिक": 8359,
      "शिक": 8360,
      "षिक": 8361,
      "षित": 8362,
      "स्र": 8363,
      "२८": 8364,
      "३८": 8365,
      "५७": 8366,
      "प्रभा": 8367,
      "ान्": 8368,
      "साद": 8369,
      "नेशिया": 8370,
      "वाला": 8371,
      "त्रि": 8372,
      "परिक": 8373,
      "निष्ठ": 8374,
      "शाही": 8375,
      "प्राप्": 8376,
      "क्री": 8377,
      "लगा": 8378,
      "हरलाल": 8379,
      "शिख": 8380,
      "हिंसा": 8381,
      "मध्यप्रदेश": 8382,
      "दर्श": 8383,
      "आक्रमण": 8384,
      "ात्मक": 8385,
      "जवाहरलाल": 8386,
      "इंडोनेशिया": 8387,
      "आकर्षित": 8388,
      "आंतर": 8389,
      "ईद": 8390,
      "चित": 8391,
      "नर": 8392,
      "फु": 8393,
      "ब्र": 8394,
      "बडी": 8395,
      "मले": 8396,
      "रत्न": 8397,
      "श्रे": 8398,
      "हती": 8399,
      "हारी": 8400,
      "प्रसार": 8401,
      "नेट": 8402,
      "वाज": 8403,
      "निवास": 8404,
      "वर्षा": 8405,
      "पुन": 8406,
      "सरी": 8407,
      "मोदी": 8408,
      "तुल": 8409,
      "संसदीय": 8410,
      "१९९१": 8411,
      "अमेरिक": 8412,
      "वृद्ध": 8413,
      "१९८४": 8414,
      "नेहरू": 8415,
      "प्रचलित": 8416,
      "ंक": 8417,
      "अति": 8418,
      "आग": 8419,
      "आय": 8420,
      "आयात": 8421,
      "इसे": 8422,
      "उसे": 8423,
      "उन्हें": 8424,
      "कप": 8425,
      "क्यों": 8426,
      "कश्मीर": 8427,
      "घर": 8428,
      "चली": 8429,
      "जट": 8430,
      "जमा": 8431,
      "तट": 8432,
      "तनाव": 8433,
      "बजट": 8434,
      "भ्यता": 8435,
      "यहाँ": 8436,
      "रख": 8437,
      "लै": 8438,
      "लौ": 8439,
      "लड़ा": 8440,
      "लंबे": 8441,
      "शील": 8442,
      "सहा": 8443,
      "सफल": 8444,
      "सभ्यता": 8445,
      "ृद्ध": 8446,
      "२२": 8447,
      "प्रका": 8448,
      "प्रदान": 8449,
      "प्रभु": 8450,
      "विरो": 8451,
      "विशेष": 8452,
      "नागा": 8453,
      "लेकर": 8454,
      "लीवि": 8455,
      "ांस": 8456,
      "करती": 8457,
      "परिण": 8458,
      "राजवंश": 8459,
      "पाया": 8460,
      "पाँच": 8461,
      "होना": 8462,
      "निम्": 8463,
      "निवेश": 8464,
      "किए": 8465,
      "किसी": 8466,
      "पूरा": 8467,
      "पूरे": 8468,
      "शाली": 8469,
      "समझ": 8470,
      "समृद्ध": 8471,
      "द्रो": 8472,
      "दिरा": 8473,
      "धिकार": 8474,
      "लोग": 8475,
      "इसका": 8476,
      "इसमें": 8477,
      "जिन्हें": 8478,
      "सामरिक": 8479,
      "भागी": 8480,
      "भाषाएं": 8481,
      "उत्तरी": 8482,
      "हिन्दु": 8483,
      "मंत्रिम": 8484,
      "शिक्षा": 8485,
      "सोवियत": 8486,
      "टेलीवि": 8487,
      "बढ़ती": 8488,
      "सिंधु": 8489,
      "डालर": 8490,
      "उनके": 8491,
      "उनकी": 8492,
      "संबंधों": 8493,
      "अवशेष": 8494,
      "फ्रांस": 8495,
      "२००४": 8496,
      "भाषी": 8497,
      "ण्डल": 8498,
      "कार्यकाल": 8499,
      "कार्यपालिका": 8500,
      "परंपरागत": 8501,
      "मोहन": 8502,
      "जिनमें": 8503,
      "सदस्य": 8504,
      "सदस्यों": 8505,
      "नौसेना": 8506,
      "ऊँची": 8507,
      "कृषि": 8508,
      "इंदिरा": 8509,
      "फैली": 8510,
      "अमरीकी": 8511,
      "सक्रिय": 8512,
      "हॉकी": 8513,
      "ामस्वरूप": 8514,
      "कटिबंधीय": 8515,
      "परीक्षण": 8516,
      "स्थिति": 8517,
      "शुरुआत": 8518,
      "आगमन": 8519,
      "सहायक": 8520,
      "परिणामस्वरूप": 8521,
      "निम्न": 8522,
      "मंत्रिमण्डल": 8523,
      "ंच्या": 8524,
      "अरा": 8525,
      "अग्": 8526,
      "अणु": 8527,
      "आसाम": 8528,
      "आहारा": 8529,
      "ईश": 8530,
      "ऊन": 8531,
      "ओघात": 8532,
      "कल्प": 8533,
      "गड": 8534,
      "टो": 8535,
      "ड्रा": 8536,
      "णू": 8537,
      "तच्या": 8538,
      "दह": 8539,
      "धा": 8540,
      "नमु": 8541,
      "नमार": 8542,
      "पसं": 8543,
      "पक्षा": 8544,
      "बळ": 8545,
      "मंड": 8546,
      "रणा": 8547,
      "ळून": 8548,
      "वतात": 8549,
      "वृत": 8550,
      "ववैविध": 8551,
      "शतक": 8552,
      "सै": 8553,
      "सदे": 8554,
      "हान": 8555,
      "ाले": 8556,
      "ीचे": 8557,
      "ृह": 8558,
      "‍नी": 8559,
      "र्ज": 8560,
      "काने": 8561,
      "प्रमा": 8562,
      "यामुळे": 8563,
      "ानंतर": 8564,
      "राला": 8565,
      "साधारण": 8566,
      "लाभ": 8567,
      "नां": 8568,
      "नाऱ्या": 8569,
      "लेख": 8570,
      "लेली": 8571,
      "संलग": 8572,
      "संपूर्ण": 8573,
      "ांवर": 8574,
      "क्षणा": 8575,
      "करत": 8576,
      "राजव": 8577,
      "राजकीय": 8578,
      "त्वे": 8579,
      "तिसऱ्या": 8580,
      "कारभार": 8581,
      "न्स": 8582,
      "पाच": 8583,
      "पाठ": 8584,
      "पाव": 8585,
      "पावली": 8586,
      "होतो": 8587,
      "देशात": 8588,
      "निध": 8589,
      "किनाऱ्या": 8590,
      "शाहज": 8591,
      "समी": 8592,
      "पुढ": 8593,
      "पुत": 8594,
      "त्याला": 8595,
      "त्याने": 8596,
      "लिश": 8597,
      "राज्यसभे": 8598,
      "सरस्व": 8599,
      "असली": 8600,
      "असतात": 8601,
      "असतो": 8602,
      "ार्थी": 8603,
      "मोठी": 8604,
      "मोसमी": 8605,
      "मीण": 8606,
      "्यांच्या": 8607,
      "्यांमध्ये": 8608,
      "सारख्या": 8609,
      "लोकसभे": 8610,
      "गरजे": 8611,
      "उपसाग": 8612,
      "प्रकारचे": 8613,
      "रोजी": 8614,
      "कडा": 8615,
      "कडून": 8616,
      "बनविले": 8617,
      "मिळाले": 8618,
      "व्यवसाय": 8619,
      "यांना": 8620,
      "यांचे": 8621,
      "यांचा": 8622,
      "आणली": 8623,
      "मुख्यत्वे": 8624,
      "हिमालया": 8625,
      "पश्चिमे": 8626,
      "पूर्वीच्या": 8627,
      "झालेले": 8628,
      "मूळ": 8629,
      "इतिहासा": 8630,
      "मैल": 8631,
      "शिक्षणपद्धती": 8632,
      "पीठ": 8633,
      "शहरे": 8634,
      "घेत": 8635,
      "घेण्यास": 8636,
      "आपले": 8637,
      "महाराष्ट्रातील": 8638,
      "पठारा": 8639,
      "शैक्षणिक": 8640,
      "मोठे": 8641,
      "देखील": 8642,
      "विषय": 8643,
      "किल्ल्या": 8644,
      "इंग्रजां": 8645,
      "विद्यार्थी": 8646,
      "शोध": 8647,
      "भाषे": 8648,
      "त्यांची": 8649,
      "आक्रमणे": 8650,
      "जैववैविध": 8651,
      "mother": 8652,
      "आरक्षणा": 8653,
      "आलेल्या": 8654,
      "आहारात": 8655,
      "मसाले": 8656,
      "मसाल्या": 8657,
      "निवडणू": 8658,
      "दक्षिणेकडील": 8659,
      "ज्याचा": 8660,
      "पत्‍नी": 8661,
      "पृष्ठीय": 8662,
      "सुरुवात": 8663,
      "मराठा": 8664,
      "ग्रामीण": 8665,
      "बदलां": 8666,
      "शतका": 8667,
      "राज्यातील": 8668,
      "जंगले": 8669,
      "जानेवारी": 8670,
      "रंगमंचा": 8671,
      "भारतीयांनी": 8672,
      "स्मारका": 8673,
      "इंग्लिश": 8674,
      "दख्खनच्या": 8675,
      "गंगेच्या": 8676,
      "वेषभूषा": 8677,
      "धर्माचा": 8678,
      "आमदार": 8679,
      "यशस्वी": 8680,
      "काळाच्या": 8681,
      "सुरुवातीला": 8682,
      "अस्तित्त्वात": 8683,
      "म्यानमार": 8684,
      "kilome": 8685,
      "अरावली": 8686,
      "अग्निध": 8687,
      "ईशान": 8688,
      "दहशत": 8689,
      "नमुने": 8690,
      "पक्षास": 8691,
      "वृतीय": 8692,
      "शतकात": 8693,
      "सैनि": 8694,
      "प्रमाणा": 8695,
      "साधारणपणे": 8696,
      "संलग्न": 8697,
      "शाहजहान": 8698,
      "सरस्वती": 8699,
      "गरजेचे": 8700,
      "उपसागराला": 8701,
      "kilometers": 8702,
      "आकार": 8703,
      "आंबे": 8704,
      "उम": 8705,
      "उर्व": 8706,
      "कथ": 8707,
      "कथा": 8708,
      "गल": 8709,
      "छा": 8710,
      "जू": 8711,
      "जंब": 8712,
      "डकर": 8713,
      "नमू": 8714,
      "पण": 8715,
      "पतन": 8716,
      "बं": 8717,
      "भौ": 8718,
      "यो": 8719,
      "यमु": 8720,
      "शृ": 8721,
      "ुव": 8722,
      "४५": 8723,
      "५००": 8724,
      "स्म": 8725,
      "कान": 8726,
      "प्रवेश": 8727,
      "हेब": 8728,
      "साहेब": 8729,
      "विरु": 8730,
      "नाइ": 8731,
      "नाग": 8732,
      "नाथ": 8733,
      "संर": 8734,
      "ांतर": 8735,
      "मुद्": 8736,
      "ताज": 8737,
      "हिनी": 8738,
      "कोर": 8739,
      "शाका": 8740,
      "पुरी": 8741,
      "ल्ले": 8742,
      "उत्तरा": 8743,
      "म्म": 8744,
      "जीव": 8745,
      "भूगोल": 8746,
      "व्यवस्थ": 8747,
      "गणतंत्र": 8748,
      "व्याप": 8749,
      "गुरू": 8750,
      "शिवा": 8751,
      "अर्थव्यवस्थ": 8752,
      "स्ट्रे": 8753,
      "हिमालयी": 8754,
      "इतिहासकार": 8755,
      "दर्भ": 8756,
      "अभि": 8757,
      "लागू": 8758,
      "लुप्त": 8759,
      "मार्ग": 8760,
      "गोलिक": 8761,
      "मराठी": 8762,
      "चोल": 8763,
      "आर्द्र": 8764,
      "कंपनी": 8765,
      "लिखित": 8766,
      "सत्ता": 8767,
      "प्रश्न": 8768,
      "आंबेडकर": 8769,
      "उर्वर": 8770,
      "जंबू": 8771,
      "भौगोलिक": 8772,
      "यमुना": 8773,
      "विरुद्ध": 8774,
      "ंपरिक": 8775,
      "आठ": 8776,
      "आव": 8777,
      "ऊर्": 8778,
      "गध": 8779,
      "जारी": 8780,
      "धन": 8781,
      "नन": 8782,
      "नया": 8783,
      "नर्म": 8784,
      "पत्र": 8785,
      "पमान": 8786,
      "मात": 8787,
      "मृत्य": 8788,
      "मगध": 8789,
      "लत": 8790,
      "व्र": 8791,
      "वार्": 8792,
      "शब्": 8793,
      "सॉ": 8794,
      "सिया": 8795,
      "हम": 8796,
      "हस्त": 8797,
      "िष्ठ": 8798,
      "ीण": 8799,
      "ोर": 8800,
      "ोत्तर": 8801,
      "२३": 8802,
      "२९": 8803,
      "३७": 8804,
      "४३": 8805,
      "७९": 8806,
      "र्ट": 8807,
      "ेंद्र": 8808,
      "याब": 8809,
      "राम": 8810,
      "सामान्य": 8811,
      "लाव": 8812,
      "लादेश": 8813,
      "संबो": 8814,
      "संगम": 8815,
      "त्पत्": 8816,
      "तापमान": 8817,
      "न्हे": 8818,
      "निर्म": 8819,
      "जातीय": 8820,
      "मानी": 8821,
      "मान्यता": 8822,
      "वर्तन": 8823,
      "वरिष्ठ": 8824,
      "षाण": 8825,
      "म्बे": 8826,
      "रीबी": 8827,
      "धर्मनिरपेक्ष": 8828,
      "क्रां": 8829,
      "रेशिय": 8830,
      "अधिकारी": 8831,
      "महात्": 8832,
      "मंत्रण": 8833,
      "रिवाज": 8834,
      "पारंपरिक": 8835,
      "मंच": 8836,
      "शहरा": 8837,
      "१९९०": 8838,
      "१९९८": 8839,
      "२००९": 8840,
      "१९७१": 8841,
      "सकल": 8842,
      "आर्य": 8843,
      "किनारे": 8844,
      "घाट": 8845,
      "ग्राम": 8846,
      "्टवे": 8847,
      "फायदा": 8848,
      "विजयनगर": 8849,
      "प्रभावित": 8850,
      "नरेंद्र": 8851,
      "नर्मदा": 8852,
      "मृत्यु": 8853,
      "वार्षिक": 8854,
      "शब्द": 8855,
      "संबोध": 8856,
      "महात्मा": 8857,
      "oon": 8858,
      "ंजन": 8859,
      "ंदोलन": 8860,
      "अर्": 8861,
      "अनि": 8862,
      "असम": 8863,
      "अल्": 8864,
      "अच्छ": 8865,
      "अक्ट": 8866,
      "आई": 8867,
      "आक": 8868,
      "आते": 8869,
      "आगे": 8870,
      "आंदोलन": 8871,
      "ऊपर": 8872,
      "एव": 8873,
      "एशन": 8874,
      "ऑपरे": 8875,
      "कमां": 8876,
      "खे": 8877,
      "गै": 8878,
      "गढ़": 8879,
      "चौ": 8880,
      "छह": 8881,
      "जान": 8882,
      "जों": 8883,
      "जन्": 8884,
      "झे": 8885,
      "झार": 8886,
      "ठक": 8887,
      "ढा": 8888,
      "तब": 8889,
      "थल": 8890,
      "थान": 8891,
      "नम": 8892,
      "नदि": 8893,
      "पड़ा": 8894,
      "बल": 8895,
      "बियों": 8896,
      "बन्ध": 8897,
      "भो": 8898,
      "भरा": 8899,
      "मना": 8900,
      "मील": 8901,
      "मही": 8902,
      "यर": 8903,
      "यें": 8904,
      "यद्य": 8905,
      "यपालिका": 8906,
      "रखा": 8907,
      "शक्त": 8908,
      "सौ": 8909,
      "सों": 8910,
      "सहि": 8911,
      "सदी": 8912,
      "सभी": 8913,
      "सशस्त्र": 8914,
      "हरा": 8915,
      "हत्या": 8916,
      "हार्": 8917,
      "ाफ": 8918,
      "ुप": 8919,
      "ूत": 8920,
      "ूबर": 8921,
      "५२": 8922,
      "ातार": 8923,
      "स्ता": 8924,
      "काज": 8925,
      "साक्षर": 8926,
      "विमान": 8927,
      "विशा": 8928,
      "विज्ञान": 8929,
      "विद्रो": 8930,
      "वाम": 8931,
      "ोंने": 8932,
      "तीसरी": 8933,
      "करे": 8934,
      "करो": 8935,
      "राजभाषा": 8936,
      "त्‍": 8937,
      "तिम": 8938,
      "कारी": 8939,
      "पाई": 8940,
      "होने": 8941,
      "भारतीयों": 8942,
      "नियों": 8943,
      "चाई": 8944,
      "दीव": 8945,
      "शामिल": 8946,
      "ड़ियाँ": 8947,
      "पुलि": 8948,
      "पुड़ा": 8949,
      "नीति": 8950,
      "र्मण": 8951,
      "स्थल": 8952,
      "मोर्": 8953,
      "मीणा": 8954,
      "ियो": 8955,
      "धर्मों": 8956,
      "बहुमूल": 8957,
      "क्रय": 8958,
      "क्रि": 8959,
      "सरकारों": 8960,
      "क्षेत्रों": 8961,
      "सारी": 8962,
      "लोकतांत्रिक": 8963,
      "स्थानीय": 8964,
      "लगातार": 8965,
      "प्रदेशों": 8966,
      "स्थापित": 8967,
      "हिन्द": 8968,
      "निर्भर": 8969,
      "प्राचीनतम": 8970,
      "जिसने": 8971,
      "जिसकी": 8972,
      "अपेक्षा": 8973,
      "बनने": 8974,
      "गुट": 8975,
      "मध्यम": 8976,
      "केंद्रीय": 8977,
      "चुकी": 8978,
      "साम्राज्यों": 8979,
      "ज़्या": 8980,
      "सेनाओं": 8981,
      "तिशील": 8982,
      "स्टाफ": 8983,
      "न्यायपालिका": 8984,
      "बढ़ा": 8985,
      "बढ़ने": 8986,
      "मनमोहन": 8987,
      "पैमान": 8988,
      "पहली": 8989,
      "दर्शन": 8990,
      "सूचना": 8991,
      "सैनिक": 8992,
      "बनाया": 8993,
      "1960": 8994,
      "उनका": 8995,
      "अवधि": 8996,
      "कामकाज": 8997,
      "सम्पूर्ण": 8998,
      "न्होंने": 8999,
      "पंथी": 9000,
      "२०१४": 9001,
      "सेवाओं": 9002,
      "सकता": 9003,
      "सकते": 9004,
      "mons": 9005,
      "विकासशील": 9006,
      "पहाड़ी": 9007,
      "वर्णन": 9008,
      "राजनीति": 9009,
      "अन्तर्": 9010,
      "अन्ततः": 9011,
      "घाटी": 9012,
      "सतपुड़ा": 9013,
      "केन्द्रशासित": 9014,
      "प्रारम्भिक": 9015,
      "उभरा": 9016,
      "ऊँचाई": 9017,
      "बैठक": 9018,
      "वास्तविक": 9019,
      "पुरुषों": 9020,
      "चलाया": 9021,
      "नियंत्र": 9022,
      "प्रभावशाली": 9023,
      "अगस्त": 9024,
      "आसपास": 9025,
      "छोड़कर": 9026,
      "पहुँच": 9027,
      "मालदीव": 9028,
      "हिस्सा": 9029,
      "पार्टियों": 9030,
      "पुर्तगाली": 9031,
      "आंतरिक": 9032,
      "फुट": 9033,
      "तुलना": 9034,
      "वृद्धि": 9035,
      "प्रकाश": 9036,
      "विरोध": 9037,
      "समझौ": 9038,
      "भागीदारी": 9039,
      "हिन्दुस्तान": 9040,
      "अक्टूबर": 9041,
      "आकर्मण": 9042,
      "ऑपरेशन": 9043,
      "कमांडर": 9044,
      "गैर": 9045,
      "नदियों": 9046,
      "यद्यपि": 9047,
      "सौहार्": 9048,
      "साक्षरता": 9049,
      "विशाल": 9050,
      "विद्रोह": 9051,
      "पुलिस": 9052,
      "बहुमूल्य": 9053,
      "सौहार्द": 9054,
      "ँग्रे": 9055,
      "ंच": 9056,
      "ंना": 9057,
      "ंवा": 9058,
      "ंदी": 9059,
      "ंठा": 9060,
      "ंचल": 9061,
      "अख": 9062,
      "अ‍": 9063,
      "असा": 9064,
      "अजि": 9065,
      "अलिक": 9066,
      "आद्र": 9067,
      "आल्या": 9068,
      "आशिय": 9069,
      "आघा": 9070,
      "इत": 9071,
      "इंद्र": 9072,
      "इव्": 9073,
      "इराण": 9074,
      "ऋत्य": 9075,
      "ऑग": 9076,
      "ऑस्": 9077,
      "ऑस्ट्रे": 9078,
      "कॅ": 9079,
      "कमा": 9080,
      "कन्या": 9081,
      "कनिष्ठ": 9082,
      "खात": 9083,
      "खून": 9084,
      "ख्रि": 9085,
      "गडा": 9086,
      "गळी": 9087,
      "गव्हा": 9088,
      "घट": 9089,
      "घटना": 9090,
      "चक्र": 9091,
      "चस्व": 9092,
      "चतु": 9093,
      "चांग": 9094,
      "जड": 9095,
      "जॉ": 9096,
      "जम्": 9097,
      "जगा": 9098,
      "झर्व": 9099,
      "ढऱ्या": 9100,
      "तद्": 9101,
      "तज्ञ": 9102,
      "थंड": 9103,
      "दली": 9104,
      "दमान": 9105,
      "दगड": 9106,
      "धड": 9107,
      "धर": 9108,
      "नृ": 9109,
      "नष्ट": 9110,
      "परा": 9111,
      "फळ": 9112,
      "बट": 9113,
      "बती": 9114,
      "बरी": 9115,
      "भवर्ष": 9116,
      "मते": 9117,
      "मरी": 9118,
      "मारा": 9119,
      "ममाण": 9120,
      "मणि": 9121,
      "यण": 9122,
      "यातील": 9123,
      "रळ": 9124,
      "रका": 9125,
      "रममाण": 9126,
      "ऱ्यां": 9127,
      "ऱ्यात": 9128,
      "ल्य": 9129,
      "लंड": 9130,
      "लंब": 9131,
      "लब्": 9132,
      "ळची": 9133,
      "ळकार": 9134,
      "वला": 9135,
      "वने": 9136,
      "सन": 9137,
      "सचि": 9138,
      "सभाग": 9139,
      "सिक्": 9140,
      "हळे": 9141,
      "हंप": 9142,
      "हाता": 9143,
      "ावर": 9144,
      "ामध्ये": 9145,
      "ासाठी": 9146,
      "िल": 9147,
      "ोबार": 9148,
      "्लो": 9149,
      "्त्वा": 9150,
      "४८": 9151,
      "५५": 9152,
      "्याच्या": 9153,
      "्याचे": 9154,
      "्यानंतर": 9155,
      "केल्या": 9156,
      "केरळ": 9157,
      "भारतभर": 9158,
      "स्फे": 9159,
      "स्वाय": 9160,
      "कावे": 9161,
      "काबी": 9162,
      "काश्मीर": 9163,
      "कांपैकी": 9164,
      "काँग्रे": 9165,
      "ेंच": 9166,
      "ेंजो": 9167,
      "प्रशास": 9168,
      "याच": 9169,
      "याचा": 9170,
      "यादी": 9171,
      "यानंतर": 9172,
      "यासाठी": 9173,
      "रामा": 9174,
      "साचे": 9175,
      "साडी": 9176,
      "सादर": 9177,
      "साजरा": 9178,
      "नाभवर्ष": 9179,
      "वाट": 9180,
      "वालय": 9181,
      "कीम": 9182,
      "लेले": 9183,
      "संत": 9184,
      "संप": 9185,
      "संसदे": 9186,
      "संशोध": 9187,
      "संदर्भ": 9188,
      "ांका": 9189,
      "ांसोबत": 9190,
      "ांविरुद्ध": 9191,
      "तीनंतर": 9192,
      "माग": 9193,
      "माश": 9194,
      "मुलगा": 9195,
      "ताचे": 9196,
      "तासाठी": 9197,
      "न्हा": 9198,
      "न्ही": 9199,
      "द्वारे": 9200,
      "तेथे": 9201,
      "पाट": 9202,
      "पाठी": 9203,
      "होय": 9204,
      "देश्य": 9205,
      "देशातील": 9206,
      "देशांमध्ये": 9207,
      "मधे": 9208,
      "किंवा": 9209,
      "मानला": 9210,
      "मानले": 9211,
      "वर्तु": 9212,
      "वर्चस्व": 9213,
      "्येकडील": 9214,
      "एकच": 9215,
      "समज": 9216,
      "पुन्हा": 9217,
      "त्याची": 9218,
      "त्यातील": 9219,
      "त्यासाठी": 9220,
      "वेढ": 9221,
      "वेरू": 9222,
      "वेळा": 9223,
      "लिही": 9224,
      "राज्यकर्": 9225,
      "प्राणी": 9226,
      "सरपट": 9227,
      "असत": 9228,
      "असणे": 9229,
      "द्धा": 9230,
      "बायो": 9231,
      "बाबती": 9232,
      "१९२०": 9233,
      "१९१३": 9234,
      "येणारे": 9235,
      "र्मी": 9236,
      "इसवी": 9237,
      "मुखी": 9238,
      "युरोपीय": 9239,
      "पूर्वे": 9240,
      "जीवा": 9241,
      "ाराचे": 9242,
      "्यांची": 9243,
      "्यांचे": 9244,
      "्यांचा": 9245,
      "वर्षे": 9246,
      "दाख": 9247,
      "जाऊ": 9248,
      "दोन्ही": 9249,
      "सुवर्ण": 9250,
      "सुधारण": 9251,
      "सुमारा": 9252,
      "सुद्धा": 9253,
      "बहुसंख": 9254,
      "सदांना": 9255,
      "क्षेत्रात": 9256,
      "क्षेत्रामध्ये": 9257,
      "टिळ": 9258,
      "लोकसंख": 9259,
      "लोकशाही": 9260,
      "लोकनृ": 9261,
      "स्थानिक्": 9262,
      "प्रदेशांत": 9263,
      "स्थापत्याचे": 9264,
      "धान्ये": 9265,
      "साम्राज्ये": 9266,
      "उपप्रकार": 9267,
      "उपसागर": 9268,
      "उपलब्": 9269,
      "मह्त्वा": 9270,
      "प्रकारात": 9271,
      "प्रकारची": 9272,
      "दलदली": 9273,
      "रोवली": 9274,
      "रोखून": 9275,
      "कडधान्ये": 9276,
      "बनला": 9277,
      "बनली": 9278,
      "मिळाला": 9279,
      "चित्रपटांची": 9280,
      "चित्रपटाला": 9281,
      "महाल": 9282,
      "महाखंड": 9283,
      "महाविद्या": 9284,
      "नामशेष": 9285,
      "साहित्यात": 9286,
      "शिरका": 9287,
      "ब्रिटिशकालीन": 9288,
      "ब्रिटिशांविरुद्ध": 9289,
      "असेही": 9290,
      "हिंदु": 9291,
      "झालेला": 9292,
      "झालेली": 9293,
      "सर्वात": 9294,
      "द्वीपकल्प": 9295,
      "मंत्रीमंड": 9296,
      "रिझर्व": 9297,
      "शकतात": 9298,
      "सभासदांना": 9299,
      "संस्कृतीची": 9300,
      "पाकिस्तानात": 9301,
      "गोड": 9302,
      "दुसऱ्या": 9303,
      "आजही": 9304,
      "ज्वाला": 9305,
      "वारसा": 9306,
      "बांग": 9307,
      "पहाता": 9308,
      "केलेल्या": 9309,
      "दिल्लीतील": 9310,
      "इतिहासातील": 9311,
      "पडतो": 9312,
      "क्रमांका": 9313,
      "कांचे": 9314,
      "कांनी": 9315,
      "घेऊ": 9316,
      "घेण्यात": 9317,
      "पर्वता": 9318,
      "जगात": 9319,
      "विकि": 9320,
      "आपल्या": 9321,
      "निकोबार": 9322,
      "समुद्रा": 9323,
      "अवलंब": 9324,
      "लागते": 9325,
      "प्रमाणे": 9326,
      "शास्त्रातील": 9327,
      "फ्रेंच": 9328,
      "प्रांताचे": 9329,
      "विषुव": 9330,
      "भाज्या": 9331,
      "वेगवेगळे": 9332,
      "असलेला": 9333,
      "असलेल्या": 9334,
      "काळातच": 9335,
      "उदाहरणे": 9336,
      "सेवांचा": 9337,
      "राज्यांत": 9338,
      "राज्यांच्या": 9339,
      "राज्यांमध्ये": 9340,
      "त्यांचा": 9341,
      "त्यांनी": 9342,
      "बांधले": 9343,
      "बांधली": 9344,
      "बांधून": 9345,
      "बांधणी": 9346,
      "भावार्थ": 9347,
      "स्वरूपात": 9348,
      "युगातील": 9349,
      "नृत्यप्रकार": 9350,
      "वृक्ष": 9351,
      "अंदमान": 9352,
      "मसाला": 9353,
      "निवडले": 9354,
      "निवडतात": 9355,
      "दक्षिणेतील": 9356,
      "इमारती": 9357,
      "ओळखला": 9358,
      "stor": 9359,
      "पुत्रा": 9360,
      "किनारा": 9361,
      "मोहेंजो": 9362,
      "गुजरा": 9363,
      "नैऋत्य": 9364,
      "नावाची": 9365,
      "देशाचे": 9366,
      "गेटवे": 9367,
      "श्चन": 9368,
      "कूल": 9369,
      "जुन्या": 9370,
      "पानगळी": 9371,
      "फाळ": 9372,
      "प्रगती": 9373,
      "हजार": 9374,
      "प्राण्यांच्या": 9375,
      "प्राण्यांमध्ये": 9376,
      "बाह्य": 9377,
      "वैशिष्ट्ये": 9378,
      "साम्राज्याच्या": 9379,
      "साम्राज्याची": 9380,
      "पृष्ठाचा": 9381,
      "व्हावे": 9382,
      "विद्यार्थ्यांची": 9383,
      "तमिळनाडूतील": 9384,
      "खोरे": 9385,
      "धोरण": 9386,
      "स्वीकार": 9387,
      "स्थापत्यशास्त्रातील": 9388,
      "१६३८": 9389,
      "१६४८": 9390,
      "घडल्या": 9391,
      "जवळपास": 9392,
      "नद्यांमध्ये": 9393,
      "वानंतर": 9394,
      "स्मारक": 9395,
      "विद्यापीठ": 9396,
      "वनस्पतीं": 9397,
      "यांच्यात": 9398,
      "इंग्लंड": 9399,
      "स्वातंत्र्यप्राप्": 9400,
      "दख्खनचे": 9401,
      "गंगेचे": 9402,
      "आर्क": 9403,
      "वन्यसंप": 9404,
      "andmother": 9405,
      "ऋषभदेवा": 9406,
      "rad": 9407,
      "उदयास": 9408,
      "उठाव": 9409,
      "महिन": 9410,
      "चालतो": 9411,
      "ग्रीक": 9412,
      "गोंडवन": 9413,
      "पर्जन": 9414,
      "पहिला": 9415,
      "ेतही": 9416,
      "देवाच्या": 9417,
      "पुराव": 9418,
      "स्तरावर": 9419,
      "असल्याने": 9420,
      "असल्याची": 9421,
      "झाल्यानंतर": 9422,
      "महत्त्वाच्या": 9423,
      "चित्रपटसृष्टी": 9424,
      "शिक्षणाच्या": 9425,
      "पदार्थांचा": 9426,
      "अजनाभवर्ष": 9427,
      "ओडिशा": 9428,
      "गिधा": 9429,
      "प्रेमक": 9430,
      "अशोकाने": 9431,
      "पांढऱ्या": 9432,
      "शिकारी": 9433,
      "हिंसाचार": 9434,
      "मध्यप्रदेशातील": 9435,
      "ड्राइव्": 9436,
      "पसंती": 9437,
      "लेखक": 9438,
      "राजवट": 9439,
      "किनाऱ्यालग": 9440,
      "पुढार": 9441,
      "पुतळा": 9442,
      "राज्यसभेतील": 9443,
      "पश्चिमेकडे": 9444,
      "पठारावरील": 9445,
      "इंग्रजांनी": 9446,
      "जैववैविध्य": 9447,
      "आरक्षणामुळे": 9448,
      "मसाल्यां": 9449,
      "निवडणूक": 9450,
      "बदलांमुळे": 9451,
      "स्मारकावरून": 9452,
      "अग्निध्रा": 9453,
      "ईशान्येकडील": 9454,
      "दहशतवाद": 9455,
      "शाहजहानने": 9456,
      "उमट": 9457,
      "नमूद": 9458,
      "बंदर": 9459,
      "नाइट": 9460,
      "नागपूर": 9461,
      "संरक्षण": 9462,
      "ताजमहाल": 9463,
      "कोरडे": 9464,
      "उत्तरांचल": 9465,
      "गुरूकूल": 9466,
      "शिवाजी": 9467,
      "अर्थव्यवस्थेत": 9468,
      "हिमालयीन": 9469,
      "उर्वरित": 9470,
      "grandmother": 9471,
      "अ‍ॅ": 9472,
      "अजिंठा": 9473,
      "आशियातील": 9474,
      "आघाडी": 9475,
      "इतका": 9476,
      "ऑगस्ट": 9477,
      "ऑस्कर": 9478,
      "कमाली": 9479,
      "ख्रिश्चन": 9480,
      "जॉर्ज": 9481,
      "जम्मू": 9482,
      "धरतो": 9483,
      "बरीच": 9484,
      "मरीन": 9485,
      "सचिवालय": 9486,
      "सभागृह": 9487,
      "सिक्कीम": 9488,
      "हाताळून": 9489,
      "स्फेअर": 9490,
      "काबीज": 9491,
      "काँग्रेस": 9492,
      "प्रशासना": 9493,
      "रामायण": 9494,
      "वर्तुळकार": 9495,
      "बायोस्फेअर": 9496,
      "बाबतीत": 9497,
      "सुधारणांचा": 9498,
      "सुमारास": 9499,
      "बहुसंख्य": 9500,
      "लोकसंख्ये": 9501,
      "लोकनृत्याचे": 9502,
      "उपलब्ध": 9503,
      "हिंदुस्थान": 9504,
      "मंत्रीमंडळ": 9505,
      "ज्वालामुखी": 9506,
      "१६३८ला": 9507,
      "स्वातंत्र्यप्राप्तीनंतर": 9508,
      "गिधाड": 9509,
      "ड्राइव्ह": 9510,
      "ंथ": 9511,
      "ंता": 9512,
      "अफ": 9513,
      "अंग": 9514,
      "अरु": 9515,
      "अहिं": 9516,
      "अहम": 9517,
      "आता": 9518,
      "इच्छ": 9519,
      "उद्": 9520,
      "एड": 9521,
      "ओण": 9522,
      "औद्योग": 9523,
      "करा": 9524,
      "काता": 9525,
      "खी": 9526,
      "खू": 9527,
      "ख्य": 9528,
      "गू": 9529,
      "घू": 9530,
      "घकाल": 9531,
      "घटन": 9532,
      "चंद्र": 9533,
      "जार": 9534,
      "टका": 9535,
      "डच": 9536,
      "णय": 9537,
      "धम्म": 9538,
      "नवर": 9539,
      "पथ": 9540,
      "पों": 9541,
      "पाती": 9542,
      "फिक": 9543,
      "बु": 9544,
      "बंग": 9545,
      "ब्रे": 9546,
      "भ्र": 9547,
      "भांग": 9548,
      "मर": 9549,
      "मल": 9550,
      "म्य": 9551,
      "मबे": 9552,
      "यक्ष": 9553,
      "यत्न": 9554,
      "रचा": 9555,
      "रंगा": 9556,
      "रवरी": 9557,
      "लम": 9558,
      "लक्ष": 9559,
      "लकाता": 9560,
      "वटी": 9561,
      "शतर": 9562,
      "ष्य": 9563,
      "सल": 9564,
      "सार्": 9565,
      "हू": 9566,
      "िप": 9567,
      "िला": 9568,
      "ुक": 9569,
      "ोण": 9570,
      "१२०": 9571,
      "३०": 9572,
      "३३": 9573,
      "४६": 9574,
      "५४५": 9575,
      "्रम": 9576,
      "र्घकाल": 9577,
      "राव": 9578,
      "विशिष्ट": 9579,
      "वाणि": 9580,
      "क्शन": 9581,
      "करी": 9582,
      "त्म": 9583,
      "त्ती": 9584,
      "ष्म": 9585,
      "ष्णा": 9586,
      "चेरी": 9587,
      "चेन्न": 9588,
      "तेज": 9589,
      "तेलु": 9590,
      "पाक": 9591,
      "पाषाण": 9592,
      "कोलकाता": 9593,
      "नियुक्त": 9594,
      "निमंत्रण": 9595,
      "पूरी": 9596,
      "दीर्घकाल": 9597,
      "समस": 9598,
      "पुर्व": 9599,
      "दिन": 9600,
      "असला": 9601,
      "बाबा": 9602,
      "भीमबे": 9603,
      "कृष्णा": 9604,
      "मोहिनी": 9605,
      "उत्प": 9606,
      "उत्खन": 9607,
      "मीटर": 9608,
      "पूर्वोत्तर": 9609,
      "ंडी": 9610,
      "जनक": 9611,
      "ियं": 9612,
      "णाचल": 9613,
      "दावरी": 9614,
      "सुरक्षा": 9615,
      "भागवत": 9616,
      "स्वय": 9617,
      "लगी": 9618,
      "निर्वाह": 9619,
      "महान": 9620,
      "तुलन": 9621,
      "दलीय": 9622,
      "दलदल": 9623,
      "मंत्रा": 9624,
      "महाभारत": 9625,
      "विविधता": 9626,
      "गणित": 9627,
      "मुख्यमंत्री": 9628,
      "दूर": 9629,
      "मतदान": 9630,
      "मतभे": 9631,
      "विधानसभा": 9632,
      "गोदावरी": 9633,
      "बंगाली": 9634,
      "दर्जा": 9635,
      "ग्रंथ": 9636,
      "नाट्य": 9637,
      "१९९९": 9638,
      "ज्ञात": 9639,
      "१८५७": 9640,
      "१९७४": 9641,
      "ग्वेद": 9642,
[...]
