{
  "version": "1.0",
  "truncation": null,
  "padding": null,
  "added_tokens": [],
  "normalizer": null,
  "pre_tokenizer": {
    "type": "Whitespace"
  },
  "post_processor": null,
  "decoder": null,
  "model": {
    "type": "BPE",
    "dropout": null,
    "unk_token": null,
    "continuing_subword_prefix": null,
    "end_of_word_suffix": null,
    "fuse_unk": false,
    "byte_fallback": false,
    "ignore_merges": false,
    "vocab": {
      "\"": 0,
      "$": 1,
      "%": 2,
      "'": 3,
      "(": 4,
      ")": 5,
      ",": 6,
      "-": 7,
      ".": 8,
      "0": 9,
      "1": 10,
      "2": 11,
      "3": 12,
      "4": 13,
      "5": 14,
      "6": 15,
      "7": 16,
      "8": 17,
      "9": 18,
      ":": 19,
      ";": 20,
      "=": 21,
      "A": 22,
      "B": 23,
      "C": 24,
      "D": 25,
      "E": 26,
      "F": 27,
      "G": 28,
      "H": 29,
      "I": 30,
      "J": 31,
      "K": 32,
      "L": 33,
      "M": 34,
      "N": 35,
      "O": 36,
      "P": 37,
      "R": 38,
      "S": 39,
      "T": 40,
      "U": 41,
      "V": 42,
      "W": 43,
      "Y": 44,
      "Z": 45,
      "[": 46,
      "]": 47,
      "a": 48,
      "b": 49,
      "c": 50,
      "d": 51,
      "e": 52,
      "f": 53,
      "g": 54,
      "h": 55,
      "i": 56,
      "j": 57,
      "k": 58,
      "l": 59,
      "m": 60,
      "n": 61,
      "o": 62,
      "p": 63,
      "q": 64,
      "r": 65,
      "s": 66,
      "t": 67,
      "u": 68,
      "v": 69,
      "w": 70,
      "x": 71,
      "y": 72,
      "z": 73,
      "°": 74,
      "Ö": 75,
      "á": 76,
      "â": 77,
      "í": 78,
      "ā": 79,
      "ī": 80,
      "Ś": 81,
      "ū": 82,
      "ə": 83,
      "ɦ": 84,
      "ɪ": 85,
      "ɾ": 86,
      "ʊ": 87,
      "ʱ": 88,
      "ˈ": 89,
      "ː": 90,
      "ί": 91,
      "α": 92,
      "δ": 93,
      "ν": 94,
      "ς": 95,
      "ό": 96,
      "ṅ": 97,
      "ṇ": 98,
      "ṣ": 99,
      "ṭ": 100,
      "Ἰ": 101,
      "–": 102,
      "—": 103,
      "′": 104,
      "₹": 105,
      "th": 106,
      "an": 107,
      "in": 108,
      "the": 109,
      "er": 110,
      "on": 111,
      "re": 112,
      "al": 113,
      "en": 114,
      "st": 115,
      "di": 116,
      "at": 117,
      "ar": 118,
      "ed": 119,
      "and": 120,
      "In": 121,
      "or": 122,
      "of": 123,
      "ion": 124,
      "as": 125,
      "es": 126,
      "Indi": 127,
      "it": 128,
      "ic": 129,
      "is": 130,
      "ing": 131,
      "ent": 132,
      "om": 133,
      "to": 134,
      "India": 135,
      "ou": 136,
      "ec": 137,
      "ly": 138,
      "==": 139,
      "ur": 140,
      "le": 141,
      "he": 142,
      "il": 143,
      "am": 144,
      "ver": 145,
      "ad": 146,
      "li": 147,
      "ri": 148,
      "ol": 149,
      "ul": 150,
      "ation": 151,
      "The": 152,
      "em": 153,
      "ch": 154,
      "ro": 155,
      "ra": 156,
      "ce": 157,
      "tion": 158,
      "by": 159,
      "be": 160,
      "se": 161,
      "Indian": 162,
      "ve": 163,
      "ist": 164,
      "for": 165,
      "ast": 166,
      "con": 167,
      "est": 168,
      "lo": 169,
      "19": 170,
      "res": 171,
      "su": 172,
      "ag": 173,
      "ter": 174,
      "wi": 175,
      "de": 176,
      "un": 177,
      "20": 178,
      "ir": 179,
      "wh": 180,
      "gh": 181,
      "du": 182,
      "mo": 183,
      "with": 184,
      "ex": 185,
      "ate": 186,
      "im": 187,
      "ts": 188,
      "was": 189,
      "ies": 190,
      "are": 191,
      "ong": 192,
      "der": 193,
      "po": 194,
      "rom": 195,
      "ab": 196,
      "ang": 197,
      "===": 198,
      "ain": 199,
      "ment": 200,
      "si": 201,
      "ut": 202,
      "wer": 203,
      "ical": 204,
      "over": 205,
      "us": 206,
      "ac": 207,
      "has": 208,
      "art": 209,
      "et": 210,
      "ich": 211,
      "from": 212,
      "inc": 213,
      "ial": 214,
      "per": 215,
      "so": 216,
      "ay": 217,
      "el": 218,
      "ill": 219,
      "which": 220,
      "ear": 221,
      "00": 222,
      "ity": 223,
      "com": 224,
      "sp": 225,
      "rit": 226,
      "ther": 227,
      "cont": 228,
      "cent": 229,
      "ld": 230,
      "um": 231,
      "ure": 232,
      "its": 233,
      "ult": 234,
      "ak": 235,
      "me": 236,
      "ted": 237,
      "co": 238,
      "sh": 239,
      "id": 240,
      "lu": 241,
      "ig": 242,
      "pro": 243,
      "wor": 244,
      "arg": 245,
      "oun": 246,
      "were": 247,
      "ap": 248,
      "ary": 249,
      "gen": 250,
      "ive": 251,
      "ans": 252,
      "end": 253,
      "ated": 254,
      "form": 255,
      "larg": 256,
      "we": 257,
      "no": 258,
      "pl": 259,
      "gion": 260,
      "ha": 261,
      "iv": 262,
      "od": 263,
      "por": 264,
      "econ": 265,
      "min": 266,
      "ass": 267,
      "ish": 268,
      "ism": 269,
      "af": 270,
      "ma": 271,
      "ru": 272,
      "ough": 273,
      "low": 274,
      "overn": 275,
      "ous": 276,
      "ame": 277,
      "age": 278,
      "Hin": 279,
      "op": 280,
      "ry": 281,
      "ant": 282,
      "outh": 283,
      "Ch": 284,
      "ber": 285,
      "bec": 286,
      "mar": 287,
      "part": 288,
      "all": 289,
      "ally": 290,
      "overnment": 291,
      "hi": 292,
      "nor": 293,
      "og": 294,
      "up": 295,
      "any": 296,
      "ance": 297,
      "our": 298,
      "uring": 299,
      "mill": 300,
      "into": 301,
      "centur": 302,
      "econom": 303,
      "CE": 304,
      "ct": 305,
      "fo": 306,
      "pul": 307,
      "ern": 308,
      "stit": 309,
      "201": 310,
      "ding": 311,
      "fe": 312,
      "ne": 313,
      "ution": 314,
      "ates": 315,
      "ress": 316,
      "sub": 317,
      "angu": 318,
      "av": 319,
      "lat": 320,
      "west": 321,
      "Th": 322,
      "but": 323,
      "fir": 324,
      "government": 325,
      "langu": 326,
      "year": 327,
      "ine": 328,
      "inclu": 329,
      "minist": 330,
      "Hindu": 331,
      "ci": 332,
      "ces": 333,
      "dec": 334,
      "ire": 335,
      "pri": 336,
      "qu": 337,
      "uc": 338,
      "ers": 339,
      "region": 340,
      "200": 341,
      "popul": 342,
      "world": 343,
      "Asi": 344,
      "bo": 345,
      "sy": 346,
      "ud": 347,
      "ved": 348,
      "eral": 349,
      "ome": 350,
      "first": 351,
      "cl": 352,
      "land": 353,
      "tra": 354,
      "reas": 355,
      "reli": 356,
      "ence": 357,
      "dition": 358,
      "ection": 359,
      "dern": 360,
      "during": 361,
      "gan": 362,
      "had": 363,
      "long": 364,
      "oc": 365,
      "pe": 366,
      "sc": 367,
      "reat": 368,
      "stem": 369,
      "ect": 370,
      "row": 371,
      "used": 372,
      "after": 373,
      "became": 374,
      "fore": 375,
      "stitution": 376,
      "system": 377,
      "ced": 378,
      "cast": 379,
      "jor": 380,
      "ni": 381,
      "ph": 382,
      "pre": 383,
      "par": 384,
      "pire": 385,
      "ric": 386,
      "ser": 387,
      "vi": 388,
      "them": 389,
      "also": 390,
      "ational": 391,
      "been": 392,
      "contin": 393,
      "largest": 394,
      "century": 395,
      "Cong": 396,
      "Em": 397,
      "do": 398,
      "fic": 399,
      "ok": 400,
      "pol": 401,
      "ral": 402,
      "wo": 403,
      "war": 404,
      "ere": 405,
      "ics": 406,
      "ural": 407,
      "such": 408,
      "ages": 409,
      "more": 410,
      "most": 411,
      "ext": 412,
      "comm": 413,
      "thern": 414,
      "have": 415,
      "million": 416,
      "Congress": 417,
      "South": 418,
      "ban": 419,
      "cial": 420,
      "dh": 421,
      "num": 422,
      "pt": 423,
      "ta": 424,
      "wn": 425,
      "that": 426,
      "inf": 427,
      "vers": 428,
      "ade": 429,
      "modern": 430,
      "increas": 431,
      "comp": 432,
      "major": 433,
      "years": 434,
      "class": 435,
      "tradition": 436,
      "Af": 437,
      "bl": 438,
      "ca": 439,
      "cor": 440,
      "coun": 441,
      "grow": 442,
      "two": 443,
      "ures": 444,
      "ari": 445,
      "lim": 446,
      "imal": 447,
      "ound": 448,
      "prime": 449,
      "both": 450,
      "BCE": 451,
      "cult": 452,
      "dom": 453,
      "ff": 454,
      "main": 455,
      "rough": 456,
      "ty": 457,
      "though": 458,
      "ition": 459,
      "urban": 460,
      "lear": 461,
      "bet": 462,
      "istan": 463,
      "195": 464,
      "196": 465,
      "199": 466,
      "under": 467,
      "large": 468,
      "ween": 469,
      "not": 470,
      "new": 471,
      "minister": 472,
      "Asia": 473,
      "caste": 474,
      "Brit": 475,
      "Bud": 476,
      "Un": 477,
      "east": 478,
      "gr": 479,
      "led": 480,
      "tr": 481,
      "this": 482,
      "ince": 483,
      "their": 484,
      "eng": 485,
      "isation": 486,
      "out": 487,
      "ament": 488,
      "life": 489,
      "202": 490,
      "who": 491,
      "election": 492,
      "language": 493,
      "uclear": 494,
      "population": 495,
      "continent": 496,
      "Empire": 497,
      "number": 498,
      "British": 499,
      "An": 500,
      "Con": 501,
      "Ma": 502,
      "Pak": 503,
      "dance": 504,
      "fol": 505,
      "kh": 506,
      "les": 507,
      "lit": 508,
      "many": 509,
      "pu": 510,
      "ss": 511,
      "south": 512,
      "ting": 513,
      "erg": 514,
      "ory": 515,
      "olog": 516,
      "ations": 517,
      "began": 518,
      "sup": 519,
      "anges": 520,
      "ically": 521,
      "peri": 522,
      "lowing": 523,
      "north": 524,
      "economic": 525,
      "western": 526,
      "between": 527,
      "Pakistan": 528,
      "Eur": 529,
      "It": 530,
      "bi": 531,
      "ped": 532,
      "rat": 533,
      "ris": 534,
      "rate": 535,
      "tec": 536,
      "tim": 537,
      "als": 538,
      "ited": 539,
      "leg": 540,
      "ilit": 541,
      "ement": 542,
      "set": 543,
      "exp": 544,
      "power": 545,
      "able": 546,
      "ially": 547,
      "spec": 548,
      "port": 549,
      "northern": 550,
      "later": 551,
      "versity": 552,
      "18": 553,
      "Al": 554,
      "By": 555,
      "cy": 556,
      "cour": 557,
      "ds": 558,
      "ded": 559,
      "her": 560,
      "hum": 561,
      "igh": 562,
      "late": 563,
      "lish": 564,
      "non": 565,
      "other": 566,
      "ple": 567,
      "since": 568,
      "ten": 569,
      "ugh": 570,
      "ving": 571,
      "than": 572,
      "ins": 573,
      "there": 574,
      "one": 575,
      "ions": 576,
      "ite": 577,
      "among": 578,
      "ular": 579,
      "raph": 580,
      "velo": 581,
      "000": 582,
      "economy": 583,
      "2011": 584,
      "subcontinent": 585,
      "including": 586,
      "influ": 587,
      "increased": 588,
      "classical": 589,
      "After": 590,
      "blic": 591,
      "count": 592,
      "Buddh": 593,
      "liter": 594,
      "public": 595,
      "period": 596,
      "Com": 597,
      "Mo": 598,
      "Mugh": 599,
      "Ne": 600,
      "US": 601,
      "ai": 602,
      "aw": 603,
      "ach": 604,
      "bal": 605,
      "bas": 606,
      "cal": 607,
      "ef": 608,
      "ev": 609,
      "ho": 610,
      "har": 611,
      "hist": 612,
      "ke": 613,
      "ks": 614,
      "krit": 615,
      "mus": 616,
      "mid": 617,
      "milit": 618,
      "ng": 619,
      "national": 620,
      "nuclear": 621,
      "os": 622,
      "pres": 623,
      "ust": 624,
      "ree": 625,
      "sty": 626,
      "state": 627,
      "diversity": 628,
      "Indo": 629,
      "ised": 630,
      "amil": 631,
      "liament": 632,
      "constitution": 633,
      "194": 634,
      "develo": 635,
      "duc": 636,
      "pos": 637,
      "social": 638,
      "general": 639,
      "rule": 640,
      "ople": 641,
      "Chin": 642,
      "cient": 643,
      "occ": 644,
      "people": 645,
      "parliament": 646,
      "species": 647,
      "Beng": 648,
      "East": 649,
      "Mus": 650,
      "Pun": 651,
      "St": 652,
      "Sans": 653,
      "West": 654,
      "gi": 655,
      "gre": 656,
      "hm": 657,
      "jab": 658,
      "king": 659,
      "ned": 660,
      "ron": 661,
      "te": 662,
      "ya": 663,
      "through": 664,
      "inter": 665,
      "enni": 666,
      "dic": 667,
      "arm": 668,
      "Indu": 669,
      "offic": 670,
      "ities": 671,
      "lead": 672,
      "river": 673,
      "emerg": 674,
      "ately": 675,
      "ains": 676,
      "ultan": 677,
      "ign": 678,
      "ope": 679,
      "ograph": 680,
      "millenni": 681,
      "languages": 682,
      "religion": 683,
      "forest": 684,
      "served": 685,
      "themat": 686,
      "polit": 687,
      "caused": 688,
      "1950": 689,
      "Europe": 690,
      "tech": 691,
      "country": 692,
      "Mughal": 693,
      "military": 694,
      "China": 695,
      "Bengal": 696,
      "Punjab": 697,
      "Sanskrit": 698,
      "millennium": 699,
      "Cent": 700,
      "Himal": 701,
      "Is": 702,
      "Si": 703,
      "Wor": 704,
      "bill": 705,
      "can": 706,
      "col": 707,
      "day": 708,
      "fi": 709,
      "ga": 710,
      "ide": 711,
      "mer": 712,
      "mon": 713,
      "nat": 714,
      "rural": 715,
      "sur": 716,
      "some": 717,
      "tro": 718,
      "ually": 719,
      "vement": 720,
      "theast": 721,
      "ered": 722,
      "dire": 723,
      "disp": 724,
      "ese": 725,
      "esp": 726,
      "198": 727,
      "wide": 728,
      "ird": 729,
      "duced": 730,
      "expor": 731,
      "ared": 732,
      "sig": 733,
      "soci": 734,
      "ell": 735,
      "cook": 736,
      "ident": 737,
      "app": 738,
      "gener": 739,
      "wever": 740,
      "ivil": 741,
      "mathemat": 742,
      "mark": 743,
      "high": 744,
      "centuries": 745,
      "religi": 746,
      "majority": 747,
      "cording": 748,
      "culture": 749,
      "music": 750,
      "Muslim": 751,
      "Indus": 752,
      "Himalay": 753,
      "World": 754,
      "billion": 755,
      "%.": 756,
      "),": 757,
      "15": 758,
      "17": 759,
      "26": 760,
      "Ac": 761,
      "Del": 762,
      "Jan": 763,
      "Plate": 764,
      "Se": 765,
      "aj": 766,
      "ace": 767,
      "air": 768,
      "cre": 769,
      "dle": 770,
      "dra": 771,
      "fl": 772,
      "fin": 773,
      "fer": 774,
      "great": 775,
      "last": 776,
      "made": 777,
      "ob": 778,
      "ose": 779,
      "pany": 780,
      "rol": 781,
      "sing": 782,
      "sch": 783,
      "tal": 784,
      "tri": 785,
      "vent": 786,
      "wom": 787,
      "third": 788,
      "ann": 789,
      "ants": 790,
      "ances": 791,
      "red": 792,
      "ren": 793,
      "ensu": 794,
      "ati": 795,
      "ories": 796,
      "orig": 797,
      "ice": 798,
      "omet": 799,
      "ected": 800,
      "very": 801,
      "ades": 802,
      "righ": 803,
      "old": 804,
      "Indians": 805,
      "lower": 806,
      "197": 807,
      "ago": 808,
      "agric": 809,
      "territ": 810,
      "areas": 811,
      "ange": 812,
      "ments": 813,
      "sive": 814,
      "acy": 815,
      "early": 816,
      "contri": 817,
      "control": 818,
      "central": 819,
      "coal": 820,
      "coast": 821,
      "forms": 822,
      "ives": 823,
      "party": 824,
      "feat": 825,
      "include": 826,
      "Hinduism": 827,
      "lands": 828,
      "scri": 829,
      "common": 830,
      "growth": 831,
      "domin": 832,
      "trans": 833,
      "following": 834,
      "time": 835,
      "human": 836,
      "influen": 837,
      "Company": 838,
      "1947": 839,
      "emerged": 840,
      "ultanate": 841,
      "political": 842,
      "Central": 843,
      "Sikh": 844,
      "religious": 845,
      "Delhi": 846,
      "women": 847,
      "ensus": 848,
      "agricult": 849,
      "%,": 850,
      ").": 851,
      "30": 852,
      "Am": 853,
      "BJ": 854,
      "Dem": 855,
      "Eng": 856,
      "Gand": 857,
      "Ganges": 858,
      "Its": 859,
      "Jain": 860,
      "Re": 861,
      "Sh": 862,
      "au": 863,
      "ath": 864,
      "bre": 865,
      "bir": 866,
      "ck": 867,
      "car": 868,
      "cur": 869,
      "cap": 870,
      "cru": 871,
      "census": 872,
      "des": 873,
      "dam": 874,
      "eth": 875,
      "ft": 876,
      "far": 877,
      "fed": 878,
      "fast": 879,
      "fac": 880,
      "fig": 881,
      "found": 882,
      "ge": 883,
      "gar": 884,
      "hru": 885,
      "ia": 886,
      "ian": 887,
      "line": 888,
      "man": 889,
      "men": 890,
      "nolog": 891,
      "pen": 892,
      "pain": 893,
      "pend": 894,
      "rul": 895,
      "rates": 896,
      "sou": 897,
      "secon": 898,
      "ti": 899,
      "tur": 900,
      "uch": 901,
      "ven": 902,
      "vast": 903,
      "wan": 904,
      "animal": 905,
      "ancient": 906,
      "ines": 907,
      "indu": 908,
      "they": 909,
      "rel": 910,
      "remain": 911,
      "alle": 912,
      "ste": 913,
      "states": 914,
      "div": 915,
      "diff": 916,
      "ata": 917,
      "ats": 918,
      "arch": 919,
      "ors": 920,
      "ess": 921,
      "ites": 922,
      "ecially": 923,
      "ild": 924,
      "verse": 925,
      "ulpt": 926,
      "emp": 927,
      "ists": 928,
      "istic": 929,
      "local": 930,
      "depend": 931,
      "und": 932,
      "movement": 933,
      "ack": 934,
      "ety": 935,
      "medi": 936,
      "sho": 937,
      "prov": 938,
      "formed": 939,
      "Hindi": 940,
      "marri": 941,
      "There": 942,
      "cess": 943,
      "regions": 944,
      "2001": 945,
      "sculpt": 946,
      "1991": 947,
      "United": 948,
      "Constitution": 949,
      "literacy": 950,
      "Nehru": 951,
      "based": 952,
      "occup": 953,
      "parliamentary": 954,
      "grew": 955,
      "religions": 956,
      "European": 957,
      "direct": 958,
      "especially": 959,
      "origin": 960,
      "BJP": 961,
      "English": 962,
      "Gandhi": 963,
      "painting": 964,
      "second": 965,
      "indust": 966,
      "10": 967,
      "13": 968,
      "35": 969,
      "42": 970,
      "400": 971,
      "Ar": 972,
      "Ara": 973,
      "Act": 974,
      "Bi": 975,
      "DP": 976,
      "During": 977,
      "Government": 978,
      "GDP": 979,
      "National": 980,
      "Per": 981,
      "Pro": 982,
      "Tamil": 983,
      "bod": 984,
      "cities": 985,
      "dem": 986,
      "ep": 987,
      "five": 988,
      "here": 989,
      "ip": 990,
      "ians": 991,
      "ling": 992,
      "lam": 993,
      "lay": 994,
      "nal": 995,
      "prom": 996,
      "ration": 997,
      "sultanate": 998,
      "til": 999,
      "ual": 1000,
      "use": 1001,
      "vol": 1002,
      "won": 1003,
      "well": 1004,
      "yan": 1005,
      "ank": 1006,
      "indi": 1007,
      "ert": 1008,
      "ons": 1009,
      "republic": 1010,
      "ens": 1011,
      "stat": 1012,
      "dis": 1013,
      "diverse": 1014,
      "ars": 1015,
      "educ": 1016,
      "often": 1017,
      "oup": 1018,
      "ould": 1019,
      "ecut": 1020,
      "urther": 1021,
      "head": 1022,
      "amm": 1023,
      "amp": 1024,
      "ember": 1025,
      "rock": 1026,
      "tions": 1027,
      "sever": 1028,
      "sequ": 1029,
      "loy": 1030,
      "sum": 1031,
      "term": 1032,
      "defin": 1033,
      "union": 1034,
      "execut": 1035,
      "ders": 1036,
      "etic": 1037,
      "earli": 1038,
      "compos": 1039,
      "work": 1040,
      "endem": 1041,
      "ods": 1042,
      "become": 1043,
      "alled": 1044,
      "These": 1045,
      "regional": 1046,
      "popular": 1047,
      "longer": 1048,
      "nific": 1049,
      "serv": 1050,
      "viol": 1051,
      "commer": 1052,
      "traditional": 1053,
      "growing": 1054,
      "eastern": 1055,
      "whose": 1056,
      "elections": 1057,
      "Andam": 1058,
      "rise": 1059,
      "Buddhism": 1060,
      "histor": 1061,
      "styles": 1062,
      "develop": 1063,
      "States": 1064,
      "Western": 1065,
      "official": 1066,
      "technolog": 1067,
      "Islam": 1068,
      "fied": 1069,
      "widely": 1070,
      "Himalayas": 1071,
      "According": 1072,
      "created": 1073,
      "Among": 1074,
      "federal": 1075,
      "penins": 1076,
      "southern": 1077,
      "alley": 1078,
      "Persi": 1079,
      "body": 1080,
      "education": 1081,
      "sequent": 1082,
      "nificant": 1083,
      "Andaman": 1084,
      "14": 1085,
      "16": 1086,
      "21": 1087,
      "31": 1088,
      "50": 1089,
      "Bh": 1090,
      "Bra": 1091,
      "Bhar": 1092,
      "Kas": 1093,
      "Nor": 1094,
      "Raj": 1095,
      "Sou": 1096,
      "aver": 1097,
      "bor": 1098,
      "ble": 1099,
      "bro": 1100,
      "che": 1101,
      "cri": 1102,
      "clo": 1103,
      "civil": 1104,
      "dances": 1105,
      "every": 1106,
      "four": 1107,
      "famil": 1108,
      "further": 1109,
      "gu": 1110,
      "glo": 1111,
      "hen": 1112,
      "hou": 1113,
      "iz": 1114,
      "jo": 1115,
      "kno": 1116,
      "mi": 1117,
      "mit": 1118,
      "mak": 1119,
      "mary": 1120,
      "member": 1121,
      "ning": 1122,
      "nom": 1123,
      "ore": 1124,
      "ool": 1125,
      "oper": 1126,
      "pr": 1127,
      "pical": 1128,
      "pay": 1129,
      "rich": 1130,
      "sec": 1131,
      "tt": 1132,
      "tle": 1133,
      "tem": 1134,
      "uj": 1135,
      "uary": 1136,
      "vo": 1137,
      "vill": 1138,
      "vari": 1139,
      "wa": 1140,
      "way": 1141,
      "three": 1142,
      "independ": 1143,
      "reg": 1144,
      "read": 1145,
      "recor": 1146,
      "ale": 1147,
      "alth": 1148,
      "ales": 1149,
      "along": 1150,
      "enac": 1151,
      "str": 1152,
      "stre": 1153,
      "stru": 1154,
      "dist": 1155,
      "atic": 1156,
      "ative": 1157,
      "arn": 1158,
      "around": 1159,
      "organ": 1160,
      "off": 1161,
      "ise": 1162,
      "left": 1163,
      "held": 1164,
      "ility": 1165,
      "amas": 1166,
      "administ": 1167,
      "lid": 1168,
      "liber": 1169,
      "empire": 1170,
      "char": 1171,
      "changes": 1172,
      "ross": 1173,
      "cons": 1174,
      "consi": 1175,
      "estim": 1176,
      "estab": 1177,
      "resp": 1178,
      "resident": 1179,
      "ternal": 1180,
      "until": 1181,
      "import": 1182,
      "poin": 1183,
      "angered": 1184,
      "utes": 1185,
      "spe": 1186,
      "spread": 1187,
      "worn": 1188,
      "gency": 1189,
      "endangered": 1190,
      "now": 1191,
      "plain": 1192,
      "place": 1193,
      "ived": 1194,
      "subsequent": 1195,
      "This": 1196,
      "decl": 1197,
      "continu": 1198,
      "polic": 1199,
      "increasing": 1200,
      "comple": 1201,
      "traditions": 1202,
      "doms": 1203,
      "thought": 1204,
      "1965": 1205,
      "Union": 1206,
      "group": 1207,
      "supp": 1208,
      "bio": 1209,
      "times": 1210,
      "legis": 1211,
      "Although": 1212,
      "court": 1213,
      "courts": 1214,
      "ight": 1215,
      "Buddhist": 1216,
      "however": 1217,
      "middle": 1218,
      "present": 1219,
      "style": 1220,
      "developed": 1221,
      "kingdoms": 1222,
      "leading": 1223,
      "surv": 1224,
      "significant": 1225,
      "cooked": 1226,
      "market": 1227,
      "January": 1228,
      "territories": 1229,
      "coalition": 1230,
      "influenced": 1231,
      "Jainism": 1232,
      "birth": 1233,
      "curren": 1234,
      "fact": 1235,
      "figures": 1236,
      "differ": 1237,
      "employ": 1238,
      "sculpture": 1239,
      "industry": 1240,
      "executive": 1241,
      "earliest": 1242,
      "technology": 1243,
      "peninsular": 1244,
      "Persian": 1245,
      "Kashm": 1246,
      "Southeast": 1247,
      "families": 1248,
      "known": 1249,
      "operation": 1250,
      "consider": 1251,
      "establish": 1252,
      "12": 1253,
      "1200": 1254,
      "24": 1255,
      "25": 1256,
      "28": 1257,
      "300": 1258,
      "40": 1259,
      "55": 1260,
      "As": 1261,
      "Ary": 1262,
      "Ass": 1263,
      "Civil": 1264,
      "De": 1265,
      "Des": 1266,
      "Dec": 1267,
      "Dra": 1268,
      "Fore": 1269,
      "Gh": 1270,
      "Gup": 1271,
      "Gree": 1272,
      "Guj": 1273,
      "Ho": 1274,
      "Me": 1275,
      "Many": 1276,
      "Nuclear": 1277,
      "Sing": 1278,
      "Valley": 1279,
      "War": 1280,
      "ah": 1281,
      "adi": 1282,
      "bs": 1283,
      "bu": 1284,
      "bar": 1285,
      "band": 1286,
      "bution": 1287,
      "back": 1288,
      "creat": 1289,
      "called": 1290,
      "dr": 1291,
      "den": 1292,
      "dri": 1293,
      "equ": 1294,
      "edic": 1295,
      "eograph": 1296,
      "fam": 1297,
      "fund": 1298,
      "go": 1299,
      "gra": 1300,
      "hy": 1301,
      "his": 1302,
      "hab": 1303,
      "just": 1304,
      "ken": 1305,
      "ll": 1306,
      "ls": 1307,
      "mult": 1308,
      "mall": 1309,
      "own": 1310,
      "pur": 1311,
      "pra": 1312,
      "pass": 1313,
      "ran": 1314,
      "saf": 1315,
      "sine": 1316,
      "sari": 1317,
      "small": 1318,
      "tu": 1319,
      "tic": 1320,
      "tain": 1321,
      "tak": 1322,
      "ues": 1323,
      "win": 1324,
      "went": 1325,
      "wear": 1326,
      "writ": 1327,
      "wild": 1328,
      "xim": 1329,
      "ani": 1330,
      "ining": 1331,
      "intro": 1332,
      "invol": 1333,
      "ones": 1334,
      "renew": 1335,
      "reach": 1336,
      "reduced": 1337,
      "ali": 1338,
      "ality": 1339,
      "dian": 1340,
      "dish": 1341,
      "ating": 1342,
      "ara": 1343,
      "ard": 1344,
      "aries": 1345,
      "arma": 1346,
      "ash": 1347,
      "associ": 1348,
      "itect": 1349,
      "ices": 1350,
      "iss": 1351,
      "omy": 1352,
      "took": 1353,
      "touch": 1354,
      "oul": 1355,
      "====": 1356,
      "adv": 1357,
      "adually": 1358,
      "liance": 1359,
      "Their": 1360,
      "change": 1361,
      "ceut": 1362,
      "below": 1363,
      "before": 1364,
      "sel": 1365,
      "astri": 1366,
      "conso": 1367,
      "conduc": 1368,
      "result": 1369,
      "again": 1370,
      "une": 1371,
      "when": 1372,
      "where": 1373,
      "within": 1374,
      "exts": 1375,
      "external": 1376,
      "aren": 1377,
      "ably": 1378,
      "about": 1379,
      "ability": 1380,
      "uted": 1381,
      "inct": 1382,
      "elected": 1383,
      "elites": 1384,
      "spor": 1385,
      "ured": 1386,
      "aksh": 1387,
      "meat": 1388,
      "ided": 1389,
      "produc": 1390,
      "process": 1391,
      "proxim": 1392,
      "works": 1393,
      "approxim": 1394,
      "genous": 1395,
      "ending": 1396,
      "weap": 1397,
      "ples": 1398,
      "plate": 1399,
      "play": 1400,
      "portion": 1401,
      "ported": 1402,
      "aff": 1403,
      "ously": 1404,
      "partition": 1405,
      "upper": 1406,
      "2010": 1407,
      "2013": 1408,
      "Hindust": 1409,
      "decades": 1410,
      "quality": 1411,
      "Asian": 1412,
      "reasing": 1413,
      "ocrat": 1414,
      "ective": 1415,
      "foreign": 1416,
      "pharma": 1417,
      "rica": 1418,
      "vidian": 1419,
      "down": 1420,
      "wars": 1421,
      "wards": 1422,
      "extant": 1423,
      "tax": 1424,
      "traditionally": 1425,
      "Africa": 1426,
      "1951": 1427,
      "amental": 1428,
      "2026": 1429,
      "numbers": 1430,
      "Ancient": 1431,
      "Constit": 1432,
      "Maur": 1433,
      "ergy": 1434,
      "support": 1435,
      "bian": 1436,
      "express": 1437,
      "All": 1438,
      "influence": 1439,
      "history": 1440,
      "kets": 1441,
      "constitutional": 1442,
      "leader": 1443,
      "tropical": 1444,
      "exports": 1445,
      "cooking": 1446,
      "mathematics": 1447,
      "Plateau": 1448,
      "Sea": 1449,
      "greater": 1450,
      "single": 1451,
      "school": 1452,
      "vention": 1453,
      "adesh": 1454,
      "right": 1455,
      "rights": 1456,
      "oldest": 1457,
      "contribut": 1458,
      "contribution": 1459,
      "features": 1460,
      "commonly": 1461,
      "agriculture": 1462,
      "agricultural": 1463,
      "capit": 1464,
      "crust": 1465,
      "turned": 1466,
      "relations": 1467,
      "architect": 1468,
      "show": 1469,
      "directly": 1470,
      "indigenous": 1471,
      "composed": 1472,
      "violence": 1473,
      "commercial": 1474,
      "development": 1475,
      "Brahm": 1476,
      "Bharat": 1477,
      "global": 1478,
      "house": 1479,
      "nomin": 1480,
      "secular": 1481,
      "waist": 1482,
      "recorded": 1483,
      "enacted": 1484,
      "estimated": 1485,
      "important": 1486,
      "speak": 1487,
      "continued": 1488,
      "legislat": 1489,
      "different": 1490,
      "Kashmir": 1491,
      "established": 1492,
      "Dravidian": 1493,
      "Ghats": 1494,
      "However": 1495,
      "Singh": 1496,
      "dramas": 1497,
      "fundamental": 1498,
      "pract": 1499,
      "ceutical": 1500,
      "consolid": 1501,
      "conducted": 1502,
      "resulting": 1503,
      "approximately": 1504,
      "ocratic": 1505,
      "pharmaceutical": 1506,
      "\".": 1507,
      ");": 1508,
      "11": 1509,
      "100": 1510,
      "27": 1511,
      "36": 1512,
      "58": 1513,
      "500": 1514,
      "63": 1515,
      "70": 1516,
      "Ak": 1517,
      "At": 1518,
      "Ash": 1519,
      "Bang": 1520,
      "Bay": 1521,
      "DA": 1522,
      "Dal": 1523,
      "Dance": 1524,
      "Ex": 1525,
      "Ear": 1526,
      "Econ": 1527,
      "For": 1528,
      "Fron": 1529,
      "Geograph": 1530,
      "HO": 1531,
      "Kal": 1532,
      "Lank": 1533,
      "Mal": 1534,
      "Mar": 1535,
      "Mid": 1536,
      "Myan": 1537,
      "No": 1538,
      "Non": 1539,
      "Nic": 1540,
      "NDA": 1541,
      "PA": 1542,
      "Pol": 1543,
      "Pall": 1544,
      "So": 1545,
      "She": 1546,
      "Sri": 1547,
      "To": 1548,
      "Tem": 1549,
      "Treat": 1550,
      "UPA": 1551,
      "Va": 1552,
      "Vi": 1553,
      "WHO": 1554,
      "aic": 1555,
      "aut": 1556,
      "bon": 1557,
      "bes": 1558,
      "bly": 1559,
      "bri": 1560,
      "cu": 1561,
      "cle": 1562,
      "cul": 1563,
      "cro": 1564,
      "cut": 1565,
      "crit": 1566,
      "came": 1567,
      "cav": 1568,
      "clim": 1569,
      "could": 1570,
      "dar": 1571,
      "dro": 1572,
      "dha": 1573,
      "dones": 1574,
      "ez": 1575,
      "ely": 1576,
      "eff": 1577,
      "eign": 1578,
      "fem": 1579,
      "fall": 1580,
      "gn": 1581,
      "gas": 1582,
      "gation": 1583,
      "gain": 1584,
      "get": 1585,
      "hu": 1586,
      "han": 1587,
      "hig": 1588,
      "ii": 1589,
      "ily": 1590,
      "ile": 1591,
      "ither": 1592,
      "ject": 1593,
      "ked": 1594,
      "kil": 1595,
      "ket": 1596,
      "kame": 1597,
      "la": 1598,
      "law": 1599,
      "ladesh": 1600,
      "mig": 1601,
      "marg": 1602,
      "much": 1603,
      "mamm": 1604,
      "nam": 1605,
      "near": 1606,
      "name": 1607,
      "pat": 1608,
      "ption": 1609,
      "past": 1610,
      "pts": 1611,
      "pet": 1612,
      "ring": 1613,
      "round": 1614,
      "range": 1615,
      "sil": 1616,
      "smo": 1617,
      "sim": 1618,
      "sover": 1619,
      "slow": 1620,
      "sav": 1621,
      "sect": 1622,
      "somet": 1623,
      "sites": 1624,
      "tre": 1625,
      "test": 1626,
      "texts": 1627,
      "uent": 1628,
      "val": 1629,
      "vic": 1630,
      "vis": 1631,
      "varn": 1632,
      "would": 1633,
      "ze": 1634,
      "thor": 1635,
      "threat": 1636,
      "those": 1637,
      "ana": 1638,
      "anch": 1639,
      "anag": 1640,
      "anies": 1641,
      "anted": 1642,
      "anism": 1643,
      "anced": 1644,
      "another": 1645,
      "init": 1646,
      "institution": 1647,
      "then": 1648,
      "these": 1649,
      "era": 1650,
      "ergency": 1651,
      "ond": 1652,
      "onial": 1653,
      "rest": 1654,
      "recent": 1655,
      "reco": 1656,
      "refer": 1657,
      "reven": 1658,
      "ened": 1659,
      "ensive": 1660,
      "energy": 1661,
      "stand": 1662,
      "stri": 1663,
      "dit": 1664,
      "dient": 1665,
      "dise": 1666,
      "diment": 1667,
      "discri": 1668,
      "ature": 1669,
      "arts": 1670,
      "arnat": 1671,
      "edul": 1672,
      "anding": 1673,
      "Indones": 1674,
      "oro": 1675,
      "oral": 1676,
      "orally": 1677,
      "Indira": 1678,
      "isol": 1679,
      "ings": 1680,
      "enter": 1681,
      "oming": 1682,
      "town": 1683,
      "today": 1684,
      "total": 1685,
      "urid": 1686,
      "urred": 1687,
      "leve": 1688,
      "ilway": 1689,
      "ams": 1690,
      "ample": 1691,
      "verty": 1692,
      "ada": 1693,
      "adop": 1694,
      "addition": 1695,
      "added": 1696,
      "adher": 1697,
      "lied": 1698,
      "lies": 1699,
      "lief": 1700,
      "like": 1701,
      "rivers": 1702,
      "olved": 1703,
      "embly": 1704,
      "ched": 1705,
      "chos": 1706,
      "churid": 1707,
      "role": 1708,
      "rap": 1709,
      "rather": 1710,
      "racy": 1711,
      "railway": 1712,
      "cean": 1713,
      "being": 1714,
      "belong": 1715,
      "bell": 1716,
      "belief": 1717,
      "separ": 1718,
      "seals": 1719,
      "veget": 1720,
      "conce": 1721,
      "estic": 1722,
      "loss": 1723,
      "loose": 1724,
      "19th": 1725,
      "1935": 1726,
      "reser": 1727,
      "del": 1728,
      "devo": 1729,
      "uni": 1730,
      "untouch": 1731,
      "20th": 1732,
      "irt": 1733,
      "due": 1734,
      "duct": 1735,
      "moist": 1736,
      "exchange": 1737,
      "example": 1738,
      "ime": 1739,
      "imes": 1740,
      "area": 1741,
      "poverty": 1742,
      "romise": 1743,
      "abad": 1744,
      "ables": 1745,
      "anged": 1746,
      "six": 1747,
      "ush": 1748,
      "uscri": 1749,
      "action": 1750,
      "acter": 1751,
      "across": 1752,
      "income": 1753,
      "pers": 1754,
      "soon": 1755,
      "contain": 1756,
      "contains": 1757,
      "ulture": 1758,
      "sha": 1759,
      "shor": 1760,
      "share": 1761,
      "idly": 1762,
      "protec": 1763,
      "gence": 1764,
      "formal": 1765,
      "wealth": 1766,
      "plains": 1767,
      "having": 1768,
      "ivity": 1769,
      "ports": 1770,
      "assert": 1771,
      "lows": 1772,
      "oppos": 1773,
      "anta": 1774,
      "becoming": 1775,
      "partic": 1776,
      "ources": 1777,
      "2018": 1778,
      "latter": 1779,
      "Thar": 1780,
      "governments": 1781,
      "inequality": 1782,
      "ministers": 1783,
      "decade": 1784,
      "primary": 1785,
      "2008": 1786,
      "2009": 1787,
      "populous": 1788,
      "ections": 1789,
      "ocracy": 1790,
      "castes": 1791,
      "predomin": 1792,
      "parts": 1793,
      "ricket": 1794,
      "oka": 1795,
      "extensive": 1796,
      "companies": 1797,
      "compromise": 1798,
      "classes": 1799,
      "cause": 1800,
      "cultural": 1801,
      "cultures": 1802,
      "itions": 1803,
      "urbanisation": 1804,
      "1962": 1805,
      "1967": 1806,
      "Buddha": 1807,
      "gradually": 1808,
      "trade": 1809,
      "2022": 1810,
      "2023": 1811,
      "2024": 1812,
      "folk": 1813,
      "less": 1814,
      "supported": 1815,
      "northwest": 1816,
      "Euras": 1817,
      "rising": 1818,
      "setting": 1819,
      "expans": 1820,
      "others": 1821,
      "Modern": 1822,
      "Mohen": 1823,
      "basin": 1824,
      "eval": 1825,
      "ngth": 1826,
      "president": 1827,
      "armies": 1828,
      "office": 1829,
      "ographics": 1830,
      "forests": 1831,
      "1950s": 1832,
      "Islands": 1833,
      "coll": 1834,
      "colonial": 1835,
      "gave": 1836,
      "merch": 1837,
      "natal": 1838,
      "disputes": 1839,
      "signed": 1840,
      "society": 1841,
      "appear": 1842,
      "generally": 1843,
      "mathematical": 1844,
      "marked": 1845,
      "Himalayan": 1846,
      "Janata": 1847,
      "drain": 1848,
      "obar": 1849,
      "schedul": 1850,
      "tribal": 1851,
      "ometres": 1852,
      "script": 1853,
      "transmit": 1854,
      "influences": 1855,
      "Sikhism": 1856,
      "Demographics": 1857,
      "breath": 1858,
      "crucial": 1859,
      "manuscri": 1860,
      "wana": 1861,
      "animals": 1862,
      "related": 1863,
      "remaining": 1864,
      "mediately": 1865,
      "provided": 1866,
      "marriages": 1867,
      "originally": 1868,
      "13th": 1869,
      "Arabian": 1870,
      "Bio": 1871,
      "status": 1872,
      "summer": 1873,
      "endemic": 1874,
      "Islamic": 1875,
      "North": 1876,
      "average": 1877,
      "broad": 1878,
      "guard": 1879,
      "makes": 1880,
      "village": 1881,
      "independence": 1882,
      "strong": 1883,
      "strength": 1884,
      "struct": 1885,
      "organisation": 1886,
      "administration": 1887,
      "liberal": 1888,
      "character": 1889,
      "consists": 1890,
      "respon": 1891,
      "residents": 1892,
      "policies": 1893,
      "increasingly": 1894,
      "currency": 1895,
      "employed": 1896,
      "Aryan": 1897,
      "Assembly": 1898,
      "Civilisation": 1899,
      "Desert": 1900,
      "Deccan": 1901,
      "Gupta": 1902,
      "Greek": 1903,
      "Gujar": 1904,
      "goods": 1905,
      "habit": 1906,
      "multi": 1907,
      "safe": 1908,
      "written": 1909,
      "wildlife": 1910,
      "introduced": 1911,
      "reached": 1912,
      "dishes": 1913,
      "oulder": 1914,
      "self": 1915,
      "weapons": 1916,
      "Constituent": 1917,
      "Maurya": 1918,
      "schools": 1919,
      "contributions": 1920,
      "capita": 1921,
      "architecture": 1922,
      "nominal": 1923,
      "practices": 1924,
      "Ashoka": 1925,
      "Bangladesh": 1926,
      "Early": 1927,
      "Front": 1928,
      "Middle": 1929,
      "Myanmar": 1930,
      "Nicobar": 1931,
      "Pallav": 1932,
      "Treaty": 1933,
      "daro": 1934,
      "eignty": 1935,
      "kilometres": 1936,
      "kameez": 1937,
      "laws": 1938,
      "margins": 1939,
      "mammals": 1940,
      "sovereignty": 1941,
      "sector": 1942,
      "sometimes": 1943,
      "vict": 1944,
      "recogn": 1945,
      "revenues": 1946,
      "discrimin": 1947,
      "Indonesia": 1948,
      "chosen": 1949,
      "churidars": 1950,
      "bellion": 1951,
      "devotion": 1952,
      "protected": 1953,
      "Mohenjo": 1954,
      "scheduled": 1955,
      "transmitted": 1956,
      "\")": 1957,
      ",\"": 1958,
      "01": 1959,
      "0s": 1960,
      "1st": 1961,
      "22": 1962,
      "29": 1963,
      "32": 1964,
      "34": 1965,
      "39": 1966,
      "41": 1967,
      "44": 1968,
      "46": 1969,
      "53": 1970,
      "64": 1971,
      "65": 1972,
      "6th": 1973,
      "74": 1974,
      "7th": 1975,
      "700": 1976,
      "80": 1977,
      "82": 1978,
      "91": 1979,
      "94": 1980,
      "Aj": 1981,
      "Ach": 1982,
      "Agency": 1983,
      "Ba": 1984,
      "Bal": 1985,
      "Bet": 1986,
      "Cl": 1987,
      "Cup": 1988,
      "Cav": 1989,
      "Clim": 1990,
      "Carnat": 1991,
      "Culture": 1992,
      "Cricket": 1993,
      "Dis": 1994,
      "Dom": 1995,
      "Ety": 1996,
      "Fol": 1997,
      "Go": 1998,
      "Gr": 1999,
      "Gen": 2000,
      "Gang": 2001,
      "Gond": 2002,
      "He": 2003,
      "Hist": 2004,
      "II": 2005,
      "Im": 2006,
      "Jaw": 2007,
      "Jhar": 2008,
      "Jamm": 2009,
      "June": 2010,
      "Ko": 2011,
      "Keral": 2012,
      "Kaver": 2013,
      "Li": 2014,
      "Langu": 2015,
      "Laksh": 2016,
      "Man": 2017,
      "Min": 2018,
      "Mum": 2019,
      "Ni": 2020,
      "Nat": 2021,
      "Net": 2022,
      "Oc": 2023,
      "Or": 2024,
      "Over": 2025,
      "Old": 2026,
      "Ocean": 2027,
      "PP": 2028,
      "Pl": 2029,
      "Pu": 2030,
      "Par": 2031,
      "Part": 2032,
      "President": 2033,
      "Sin": 2034,
      "Sim": 2035,
      "Sab": 2036,
      "Sant": 2037,
      "Some": 2038,
      "Sultanate": 2039,
      "Sarn": 2040,
      "Ti": 2041,
      "Ter": 2042,
      "Tha": 2043,
      "Ur": 2044,
      "Vis": 2045,
      "Vaj": 2046,
      "Vedic": 2047,
      "Wi": 2048,
      "Yaksh": 2049,
      "Zoro": 2050,
      "aː": 2051,
      "aem": 2052,
      "aim": 2053,
      "aism": 2054,
      "ahar": 2055,
      "ba": 2056,
      "bul": 2057,
      "bra": 2058,
      "bac": 2059,
      "bour": 2060,
      "buc": 2061,
      "brough": 2062,
      "bai": 2063,
      "bron": 2064,
      "bably": 2065,
      "cin": 2066,
      "cat": 2067,
      "cit": 2068,
      "cing": 2069,
      "cil": 2070,
      "ction": 2071,
      "care": 2072,
      "cover": 2073,
      "city": 2074,
      "cak": 2075,
      "cere": 2076,
      "cris": 2077,
      "cust": 2078,
      "ctions": 2079,
      "creasing": 2080,
      "da": 2081,
      "dy": 2082,
      "dre": 2083,
      "dent": 2084,
      "dest": 2085,
      "dry": 2086,
      "dates": 2087,
      "data": 2088,
      "ee": 2089,
      "ew": 2090,
      "ets": 2091,
      "eigh": 2092,
      "eight": 2093,
      "eously": 2094,
      "either": 2095,
      "fr": 2096,
      "fil": 2097,
      "ful": 2098,
      "fest": 2099,
      "flo": 2100,
      "fare": 2101,
      "foun": 2102,
      "fish": 2103,
      "flow": 2104,
      "fav": 2105,
      "farm": 2106,
      "flower": 2107,
      "fash": 2108,
      "gl": 2109,
      "gin": 2110,
      "gon": 2111,
      "gro": 2112,
      "gig": 2113,
      "give": 2114,
      "govern": 2115,
      "gods": 2116,
      "hā": 2117,
      "hal": 2118,
      "hor": 2119,
      "ham": 2120,
      "hol": 2121,
      "hun": 2122,
      "hous": 2123,
      "idu": 2124,
      "iff": 2125,
      "ified": 2126,
      "jur": 2127,
      "jac": 2128,
      "jay": 2129,
      "kk": 2130,
      "kn": 2131,
      "kur": 2132,
      "kill": 2133,
      "lin": 2134,
      "lal": 2135,
      "lic": 2136,
      "leng": 2137,
      "lines": 2138,
      "mn": 2139,
      "ms": 2140,
      "mat": 2141,
      "mand": 2142,
      "may": 2143,
      "mass": 2144,
      "molog": 2145,
      "males": 2146,
      "nd": 2147,
      "nin": 2148,
      "nar": 2149,
      "nic": 2150,
      "nation": 2151,
      "net": 2152,
      "next": 2153,
      "ot": 2154,
      "oth": 2155,
      "oor": 2156,
      "oli": 2157,
      "och": 2158,
      "ove": 2159,
      "pa": 2160,
      "pi": 2161,
      "pil": 2162,
      "pically": 2163,
      "pants": 2164,
      "ptions": 2165,
      "paren": 2166,
      "push": 2167,
      "rical": 2168,
      "ranges": 2169,
      "she": 2170,
      "sol": 2171,
      "saw": 2172,
      "tand": 2173,
      "tes": 2174,
      "tun": 2175,
      "ties": 2176,
      "tection": 2177,
      "treat": 2178,
      "text": 2179,
      "tled": 2180,
      "table": 2181,
      "usu": 2182,
      "ude": 2183,
      "ufact": 2184,
      "va": 2185,
      "vas": 2186,
      "ves": 2187,
      "vary": 2188,
      "valley": 2189,
      "wing": 2190,
      "wet": 2191,
      "wel": 2192,
      "xed": 2193,
      "zed": 2194,
      "zes": 2195,
      "νδ": 2196,
      "Ἰνδ": 2197,
      "thm": 2198,
      "thic": 2199,
      "anat": 2200,
      "aning": 2201,
      "ined": 2202,
      "inated": 2203,
      "inform": 2204,
      "inno": 2205,
      "thes": 2206,
      "erc": 2207,
      "erly": 2208,
      "erial": 2209,
      "onic": 2210,
      "only": 2211,
      "onset": 2212,
      "rece": 2213,
      "reme": 2214,
      "reform": 2215,
      "relat": 2216,
      "repe": 2217,
      "rept": 2218,
      "reement": 2219,
      "refl": 2220,
      "reforms": 2221,
      "represent": 2222,
      "returned": 2223,
      "rebellion": 2224,
      "ala": 2225,
      "aled": 2226,
      "alty": 2227,
      "alliance": 2228,
      "alwars": 2229,
      "enn": 2230,
      "ening": 2231,
      "enab": 2232,
      "ences": 2233,
      "enhouse": 2234,
      "sts": 2235,
      "stant": 2236,
      "stress": 2237,
      "stud": 2238,
      "stian": 2239,
      "stiff": 2240,
      "dia": 2241,
      "did": 2242,
      "died": 2243,
      "dified": 2244,
      "atist": 2245,
      "atts": 2246,
      "attra": 2247,
      "atory": 2248,
      "atives": 2249,
      "arc": 2250,
      "aras": 2251,
      "aris": 2252,
      "arter": 2253,
      "ardis": 2254,
      "ands": 2255,
      "andy": 2256,
      "Inter": 2257,
      "Increasing": 2258,
      "ord": 2259,
      "oration": 2260,
      "orce": 2261,
      "orial": 2262,
      "ase": 2263,
      "asi": 2264,
      "asures": 2265,
      "asions": 2266,
      "asured": 2267,
      "ital": 2268,
      "itary": 2269,
      "itics": 2270,
      "itte": 2271,
      "itude": 2272,
      "icians": 2273,
      "ision": 2274,
      "ises": 2275,
      "ising": 2276,
      "isans": 2277,
      "isine": 2278,
      "isions": 2279,
      "isdic": 2280,
      "ently": 2281,
      "ential": 2282,
      "entually": 2283,
      "oms": 2284,
      "omic": 2285,
      "top": 2286,
      "tober": 2287,
      "oury": 2288,
      "lying": 2289,
      "uri": 2290,
      "hest": 2291,
      "ils": 2292,
      "ilar": 2293,
      "iland": 2294,
      "iles": 2295,
      "iling": 2296,
      "ilding": 2297,
      "amy": 2298,
      "amed": 2299,
      "amend": 2300,
      "veral": 2301,
      "adem": 2302,
      "adwe": 2303,
      "advent": 2304,
      "lig": 2305,
      "live": 2306,
      "ligion": 2307,
      "lived": 2308,
      "living": 2309,
      "lifer": 2310,
      "rial": 2311,
      "ries": 2312,
      "riya": 2313,
      "riors": 2314,
      "ristian": 2315,
      "olution": 2316,
      "They": 2317,
      "emper": 2318,
      "emiss": 2319,
      "chap": 2320,
      "chains": 2321,
      "child": 2322,
      "changed": 2323,
      "ceed": 2324,
      "best": 2325,
      "begin": 2326,
      "sex": 2327,
      "seats": 2328,
      "sediment": 2329,
      "isting": 2330,
      "isters": 2331,
      "force": 2332,
      "forti": 2333,
      "fortable": 2334,
      "consum": 2335,
      "1930": 2336,
      "resolved": 2337,
      "resources": 2338,
      "suc": 2339,
      "super": 2340,
      "supre": 2341,
      "agana": 2342,
      "agreement": 2343,
      "dev": 2344,
      "defe": 2345,
      "deleg": 2346,
      "devast": 2347,
      "ung": 2348,
      "united": 2349,
      "uncommon": 2350,
      "unitary": 2351,
      "unresolved": 2352,
      "iron": 2353,
      "what": 2354,
      "duce": 2355,
      "model": 2356,
      "excav": 2357,
      "exerc": 2358,
      "existing": 2359,
      "imper": 2360,
      "impro": 2361,
      "imple": 2362,
      "immediately": 2363,
      "tspo": 2364,
      "tside": 2365,
      "derived": 2366,
      "pop": 2367,
      "pot": 2368,
      "above": 2369,
      "angra": 2370,
      "mental": 2371,
      "mented": 2372,
      "sia": 2373,
      "side": 2374,
      "ute": 2375,
      "utra": 2376,
      "overran": 2377,
      "using": 2378,
      "act": 2379,
      "aced": 2380,
      "accoun": 2381,
      "according": 2382,
      "access": 2383,
      "artic": 2384,
      "artists": 2385,
      "artistic": 2386,
      "artisans": 2387,
      "etah": 2388,
      "inces": 2389,
      "percent": 2390,
      "sole": 2391,
      "elect": 2392,
      "comfortable": 2393,
      "spic": 2394,
      "sphere": 2395,
      "spending": 2396,
      "therers": 2397,
      "contra": 2398,
      "centre": 2399,
      "medic": 2400,
      "mega": 2401,
      "meaning": 2402,
      "cost": 2403,
      "cosine": 2404,
      "shy": 2405,
      "shared": 2406,
      "ship": 2407,
      "shoulder": 2408,
      "idence": 2409,
      "lution": 2410,
      "iger": 2411,
      "proj": 2412,
      "produced": 2413,
      "probably": 2414,
      "produce": 2415,
      "aps": 2416,
      "appoin": 2417,
      "aputra": 2418,
      "gender": 2419,
      "ends": 2420,
      "ended": 2421,
      "atedly": 2422,
      "formally": 2423,
      "larger": 2424,
      "plant": 2425,
      "planted": 2426,
      "hau": 2427,
      "iva": 2428,
      "ival": 2429,
      "iving": 2430,
      "mini": 2431,
      "minor": 2432,
      "assical": 2433,
      "assass": 2434,
      "ished": 2435,
      "affir": 2436,
      "ought": 2437,
      "lowed": 2438,
      "amework": 2439,
      "open": 2440,
      "Chand": 2441,
      "Chol": 2442,
      "Chess": 2443,
      "Champ": 2444,
      "Christian": 2445,
      "Chhau": 2446,
      "bercul": 2447,
      "marry": 2448,
      "markets": 2449,
      "marshy": 2450,
      "parties": 2451,
      "partially": 2452,
      "ogamy": 2453,
      "food": 2454,
      "foetic": 2455,
      "stitutes": 2456,
      "2014": 2457,
      "2017": 2458,
      "neigh": 2459,
      "substant": 2460,
      "included": 2461,
      "includes": 2462,
      "Hindus": 2463,
      "decreasing": 2464,
      "decidu": 2465,
      "2004": 2466,
      "2007": 2467,
      "Asians": 2468,
      "bott": 2469,
      "erals": 2470,
      "claim": 2471,
      "relief": 2472,
      "ganiz": 2473,
      "peace": 2474,
      "scen": 2475,
      "scale": 2476,
      "systems": 2477,
      "niqu": 2478,
      "pread": 2479,
      "prevent": 2480,
      "series": 2481,
      "serving": 2482,
      "vide": 2483,
      "viet": 2484,
      "view": 2485,
      "Emergency": 2486,
      "pollution": 2487,
      "wood": 2488,
      "warriors": 2489,
      "extinct": 2490,
      "extreme": 2491,
      "extends": 2492,
      "committe": 2493,
      "numerals": 2494,
      "tail": 2495,
      "company": 2496,
      "comprising": 2497,
      "black": 2498,
      "limited": 2499,
      "domestic": 2500,
      "mainly": 2501,
      "maintain": 2502,
      "1964": 2503,
      "1960s": 2504,
      "1998": 2505,
      "1999": 2506,
      "largely": 2507,
      "notable": 2508,
      "notably": 2509,
      "trad": 2510,
      "2021": 2511,
      "Major": 2512,
      "followed": 2513,
      "kho": 2514,
      "khand": 2515,
      "puts": 2516,
      "southwest": 2517,
      "ological": 2518,
      "ologically": 2519,
      "supplanted": 2520,
      "rati": 2521,
      "rative": 2522,
      "legal": 2523,
      "leges": 2524,
      "ilitated": 2525,
      "settle": 2526,
      "expanding": 2527,
      "speci": 2528,
      "18th": 2529,
      "1858": 2530,
      "Alliance": 2531,
      "course": 2532,
      "humans": 2533,
      "nonviol": 2534,
      "thereafter": 2535,
      "therefore": 2536,
      "countries": 2537,
      "literary": 2538,
      "literature": 2539,
      "Common": 2540,
      "Modi": 2541,
      "Nep": 2542,
      "New": 2543,
      "aith": 2544,
      "awatts": 2545,
      "calend": 2546,
      "efly": 2547,
      "eventually": 2548,
      "hood": 2549,
      "hotspo": 2550,
      "key": 2551,
      "nationalist": 2552,
      "osis": 2553,
      "presence": 2554,
      "1949": 2555,
      "duction": 2556,
      "occurred": 2557,
      "occasions": 2558,
      "Eastern": 2559,
      "Still": 2560,
      "greenhouse": 2561,
      "ronic": 2562,
      "teen": 2563,
      "international": 2564,
      "intervention": 2565,
      "arms": 2566,
      "ultaneously": 2567,
      "techniqu": 2568,
      "Punjabi": 2569,
      "colleges": 2570,
      "gatherers": 2571,
      "display": 2572,
      "disputed": 2573,
      "espite": 2574,
      "1980": 2575,
      "1984": 2576,
      "1985": 2577,
      "exporter": 2578,
      "exported": 2579,
      "applied": 2580,
      "generated": 2581,
      "mathematicians": 2582,
      "highly": 2583,
      "Muslims": 2584,
      "17th": 2585,
      "Several": 2586,
      "airs": 2587,
      "flour": 2588,
      "lasted": 2589,
      "annually": 2590,
      "annual": 2591,
      "1971": 2592,
      "1975": 2593,
      "territorial": 2594,
      "coasts": 2595,
      "coastal": 2596,
      "coastline": 2597,
      "feature": 2598,
      "dominion": 2599,
      "dominance": 2600,
      "transformed": 2601,
      "Sikhs": 2602,
      "Democratic": 2603,
      "Republic": 2604,
      "Religion": 2605,
      "Shastri": 2606,
      "Shiva": 2607,
      "bread": 2608,
      "break": 2609,
      "carved": 2610,
      "descri": 2611,
      "ethical": 2612,
      "ethnic": 2613,
      "fastest": 2614,
      "figure": 2615,
      "geograph": 2616,
      "garment": 2617,
      "garlic": 2618,
      "manufact": 2619,
      "ruled": 2620,
      "ruling": 2621,
      "rulers": 2622,
      "turn": 2623,
      "vene": 2624,
      "wanted": 2625,
      "remained": 2626,
      "stead": 2627,
      "steamed": 2628,
      "divorce": 2629,
      "diffused": 2630,
      "archaic": 2631,
      "essential": 2632,
      "emphas": 2633,
      "dependent": 2634,
      "medieval": 2635,
      "shores": 2636,
      "married": 2637,
      "occupy": 2638,
      "occupation": 2639,
      "original": 2640,
      "paintings": 2641,
      "industrial": 2642,
      "10th": 2643,
      "Artic": 2644,
      "Prolifer": 2645,
      "democratic": 2646,
      "democracy": 2647,
      "heredit": 2648,
      "layer": 2649,
      "promo": 2650,
      "promin": 2651,
      "volcan": 2652,
      "headed": 2653,
      "amphi": 2654,
      "several": 2655,
      "severely": 2656,
      "defined": 2657,
      "endemism": 2658,
      "service": 2659,
      "commerce": 2660,
      "historical": 2661,
      "historically": 2662,
      "historians": 2663,
      "Bhangra": 2664,
      "Northeast": 2665,
      "Rajiv": 2666,
      "Rajputs": 2667,
      "borne": 2668,
      "borders": 2669,
      "cheetah": 2670,
      "cloth": 2671,
      "close": 2672,
      "civilian": 2673,
      "everyday": 2674,
      "izens": 2675,
      "mitt": 2676,
      "make": 2677,
      "nings": 2678,
      "princes": 2679,
      "payee": 2680,
      "temper": 2681,
      "temples": 2682,
      "voted": 2683,
      "villages": 2684,
      "various": 2685,
      "independent": 2686,
      "regul": 2687,
      "distinct": 2688,
      "organised": 2689,
      "respective": 2690,
      "points": 2691,
      "spreading": 2692,
      "subsequently": 2693,
      "declared": 2694,
      "policy": 2695,
      "complex": 2696,
      "groups": 2697,
      "biodiversity": 2698,
      "biotech": 2699,
      "survives": 2700,
      "births": 2701,
      "current": 2702,
      "factor": 2703,
      "Foreign": 2704,
      "Medi": 2705,
      "building": 2706,
      "creating": 2707,
      "creativity": 2708,
      "dense": 2709,
      "edicts": 2710,
      "family": 2711,
      "gradient": 2712,
      "hymn": 2713,
      "passing": 2714,
      "tubercul": 2715,
      "winds": 2716,
      "involved": 2717,
      "involving": 2718,
      "renewable": 2719,
      "associate": 2720,
      "associated": 2721,
      "ission": 2722,
      "advanced": 2723,
      "astrianism": 2724,
      "against": 2725,
      "whereas": 2726,
      "sports": 2727,
      "producer": 2728,
      "played": 2729,
      "affairs": 2730,
      "Hindustan": 2731,
      "Hindustani": 2732,
      "taxes": 2733,
      "expression": 2734,
      "contributed": 2735,
      "Brahmaputra": 2736,
      "speaking": 2737,
      "speakers": 2738,
      "legislature": 2739,
      "361": 2740,
      "Akbar": 2741,
      "Economy": 2742,
      "Geography": 2743,
      "Lankan": 2744,
      "Malay": 2745,
      "Marath": 2746,
      "Politics": 2747,
      "Soviet": 2748,
      "Temple": 2749,
      "Vijay": 2750,
      "bonds": 2751,
      "briefly": 2752,
      "cleared": 2753,
      "climatic": 2754,
      "drop": 2755,
      "females": 2756,
      "gained": 2757,
      "hubs": 2758,
      "highest": 2759,
      "migration": 2760,
      "patron": 2761,
      "pastoral": 2762,
      "similar": 2763,
      "savoury": 2764,
      "varna": 2765,
      "thorn": 2766,
      "threatened": 2767,
      "anagara": 2768,
      "initi": 2769,
      "standardis": 2770,
      "disease": 2771,
      "isolation": 2772,
      "towns": 2773,
      "levels": 2774,
      "adopted": 2775,
      "additional": 2776,
      "rapidly": 2777,
      "railways": 2778,
      "vegetari": 2779,
      "untouchability": 2780,
      "persist": 2781,
      "short": 2782,
      "particular": 2783,
      "extensively": 2784,
      "Eurasia": 2785,
      "expansion": 2786,
      "merchants": 2787,
      "breathing": 2788,
      "manuscript": 2789,
      "Biodiversity": 2790,
      "strongly": 2791,
      "structure": 2792,
      "liberalisation": 2793,
      "characteristic": 2794,
      "response": 2795,
      "Gujarat": 2796,
      "habitat": 2797,
      "safeguard": 2798,
      "Pallavas": 2799,
      "victories": 2800,
      "discriminatory": 2801,
      "Ajanta": 2802,
      "Achaem": 2803,
      "Between": 2804,
      "Classical": 2805,
      "Cups": 2806,
      "Caves": 2807,
      "Climate": 2808,
      "Carnatic": 2809,
      "Etymolog": 2810,
      "Following": 2811,
      "General": 2812,
      "Gangetic": 2813,
      "Gondwana": 2814,
      "Health": 2815,
      "History": 2816,
      "Jawahar": 2817,
      "Jharkhand": 2818,
      "Jammu": 2819,
      "Kosi": 2820,
      "Kerala": 2821,
      "Kaveri": 2822,
      "Languages": 2823,
      "Lakshadwe": 2824,
      "Mumbai": 2825,
      "October": 2826,
      "Organiz": 2827,
      "Plain": 2828,
      "Party": 2829,
      "Simultaneously": 2830,
      "Sabha": 2831,
      "Tibet": 2832,
      "Thailand": 2833,
      "Urdu": 2834,
      "Vajpayee": 2835,
      "Yakshagana": 2836,
      "Zoroastrianism": 2837,
      "bulk": 2838,
      "backs": 2839,
      "buck": 2840,
      "brought": 2841,
      "cattle": 2842,
      "citizens": 2843,
      "cake": 2844,
      "cereal": 2845,
      "drew": 2846,
      "framework": 2847,
      "farmers": 2848,
      "flowering": 2849,
      "gonomet": 2850,
      "gigawatts": 2851,
      "half": 2852,
      "hunter": 2853,
      "houses": 2854,
      "jurisdic": 2855,
      "jackets": 2856,
      "knit": 2857,
      "kurta": 2858,
      "length": 2859,
      "material": 2860,
      "ninth": 2861,
      "narrow": 2862,
      "parents": 2863,
      "tandoor": 2864,
      "usually": 2865,
      "vasive": 2866,
      "welfare": 2867,
      "information": 2868,
      "innov": 2869,
      "relative": 2870,
      "repeatedly": 2871,
      "study": 2872,
      "attract": 2873,
      "arisen": 2874,
      "International": 2875,
      "amendments": 2876,
      "ademi": 2877,
      "emperor": 2878,
      "emissions": 2879,
      "beginnings": 2880,
      "fortified": 2881,
      "consumption": 2882,
      "1930s": 2883,
      "supercontinent": 2884,
      "supreme": 2885,
      "defeated": 2886,
      "delegates": 2887,
      "excavated": 2888,
      "imperial": 2889,
      "percentage": 2890,
      "megadiverse": 2891,
      "assassinated": 2892,
      "affirm": 2893,
      "Christianity": 2894,
      "foeticide": 2895,
      "neighbour": 2896,
      "substantially": 2897,
      "deciduous": 2898,
      "bottom": 2899,
      "claiming": 2900,
      "extremely": 2901,
      "blackbuck": 2902,
      "settlement": 2903,
      "nonviolent": 2904,
      "Commonwealth": 2905,
      "hotspots": 2906,
      "Proliferation": 2907,
      "hereditary": 2908,
      "hymns": 2909,
      "tuberculosis": 2910,
      "Vijayanagara": 2911,
      "standardised": 2912,
      "Achaemen": 2913,
      "Etymology": 2914,
      "Jawaharlal": 2915,
      "Lakshadweep": 2916,
      "Organization": 2917,
      "jurisdiction": 2918,
      "materials": 2919,
      "\",": 2920,
      "%:": 2921,
      "%;": 2922,
      "')": 2923,
      "'.": 2924,
      "(\"": 2925,
      "('": 2926,
      "([": 2927,
      "(\".": 2928,
      ")).": 2929,
      ".)": 2930,
      "..": 2931,
      ".\")": 2932,
      "04": 2933,
      "094": 2934,
      "120": 2935,
      "113": 2936,
      "210": 2937,
      "235": 2938,
      "232": 2939,
      "2nd": 2940,
      "380": 2941,
      "43": 2942,
      "45": 2943,
      "48": 2944,
      "49": 2945,
      "4th": 2946,
      "431": 2947,
      "54": 2948,
      "57": 2949,
      "59": 2950,
      "5th": 2951,
      "517": 2952,
      "522": 2953,
      "60": 2954,
      "68": 2955,
      "600": 2956,
      "627": 2957,
      "663": 2958,
      "601": 2959,
      "72": 2960,
      "79": 2961,
      "7000": 2962,
      "731": 2963,
      "81": 2964,
      "85": 2965,
      "8th": 2966,
      "800": 2967,
      "93": 2968,
      "97": 2969,
      "9th": 2970,
      "900": 2971,
      "940": 2972,
      "Ab": 2973,
      "Ad": 2974,
      "Ap": 2975,
      "Au": 2976,
      "Az": 2977,
      "Aṣ": 2978,
      "Aver": 2979,
      "Amar": 2980,
      "Aph": 2981,
      "Aust": 2982,
      "Ahm": 2983,
      "Atal": 2984,
      "Adiv": 2985,
      "Alig": 2986,
      "BB": 2987,
      "Be": 2988,
      "Br": 2989,
      "Ban": 2990,
      "Bed": 2991,
      "Bas": 2992,
      "Bol": 2993,
      "But": 2994,
      "Bhas": 2995,
      "Bak": 2996,
      "Bod": 2997,
      "Bound": 2998,
      "Bah": 2999,
      "Boulder": 3000,
      "Both": 3001,
      "CN": 3002,
      "Co": 3003,
      "Cu": 3004,
      "Can": 3005,
      "Cre": 3006,
      "Cal": 3007,
      "Cam": 3008,
      "Col": 3009,
      "Clo": 3010,
      "Crit": 3011,
      "Coun": 3012,
      "Cap": 3013,
      "Cha": 3014,
      "Crow": 3015,
      "Cold": 3016,
      "Census": 3017,
      "DN": 3018,
      "Don": 3019,
      "Dic": 3020,
      "Dog": 3021,
      "Dire": 3022,
      "Dev": 3023,
      "Dhol": 3024,
      "Despite": 3025,
      "El": 3026,
      "En": 3027,
      "Ep": 3028,
      "Ev": 3029,
      "Ele": 3030,
      "Esc": 3031,
      "Eigh": 3032,
      "Each": 3033,
      "Educ": 3034,
      "Eight": 3035,
      "Ell": 3036,
      "Fr": 3037,
      "Fed": 3038,
      "Fic": 3039,
      "Ful": 3040,
      "Fem": 3041,
      "From": 3042,
      "Fut": 3043,
      "Four": 3044,
      "Further": 3045,
      "Fact": 3046,
      "Faith": 3047,
      "Gan": 3048,
      "Gre": 3049,
      "Gar": 3050,
      "God": 3051,
      "Govern": 3052,
      "Great": 3053,
      "Gold": 3054,
      "Hy": 3055,
      "Har": 3056,
      "Hom": 3057,
      "Hell": 3058,
      "IT": 3059,
      "IU": 3060,
      "Ire": 3061,
      "Iran": 3062,
      "Ident": 3063,
      "Jap": 3064,
      "Jud": 3065,
      "Just": 3066,
      "Jains": 3067,
      "Ke": 3068,
      "Kr": 3069,
      "Kon": 3070,
      "Kar": 3071,
      "King": 3072,
      "Kad": 3073,
      "Kol": 3074,
      "Kut": 3075,
      "Ksh": 3076,
      "Kann": 3077,
      "Karnat": 3078,
      "La": 3079,
      "Lal": 3080,
      "Lat": 3081,
      "Long": 3082,
      "Loc": 3083,
      "Lok": 3084,
      "Lef": 3085,
      "Lati": 3086,
      "Lord": 3087,
      "Mor": 3088,
      "Mit": 3089,
      "Mad": 3090,
      "Mong": 3091,
      "May": 3092,
      "Mult": 3093,
      "Mig": 3094,
      "Map": 3095,
      "Na": 3096,
      "Nad": 3097,
      "Nag": 3098,
      "Nain": 3099,
      "Nav": 3100,
      "Nations": 3101,
      "Narm": 3102,
      "Naren": 3103,
      "Naras": 3104,
      "Of": 3105,
      "On": 3106,
      "Ou": 3107,
      "Ox": 3108,
      "Oly": 3109,
      "Out": 3110,
      "Open": 3111,
      "Odish": 3112,
      "Oriya": 3113,
      "Pe": 3114,
      "Ph": 3115,
      "Po": 3116,
      "Pr": 3117,
      "Py": 3118,
      "Pā": 3119,
      "Pre": 3120,
      "Pri": 3121,
      "Pain": 3122,
      "Pach": 3123,
      "Pars": 3124,
      "Pali": 3125,
      "Pash": 3126,
      "Panch": 3127,
      "Pandy": 3128,
      "Ra": 3129,
      "Ri": 3130,
      "Ru": 3131,
      "Rā": 3132,
      "Ras": 3133,
      "Res": 3134,
      "Rom": 3135,
      "Ram": 3136,
      "Rus": 3137,
      "Rak": 3138,
      "Rid": 3139,
      "Rig": 3140,
      "Ref": 3141,
      "Rev": 3142,
      "Rann": 3143,
      "Rice": 3144,
      "Rams": 3145,
      "Sr": 3146,
      "Sū": 3147,
      "San": 3148,
      "Son": 3149,
      "Sat": 3150,
      "Sch": 3151,
      "Sang": 3152,
      "Set": 3153,
      "Sig": 3154,
      "Sha": 3155,
      "Sup": 3156,
      "Since": 3157,
      "Sange": 3158,
      "Sund": 3159,
      "Sanch": 3160,
      "Sched": 3161,
      "Sports": 3162,
      "Tr": 3163,
      "Tec": 3164,
      "Tri": 3165,
      "Tro": 3166,
      "Test": 3167,
      "T20": 3168,
      "Tel": 3169,
      "Tap": 3170,
      "Tod": 3171,
      "Tai": 3172,
      "Teth": 3173,
      "Tash": 3174,
      "Tiger": 3175,
      "Uni": 3176,
      "Uday": 3177,
      "Utt": 3178,
      "Vin": 3179,
      "Var": 3180,
      "Ved": 3181,
      "Virt": 3182,
      "We": 3183,
      "Whe": 3184,
      "Way": 3185,
      "Wid": 3186,
      "Wild": 3187,
      "When": 3188,
      "Yam": 3189,
      "az": 3190,
      "aṅ": 3191,
      "ares": 3192,
      "adic": 3193,
      "ahead": 3194,
      "br": 3195,
      "bʱ": 3196,
      "bit": 3197,
      "bic": 3198,
      "bur": 3199,
      "bli": 3200,
      "bol": 3201,
      "blo": 3202,
      "bate": 3203,
      "bak": 3204,
      "big": 3205,
      "bans": 3206,
      "bally": 3207,
      "bade": 3208,
      "blowing": 3209,
      "bust": 3210,
      "bird": 3211,
      "bility": 3212,
      "bitions": 3213,
      "bhā": 3214,
      "bined": 3215,
      "cas": 3216,
      "cli": 3217,
      "cra": 3218,
      "cres": 3219,
      "cies": 3220,
      "cab": 3221,
      "cum": 3222,
      "cted": 3223,
      "clu": 3224,
      "cig": 3225,
      "call": 3226,
      "cence": 3227,
      "crow": 3228,
      "cused": 3229,
      "cations": 3230,
      "cited": 3231,
      "cines": 3232,
      "camp": 3233,
      "cise": 3234,
      "cricket": 3235,
      "cended": 3236,
      "dd": 3237,
      "dan": 3238,
      "dand": 3239,
      "dou": 3240,
      "dur": 3241,
      "dol": 3242,
      "date": 3243,
      "dated": 3244,
      "dhi": 3245,
      "dress": 3246,
      "dome": 3247,
      "doc": 3248,
      "drough": 3249,
      "done": 3250,
      "dai": 3251,
      "dens": 3252,
      "dden": 3253,
      "dining": 3254,
      "dasi": 3255,
      "despite": 3256,
      "eat": 3257,
      "eed": 3258,
      "eing": 3259,
      "ele": 3260,
      "eper": 3261,
      "eans": 3262,
      "epul": 3263,
      "each": 3264,
      "eking": 3265,
      "fre": 3266,
      "fle": 3267,
      "fra": 3268,
      "fun": 3269,
      "fts": 3270,
      "fut": 3271,
      "fel": 3272,
      "fill": 3273,
      "fted": 3274,
      "fend": 3275,
      "flat": 3276,
      "fine": 3277,
      "fire": 3278,
      "fence": 3279,
      "fically": 3280,
      "flowing": 3281,
      "free": 3282,
      "fell": 3283,
      "fables": 3284,
      "fought": 3285,
      "faith": 3286,
      "ger": 3287,
      "gic": 3288,
      "ging": 3289,
      "gent": 3290,
      "gil": 3291,
      "gri": 3292,
      "gres": 3293,
      "gir": 3294,
      "gment": 3295,
      "gap": 3296,
      "god": 3297,
      "graph": 3298,
      "gust": 3299,
      "gold": 3300,
      "gives": 3301,
      "gative": 3302,
      "gross": 3303,
      "gidly": 3304,
      "gala": 3305,
      "hl": 3306,
      "hr": 3307,
      "hâ": 3308,
      "hon": 3309,
      "hat": 3310,
      "hic": 3311,
      "hom": 3312,
      "hsh": 3313,
      "hary": 3314,
      "hmin": 3315,
      "hour": 3316,
      "home": 3317,
      "hoc": 3318,
      "hari": 3319,
      "hnolog": 3320,
      "hata": 3321,
      "hund": 3322,
      "haps": 3323,
      "hgala": 3324,
      "ik": 3325,
      "iw": 3326,
      "ith": 3327,
      "ied": 3328,
      "iand": 3329,
      "iri": 3330,
      "iation": 3331,
      "ira": 3332,
      "ider": 3333,
      "ihi": 3334,
      "iers": 3335,
      "ief": 3336,
      "iev": 3337,
      "ifer": 3338,
      "iens": 3339,
      "iders": 3340,
      "ible": 3341,
      "ji": 3342,
      "ju": 3343,
      "jat": 3344,
      "jour": 3345,
      "jav": 3346,
      "jamas": 3347,
      "jured": 3348,
      "jaz": 3349,
      "jeans": 3350,
      "ka": 3351,
      "kat": 3352,
      "kent": 3353,
      "kies": 3354,
      "kne": 3355,
      "kata": 3356,
      "kani": 3357,
      "kara": 3358,
      "kirt": 3359,
      "kime": 3360,
      "kabad": 3361,
      "ksha": 3362,
      "kmini": 3363,
      "ler": 3364,
      "lon": 3365,
      "lar": 3366,
      "las": 3367,
      "lent": 3368,
      "lil": 3369,
      "lad": 3370,
      "lation": 3371,
      "lab": 3372,
      "lav": 3373,
      "lped": 3374,
      "lack": 3375,
      "luted": 3376,
      "laced": 3377,
      "laps": 3378,
      "mp": 3379,
      "my": 3380,
      "mā": 3381,
      "mal": 3382,
      "med": 3383,
      "mor": 3384,
      "mis": 3385,
      "ming": 3386,
      "mast": 3387,
      "mical": 3388,
      "mart": 3389,
      "moun": 3390,
      "mant": 3391,
      "mud": 3392,
      "must": 3393,
      "might": 3394,
      "morally": 3395,
      "mission": 3396,
      "mbol": 3397,
      "na": 3398,
      "ner": 3399,
      "nas": 3400,
      "nast": 3401,
      "nut": 3402,
      "noun": 3403,
      "nav": 3404,
      "nine": 3405,
      "ners": 3406,
      "nately": 3407,
      "napp": 3408,
      "ncre": 3409,
      "nearly": 3410,
      "ox": 3411,
      "oat": 3412,
      "oist": 3413,
      "ood": 3414,
      "oog": 3415,
      "ota": 3416,
      "otal": 3417,
      "oice": 3418,
      "oti": 3419,
      "oven": 3420,
      "oples": 3421,
      "ocean": 3422,
      "pp": 3423,
      "py": 3424,
      "pan": 3425,
      "pli": 3426,
      "pment": 3427,
      "put": 3428,
      "pac": 3429,
      "pill": 3430,
      "pure": 3431,
      "piv": 3432,
      "pav": 3433,
      "pect": 3434,
      "pron": 3435,
      "pared": 3436,
      "pines": 3437,
      "prise": 3438,
      "ppay": 3439,
      "poul": 3440,
      "panch": 3441,
      "panding": 3442,
      "rion": 3443,
      "ril": 3444,
      "run": 3445,
      "rum": 3446,
      "rine": 3447,
      "rhy": 3448,
      "ranged": 3449,
      "rush": 3450,
      "sa": 3451,
      "san": 3452,
      "sal": 3453,
      "sar": 3454,
      "ses": 3455,
      "sit": 3456,
      "sem": 3457,
      "swi": 3458,
      "spo": 3459,
      "sac": 3460,
      "sap": 3461,
      "same": 3462,
      "sci": 3463,
      "sence": 3464,
      "slowing": 3465,
      "sions": 3466,
      "swa": 3467,
      "sales": 3468,
      "slid": 3469,
      "saut": 3470,
      "sources": 3471,
      "sandy": 3472,
      "sought": 3473,
      "skirt": 3474,
      "tw": 3475,
      "tan": 3476,
      "tas": 3477,
      "tation": 3478,
      "tch": 3479,
      "tag": 3480,
      "tab": 3481,
      "tang": 3482,
      "tment": 3483,
      "tel": 3484,
      "ture": 3485,
      "try": 3486,
      "tally": 3487,
      "tuc": 3488,
      "tect": 3489,
      "tta": 3490,
      "trough": 3491,
      "tains": 3492,
      "tell": 3493,
      "tling": 3494,
      "tons": 3495,
      "tight": 3496,
      "tiger": 3497,
      "ue": 3498,
      "ule": 3499,
      "ument": 3500,
      "uet": 3501,
      "uous": 3502,
      "ubi": 3503,
      "uistic": 3504,
      "ugu": 3505,
      "uaries": 3506,
      "ukk": 3507,
      "vul": 3508,
      "vate": 3509,
      "vac": 3510,
      "vial": 3511,
      "vall": 3512,
      "vals": 3513,
      "vati": 3514,
      "vice": 3515,
      "vara": 3516,
      "vulture": 3517,
      "vPu": 3518,
      "viron": 3519,
      "wat": 3520,
      "wed": 3521,
      "wil": 3522,
      "will": 3523,
      "wage": 3524,
      "wai": 3525,
      "winter": 3526,
      "wati": 3527,
      "walled": 3528,
      "wstr": 3529,
      "wrap": 3530,
      "wda": 3531,
      "xal": 3532,
      "xic": 3533,
      "xuri": 3534,
      "xture": 3535,
      "yi": 3536,
      "yā": 3537,
      "yī": 3538,
      "yar": 3539,
      "yed": 3540,
      "yam": 3541,
      "youn": 3542,
      "yog": 3543,
      "yond": 3544,
      "ypically": 3545,
      "yalty": 3546,
      "zer": 3547,
      "zone": 3548,
      "zones": 3549,
      "zoog": 3550,
      "Ön": 3551,
      "ādh": 3552,
      "ārat": 3553,
      "āham": 3554,
      "Śul": 3555,
      "ət": 3556,
      "ɦɪ": 3557,
      "ɾət": 3558,
      "ʊˈ": 3559,
      "ˈbʱ": 3560,
      "ία": 3561,
      "ός": 3562,
      "ṇa": 3563,
      "ṇin": 3564,
      "ṭādh": 3565,
      "thin": 3566,
      "thing": 3567,
      "thus": 3568,
      "thous": 3569,
      "thago": 3570,
      "anar": 3571,
      "anim": 3572,
      "anistan": 3573,
      "ancy": 3574,
      "anking": 3575,
      "anuj": 3576,
      "andise": 3577,
      "anjav": 3578,
      "int": 3579,
      "inst": 3580,
      "inion": 3581,
      "inve": 3582,
      "inate": 3583,
      "inet": 3584,
      "insp": 3585,
      "iniv": 3586,
      "inade": 3587,
      "inations": 3588,
      "inscri": 3589,
      "indefin": 3590,
      "instru": 3591,
      "inaries": 3592,
      "invention": 3593,
      "inval": 3594,
      "instead": 3595,
      "invasive": 3596,
      "theory": 3597,
      "theore": 3598,
      "eras": 3599,
      "ering": 3600,
      "erous": 3601,
      "erry": 3602,
      "erations": 3603,
      "eria": 3604,
      "erwan": 3605,
      "ergence": 3606,
      "erves": 3607,
      "erences": 3608,
      "onisation": 3609,
      "onists": 3610,
      "ondri": 3611,
      "onomy": 3612,
      "onwards": 3613,
      "ontally": 3614,
      "rean": 3615,
      "real": 3616,
      "rely": 3617,
      "reve": 3618,
      "reet": 3619,
      "repl": 3620,
      "repul": 3621,
      "repre": 3622,
      "recomm": 3623,
      "report": 3624,
      "repres": 3625,
      "recording": 3626,
      "refin": 3627,
      "regar": 3628,
      "rehab": 3629,
      "reported": 3630,
      "reject": 3631,
      "redient": 3632,
      "reports": 3633,
      "retreat": 3634,
      "remental": 3635,
      "recourse": 3636,
      "return": 3637,
      "remitt": 3638,
      "reorganised": 3639,
      "alo": 3640,
      "alam": 3641,
      "alter": 3642,
      "allu": 3643,
      "alism": 3644,
      "alry": 3645,
      "alwar": 3646,
      "although": 3647,
      "allowing": 3648,
      "alised": 3649,
      "almon": 3650,
      "alge": 3651,
      "allows": 3652,
      "enli": 3653,
      "ende": 3654,
      "encomp": 3655,
      "enistic": 3656,
      "encro": 3657,
      "endit": 3658,
      "environ": 3659,
      "ster": 3660,
      "sting": 3661,
      "stra": 3662,
      "stain": 3663,
      "stment": 3664,
      "start": 3665,
      "still": 3666,
      "stage": 3667,
      "stop": 3668,
      "stup": 3669,
      "stics": 3670,
      "story": 3671,
      "strate": 3672,
      "stable": 3673,
      "stone": 3674,
      "stamp": 3675,
      "staː": 3676,
      "stood": 3677,
      "dial": 3678,
      "dies": 3679,
      "dili": 3680,
      "dici": 3681,
      "diers": 3682,
      "dicl": 3683,
      "dity": 3684,
      "dible": 3685,
      "divide": 3686,
      "diox": 3687,
      "ator": 3688,
      "atur": 3689,
      "atol": 3690,
      "atical": 3691,
      "atism": 3692,
      "atop": 3693,
      "atant": 3694,
      "atures": 3695,
      "atite": 3696,
      "attu": 3697,
      "attain": 3698,
      "atriya": 3699,
      "atypically": 3700,
      "arp": 3701,
      "aran": 3702,
      "arri": 3703,
      "arra": 3704,
      "arial": 3705,
      "arhi": 3706,
      "araj": 3707,
      "arose": 3708,
      "arsha": 3709,
      "arless": 3710,
      "arbans": 3711,
      "arji": 3712,
      "arranged": 3713,
      "edom": 3714,
      "edabad": 3715,
      "anded": 3716,
      "andmast": 3717,
      "Instead": 3718,
      "Intel": 3719,
      "ora": 3720,
      "orad": 3721,
      "order": 3722,
      "orism": 3723,
      "ords": 3724,
      "orities": 3725,
      "orders": 3726,
      "orship": 3727,
      "offer": 3728,
      "ofess": 3729,
      "ofenac": 3730,
      "ioned": 3731,
      "ionals": 3732,
      "asa": 3733,
      "asy": 3734,
      "asis": 3735,
      "asing": 3736,
      "asants": 3737,
      "asaras": 3738,
      "aspect": 3739,
      "esi": 3740,
      "esans": 3741,
      "espread": 3742,
      "escence": 3743,
      "itated": 3744,
      "itous": 3745,
      "itage": 3746,
      "itud": 3747,
      "itime": 3748,
      "itself": 3749,
      "icated": 3750,
      "icide": 3751,
      "icken": 3752,
      "iconic": 3753,
      "isi": 3754,
      "isak": 3755,
      "isive": 3756,
      "island": 3757,
      "isational": 3758,
      "isines": 3759,
      "inga": 3760,
      "ingest": 3761,
      "ingredient": 3762,
      "ents": 3763,
      "ented": 3764,
      "entire": 3765,
      "entral": 3766,
      "entered": 3767,
      "entren": 3768,
      "entments": 3769,
      "entrepre": 3770,
      "omically": 3771,
      "omot": 3772,
      "omerations": 3773,
      "tour": 3774,
      "toad": 3775,
      "towards": 3776,
      "toler": 3777,
      "ouse": 3778,
      "oured": 3779,
      "outside": 3780,
      "ece": 3781,
      "ects": 3782,
      "ecog": 3783,
      "ecked": 3784,
      "ecologically": 3785,
      "lywood": 3786,
      "urt": 3787,
      "uru": 3788,
      "urial": 3789,
      "urgen": 3790,
      "urally": 3791,
      "urgence": 3792,
      "ley": 3793,
      "leaf": 3794,
      "leav": 3795,
      "lexic": 3796,
      "heart": 3797,
      "heav": 3798,
      "hewing": 3799,
      "helped": 3800,
      "ili": 3801,
      "ilip": 3802,
      "illegal": 3803,
      "amma": 3804,
      "amese": 3805,
      "amble": 3806,
      "amah": 3807,
      "amples": 3808,
      "amtre": 3809,
      "ambitions": 3810,
      "verbal": 3811,
      "adru": 3812,
      "administer": 3813,
      "adversity": 3814,
      "adverse": 3815,
      "adual": 3816,
      "adjo": 3817,
      "adasis": 3818,
      "lie": 3819,
      "lio": 3820,
      "lier": 3821,
      "list": 3822,
      "lide": 3823,
      "liding": 3824,
      "liqu": 3825,
      "ligence": 3826,
      "lidified": 3827,
      "lihood": 3828,
      "ried": 3829,
      "riage": 3830,
      "rific": 3831,
      "riff": 3832,
      "rigation": 3833,
      "rigidly": 3834,
      "olving": 3835,
      "olars": 3836,
      "olished": 3837,
      "olonisation": 3838,
      "ula": 3839,
      "ulating": 3840,
      "ulaic": 3841,
      "ulgation": 3842,
      "ema": 3843,
      "ems": 3844,
      "emits": 3845,
      "empor": 3846,
      "embo": 3847,
      "embro": 3848,
      "emergency": 3849,
      "emergence": 3850,
      "chain": 3851,
      "chall": 3852,
      "chine": 3853,
      "chta": 3854,
      "chose": 3855,
      "chived": 3856,
      "choli": 3857,
      "chronic": 3858,
      "chik": 3859,
      "choice": 3860,
      "cherry": 3861,
      "chatur": 3862,
      "chasing": 3863,
      "chicken": 3864,
      "checked": 3865,
      "roche": 3866,
      "roportion": 3867,
      "root": 3868,
      "royalty": 3869,
      "raw": 3870,
      "raco": 3871,
      "raid": 3872,
      "rainf": 3873,
      "raga": 3874,
      "raising": 3875,
      "rastructure": 3876,
      "raiders": 3877,
      "raksha": 3878,
      "rarely": 3879,
      "rachta": 3880,
      "cept": 3881,
      "ceptions": 3882,
      "tionary": 3883,
      "bylon": 3884,
      "bel": 3885,
      "beach": 3886,
      "bears": 3887,
      "beyond": 3888,
      "seal": 3889,
      "seen": 3890,
      "seas": 3891,
      "seaf": 3892,
      "segre": 3893,
      "seven": 3894,
      "seams": 3895,
      "sealed": 3896,
      "seeking": 3897,
      "veill": 3898,
      "vehic": 3899,
      "istance": 3900,
      "istics": 3901,
      "istered": 3902,
      "istently": 3903,
      "ford": 3904,
      "foray": 3905,
      "forces": 3906,
      "forced": 3907,
      "forbade": 3908,
      "astal": 3909,
      "astring": 3910,
      "consu": 3911,
      "conqu": 3912,
      "condition": 3913,
      "conserv": 3914,
      "consequent": 3915,
      "conduct": 3916,
      "conspic": 3917,
      "constitutes": 3918,
      "conifer": 3919,
      "contour": 3920,
      "ests": 3921,
      "lop": 3922,
      "lost": 3923,
      "loor": 3924,
      "lodic": 3925,
      "losing": 3926,
      "locations": 3927,
      "193": 3928,
      "1920": 3929,
      "1900": 3930,
      "1921": 3931,
      "1928": 3932,
      "1911": 3933,
      "1901": 3934,
      "resolution": 3935,
      "resentments": 3936,
      "resurgence": 3937,
      "resistance": 3938,
      "sue": 3939,
      "sukh": 3940,
      "superi": 3941,
      "sung": 3942,
      "suspending": 3943,
      "sustain": 3944,
      "aged": 3945,
      "aging": 3946,
      "agro": 3947,
      "agup": 3948,
      "agement": 3949,
      "agos": 3950,
      "aggl": 3951,
      "ters": 3952,
      "tery": 3953,
      "tered": 3954,
      "termin": 3955,
      "terculture": 3956,
      "terren": 3957,
      "terraco": 3958,
      "wides": 3959,
      "deal": 3960,
      "depos": 3961,
      "deforest": 3962,
      "defeat": 3963,
      "death": 3964,
      "deep": 3965,
      "detail": 3966,
      "debate": 3967,
      "defence": 3968,
      "deems": 3969,
      "determin": 3970,
      "una": 3971,
      "units": 3972,
      "unpre": 3973,
      "unities": 3974,
      "unconstitutional": 3975,
      "unrest": 3976,
      "unlin": 3977,
      "undisputed": 3978,
      "unwanted": 3979,
      "unanim": 3980,
      "unleav": 3981,
      "204": 3982,
      "20s": 3983,
      "2019": 3984,
      "2020": 3985,
      "2030": 3986,
      "irreg": 3987,
      "irrigation": 3988,
      "whim": 3989,
      "white": 3990,
      "while": 3991,
      "ghten": 3992,
      "ghanistan": 3993,
      "gharial": 3994,
      "dual": 3995,
      "ducherry": 3996,
      "moved": 3997,
      "moving": 3998,
      "mohan": 3999,
      "mobility": 4000,
      "modated": 4001,
      "exe": 4002,
      "experi": 4003,
      "excur": 4004,
      "exchanged": 4005,
      "exceed": 4006,
      "exogamy": 4007,
      "exclu": 4008,
      "except": 4009,
      "imum": 4010,
      "imha": 4011,
      "impor": 4012,
      "immen": 4013,
      "improv": 4014,
      "imitated": 4015,
      "arel": 4016,
      "arett": 4017,
      "dering": 4018,
      "derately": 4019,
      "derives": 4020,
      "derabad": 4021,
      "deriving": 4022,
      "derecog": 4023,
      "post": 4024,
      "poet": 4025,
      "poss": 4026,
      "posts": 4027,
      "romos": 4028,
      "abatic": 4029,
      "absol": 4030,
      "aboration": 4031,
      "abhata": 4032,
      "abjured": 4033,
      "absence": 4034,
      "abolished": 4035,
      "mentioned": 4036,
      "sie": 4037,
      "sided": 4038,
      "sible": 4039,
      "size": 4040,
      "sizes": 4041,
      "utan": 4042,
      "uttu": 4043,
      "weriw": 4044,
      "overall": 4045,
      "overlaps": 4046,
      "uses": 4047,
      "usage": 4048,
      "usher": 4049,
      "aces": 4050,
      "acity": 4051,
      "accom": 4052,
      "accomp": 4053,
      "acute": 4054,
      "aciers": 4055,
      "eties": 4056,
      "etnam": 4057,
      "inction": 4058,
      "incial": 4059,
      "inctions": 4060,
      "incremental": 4061,
      "perform": 4062,
      "perman": 4063,
      "pervasive": 4064,
      "perhaps": 4065,
      "peratures": 4066,
      "perceptions": 4067,
      "soons": 4068,
      "sojour": 4069,
      "solidified": 4070,
      "ayat": 4071,
      "eld": 4072,
      "ellate": 4073,
      "elite": 4074,
      "elders": 4075,
      "elagos": 4076,
      "earth": 4077,
      "compl": 4078,
      "combined": 4079,
      "split": 4080,
      "spite": 4081,
      "spons": 4082,
      "spices": 4083,
      "spring": 4084,
      "rite": 4085,
      "rition": 4086,
      "ritory": 4087,
      "ritual": 4088,
      "ritsar": 4089,
      "content": 4090,
      "contexts": 4091,
      "contempor": 4092,
      "aka": 4093,
      "akti": 4094,
      "akening": 4095,
      "meal": 4096,
      "meter": 4097,
      "meet": 4098,
      "meets": 4099,
      "measures": 4100,
      "measured": 4101,
      "melodic": 4102,
      "core": 4103,
      "coher": 4104,
      "coins": 4105,
      "cott": 4106,
      "cooperation": 4107,
      "cosmo": 4108,
      "codified": 4109,
      "codili": 4110,
      "shap": 4111,
      "shirt": 4112,
      "shalwars": 4113,
      "sherwan": 4114,
      "shalwar": 4115,
      "sharp": 4116,
      "idli": 4117,
      "idate": 4118,
      "luxuri": 4119,
      "igai": 4120,
      "proper": 4121,
      "propos": 4122,
      "proportion": 4123,
      "product": 4124,
      "protection": 4125,
      "prostitutes": 4126,
      "provide": 4127,
      "proclaiming": 4128,
      "protag": 4129,
      "working": 4130,
      "worship": 4131,
      "ounced": 4132,
      "geny": 4133,
      "genres": 4134,
      "genders": 4135,
      "genetic": 4136,
      "endogamy": 4137,
      "formations": 4138,
      "formerly": 4139,
      "formulaic": 4140,
      "web": 4141,
      "weigh": 4142,
      "webs": 4143,
      "weakening": 4144,
      "pled": 4145,
      "plus": 4146,
      "plural": 4147,
      "plann": 4148,
      "plants": 4149,
      "places": 4150,
      "havi": 4151,
      "hava": 4152,
      "ivite": 4153,
      "oding": 4154,
      "portra": 4155,
      "minster": 4156,
      "assing": 4157,
      "asslands": 4158,
      "ishing": 4159,
      "ishya": 4160,
      "ishna": 4161,
      "ishvara": 4162,
      "rupe": 4163,
      "rupt": 4164,
      "ruction": 4165,
      "lowest": 4166,
      "ousers": 4167,
      "ousands": 4168,
      "ageable": 4169,
      "opy": 4170,
      "anti": 4171,
      "antly": 4172,
      "anticide": 4173,
      "antaged": 4174,
      "Chenn": 4175,
      "Chronic": 4176,
      "Chief": 4177,
      "Chota": 4178,
      "Cheras": 4179,
      "Charan": 4180,
      "Chords": 4181,
      "Chromos": 4182,
      "beration": 4183,
      "becau": 4184,
      "marma": 4185,
      "marble": 4186,
      "marital": 4187,
      "marinade": 4188,
      "maritime": 4189,
      "partners": 4190,
      "alling": 4191,
      "norm": 4192,
      "northeast": 4193,
      "upon": 4194,
      "upsur": 4195,
      "upati": 4196,
      "economies": 4197,
      "economics": 4198,
      "economically": 4199,
      "ctory": 4200,
      "ctrine": 4201,
      "ctuaries": 4202,
      "foss": 4203,
      "focused": 4204,
      "folio": 4205,
      "pulmon": 4206,
      "pulses": 4207,
      "stitched": 4208,
      "2012": 4209,
      "dings": 4210,
      "few": 4211,
      "feud": 4212,
      "need": 4213,
      "neem": 4214,
      "neither": 4215,
      "neoli": 4216,
      "negative": 4217,
      "neurial": 4218,
      "ressed": 4219,
      "subcaste": 4220,
      "subtropical": 4221,
      "subject": 4222,
      "subdue": 4223,
      "subduct": 4224,
      "subord": 4225,
      "subduction": 4226,
      "avor": 4227,
      "avari": 4228,
      "aveng": 4229,
      "avati": 4230,
      "avira": 4231,
      "avarsha": 4232,
      "lating": 4233,
      "latitude": 4234,
      "latitud": 4235,
      "Through": 4236,
      "Three": 4237,
      "Thanjav": 4238,
      "Thousands": 4239,
      "butaries": 4240,
      "ineal": 4241,
      "ineering": 4242,
      "inclusive": 4243,
      "ministrative": 4244,
      "ciety": 4245,
      "ciously": 4246,
      "decimal": 4247,
      "decline": 4248,
      "decenn": 4249,
      "decoration": 4250,
      "decisions": 4251,
      "decisive": 4252,
      "decentral": 4253,
      "decolonisation": 4254,
      "ired": 4255,
      "pride": 4256,
      "private": 4257,
      "priorities": 4258,
      "priests": 4259,
      "quate": 4260,
      "quite": 4261,
      "quely": 4262,
      "quarter": 4263,
      "quitous": 4264,
      "quadru": 4265,
      "regionally": 4266,
      "2006": 4267,
      "worldwide": 4268,
      "Asiatic": 4269,
      "book": 4270,
      "bodia": 4271,
      "bodies": 4272,
      "symbol": 4273,
      "syncre": 4274,
      "udra": 4275,
      "udhary": 4276,
      "clans": 4277,
      "landed": 4278,
      "landmark": 4279,
      "landown": 4280,
      "landmass": 4281,
      "training": 4282,
      "relied": 4283,
      "derness": 4284,
      "hadur": 4285,
      "longest": 4286,
      "longitude": 4287,
      "peak": 4288,
      "peepul": 4289,
      "pehl": 4290,
      "peoples": 4291,
      "peasants": 4292,
      "scuring": 4293,
      "ecting": 4294,
      "ectancy": 4295,
      "afterwards": 4296,
      "systematic": 4297,
      "cedented": 4298,
      "casts": 4299,
      "nized": 4300,
      "phin": 4301,
      "phies": 4302,
      "phanta": 4303,
      "previ": 4304,
      "prefer": 4305,
      "prehen": 4306,
      "preva": 4307,
      "preexisting": 4308,
      "precise": 4309,
      "prepared": 4310,
      "preyed": 4311,
      "parity": 4312,
      "parks": 4313,
      "paralle": 4314,
      "rice": 4315,
      "rict": 4316,
      "ricity": 4317,
      "rictions": 4318,
      "vidual": 4319,
      "Embra": 4320,
      "Empi": 4321,
      "dosa": 4322,
      "doctrine": 4323,
      "ficial": 4324,
      "polling": 4325,
      "polluted": 4326,
      "ralian": 4327,
      "ward": 4328,
      "warmer": 4329,
      "moreover": 4330,
      "extens": 4331,
      "extinction": 4332,
      "commission": 4333,
      "communities": 4334,
      "banned": 4335,
      "dhu": 4336,
      "dhya": 4337,
      "dhoti": 4338,
      "dhanar": 4339,
      "dhamma": 4340,
      "numerous": 4341,
      "ptember": 4342,
      "taugh": 4343,
      "wnings": 4344,
      "infection": 4345,
      "inflows": 4346,
      "infections": 4347,
      "infrastructure": 4348,
      "infanticide": 4349,
      "versities": 4350,
      "adequate": 4351,
      "increase": 4352,
      "compared": 4353,
      "Afghanistan": 4354,
      "bled": 4355,
      "blurred": 4356,
      "blouse": 4357,
      "causing": 4358,
      "causes": 4359,
      "coral": 4360,
      "coriand": 4361,
      "cordial": 4362,
      "counted": 4363,
      "council": 4364,
      "counterculture": 4365,
      "grown": 4366,
      "arithm": 4367,
      "arippay": 4368,
      "limit": 4369,
      "culturally": 4370,
      "ffs": 4371,
      "ffed": 4372,
      "ffalo": 4373,
      "mainland": 4374,
      "mainstre": 4375,
      "maintains": 4376,
      "roughly": 4377,
      "typical": 4378,
      "typically": 4379,
      "learned": 4380,
      "1956": 4381,
      "1957": 4382,
      "1966": 4383,
      "1990": 4384,
      "1992": 4385,
      "1994": 4386,
      "1995": 4387,
      "1996": 4388,
      "undergr": 4389,
      "underwent": 4390,
      "underskirt": 4391,
      "newly": 4392,
      "Under": 4393,
      "Until": 4394,
      "Untouch": 4395,
      "eastward": 4396,
      "gramm": 4397,
      "granted": 4398,
      "grands": 4399,
      "grandmast": 4400,
      "gradual": 4401,
      "grasslands": 4402,
      "tras": 4403,
      "trousers": 4404,
      "incely": 4405,
      "enges": 4406,
      "engineering": 4407,
      "outcastes": 4408,
      "output": 4409,
      "outposts": 4410,
      "continental": 4411,
      "Any": 4412,
      "Anand": 4413,
      "Conserv": 4414,
      "Convention": 4415,
      "Concurrent": 4416,
      "Mathemat": 4417,
      "Mahan": 4418,
      "Mahā": 4419,
      "Mahat": 4420,
      "Maith": 4421,
      "Maoist": 4422,
      "Machine": 4423,
      "Mahavi": 4424,
      "follows": 4425,
      "khar": 4426,
      "little": 4427,
      "ologic": 4428,
      "bias": 4429,
      "bians": 4430,
      "biological": 4431,
      "rata": 4432,
      "rating": 4433,
      "ratri": 4434,
      "rators": 4435,
      "risen": 4436,
      "risks": 4437,
      "legraph": 4438,
      "legacy": 4439,
      "settled": 4440,
      "setbacks": 4441,
      "settling": 4442,
      "expected": 4443,
      "expendit": 4444,
      "expanded": 4445,
      "expectancy": 4446,
      "powers": 4447,
      "portant": 4448,
      "portfolio": 4449,
      "1891": 4450,
      "1848": 4451,
      "1857": 4452,
      "1885": 4453,
      "1820s": 4454,
      "Almost": 4455,
      "herds": 4456,
      "herbal": 4457,
      "heritage": 4458,
      "humid": 4459,
      "humped": 4460,
      "ighat": 4461,
      "lately": 4462,
      "pleated": 4463,
      "pleasures": 4464,
      "insurgen": 4465,
      "thereby": 4466,
      "itely": 4467,
      "ularities": 4468,
      "velopment": 4469,
      "Buddhists": 4470,
      "literally": 4471,
      "Comprehen": 4472,
      "Most": 4473,
      "Movement": 4474,
      "Moderately": 4475,
      "Mughals": 4476,
      "awed": 4477,
      "away": 4478,
      "achment": 4479,
      "achings": 4480,
      "achiev": 4481,
      "balance": 4482,
      "balanced": 4483,
      "basis": 4484,
      "calcul": 4485,
      "efied": 4486,
      "evolved": 4487,
      "evidence": 4488,
      "evolving": 4489,
      "host": 4490,
      "hosts": 4491,
      "harsh": 4492,
      "histories": 4493,
      "keep": 4494,
      "kriti": 4495,
      "musical": 4496,
      "musics": 4497,
      "midriff": 4498,
      "militants": 4499,
      "nationalism": 4500,
      "osa": 4501,
      "Indoi": 4502,
      "Indos": 4503,
      "1946": 4504,
      "socially": 4505,
      "socialist": 4506,
      "Chinese": 4507,
      "Music": 4508,
      "Statist": 4509,
      "Street": 4510,
      "Westminster": 4511,
      "giant": 4512,
      "kingly": 4513,
      "teak": 4514,
      "teams": 4515,
      "telegraph": 4516,
      "teachings": 4517,
      "yaṇa": 4518,
      "throughout": 4519,
      "interest": 4520,
      "internal": 4521,
      "intervene": 4522,
      "intermitt": 4523,
      "intervals": 4524,
      "army": 4525,
      "Industri": 4526,
      "officially": 4527,
      "leads": 4528,
      "emerge": 4529,
      "emerging": 4530,
      "ignated": 4531,
      "ography": 4532,
      "politan": 4533,
      "politics": 4534,
      "Bengali": 4535,
      "Bengaluru": 4536,
      "Centred": 4537,
      "Sikk": 4538,
      "canon": 4539,
      "canals": 4540,
      "canalled": 4541,
      "canopy": 4542,
      "cold": 4543,
      "fires": 4544,
      "fixed": 4545,
      "field": 4546,
      "ideas": 4547,
      "idelines": 4548,
      "ideological": 4549,
      "meric": 4550,
      "mons": 4551,
      "monsoon": 4552,
      "monkey": 4553,
      "montan": 4554,
      "monsoons": 4555,
      "native": 4556,
      "natural": 4557,
      "natyam": 4558,
      "surround": 4559,
      "surpassing": 4560,
      "surveill": 4561,
      "trodden": 4562,
      "direction": 4563,
      "directions": 4564,
      "displaced": 4565,
      "disproportion": 4566,
      "1981": 4567,
      "1988": 4568,
      "1989": 4569,
      "exporting": 4570,
      "signing": 4571,
      "socio": 4572,
      "societies": 4573,
      "identity": 4574,
      "appa": 4575,
      "apparel": 4576,
      "appellate": 4577,
      "generic": 4578,
      "generation": 4579,
      "generate": 4580,
      "generational": 4581,
      "higher": 4582,
      "religiosa": 4583,
      "musicians": 4584,
      "15th": 4585,
      "1500": 4586,
      "1525": 4587,
      "172": 4588,
      "1765": 4589,
      "264": 4590,
      "268": 4591,
      "Across": 4592,
      "Academi": 4593,
      "See": 4594,
      "September": 4595,
      "create": 4596,
      "drawn": 4597,
      "draped": 4598,
      "drafted": 4599,
      "drawstr": 4600,
      "flank": 4601,
      "flung": 4602,
      "flanking": 4603,
      "flawed": 4604,
      "final": 4605,
      "greatly": 4606,
      "lasting": 4607,
      "observed": 4608,
      "obstru": 4609,
      "obstruct": 4610,
      "oblig": 4611,
      "obscuring": 4612,
      "singers": 4613,
      "scholars": 4614,
      "tala": 4615,
      "tality": 4616,
      "talkies": 4617,
      "trial": 4618,
      "triad": 4619,
      "tribes": 4620,
      "trigonomet": 4621,
      "tributaries": 4622,
      "annexe": 4623,
      "rendering": 4624,
      "atiya": 4625,
      "origins": 4626,
      "lowered": 4627,
      "1970": 4628,
      "1972": 4629,
      "1974": 4630,
      "1977": 4631,
      "territory": 4632,
      "sively": 4633,
      "controlled": 4634,
      "centralised": 4635,
      "coalescence": 4636,
      "featuring": 4637,
      "landslide": 4638,
      "scripts": 4639,
      "dominions": 4640,
      "transaction": 4641,
      "transmission": 4642,
      "translating": 4643,
      "308": 4644,
      "Amritsar": 4645,
      "Democracy": 4646,
      "Report": 4647,
      "Reorganisation": 4648,
      "Rebellion": 4649,
      "Shank": 4650,
      "Shalwars": 4651,
      "Shudra": 4652,
      "author": 4653,
      "birch": 4654,
      "biryan": 4655,
      "carry": 4656,
      "cardam": 4657,
      "carbon": 4658,
      "carrion": 4659,
      "carried": 4660,
      "curtail": 4661,
      "capped": 4662,
      "capability": 4663,
      "capacity": 4664,
      "descended": 4665,
      "designated": 4666,
      "ethically": 4667,
      "ethos": 4668,
      "farther": 4669,
      "faraway": 4670,
      "faster": 4671,
      "fastening": 4672,
      "faces": 4673,
      "facilitated": 4674,
      "founded": 4675,
      "foundation": 4676,
      "foundations": 4677,
      "geologically": 4678,
      "geologic": 4679,
      "garh": 4680,
      "garments": 4681,
      "lineages": 4682,
      "management": 4683,
      "ruler": 4684,
      "southeast": 4685,
      "tier": 4686,
      "tied": 4687,
      "turmeric": 4688,
      "wani": 4689,
      "steadi": 4690,
      "steeper": 4691,
      "steatite": 4692,
      "dives": 4693,
      "divine": 4694,
      "divided": 4695,
      "divisions": 4696,
      "archip": 4697,
      "essed": 4698,
      "localised": 4699,
      "undale": 4700,
      "movements": 4701,
      "etymons": 4702,
      "median": 4703,
      "meditation": 4704,
      "shook": 4705,
      "province": 4706,
      "provision": 4707,
      "provincial": 4708,
      "marries": 4709,
      "marriageable": 4710,
      "cessful": 4711,
      "sculpting": 4712,
      "sculptors": 4713,
      "occupies": 4714,
      "occupational": 4715,
      "occupations": 4716,
      "directives": 4717,
      "directors": 4718,
      "originated": 4719,
      "1300": 4720,
      "351": 4721,
      "422": 4722,
      "423": 4723,
      "428": 4724,
      "Art": 4725,
      "Archived": 4726,
      "Ardhanar": 4727,
      "Arundale": 4728,
      "Araval": 4729,
      "Arabic": 4730,
      "Aravall": 4731,
      "Bihar": 4732,
      "Bibli": 4733,
      "Bihari": 4734,
      "Project": 4735,
      "Protection": 4736,
      "Proclaiming": 4737,
      "Progres": 4738,
      "demand": 4739,
      "demarc": 4740,
      "epic": 4741,
      "epics": 4742,
      "heredity": 4743,
      "ipation": 4744,
      "ipuri": 4745,
      "lingered": 4746,
      "linguistic": 4747,
      "layered": 4748,
      "promised": 4749,
      "promulgation": 4750,
      "ankari": 4751,
      "indica": 4752,
      "individual": 4753,
      "enslav": 4754,
      "statues": 4755,
      "statuet": 4756,
      "statistics": 4757,
      "disband": 4758,
      "disadv": 4759,
      "discontent": 4760,
      "disrupt": 4761,
      "heads": 4762,
      "rocky": 4763,
      "rocked": 4764,
      "severe": 4765,
      "severity": 4766,
      "loyalty": 4767,
      "summary": 4768,
      "defining": 4769,
      "definition": 4770,
      "definitions": 4771,
      "executives": 4772,
      "earlier": 4773,
      "composite": 4774,
      "compositions": 4775,
      "worker": 4776,
      "endemics": 4777,
      "popularity": 4778,
      "serves": 4779,
      "servants": 4780,
      "developing": 4781,
      "technological": 4782,
      "peninsula": 4783,
      "Persia": 4784,
      "bodyguard": 4785,
      "Andamanese": 4786,
      "140": 4787,
      "16th": 4788,
      "21st": 4789,
      "Bhārat": 4790,
      "Bhutan": 4791,
      "Bhakti": 4792,
      "Brahmin": 4793,
      "Bharatiya": 4794,
      "Rajya": 4795,
      "border": 4796,
      "broken": 4797,
      "cheap": 4798,
      "cheesi": 4799,
      "clothes": 4800,
      "civilisation": 4801,
      "everywhere": 4802,
      "guidelines": 4803,
      "globally": 4804,
      "housie": 4805,
      "izontally": 4806,
      "joint": 4807,
      "mixed": 4808,
      "mixture": 4809,
      "members": 4810,
      "nomadic": 4811,
      "prana": 4812,
      "profess": 4813,
      "princely": 4814,
      "payers": 4815,
      "payments": 4816,
      "riches": 4817,
      "secure": 4818,
      "temple": 4819,
      "varied": 4820,
      "variations": 4821,
      "variety": 4822,
      "registers": 4823,
      "registered": 4824,
      "record": 4825,
      "strung": 4826,
      "stretch": 4827,
      "distance": 4828,
      "distinctions": 4829,
      "district": 4830,
      "administrative": 4831,
      "administrators": 4832,
      "liberty": 4833,
      "liberties": 4834,
      "charts": 4835,
      "chartered": 4836,
      "consistently": 4837,
      "consciously": 4838,
      "estimating": 4839,
      "pointed": 4840,
      "speed": 4841,
      "plainly": 4842,
      "declining": 4843,
      "declined": 4844,
      "declares": 4845,
      "continue": 4846,
      "completed": 4847,
      "complete": 4848,
      "complemented": 4849,
      "groupings": 4850,
      "supplied": 4851,
      "supplies": 4852,
      "supplying": 4853,
      "supplier": 4854,
      "suppressed": 4855,
      "biosphere": 4856,
      "legislation": 4857,
      "courtesans": 4858,
      "survive": 4859,
      "survived": 4860,
      "surviving": 4861,
      "significantly": 4862,
      "birthplace": 4863,
      "factors": 4864,
      "differences": 4865,
      "employing": 4866,
      "employment": 4867,
      "Persianised": 4868,
      "Kashmiri": 4869,
      "considered": 4870,
      "considering": 4871,
      "considerable": 4872,
      "establishment": 4873,
      "2500": 4874,
      "Aryabhata": 4875,
      "Assamese": 4876,
      "Deve": 4877,
      "Devi": 4878,
      "Deterren": 4879,
      "Development": 4880,
      "Desai": 4881,
      "Declar": 4882,
      "Forest": 4883,
      "Forecasts": 4884,
      "Guptas": 4885,
      "Greeks": 4886,
      "Gujral": 4887,
      "Measured": 4888,
      "Mehr": 4889,
      "adirachta": 4890,
      "buffalo": 4891,
      "bark": 4892,
      "barley": 4893,
      "bandhan": 4894,
      "bandhgala": 4895,
      "backdrop": 4896,
      "drive": 4897,
      "driving": 4898,
      "drift": 4899,
      "equates": 4900,
      "equival": 4901,
      "equator": 4902,
      "equalling": 4903,
      "eographic": 4904,
      "famine": 4905,
      "famines": 4906,
      "goals": 4907,
      "grain": 4908,
      "grazed": 4909,
      "hydro": 4910,
      "kening": 4911,
      "multiling": 4912,
      "owned": 4913,
      "pura": 4914,
      "purchasing": 4915,
      "pursue": 4916,
      "passes": 4917,
      "passages": 4918,
      "ranks": 4919,
      "safety": 4920,
      "smaller": 4921,
      "ticoat": 4922,
      "taker": 4923,
      "taken": 4924,
      "takes": 4925,
      "taking": 4926,
      "winning": 4927,
      "wearer": 4928,
      "writing": 4929,
      "anied": 4930,
      "introduction": 4931,
      "renewal": 4932,
      "renewed": 4933,
      "reaching": 4934,
      "advances": 4935,
      "selective": 4936,
      "unei": 4937,
      "uneasy": 4938,
      "arenas": 4939,
      "sport": 4940,
      "sporting": 4941,
      "producing": 4942,
      "production": 4943,
      "processes": 4944,
      "weapon": 4945,
      "plateau": 4946,
      "plays": 4947,
      "playback": 4948,
      "affection": 4949,
      "affected": 4950,
      "partitioned": 4951,
      "ectively": 4952,
      "downtrodden": 4953,
      "taxation": 4954,
      "taxpayers": 4955,
      "Constituted": 4956,
      "Mauryan": 4957,
      "expressed": 4958,
      "expressing": 4959,
      "contributing": 4960,
      "contributors": 4961,
      "capital": 4962,
      "crustal": 4963,
      "architectural": 4964,
      "showing": 4965,
      "commercialisation": 4966,
      "Brahmanism": 4967,
      "Brahmagup": 4968,
      "Bharatavarsha": 4969,
      "Bharatnatyam": 4970,
      "nominated": 4971,
      "waistline": 4972,
      "legislative": 4973,
      "legislatures": 4974,
      "differentiation": 4975,
      "practice": 4976,
      "consolidation": 4977,
      "consolidate": 4978,
      "consolidated": 4979,
      "consolidations": 4980,
      "580": 4981,
      "Akademi": 4982,
      "Atomic": 4983,
      "Atlas": 4984,
      "Dalit": 4985,
      "Dalhousie": 4986,
      "External": 4987,
      "Expanding": 4988,
      "Examples": 4989,
      "Economic": 4990,
      "Geographic": 4991,
      "Kalinga": 4992,
      "Kalarippay": 4993,
      "Kalighat": 4994,
      "Lanka": 4995,
      "Maldives": 4996,
      "Marriage": 4997,
      "Noted": 4998,
      "Notes": 4999,
      "Polo": 5000,
      "Society": 5001,
      "Shekhar": 5002,
      "Towards": 5003,
      "Temperatures": 5004,
      "Vaisak": 5005,
      "Vaigai": 5006,
      "Vaishya": 5007,
      "Vietnam": 5008,
      "autonomy": 5009,
      "automot": 5010,
      "beset": 5011,
      "bride": 5012,
      "cuisine": 5013,
      "cuisines": 5014,
      "cuffed": 5015,
      "clean": 5016,
      "cropp": 5017,
      "crocodili": 5018,
      "cutta": 5019,
      "critical": 5020,
      "critically": 5021,
      "criteria": 5022,
      "cavalry": 5023,
      "climate": 5024,
      "effect": 5025,
      "effects": 5026,
      "effectively": 5027,
      "female": 5028,
      "falls": 5029,
      "hub": 5030,
      "higarhi": 5031,
      "iii": 5032,
      "label": 5033,
      "migrating": 5034,
      "namon": 5035,
      "namic": 5036,
      "patril": 5037,
      "pastime": 5038,
      "petrole": 5039,
      "petroche": 5040,
      "petticoat": 5041,
      "silk": 5042,
      "silt": 5043,
      "silver": 5044,
      "smoking": 5045,
      "smooth": 5046,
      "simple": 5047,
      "slowly": 5048,
      "saved": 5049,
      "trees": 5050,
      "treated": 5051,
      "testing": 5052,
      "value": 5053,
      "visit": 5054,
      "visited": 5055,
      "visible": 5056,
      "varnas": 5057,
      "zebu": 5058,
      "threats": 5059,
      "anagari": 5060,
      "initially": 5061,
      "institutionalised": 5062,
      "restrictions": 5063,
      "reference": 5064,
      "referred": 5065,
      "referring": 5066,
      "stands": 5067,
      "strike": 5068,
      "strident": 5069,
      "orogeny": 5070,
      "isolates": 5071,
      "enterprise": 5072,
      "level": 5073,
      "adopting": 5074,
      "adhered": 5075,
      "adhering": 5076,
      "adherents": 5077,
      "likely": 5078,
      "likelihood": 5079,
      "beliefs": 5080,
      "separated": 5081,
      "separatist": 5082,
      "separatism": 5083,
      "vegetables": 5084,
      "concept": 5085,
      "concepts": 5086,
      "concealed": 5087,
      "estication": 5088,
      "loosely": 5089,
      "reserve": 5090,
      "reserved": 5091,
      "reserves": 5092,
      "delta": 5093,
      "uniform": 5094,
      "uniquely": 5095,
      "universities": 5096,
      "untouchables": 5097,
      "moisture": 5098,
      "sixth": 5099,
      "sixteen": 5100,
      "person": 5101,
      "shares": 5102,
      "shorter": 5103,
      "wealthy": 5104,
      "opposed": 5105,
      "opposing": 5106,
      "opposition": 5107,
      "participation": 5108,
      "predominate": 5109,
      "predominates": 5110,
      "predominantly": 5111,
      "Eurasian": 5112,
      "settings": 5113,
      "expansions": 5114,
      "collision": 5115,
      "collarless": 5116,
      "collaboration": 5117,
      "merchandise": 5118,
      "appearance": 5119,
      "markedly": 5120,
      "scripture": 5121,
      "manuscripts": 5122,
      "wanathan": 5123,
      "Biosphere": 5124,
      "broadly": 5125,
      "liberalise": 5126,
      "characterised": 5127,
      "responsible": 5128,
      "Gujarati": 5129,
      "habitats": 5130,
      "multiple": 5131,
      "Pallava": 5132,
      "victory": 5133,
      "recognition": 5134,
      "recognised": 5135,
      "recognises": 5136,
      "discrimination": 5137,
      "devotional": 5138,
      "343": 5139,
      "Babylon": 5140,
      "Bahadur": 5141,
      "Baloch": 5142,
      "Balasaras": 5143,
      "Discover": 5144,
      "Disaffection": 5145,
      "Dominion": 5146,
      "Domestication": 5147,
      "GovPu": 5148,
      "Gowda": 5149,
      "Group": 5150,
      "Gradually": 5151,
      "Immediately": 5152,
      "Important": 5153,
      "Libr": 5154,
      "Liberation": 5155,
      "Manmohan": 5156,
      "Manipuri": 5157,
      "Ministers": 5158,
      "Minimum": 5159,
      "Nihâ": 5160,
      "Niamtre": 5161,
      "Natak": 5162,
      "Nataraj": 5163,
      "Network": 5164,
      "Networks": 5165,
      "Overview": 5166,
      "PPP": 5167,
      "Puducherry": 5168,
      "Parvati": 5169,
      "Parcheesi": 5170,
      "Sindhi": 5171,
      "Sindhu": 5172,
      "Santal": 5173,
      "Santali": 5174,
      "Sarnath": 5175,
      "Sarnaism": 5176,
      "Terukk": 5177,
      "Territory": 5178,
      "Visual": 5179,
      "Viswanathan": 5180,
      "With": 5181,
      "Wikime": 5182,
      "aːɾət": 5183,
      "bronze": 5184,
      "bronzes": 5185,
      "cinema": 5186,
      "cinnamon": 5187,
      "caretaker": 5188,
      "covering": 5189,
      "crises": 5190,
      "crisis": 5191,
      "custom": 5192,
      "customs": 5193,
      "dawnings": 5194,
      "dynast": 5195,
      "dynamic": 5196,
      "destinations": 5197,
      "destruction": 5198,
      "eighty": 5199,
      "eighteen": 5200,
      "film": 5201,
      "films": 5202,
      "full": 5203,
      "festive": 5204,
      "festival": 5205,
      "floods": 5206,
      "flooding": 5207,
      "founder": 5208,
      "founding": 5209,
      "favour": 5210,
      "favoured": 5211,
      "fashion": 5212,
      "fashions": 5213,
      "glaciers": 5214,
      "groom": 5215,
      "grooms": 5216,
      "governed": 5217,
      "governing": 5218,
      "horse": 5219,
      "horizontally": 5220,
      "hamstrung": 5221,
      "holding": 5222,
      "killed": 5223,
      "killing": 5224,
      "links": 5225,
      "mandate": 5226,
      "mandating": 5227,
      "ndʊˈ": 5228,
      "network": 5229,
      "networks": 5230,
      "ochondri": 5231,
      "paper": 5232,
      "paid": 5233,
      "piece": 5234,
      "piled": 5235,
      "pilaf": 5236,
      "sheared": 5237,
      "sheets": 5238,
      "soldiers": 5239,
      "tunic": 5240,
      "tunics": 5241,
      "treatment": 5242,
      "textile": 5243,
      "textiles": 5244,
      "varying": 5245,
      "wetlands": 5246,
      "Ἰνδία": 5247,
      "Ἰνδός": 5248,
      "thmic": 5249,
      "thickening": 5250,
      "anatomy": 5251,
      "anatomically": 5252,
      "receive": 5253,
      "received": 5254,
      "reptile": 5255,
      "reptiles": 5256,
      "reflected": 5257,
      "reflecting": 5258,
      "representatives": 5259,
      "enabled": 5260,
      "enabling": 5261,
      "stressed": 5262,
      "stiffer": 5263,
      "arteries": 5264,
      "Increasingly": 5265,
      "chapati": 5266,
      "chapters": 5267,
      "ceeded": 5268,
      "successful": 5269,
      "succeeded": 5270,
      "agreements": 5271,
      "devdasi": 5272,
      "devadasis": 5273,
      "devastation": 5274,
      "devastating": 5275,
      "exercised": 5276,
      "exercises": 5277,
      "improved": 5278,
      "improvement": 5279,
      "implements": 5280,
      "implemented": 5281,
      "pottery": 5282,
      "sideline": 5283,
      "accounts": 5284,
      "accounting": 5285,
      "articles": 5286,
      "articulating": 5287,
      "electrical": 5288,
      "electricity": 5289,
      "spiced": 5290,
      "contravene": 5291,
      "contrasting": 5292,
      "medicine": 5293,
      "medicines": 5294,
      "projected": 5295,
      "projections": 5296,
      "appointed": 5297,
      "appointment": 5298,
      "miniature": 5299,
      "minority": 5300,
      "Chandra": 5301,
      "Chola": 5302,
      "Cholas": 5303,
      "Champion": 5304,
      "Champions": 5305,
      "marrying": 5306,
      "reliefs": 5307,
      "scene": 5308,
      "scenes": 5309,
      "viewed": 5310,
      "committee": 5311,
      "committees": 5312,
      "maintained": 5313,
      "maintaining": 5314,
      "traded": 5315,
      "traders": 5316,
      "southwesterly": 5317,
      "ratio": 5318,
      "ratios": 5319,
      "specific": 5320,
      "specifically": 5321,
      "Nepal": 5322,
      "Nepali": 5323,
      "News": 5324,
      "Newly": 5325,
      "calendar": 5326,
      "calendrical": 5327,
      "hooded": 5328,
      "technique": 5329,
      "techniques": 5330,
      "displayed": 5331,
      "flourished": 5332,
      "&": 5333,
      "/": 5334,
      "^": 5335,
      "ం": 5336,
      "ః": 5337,
      "అ": 5338,
      "ఆ": 5339,
      "ఇ": 5340,
      "ఈ": 5341,
      "ఉ": 5342,
      "ఋ": 5343,
      "ఎ": 5344,
      "ఏ": 5345,
      "ఐ": 5346,
      "ఒ": 5347,
      "ఓ": 5348,
      "ఔ": 5349,
      "క": 5350,
      "ఖ": 5351,
      "గ": 5352,
      "ఘ": 5353,
      "చ": 5354,
      "ఛ": 5355,
      "జ": 5356,
      "ఞ": 5357,
      "ట": 5358,
      "ఠ": 5359,
      "డ": 5360,
      "ఢ": 5361,
      "ణ": 5362,
      "త": 5363,
      "థ": 5364,
      "ద": 5365,
      "ధ": 5366,
      "న": 5367,
      "ప": 5368,
      "ఫ": 5369,
      "బ": 5370,
      "భ": 5371,
      "మ": 5372,
      "య": 5373,
      "ర": 5374,
      "ల": 5375,
      "ళ": 5376,
      "వ": 5377,
      "శ": 5378,
      "ష": 5379,
      "స": 5380,
      "హ": 5381,
      "ా": 5382,
      "ి": 5383,
      "ీ": 5384,
      "ు": 5385,
      "ూ": 5386,
      "ృ": 5387,
      "ె": 5388,
      "ే": 5389,
      "ై": 5390,
      "ొ": 5391,
      "ో": 5392,
      "ౌ": 5393,
      "్": 5394,
      "‌": 5395,
      "్ర": 5396,
      "ార": 5397,
      "లు": 5398,
      "లో": 5399,
      "స్": 5400,
      "్య": 5401,
      "న్": 5402,
      "ది": 5403,
      "దే": 5404,
      "ప్ర": 5405,
      "ిం": 5406,
      "దేశ": 5407,
      "ాల": 5408,
      "ిక": 5409,
      "ర్": 5410,
      "భార": 5411,
      "భారత": 5412,
      "న్న": 5413,
      "ాలు": 5414,
      "గా": 5415,
      "కు": 5416,
      "ని": 5417,
      "వి": 5418,
      "ాయ": 5419,
      "క్": 5420,
      "ాత": 5421,
      "దేశం": 5422,
      "ాన": 5423,
      "రా": 5424,
      "్ట": 5425,
      "ను": 5426,
      "ండ": 5427,
      "ము": 5428,
      "ీయ": 5429,
      "ద్": 5430,
      "ిన": 5431,
      "త్": 5432,
      "తి": 5433,
      "ల్": 5434,
      "స్త": 5435,
      "ించ": 5436,
      "ంది": 5437,
      "ంత": 5438,
      "రి": 5439,
      "సం": 5440,
      "రు": 5441,
      "పు": 5442,
      "ులు": 5443,
      "స్థ": 5444,
      "ింది": 5445,
      "ంట": 5446,
      "ాయి": 5447,
      "భారతదేశం": 5448,
      "ంలో": 5449,
      "భా": 5450,
      "ైన": 5451,
      "ంగ": 5452,
      "ూడ": 5453,
      "ంగా": 5454,
      "ధిక": 5455,
      "వా": 5456,
      "సా": 5457,
      "క్ష": 5458,
      "ఉన్న": 5459,
      "పా": 5460,
      "ారు": 5461,
      "టి": 5462,
      "ార్": 5463,
      "ిత": 5464,
      "్చ": 5465,
      "ష్ట": 5466,
      "కూడ": 5467,
      "జాత": 5468,
      "ప్రా": 5469,
      "రాజ": 5470,
      "కో": 5471,
      "క్ర": 5472,
      "కా": 5473,
      "చ్చ": 5474,
      "ట్ట": 5475,
      "నే": 5476,
      "మొ": 5477,
      "ంచ": 5478,
      "దు": 5479,
      "పే": 5480,
      "మా": 5481,
      "యా": 5482,
      "భారతీయ": 5483,
      "నా": 5484,
      "రై": 5485,
      "లి": 5486,
      "వ్య": 5487,
      "సి": 5488,
      "్ల": 5489,
      "త్వ": 5490,
      "తర": 5491,
      "వాత": 5492,
      "రాష్ట": 5493,
      "జాతీయ": 5494,
      "రాష్ట్ర": 5495,
      "గు": 5496,
      "తం": 5497,
      "తో": 5498,
      "వచ్చ": 5499,
      "ికి": 5500,
      "ద్ధ": 5501,
      "ల్ల": 5502,
      "అధిక": 5503,
      "కొ": 5504,
      "ఖ్య": 5505,
      "డు": 5506,
      "పాల": 5507,
      "మైన": 5508,
      "వే": 5509,
      "భారతదేశ": 5510,
      "ంత్ర": 5511,
      "ఒక": 5512,
      "కాల": 5513,
      "డి": 5514,
      "ణా": 5515,
      "ద్ర": 5516,
      "మార్": 5517,
      "ండి": 5518,
      "ఉంది": 5519,
      "చే": 5520,
      "ధ్య": 5521,
      "శా": 5522,
      "్‌": 5523,
      "ింద": 5524,
      "దేశాల": 5525,
      "ఉన్నాయి": 5526,
      "వ్యవ": 5527,
      "ఎన్న": 5528,
      "కి": 5529,
      "టు": 5530,
      "పార": 5531,
      "పంచ": 5532,
      "ాబ": 5533,
      "ాన్": 5534,
      "న్ని": 5535,
      "భారతదేశంలో": 5536,
      "చె": 5537,
      "డ్": 5538,
      "ధాన": 5539,
      "పె": 5540,
      "ిన్న": 5541,
      "ెండ": 5542,
      "ర్వ": 5543,
      "మార్గ": 5544,
      "వ్యవస్థ": 5545,
      "ంబ": 5546,
      "కృ": 5547,
      "కే": 5548,
      "కార": 5549,
      "తు": 5550,
      "దా": 5551,
      "హింద": 5552,
      "ానికి": 5553,
      "స్తు": 5554,
      "కూడా": 5555,
      "మొద": 5556,
      "అధికార": 5557,
      "కర": 5558,
      "ట్": 5559,
      "త్ర": 5560,
      "త్య": 5561,
      "దక్ష": 5562,
      "పర": 5563,
      "పరి": 5564,
      "మత": 5565,
      "మీ": 5566,
      "మే": 5567,
      "మధ్య": 5568,
      "వర": 5569,
      "సు": 5570,
      "ప్రపంచ": 5571,
      "ప్రధాన": 5572,
      "ద్ద": 5573,
      "స్థాన": 5574,
      "భాష": 5575,
      "ప్రాంత": 5576,
      "రాజ్య": 5577,
      "పేరు": 5578,
      "రైలు": 5579,
      "దాయ": 5580,
      "నాలు": 5581,
      "ప్": 5582,
      "వార": 5583,
      "వర్": 5584,
      "సభ": 5585,
      "క్కు": 5586,
      "ాత్ర": 5587,
      "దేశంలో": 5588,
      "్టీ": 5589,
      "క్రీ": 5590,
      "పార్టీ": 5591,
      "దక్షి": 5592,
      "అయ": 5593,
      "ఆర్": 5594,
      "జనా": 5595,
      "భు": 5596,
      "మి": 5597,
      "రో": 5598,
      "రెండ": 5599,
      "లం": 5600,
      "లా": 5601,
      "వె": 5602,
      "్యం": 5603,
      "ప్రజ": 5604,
      "ప్రభు": 5605,
      "ించింది": 5606,
      "హిందూ": 5607,
      "ంద్ర": 5608,
      "ఇతర": 5609,
      "గి": 5610,
      "తా": 5611,
      "తరు": 5612,
      "పూ": 5613,
      "పో": 5614,
      "మన": 5615,
      "లకు": 5616,
      "వీ": 5617,
      "వు": 5618,
      "శ్ర": 5619,
      "ష్": 5620,
      "ీన": 5621,
      "స్కృ": 5622,
      "ాల్": 5623,
      "ముఖ్య": 5624,
      "స్త్ర": 5625,
      "ించిన": 5626,
      "సాం": 5627,
      "వచ్చింది": 5628,
      "పెద్ద": 5629,
      "క్కువ": 5630,
      "అతి": 5631,
      "ఉత్": 5632,
      "ఉంట": 5633,
      "గర": 5634,
      "గీ": 5635,
      "జరి": 5636,
      "పట్ట": 5637,
      "బడ": 5638,
      "బా": 5639,
      "బె": 5640,
      "బ్ర": 5641,
      "మహ": 5642,
      "లలో": 5643,
      "వంట": 5644,
      "ుకు": 5645,
      "విధ": 5646,
      "భాగ": 5647,
      "వాణా": 5648,
      "మార్గాలు": 5649,
      "కేంద్ర": 5650,
      "ప్ప": 5651,
      "క్రీడ": 5652,
      "అయిన": 5653,
      "జనాభా": 5654,
      "ప్రభుత్వ": 5655,
      "తరువాత": 5656,
      "అనే": 5657,
      "ఇది": 5658,
      "ఎక్కువ": 5659,
      "ఏర్": 5660,
      "కీయ": 5661,
      "కలి": 5662,
      "గో": 5663,
      "గ్": 5664,
      "గిన": 5665,
      "జన": 5666,
      "టిక": 5667,
      "ణం": 5668,
      "బహ": 5669,
      "మంత్ర": 5670,
      "రవాణా": 5671,
      "లే": 5672,
      "లను": 5673,
      "సిం": 5674,
      "సరి": 5675,
      "ిల్ల": 5676,
      "్రా": 5677,
      "్రె": 5678,
      "ప్రస్తు": 5679,
      "ప్రదాయ": 5680,
      "క్క": 5681,
      "స్తాన్": 5682,
      "ందిన": 5683,
      "ంగ్రె": 5684,
      "సాధ": 5685,
      "పాకి": 5686,
      "రాజకీయ": 5687,
      "కాంగ్రె": 5688,
      "కాలంలో": 5689,
      "ఎన్నో": 5690,
      "ాబ్": 5691,
      "మొదటి": 5692,
      "దక్షిణ": 5693,
      "అత్య": 5694,
      "ఇండి": 5695,
      "ఉప": 5696,
      "క్య": 5697,
      "గల": 5698,
      "చిన్న": 5699,
      "దం": 5700,
      "పం": 5701,
      "పై": 5702,
      "పతి": 5703,
      "భూ": 5704,
      "మై": 5705,
      "మాన": 5706,
      "యు": 5707,
      "యో": 5708,
      "రంగ": 5709,
      "లతో": 5710,
      "వల": 5711,
      "శ్": 5712,
      "షు": 5713,
      "ావర": 5714,
      "ుకో": 5715,
      "ెలు": 5716,
      "్మ": 5717,
      "ప్రతి": 5718,
      "ాలలో": 5719,
      "ాలను": 5720,
      "విస్త": 5721,
      "ండు": 5722,
      "ించి": 5723,
      "సంస్కృ": 5724,
      "సంగీ": 5725,
      "ంగ్ల": 5726,
      "ిత్ర": 5727,
      "ప్రాచ": 5728,
      "క్రమ": 5729,
      "సిని": 5730,
      "సియా": 5731,
      "ద్ధి": 5732,
      "శాస్త్ర": 5733,
      "ఆర్ధిక": 5734,
      "సరిహ": 5735,
      "అత్యధిక": 5736,
      "ఇండియా": 5737,
      "ంధ": 5738,
      "ఆధ": 5739,
      "కాలు": 5740,
      "గణ": 5741,
      "గలు": 5742,
      "జాబ": 5743,
      "ట్ల": 5744,
      "ఢిల్ల": 5745,
      "ణి": 5746,
      "తిక": 5747,
      "తంత్ర": 5748,
      "దార": 5749,
      "ధి": 5750,
      "నీ": 5751,
      "నె": 5752,
      "నడి": 5753,
      "భిన్న": 5754,
      "మె": 5755,
      "మూడ": 5756,
      "మాత్ర": 5757,
      "రం": 5758,
      "రహ": 5759,
      "వై": 5760,
      "సౌ": 5761,
      "సము": 5762,
      "సింది": 5763,
      "సమా": 5764,
      "హార": 5765,
      "ీర్": 5766,
      "స్య": 5767,
      "స్వ": 5768,
      "స్వా": 5769,
      "్యాయ": 5770,
      "ప్రము": 5771,
      "భారత్": 5772,
      "వివిధ": 5773,
      "ద్దు": 5774,
      "ంతో": 5775,
      "సామ": 5776,
      "కోర్": 5777,
      "పేర్": 5778,
      "రాష్ట్రాలు": 5779,
      "రాష్ట్రపతి": 5780,
      "శాఖ": 5781,
      "డ్డ": 5782,
      "మొదల": 5783,
      "కర్య": 5784,
      "ప్రాంతాలు": 5785,
      "దేశంలోని": 5786,
      "రెండు": 5787,
      "ాల్లో": 5788,
      "ఉత్తర": 5789,
      "పట్టణ": 5790,
      "బెంగ": 5791,
      "బ్రి": 5792,
      "భాగం": 5793,
      "ప్పటిక": 5794,
      "ఏర్ప": 5795,
      "బహు": 5796,
      "మంత్రి": 5797,
      "సింధ": 5798,
      "సరిహద్దు": 5799,
      "ఢిల్లీ": 5800,
      "దారులు": 5801,
      "నడిప": 5802,
      "సౌకర్య": 5803,
      "ప్రముఖ": 5804,
      "ంద": 5805,
      "ందు": 5806,
      "అభ": 5807,
      "అను": 5808,
      "కం": 5809,
      "కళ": 5810,
      "కల్": 5811,
      "గే": 5812,
      "గంగా": 5813,
      "చార": 5814,
      "చరి": 5815,
      "చైన": 5816,
      "జ్య": 5817,
      "టం": 5818,
      "టీ": 5819,
      "టె": 5820,
      "తన": 5821,
      "తూ": 5822,
      "తమి": 5823,
      "తాబ్": 5824,
      "థిక": 5825,
      "నగర": 5826,
      "పత": 5827,
      "పొ": 5828,
      "పద్ధ": 5829,
      "పండు": 5830,
      "మలు": 5831,
      "మ్య": 5832,
      "రూ": 5833,
      "ళం": 5834,
      "ళ్ల": 5835,
      "వడ": 5836,
      "వహ": 5837,
      "వృ": 5838,
      "వత్": 5839,
      "శతాబ్": 5840,
      "సమ": 5841,
      "సై": 5842,
      "సార": 5843,
      "సర్వ": 5844,
      "ిమ": 5845,
      "ుంది": 5846,
      "స్వాత": 5847,
      "ాలతో": 5848,
      "న్నాయి": 5849,
      "నిర్వ": 5850,
      "నుక": 5851,
      "నుండి": 5852,
      "త్తం": 5853,
      "ల్వే": 5854,
      "ించే": 5855,
      "సంఖ్య": 5856,
      "ితా": 5857,
      "కూడిన": 5858,
      "మొత్తం": 5859,
      "రైల్వే": 5860,
      "వాతావర": 5861,
      "పాలన": 5862,
      "భారతదేశానికి": 5863,
      "ఒకటి": 5864,
      "చేయ": 5865,
      "దేశాలలో": 5866,
      "కారం": 5867,
      "తున్న": 5868,
      "అధికారిక": 5869,
      "ట్లు": 5870,
      "ప్రపంచంలో": 5871,
      "భాషలు": 5872,
      "వెబ": 5873,
      "ప్రజా": 5874,
      "ఉంటాయి": 5875,
      "జరిగిన": 5876,
      "వంటి": 5877,
      "అనేక": 5878,
      "ఎక్కువగా": 5879,
      "ప్రస్తుతం": 5880,
      "కాంగ్రెసు": 5881,
      "ప్రాచీన": 5882,
      "జాబితా": 5883,
      "రహదారులు": 5884,
      "సముద్ర": 5885,
      "అభి": 5886,
      "చరిత్ర": 5887,
      "శతాబ్దం": 5888,
      "స్వాతంత్ర": 5889,
      "నిర్వహ": 5890,
      "వాతావరణం": 5891,
      "%),": 5892,
      "23": 5893,
      "అని": 5894,
      "ఆఫ": 5895,
      "ఇవ": 5896,
      "కల": 5897,
      "ఖండ": 5898,
      "చి": 5899,
      "జి": 5900,
      "జన్": 5901,
      "టా": 5902,
      "డే": 5903,
      "ణంగా": 5904,
      "దన": 5905,
      "దీ": 5906,
      "ద్య": 5907,
      "నాయ": 5908,
      "న్యాయ": 5909,
      "పద": 5910,
      "పశ": 5911,
      "పక్ష": 5912,
      "పాత్ర": 5913,
      "మల": 5914,
      "మాలు": 5915,
      "మ్మ": 5916,
      "యాలు": 5917,
      "రే": 5918,
      "ర్య": 5919,
      "రకాల": 5920,
      "లక్ష": 5921,
      "వరి": 5922,
      "సర": 5923,
      "సూ": 5924,
      "హా": 5925,
      "ిల్": 5926,
      "ిస్త": 5927,
      "ీలు": 5928,
      "ుల": 5929,
      "ెల": 5930,
      "ోర": 5931,
      "లోక్": 5932,
      "స్లా": 5933,
      "దినాలు": 5934,
      "ప్రకారం": 5935,
      "ాలీ": 5936,
      "ాలకు": 5937,
      "ికత": 5938,
      "ిక్": 5939,
      "కుల": 5940,
      "కుంట": 5941,
      "కుటు": 5942,
      "నిర్": 5943,
      "ాయు": 5944,
      "రాస్య": 5945,
      "ములో": 5946,
      "ముంబ": 5947,
      "ద్వీ": 5948,
      "ల్లో": 5949,
      "సంఘ": 5950,
      "సంప్రదాయ": 5951,
      "సంవత్": 5952,
      "పుట్ట": 5953,
      "స్థాన్": 5954,
      "ంటే": 5955,
      "క్షరాస్య": 5956,
      "ఉన్నారు": 5957,
      "పాక్": 5958,
      "టిలో": 5959,
      "ంచి": 5960,
      "రైళ్ల": 5961,
      "రాష్ట్రాల": 5962,
      "వచ్చిన": 5963,
      "కొన్ని": 5964,
      "పాలిత": 5965,
      "మైనది": 5966,
      "వేగంగా": 5967,
      "భారతదేశపు": 5968,
      "ణాసియా": 5969,
      "భారతదేశంలోని": 5970,
      "చెందిన": 5971,
      "డ్డు": 5972,
      "వ్యవస్థలో": 5973,
      "కార్య": 5974,
      "కరణ": 5975,
      "పరంగా": 5976,
      "పరిశ్ర": 5977,
      "మేన": 5978,
      "ప్రధానమంత్రి": 5979,
      "స్థానంలో": 5980,
      "రాజ్యాలు": 5981,
      "వారస": 5982,
      "సభ్య": 5983,
      "ఆర్థిక": 5984,
      "రోడ్డు": 5985,
      "ముఖ్యమైన": 5986,
      "సాంప్రదాయ": 5987,
      "బాద్": 5988,
      "కేంద్రపాలిత": 5989,
      "ప్రభుత్వం": 5990,
      "కలిగి": 5991,
      "పాకిస్తాన్": 5992,
      "పాకిస్థాన్": 5993,
      "దక్షిణాన": 5994,
      "పైగా": 5995,
      "సంస్కృతి": 5996,
      "సంగీతం": 5997,
      "సినిమా": 5998,
      "శాస్త్రం": 5999,
      "ఆధార": 6000,
      "మూడు": 6001,
      "మాత్రం": 6002,
      "స్వతంత్ర": 6003,
      "స్వామ్య": 6004,
      "సామ్రా": 6005,
      "బెంగాలీ": 6006,
      "బ్రిటి": 6007,
      "ప్పటికీ": 6008,
      "నడిపించ": 6009,
      "వృద్ధి": 6010,
      "సర్వీ": 6011,
      "అభివృద్ధి": 6012,
      "ఆఫ్": 6013,
      "పశ్చ": 6014,
      "కుటుంబ": 6015,
      "క్షరాస్యత": 6016,
      "BN": 6017,
      "IS": 6018,
      "ంభ": 6019,
      "అహ": 6020,
      "అవి": 6021,
      "ఆక్రమ": 6022,
      "ఆహార": 6023,
      "ఇవి": 6024,
      "ఇంగ్ల": 6025,
      "ఇస్లా": 6026,
      "ఉండ": 6027,
      "కథ": 6028,
      "కూ": 6029,
      "కన్న": 6030,
      "కత్వ": 6031,
      "కింద": 6032,
      "కీర్": 6033,
      "చన": 6034,
      "చు": 6035,
      "చాల": 6036,
      "చిత్ర": 6037,
      "జీ": 6038,
      "జాలు": 6039,
      "జరు": 6040,
      "జంబ": 6041,
      "టే": 6042,
      "టై": 6043,
      "టర్": 6044,
      "టులు": 6045,
      "డిన": 6046,
      "తల": 6047,
      "తీ": 6048,
      "తె": 6049,
      "తే": 6050,
      "తము": 6051,
      "తులు": 6052,
      "తంలో": 6053,
      "తెలు": 6054,
      "దర": 6055,
      "నది": 6056,
      "పీ": 6057,
      "పార్": 6058,
      "బి": 6059,
      "బంగ్ల": 6060,
      "బంధ": 6061,
      "బడ్డ": 6062,
      "భర": 6063,
      "భౌ": 6064,
      "మర": 6065,
      "మూ": 6066,
      "మౌ": 6067,
      "మతి": 6068,
      "మంది": 6069,
      "మారు": 6070,
      "యం": 6071,
      "యింది": 6072,
      "రీ": 6073,
      "లీ": 6074,
      "లె": 6075,
      "లిం": 6076,
      "ళ్": 6077,
      "ళిక": 6078,
      "వులు": 6079,
      "వల్ల": 6080,
      "వలం": 6081,
      "శెల": 6082,
      "సహ": 6083,
      "సే": 6084,
      "స్ర": 6085,
      "సులు": 6086,
      "సైన": 6087,
      "సార్": 6088,
      "హై": 6089,
      "హిమ": 6090,
      "ాదేశ": 6091,
      "ాంగ": 6092,
      "ాపార": 6093,
      "ిగా": 6094,
      "ుకొ": 6095,
      "ూరు": 6096,
      "ెట్": 6097,
      "్వ": 6098,
      "ారంభ": 6099,
      "లోయ": 6100,
      "్యా": 6101,
      "ప్రారంభ": 6102,
      "దేశపు": 6103,
      "దేశానికి": 6104,
      "ాలనే": 6105,
      "ాలెండ": 6106,
      "ికా": 6107,
      "ర్త": 6108,
      "ర్ష": 6109,
      "ర్‌": 6110,
      "న్నది": 6111,
      "న్నారు": 6112,
      "గాంధ": 6113,
      "కులు": 6114,
      "నిస్తాన్": 6115,
      "విధ్య": 6116,
      "విభిన్న": 6117,
      "విద్య": 6118,
      "క్తి": 6119,
      "ాతో": 6120,
      "దేశంగా": 6121,
      "నులు": 6122,
      "నుంచి": 6123,
      "ద్వార": 6124,
      "త్వా": 6125,
      "త్తా": 6126,
      "సంకీర్": 6127,
      "సంబంధ": 6128,
      "పురు": 6129,
      "స్థి": 6130,
      "ంటు": 6131,
      "వాహ": 6132,
      "వాణి": 6133,
      "పాటు": 6134,
      "పాదన": 6135,
      "కూడుకు": 6136,
      "జాతి": 6137,
      "రాజు": 6138,
      "కోల్": 6139,
      "కాగా": 6140,
      "కాశ్": 6141,
      "ట్టమొదటి": 6142,
      "నేపాల": 6143,
      "మొట్టమొదటి": 6144,
      "మాబాద్": 6145,
      "నాగర": 6146,
      "లిచ": 6147,
      "వ్యాపార": 6148,
      "గువ": 6149,
      "గుర్త": 6150,
      "వచ్చు": 6151,
      "ద్ధం": 6152,
      "పాలించ": 6153,
      "ఒకే": 6154,
      "చేసింది": 6155,
      "్‌సై": 6156,
      "ఎన్నిక": 6157,
      "పెనీ": 6158,
      "కేవలం": 6159,
      "కారణంగా": 6160,
      "తుంది": 6161,
      "దాపు": 6162,
      "దాదాపు": 6163,
      "హిందీ": 6164,
      "త్రి": 6165,
      "మతాలు": 6166,
      "స్థానం": 6167,
      "భాషా": 6168,
      "రాజ్యాంగ": 6169,
      "నాలుగు": 6170,
      "వర్గ": 6171,
      "వర్ణ": 6172,
      "దక్షిణాసియా": 6173,
      "వెనుక": 6174,
      "ప్రజల": 6175,
      "హిందూదేశం": 6176,
      "పూర్వ": 6177,
      "వీటిలో": 6178,
      "శ్రీ": 6179,
      "ష్ణ": 6180,
      "స్కృతిక": 6181,
      "సాంస్కృతిక": 6182,
      "ఉంటుంది": 6183,
      "బడత": 6184,
      "బడిన": 6185,
      "బడింది": 6186,
      "మహా": 6187,
      "ుకుంట": 6188,
      "క్రీడలు": 6189,
      "తరువాతి": 6190,
      "కలిసి": 6191,
      "జనగణ": 6192,
      "లేదా": 6193,
      "సాధించ": 6194,
      "ఉపఖండ": 6195,
      "క్యాలెండ": 6196,
      "ుకోవడ": 6197,
      "ప్రతిపాదన": 6198,
      "విస్తారు": 6199,
      "ిత్రక": 6200,
      "సినిమాలు": 6201,
      "శాస్త్రీయ": 6202,
      "వైవిధ్య": 6203,
      "సమాఖ్య": 6204,
      "కోర్టు": 6205,
      "కోర్టులు": 6206,
      "పేర్లు": 6207,
      "పేర్కొ": 6208,
      "మొదలైన": 6209,
      "పట్టణాలు": 6210,
      "ఏర్పడ్డ": 6211,
      "బహుళ": 6212,
      "సింధు": 6213,
      "కంపెనీ": 6214,
      "చారిత్రక": 6215,
      "తమిళం": 6216,
      "నగరాలు": 6217,
      "పతకాలు": 6218,
      "పొందిన": 6219,
      "పద్ధతి": 6220,
      "పండుగలు": 6221,
      "ఒకటిగా": 6222,
      "వెబ్‌సై": 6223,
      "ప్రజాస్వామ్య": 6224,
      "సముద్రం": 6225,
      "స్వాతంత్ర్య": 6226,
      "నిర్వహణ": 6227,
      "జన్మ": 6228,
      "ముంబై": 6229,
      "సంప్రదాయాలు": 6230,
      "రైళ్లను": 6231,
      "కార్యక్రమ": 6232,
      "పరిశ్రమలు": 6233,
      "వారసత్వ": 6234,
      "సాంప్రదాయిక": 6235,
      "సర్వీసులు": 6236,
      "ఆఫ్ఘ": 6237,
      "ISBN": 6238,
      "ఇస్లామాబాద్": 6239,
      "కన్నడ": 6240,
      "చాలా": 6241,
      "జరుపు": 6242,
      "జంబూ": 6243,
      "తెలుగు": 6244,
      "పీఠ": 6245,
      "బంగ్లాదేశ": 6246,
      "ళ్ళ": 6247,
      "శెలవు": 6248,
      "హిమాల": 6249,
      "గాంధీ": 6250,
      "ద్వారా": 6251,
      "త్వాన్ని": 6252,
      "వాణిజ్య": 6253,
      "కాశ్మీ": 6254,
      "నాగరికత": 6255,
      "వెనుకటి": 6256,
      "క్యాలెండర్": 6257,
      "వెబ్‌సైటు": 6258,
      "1లో": 6259,
      "56": 6260,
      "62": 6261,
      "7లో": 6262,
      "83": 6263,
      "8లో": 6264,
      "CI": 6265,
      "Fac": 6266,
      "nt": 6267,
      "tbo": 6268,
      "unt": 6269,
      "ంక": 6270,
      "అణ": 6271,
      "అవ": 6272,
      "అంత": 6273,
      "అంట": 6274,
      "అన్ని": 6275,
      "అప్ప": 6276,
      "అమె": 6277,
      "అక్షరాస్యత": 6278,
      "ఆసియా": 6279,
      "ఇదే": 6280,
      "ఇండ": 6281,
      "ఇక్క": 6282,
      "ఇటీ": 6283,
      "ఈశ": 6284,
      "ఈస్": 6285,
      "ఎడ": 6286,
      "ఎల": 6287,
      "ఏప్ర": 6288,
      "ఐరో": 6289,
      "ఐక్య": 6290,
      "ఒలం": 6291,
      "కీ": 6292,
      "కలు": 6293,
      "కిక": 6294,
      "కాత": 6295,
      "కను": 6296,
      "కనుక": 6297,
      "కంటే": 6298,
      "కబడ్డ": 6299,
      "ఖో": 6300,
      "ఖని": 6301,
      "గత": 6302,
      "గమ": 6303,
      "గ్ర": 6304,
      "గర్": 6305,
      "గంగ": 6306,
      "గమన": 6307,
      "గ్రా": 6308,
      "గెలు": 6309,
      "చద": 6310,
      "చయ": 6311,
      "చీ": 6312,
      "చూ": 6313,
      "చవి": 6314,
      "చూడ": 6315,
      "చించిన": 6316,
      "చుకోవడ": 6317,
      "జల": 6318,
      "జో": 6319,
      "జ్": 6320,
      "జిక": 6321,
      "జ్యం": 6322,
      "జమ్మ": 6323,
      "టక": 6324,
      "ట్ర": 6325,
      "టలు": 6326,
      "టన్": 6327,
      "ట్‌": 6328,
      "టాన్": 6329,
      "టోర": 6330,
      "డైన": 6331,
      "ఢా": 6332,
      "ణులు": 6333,
      "తర్": 6334,
      "తను": 6335,
      "తంగా": 6336,
      "తత్వ": 6337,
      "తక్కువ": 6338,
      "థాలు": 6339,
      "థ్యం": 6340,
      "దర్": 6341,
      "దగా": 6342,
      "దరా": 6343,
      "దండ": 6344,
      "దులు": 6345,
      "ధీన": 6346,
      "నం": 6347,
      "నూ": 6348,
      "నిక": 6349,
      "పలు": 6350,
      "పిక": 6351,
      "పవి": 6352,
      "ప్ల": 6353,
      "పల్ల": 6354,
      "పడు": 6355,
      "పర్వ": 6356,
      "పతా": 6357,
      "పక్క": 6358,
      "పడిన": 6359,
      "ఫల": 6360,
      "బు": 6361,
      "బౌ": 6362,
      "బంగ": 6363,
      "భవ": 6364,
      "భక్తి": 6365,
      "భాతో": 6366,
      "మ్": 6367,
      "మాత": 6368,
      "మించ": 6369,
      "మిత": 6370,
      "మరో": 6371,
      "యాత్ర": 6372,
      "యమించ": 6373,
      "రకాలు": 6374,
      "రికా": 6375,
      "రచయ": 6376,
      "లౌ": 6377,
      "లకొ": 6378,
      "లమె": 6379,
      "లస్య": 6380,
      "ళా": 6381,
      "ళి": 6382,
      "వం": 6383,
      "విం": 6384,
      "వంత": 6385,
      "వరు": 6386,
      "వైన": 6387,
      "వార్": 6388,
      "వత్ర": 6389,
      "వనాలు": 6390,
      "వాయు": 6391,
      "శక": 6392,
      "శి": 6393,
      "శీ": 6394,
      "శై": 6395,
      "శో": 6396,
      "శకు": 6397,
      "షం": 6398,
      "షయాలు": 6399,
      "సన": 6400,
      "సీ": 6401,
      "సె": 6402,
      "సాల": 6403,
      "సిక్": 6404,
      "హో": 6405,
      "హ్ర": 6406,
      "ామ": 6407,
      "ాన్ని": 6408,
      "ాడే": 6409,
      "ిమాన": 6410,
      "ీం": 6411,
      "ీక్ష": 6412,
      "ీషు": 6413,
      "ుత్": 6414,
      "ూనది": 6415,
      "ౌర": 6416,
      "్మా": 6417,
      "‌సభ": 6418,
      "‌కాత": 6419,
      "ారి": 6420,
      "లుగా": 6421,
      "లోమీ": 6422,
      "స్వీ": 6423,
      "స్కరణ": 6424,
      "స్లిం": 6425,
      "దిన": 6426,
      "ప్రదేశ": 6427,
      "ప్రాయ": 6428,
      "ప్రసి": 6429,
      "ప్రత్య": 6430,
      "ప్రయో": 6431,
      "ప్రీం": 6432,
      "దేశీ": 6433,
      "దేశాలు": 6434,
      "ాలే": 6435,
      "ర్తి": 6436,
      "ర్పు": 6437,
      "ర్జాతీయ": 6438,
      "ర్చు": 6439,
      "ర్థ్యం": 6440,
      "భారతం": 6441,
      "భారత్‌": 6442,
      "న్నీ": 6443,
      "న్నై": 6444,
      "గాన్ని": 6445,
      "నిపు": 6446,
      "నిడి": 6447,
      "నియమించ": 6448,
      "విలు": 6449,
      "విమాన": 6450,
      "విశ్": 6451,
      "విషయాలు": 6452,
      "విదేశీ": 6453,
      "క్టోర": 6454,
      "ాతం": 6455,
      "ాతి": 6456,
      "ాత్మా": 6457,
      "ానీ": 6458,
      "ాను": 6459,
      "ాన్య": 6460,
      "ండ్": 6461,
      "ములు": 6462,
      "ముడి": 6463,
      "ముస్లిం": 6464,
      "ినీ": 6465,
      "తిరు": 6466,
      "స్తులు": 6467,
      "స్తారు": 6468,
      "ందింది": 6469,
      "సంస్కరణ": 6470,
      "పుకో": 6471,
      "పుతూ": 6472,
      "స్థావర": 6473,
      "ంటి": 6474,
      "భావిస్తారు": 6475,
      "భాగాన్ని": 6476,
      "వాదం": 6477,
      "సాహ": 6478,
      "సామా": 6479,
      "పావ": 6480,
      "పాంత": 6481,
      "పాడు": 6482,
      "కూడి": 6483,
      "కూడుకొ": 6484,
      "జాతులు": 6485,
      "కోట్ల": 6486,
      "క్రి": 6487,
      "కాహార": 6488,
      "కాపాడు": 6489,
      "చ్చే": 6490,
      "నేరే": 6491,
      "మొగలు": 6492,
      "ంచిన": 6493,
      "దుగా": 6494,
      "మాట్ల": 6495,
      "యాళం": 6496,
      "నాథ": 6497,
      "తరాలు": 6498,
      "గుబా": 6499,
      "వచ్చని": 6500,
      "వేద": 6501,
      "వేల": 6502,
      "కాలే": 6503,
      "డిస్": 6504,
      "ద్రా": 6505,
      "శాసన": 6506,
      "దేశాలను": 6507,
      "ఎన్నుకో": 6508,
      "ఎన్నుకుంట": 6509,
      "కిలోమీ": 6510,
      "చెప్": 6511,
      "చెంద": 6512,
      "చెందు": 6513,
      "చెన్నై": 6514,
      "వ్యవస్థకు": 6515,
      "కేతిక": 6516,
      "తులతో": 6517,
      "అధికారం": 6518,
      "త్యం": 6519,
      "పర్యాయ": 6520,
      "పరీక్ష": 6521,
      "పరిపాలన": 6522,
      "మీదగా": 6523,
      "వరీ": 6524,
      "సుప్రీం": 6525,
      "ప్రపంచములో": 6526,
      "స్థానాలను": 6527,
      "భాషలను": 6528,
      "ప్రాంతీయ": 6529,
      "ప్రాంతాల్లో": 6530,
      "రాజ్యంగా": 6531,
      "దాయంలో": 6532,
      "వారి": 6533,
      "వర్తి": 6534,
      "సభను": 6535,
      "జనాభాతో": 6536,
      "మిస్తు": 6537,
      "రెండవ": 6538,
      "రెండో": 6539,
      "లంక": 6540,
      "లాహో": 6541,
      "వెల్ల": 6542,
      "ప్రజలు": 6543,
      "ప్రభుత్వాన్ని": 6544,
      "పూర్తి": 6545,
      "పోయింది": 6546,
      "మనదేశం": 6547,
      "వుతుంది": 6548,
      "ముఖ్యంగా": 6549,
      "స్త్రీలు": 6550,
      "సాంకేతిక": 6551,
      "అతిపెద్ద": 6552,
      "జరిగే": 6553,
      "మహి": 6554,
      "మహాత్మా": 6555,
      "క్రీడా": 6556,
      "క్రీడలలో": 6557,
      "అయినా": 6558,
      "గోదా": 6559,
      "గోళిక": 6560,
      "గినది": 6561,
      "జనతా": 6562,
      "జనవరి": 6563,
      "లేదు": 6564,
      "ప్రస్తుతము": 6565,
      "క్కను": 6566,
      "సాధించిన": 6567,
      "కాంగ్రెస్": 6568,
      "ాబ్ది": 6569,
      "ఉపయో": 6570,
      "భూభాగం": 6571,
      "భూటాన్": 6572,
      "మానం": 6573,
      "యుగ": 6574,
      "రంగంలో": 6575,
      "వలన": 6576,
      "వలస": 6577,
      "ప్రతిపక్ష": 6578,
      "విస్తీర్": 6579,
      "గణతంత్ర": 6580,
      "నెలకొ": 6581,
      "మాత్రమే": 6582,
      "సమాజ": 6583,
      "స్వతం": 6584,
      "సామర్థ్యం": 6585,
      "ఉత్తరాన": 6586,
      "బ్రిటీ": 6587,
      "ప్పటికినీ": 6588,
      "సింధూనది": 6589,
      "సరిహద్దుగా": 6590,
      "సౌకర్యాలు": 6591,
      "సౌకర్యాలలో": 6592,
      "2003": 6593,
      "కళలు": 6594,
      "చైనా": 6595,
      "చైనాను": 6596,
      "తూర్పు": 6597,
      "తమిళ": 6598,
      "రూపాంత": 6599,
      "సమరం": 6600,
      "సారస్వతం": 6601,
      "సంఖ్యా": 6602,
      "రైల్వేశాఖ": 6603,
      "పాలనలో": 6604,
      "ప్రపంచంలోని": 6605,
      "వెబ్": 6606,
      "ప్రజాదర": 6607,
      "సముద్రతీ": 6608,
      "స్వాతంత్ర్యం": 6609,
      "నిర్వహించింది": 6610,
      "26న": 6611,
      "చిరు": 6612,
      "నాయకత్వ": 6613,
      "పదవి": 6614,
      "మలయాళం": 6615,
      "సూచించిన": 6616,
      "హాకీ": 6617,
      "ిస్తారు": 6618,
      "లోక్‌సభ": 6619,
      "కులాలు": 6620,
      "కుంటూ": 6621,
      "కుంటారు": 6622,
      "నిర్మ": 6623,
      "ాయుత": 6624,
      "ద్వీప": 6625,
      "సంవత్సర": 6626,
      "మేనని": 6627,
      "రాజ్యాలుగా": 6628,
      "సభ్యు": 6629,
      "సభ్యులు": 6630,
      "ఆధారపడిన": 6631,
      "సామ్రాజ్య": 6632,
      "సామ్రాజ్యం": 6633,
      "బ్రిటిష్": 6634,
      "బ్రిటిషు": 6635,
      "పశ్చిమ": 6636,
      "పశ్చిమాన": 6637,
      "185": 6638,
      "ofil": 6639,
      "ఆహారం": 6640,
      "ఇంగ్లీషు": 6641,
      "ఉండటం": 6642,
      "కిందకు": 6643,
      "టైటి": 6644,
      "టర్లకు": 6645,
      "పార్లమె": 6646,
      "భరత": 6647,
      "భౌగోళిక": 6648,
      "మూల": 6649,
      "మౌర్య": 6650,
      "సహస్ర": 6651,
      "సైనిక": 6652,
      "సార్వత్ర": 6653,
      "హైదరా": 6654,
      "ప్రారంభించ": 6655,
      "ర్షణ": 6656,
      "ర్‌ల": 6657,
      "విద్యుత్": 6658,
      "సంకీర్ణ": 6659,
      "పురుషు": 6660,
      "స్థితి": 6661,
      "కూడుకుని": 6662,
      "కోల్‌కాత": 6663,
      "నేపాల్": 6664,
      "పాలించారు": 6665,
      "ఎన్నికల్లో": 6666,
      "రాజ్యాంగం": 6667,
      "బడతారు": 6668,
      "మహాసముద్రం": 6669,
      "జనగణన": 6670,
      "ప్రతిపాదనకు": 6671,
      "మొదలైనవి": 6672,
      "ఏర్పడ్డాయి": 6673,
      "కార్యక్రమాలు": 6674,
      "ఆఫ్ఘనిస్తాన్": 6675,
      "జరుపుకుంటారు": 6676,
      "పీఠభూ": 6677,
      "బంగ్లాదేశ్‌": 6678,
      "శెలవుదినాలు": 6679,
      "హిమాలయ": 6680,
      "CEE": 6681,
      "CIA": 6682,
      "Count": 6683,
      "Factbo": 6684,
      "Profil": 6685,
      "అంతర్జాతీయ": 6686,
      "అమెరికా": 6687,
      "ఇండో": 6688,
      "ఈశాన్య": 6689,
      "ఈస్ట్": 6690,
      "ఎలక్టోర": 6691,
      "ఏప్రిల్": 6692,
      "ఐరోపా": 6693,
      "కనుమలు": 6694,
      "కబడ్డీ": 6695,
      "ఖనిజాలు": 6696,
      "గెలుచుకోవడ": 6697,
      "చూడండి": 6698,
      "జమ్మూ": 6699,
      "ట్రో": 6700,
      "ఢాకా": 6701,
      "తర్వాత": 6702,
      "పిక్‌": 6703,
      "పవిత్ర": 6704,
      "పక్కన": 6705,
      "బౌద్ధ": 6706,
      "బంగారు": 6707,
      "రచయిత": 6708,
      "లౌకిక": 6709,
      "ప్రసిద్ధి": 6710,
      "భారత్‌లో": 6711,
      "నిపుణులు": 6712,
      "నిడివి": 6713,
      "తిరుగుబా": 6714,
      "స్థావరాలు": 6715,
      "సామాజిక": 6716,
      "కూడుకొని": 6717,
      "కాపాడుకుంటూ": 6718,
      "నేరేడు": 6719,
      "మాట్లాడే": 6720,
      "ఎన్నుకోబడతారు": 6721,
      "కిలోమీటర్లకు": 6722,
      "చెప్పుకో": 6723,
      "చెందాయి": 6724,
      "చెందుతున్న": 6725,
      "పర్యాయాలు": 6726,
      "పూర్తిగా": 6727,
      "ఉపయోగి": 6728,
      "ప్రజాదరణ": 6729,
      "సూచించినట్లు": 6730,
      "సహస్రాబ్ది": 6731,
      "సార్వత్రిక": 6732,
      "కోల్‌కాతా": 6733,
      "Country": 6734,
      "Factbook": 6735,
      "Profile": 6736,
      "ఎలక్టోరల్": 6737,
      "గెలుచుకోవడం": 6738,
      "తిరుగుబాటు": 6739,
      "%)": 6740,
      "%).": 6741,
      "):": 6742,
      ".).": 6743,
      "05": 6744,
      "07": 6745,
      "1000": 6746,
      "4లో": 6747,
      "421": 6748,
      "52": 6749,
      "546": 6750,
      "75": 6751,
      "740": 6752,
      "87": 6753,
      "AL": 6754,
      "BS": 6755,
      "Et": 6756,
      "HZ": 6757,
      "IN": 6758,
      "Mac": 6759,
      "PAL": 6760,
      "PIN": 6761,
      "SI": 6762,
      "Ty": 6763,
      "Wa": 6764,
      "chi": 6765,
      "hn": 6766,
      "ngu": 6767,
      "olo": 6768,
      "rep": 6769,
      "ybac": 6770,
      "ంజ": 6771,
      "ంతి": 6772,
      "ంకా": 6773,
      "ంకాగా": 6774,
      "ంథాలు": 6775,
      "అర": 6776,
      "అల": 6777,
      "అస్": 6778,
      "అది": 6779,
      "అన్న": 6780,
      "అల్": 6781,
      "అంది": 6782,
      "అరు": 6783,
      "అక్ష": 6784,
      "అవర": 6785,
      "అద్ద": 6786,
      "అలం": 6787,
      "అధి": 6788,
      "అంద": 6789,
      "అఖండ": 6790,
      "అమల": 6791,
      "అరే": 6792,
      "అంటే": 6793,
      "అంక": 6794,
      "అధీన": 6795,
      "అశో": 6796,
      "ఆగ": 6797,
      "ఆలో": 6798,
      "ఆవి": 6799,
      "ఆతి": 6800,
      "ఆక్ర": 6801,
      "ఆయా": 6802,
      "ఆనా": 6803,
      "ఆడు": 6804,
      "ఆధ్య": 6805,
      "ఆదాయ": 6806,
      "ఆగ్": 6807,
      "ఆవల": 6808,
      "ఆంగ్ల": 6809,
      "ఆణి": 6810,
      "ఆచార": 6811,
      "ఆర్య": 6812,
      "ఆక్షరాస్యత": 6813,
      "ఆటలు": 6814,
      "ఆనం": 6815,
      "ఆలస్య": 6816,
      "ఆదేశాలు": 6817,
      "ఇయ": 6818,
      "ఇన్": 6819,
      "ఇను": 6820,
      "ఇము": 6821,
      "ఇతి": 6822,
      "ఇస్త": 6823,
      "ఇంది": 6824,
      "ఇతరు": 6825,
      "ఇందు": 6826,
      "ఇప్పటికీ": 6827,
      "ఇతను": 6828,
      "ఇంటి": 6829,
      "ఇచ్చే": 6830,
      "ఇంకా": 6831,
      "ఉర్": 6832,
      "ఉద్": 6833,
      "ఉపా": 6834,
      "ఉండి": 6835,
      "ఉదా": 6836,
      "ఉండు": 6837,
      "ఉష్ణ": 6838,
      "ఉనిక": 6839,
      "ఋతు": 6840,
      "ఎమ": 6841,
      "ఎదు": 6842,
      "ఎగు": 6843,
      "ఎల్ల": 6844,
      "ఎంతో": 6845,
      "ఎగువ": 6846,
      "ఏక": 6847,
      "ఏడ": 6848,
      "ఏడు": 6849,
      "ఏటా": 6850,
      "ఏకత్వ": 6851,
      "ఏళ్ళ": 6852,
      "ఐదు": 6853,
      "ఒక్": 6854,
      "ఒరి": 6855,
      "ఒలిం": 6856,
      "ఒడిస్": 6857,
      "ఓడ": 6858,
      "ఓటర్": 6859,
      "ఔట్‌": 6860,
      "కిం": 6861,
      "కర్": 6862,
      "కని": 6863,
      "కాయ": 6864,
      "కరా": 6865,
      "కము": 6866,
      "కంట": 6867,
      "కార్": 6868,
      "కిత": 6869,
      "కష్ట": 6870,
      "కట్ట": 6871,
      "కమైన": 6872,
      "కమీ": 6873,
      "క్యం": 6874,
      "కమల": 6875,
      "కమేన": 6876,
      "కెట్": 6877,
      "కర్‌": 6878,
      "కత్తా": 6879,
      "కానీ": 6880,
      "కవరీ": 6881,
      "ఖిక": 6882,
      "ఖగో": 6883,
      "ఖర్చు": 6884,
      "ఖాతం": 6885,
      "గృ": 6886,
      "గె": 6887,
      "గతి": 6888,
      "గల్": 6889,
      "గించ": 6890,
      "గులు": 6891,
      "గింది": 6892,
      "గలి": 6893,
      "గిన్న": 6894,
      "గనులు": 6895,
      "గౌర": 6896,
      "ఘన": 6897,
      "ఘు": 6898,
      "ఘిక": 6899,
      "ఘట్ట": 6900,
      "ఘోర": 6901,
      "ఘర్షణ": 6902,
      "చా": 6903,
      "చో": 6904,
      "చ్": 6905,
      "చర్": 6906,
      "చము": 6907,
      "చిన": 6908,
      "చులు": 6909,
      "చింది": 6910,
      "చిత": 6911,
      "చక్ర": 6912,
      "చట్ట": 6913,
      "ఛాయుత": 6914,
      "జా": 6915,
      "జె": 6916,
      "జై": 6917,
      "జౌ": 6918,
      "జ్ర": 6919,
      "జాన": 6920,
      "జిన": 6921,
      "జంత": 6922,
      "జైన": 6923,
      "జపా": 6924,
      "జిత": 6925,
      "జ్‌": 6926,
      "జెండ": 6927,
      "జనాలు": 6928,
      "జిల్ల": 6929,
      "జవహ": 6930,
      "జెట్": 6931,
      "ఞాన": 6932,
      "టన": 6933,
      "టో": 6934,
      "టస్": 6935,
      "టండ": 6936,
      "టిన": 6937,
      "టాయి": 6938,
      "టంలో": 6939,
      "టచే": 6940,
      "ట్యం": 6941,
      "ట్రా": 6942,
      "టంతో": 6943,
      "టమూ": 6944,
      "ఠీ": 6945,
      "డ్ర": 6946,
      "డ్య": 6947,
      "డాల": 6948,
      "డాలు": 6949,
      "డింది": 6950,
      "డ్చ": 6951,
      "డ్ల": 6952,
      "డ్‌": 6953,
      "డానికి": 6954,
      "డించింది": 6955,
      "డబు": 6956,
      "డమ్": 6957,
      "ఢవి": 6958,
      "ణే": 6959,
      "ణిక": 6960,
      "ణాలు": 6961,
      "ణించ": 6962,
      "ణంతో": 6963,
      "ణదారులు": 6964,
      "ణుల": 6965,
      "తార": 6966,
      "తాయ": 6967,
      "తాన": 6968,
      "తరా": 6969,
      "తాయి": 6970,
      "తదు": 6971,
      "తక్కు": 6972,
      "తలం": 6973,
      "తగ్": 6974,
      "తమై": 6975,
      "తమ్య": 6976,
      "తాలతో": 6977,
      "తదేశపు": 6978,
      "థన": 6979,
      "థమ": 6980,
      "థి": 6981,
      "థాత": 6982,
      "థాన": 6983,
      "థార్": 6984,
      "దశ": 6985,
      "దస": 6986,
      "దూ": 6987,
      "దృ": 6988,
      "దాన": 6989,
      "దీయ": 6990,
      "దైన": 6991,
      "దారు": 6992,
      "దాబ": 6993,
      "దీన": 6994,
      "దగ్": 6995,
      "దీర్": 6996,
      "దగినది": 6997,
      "దక్కను": 6998,
      "ధం": 6999,
      "ధర": 7000,
      "ధు": 7001,
      "ధాల": 7002,
      "ధిన": 7003,
      "ధరి": 7004,
      "ధనా": 7005,
      "ధిల్ల": 7006,
      "నృ": 7007,
      "నై": 7008,
      "నో": 7009,
      "నలు": 7010,
      "న్య": 7011,
      "నాల": 7012,
      "నర్": 7013,
      "నవి": 7014,
      "నంలో": 7015,
      "నసా": 7016,
      "నికి": 7017,
      "నడు": 7018,
      "ననీ": 7019,
      "నాలతో": 7020,
      "నవచ్చు": 7021,
      "నబడిన": 7022,
      "నదులు": 7023,
      "నప్పటికినీ": 7024,
      "పక": 7025,
      "పబ": 7026,
      "పి": 7027,
      "పస్": 7028,
      "పది": 7029,
      "పిన": 7030,
      "పింది": 7031,
      "పంలో": 7032,
      "పూడ": 7033,
      "పిత": 7034,
      "పరాజ": 7035,
      "+": 7036,
      "|": 7037,
      "ँ": 7038,
      "ं": 7039,
      "ः": 7040,
      "अ": 7041,
      "आ": 7042,
      "इ": 7043,
      "ई": 7044,
      "उ": 7045,
      "ऊ": 7046,
      "ऋ": 7047,
      "ए": 7048,
      "ऐ": 7049,
      "ऑ": 7050,
      "ओ": 7051,
      "औ": 7052,
      "क": 7053,
      "ख": 7054,
      "ग": 7055,
      "घ": 7056,
      "च": 7057,
      "छ": 7058,
      "ज": 7059,
      "झ": 7060,
      "ञ": 7061,
      "ट": 7062,
      "ठ": 7063,
      "ड": 7064,
      "ढ": 7065,
      "ण": 7066,
      "त": 7067,
      "थ": 7068,
      "द": 7069,
      "ध": 7070,
      "न": 7071,
      "प": 7072,
      "फ": 7073,
      "ब": 7074,
      "भ": 7075,
      "म": 7076,
      "य": 7077,
      "र": 7078,
      "ऱ": 7079,
      "ल": 7080,
      "ळ": 7081,
      "व": 7082,
      "श": 7083,
      "ष": 7084,
      "स": 7085,
      "ह": 7086,
      "़": 7087,
      "ा": 7088,
      "ि": 7089,
      "ी": 7090,
      "ु": 7091,
      "ू": 7092,
      "ृ": 7093,
      "ॅ": 7094,
      "े": 7095,
      "ै": 7096,
      "ॉ": 7097,
      "ो": 7098,
      "ौ": 7099,
      "्": 7100,
      "ॠ": 7101,
      "।": 7102,
      "०": 7103,
      "१": 7104,
      "२": 7105,
      "३": 7106,
      "४": 7107,
      "५": 7108,
      "६": 7109,
      "७": 7110,
      "८": 7111,
      "९": 7112,
      "॰": 7113,
      "ॲ": 7114,
      "‍": 7115,
      "‘": 7116,
      "’": 7117,
      "“": 7118,
      "”": 7119,
      "†": 7120,
      "्य": 7121,
      "ार": 7122,
      "्र": 7123,
      "्या": 7124,
      "के": 7125,
      "ारत": 7126,
      "ात": 7127,
      "भारत": 7128,
      "र्": 7129,
      "स्": 7130,
      "का": 7131,
      "ें": 7132,
      "प्र": 7133,
      "या": 7134,
      "में": 7135,
      "ान": 7136,
      "िक": 7137,
      "है": 7138,
      "रा": 7139,
      "हे": 7140,
      "सा": 7141,
      "वि": 7142,
      "ला": 7143,
      "ने": 7144,
      "ना": 7145,
      "से": 7146,
      "वा": 7147,
      "क्": 7148,
      "ों": 7149,
      "की": 7150,
      "ीय": 7151,
      "आहे": 7152,
      "ले": 7153,
      "सं": 7154,
      "और": 7155,
      "ली": 7156,
      "त्र": 7157,
      "ां": 7158,
      "क्ष": 7159,
      "ती": 7160,
      "दे": 7161,
      "कर": 7162,
      "च्या": 7163,
      "मा": 7164,
      "भा": 7165,
      "पर": 7166,
      "राज": 7167,
      "त्": 7168,
      "था": 7169,
      "िया": 7170,
      "ची": 7171,
      "हा": 7172,
      "ष्": 7173,
      "मु": 7174,
      "तर": 7175,
      "ता": 7176,
      "ति": 7177,
      "हि": 7178,
      "कार": 7179,
      "ील": 7180,
      "न्": 7181,
      "चे": 7182,
      "ही": 7183,
      "द्": 7184,
      "ते": 7185,
      "पा": 7186,
      "हो": 7187,
      "भारतीय": 7188,
      "देश": 7189,
      "ंग": 7190,
      "को": 7191,
      "नि": 7192,
      "ून": 7193,
      "जात": 7194,
      "चा": 7195,
      "हु": 7196,
      "मि": 7197,
      "ित": 7198,
      "र्व": 7199,
      "ष्ट": 7200,
      "मध": 7201,
      "कि": 7202,
      "पू": 7203,
      "हैं": 7204,
      "मान": 7205,
      "दी": 7206,
      "वर्": 7207,
      "्ये": 7208,
      "शा": 7209,
      "एक": 7210,
      "सम": 7211,
      "ड़": 7212,
      "पु": 7213,
      "द्र": 7214,
      "वर": 7215,
      "त्या": 7216,
      "स्त": 7217,
      "वे": 7218,
      "वी": 7219,
      "लि": 7220,
      "नी": 7221,
      "श्": 7222,
      "दि": 7223,
      "राज्य": 7224,
      "प्रा": 7225,
      "सर": 7226,
      "अस": 7227,
      "द्ध": 7228,
      "बा": 7229,
      "आहेत": 7230,
      "चि": 7231,
      "भी": 7232,
      "भारता": 7233,
      "कृ": 7234,
      "ल्": 7235,
      "ार्": 7236,
      "ंत्र": 7237,
      "१९": 7238,
      "धिक": 7239,
      "रू": 7240,
      "लो": 7241,
      "ये": 7242,
      "र्म": 7243,
      "स्थ": 7244,
      "ष्ट्र": 7245,
      "ल्या": 7246,
      "इस": 7247,
      "मुख": 7248,
      "मो": 7249,
      "विध": 7250,
      "तथा": 7251,
      "स्था": 7252,
      "झा": 7253,
      "िण": 7254,
      "्रा": 7255,
      "उत्": 7256,
      "यु": 7257,
      "षा": 7258,
      "मी": 7259,
      "म्": 7260,
      "पूर्व": 7261,
      "री": 7262,
      "ातील": 7263,
      "जी": 7264,
      "प्": 7265,
      "तात": 7266,
      "ारा": 7267,
      "सि": 7268,
      "्यां": 7269,
      "जि": 7270,
      "भारतात": 7271,
      "मध्ये": 7272,
      "दक्ष": 7273,
      "दक्षिण": 7274,
      "ंड": 7275,
      "जन": 7276,
      "िय": 7277,
      "ंध": 7278,
      "वर्ष": 7279,
      "णा": 7280,
      "त्य": 7281,
      "दा": 7282,
      "भू": 7283,
      "ंत": 7284,
      "जा": 7285,
      "चीन": 7286,
      "दो": 7287,
      "धर्म": 7288,
      "राष्ट्र": 7289,
      "सु": 7290,
      "ाने": 7291,
      "बहु": 7292,
      "स्कृ": 7293,
      "र्थ": 7294,
      "अन": 7295,
      "साम": 7296,
      "भाग": 7297,
      "क्र": 7298,
      "व्य": 7299,
      "तक": 7300,
      "किया": 7301,
      "सरकार": 7302,
      "शास": 7303,
      "ळे": 7304,
      "सद": 7305,
      "क्षे": 7306,
      "रे": 7307,
      "्रे": 7308,
      "संस्कृ": 7309,
      "खा": 7310,
      "रु": 7311,
      "भाषा": 7312,
      "स्व": 7313,
      "क्षेत्र": 7314,
      "माण": 7315,
      "सी": 7316,
      "टि": 7317,
      "सार": 7318,
      "साथ": 7319,
      "अने": 7320,
      "िक्": 7321,
      "लोक": 7322,
      "लय": 7323,
      "स्थान": 7324,
      "पट": 7325,
      "ारी": 7326,
      "्यात": 7327,
      "उत्तर": 7328,
      "नाव": 7329,
      "बाद": 7330,
      "अनेक": 7331,
      "अधिक": 7332,
      "लग": 7333,
      "प्रदेश": 7334,
      "भारताच्या": 7335,
      "स्थाप": 7336,
      "यह": 7337,
      "काळ": 7338,
      "हिन्": 7339,
      "निर्": 7340,
      "हर": 7341,
      "ंगा": 7342,
      "वै": 7343,
      "ोग": 7344,
      "जाती": 7345,
      "धान": 7346,
      "ओं": 7347,
      "गया": 7348,
      "बी": 7349,
      "्राज": 7350,
      "साम्राज": 7351,
      "प्राचीन": 7352,
      "गर": 7353,
      "टी": 7354,
      "००": 7355,
      "णी": 7356,
      "उप": 7357,
      "ठा": 7358,
      "तो": 7359,
      "मह": 7360,
      "शी": 7361,
      "प्रकार": 7362,
      "प्त": 7363,
      "ंतर": 7364,
      "ंद्र": 7365,
      "तु": 7366,
      "दल": 7367,
      "द्य": 7368,
      "मंत्र": 7369,
      "चित्र": 7370,
      "जो": 7371,
      "ढ़": 7372,
      "रो": 7373,
      "गे": 7374,
      "थी": 7375,
      "होता": 7376,
      "बसे": 7377,
      "सबसे": 7378,
      "्रि": 7379,
      "जिस": 7380,
      "कड": 7381,
      "ठी": 7382,
      "बंध": 7383,
      "अप": 7384,
      "बन": 7385,
      "मुळे": 7386,
      "मिळ": 7387,
      "व्यव": 7388,
      "चित्रपट": 7389,
      "च्": 7390,
      "महा": 7391,
      "विविध": 7392,
      "वन": 7393,
      "कु": 7394,
      "नाम": 7395,
      "यां": 7396,
      "ंप": 7397,
      "ैन": 7398,
      "रूप": 7399,
      "साहि": 7400,
      "ंग्रे": 7401,
      "इंड": 7402,
      "गण": 7403,
      "व्या": 7404,
      "शिक्": 7405,
      "क्षा": 7406,
      "आण": 7407,
      "वं": 7408,
      "मुख्य": 7409,
      "शासन": 7410,
      "मे": 7411,
      "शिया": 7412,
      "सर्": 7413,
      "हिमा": 7414,
      "गु": 7415,
      "णे": 7416,
      "ब्रि": 7417,
      "आध": 7418,
      "पश्": 7419,
      "पश्चि": 7420,
      "अनु": 7421,
      "शि": 7422,
      "पद": 7423,
      "विश्": 7424,
      "स्तान": 7425,
      "टिश": 7426,
      "ब्रिटिश": 7427,
      "असे": 7428,
      "दिया": 7429,
      "काल": 7430,
      "तील": 7431,
      "हिं": 7432,
      "मध्य": 7433,
      "पूर्वी": 7434,
      "धी": 7435,
      "स्त्र": 7436,
      "पास": 7437,
      "गा": 7438,
      "सो": 7439,
      "द्वी": 7440,
      "सर्वा": 7441,
      "पूर्": 7442,
      "षण": 7443,
      "केंद्र": 7444,
      "हण": 7445,
      "माज": 7446,
      "झाले": 7447,
      "होते": 7448,
      "सर्व": 7449,
      "तिहा": 7450,
      "द्वीप": 7451,
      "कर्": 7452,
      "विश्व": 7453,
      "ंब": 7454,
      "मंत्री": 7455,
      "जे": 7456,
      "ऱ्या": 7457,
      "काही": 7458,
      "मधील": 7459,
      "म्हण": 7460,
      "शे": 7461,
      "चु": 7462,
      "दू": 7463,
      "बड़": 7464,
      "मत": 7465,
      "हुआ": 7466,
      "हुई": 7467,
      "बहुत": 7468,
      "अर्थ": 7469,
      "प्रमुख": 7470,
      "राष्ट्रीय": 7471,
      "व्यवस्था": 7472,
      "तिक": 7473,
      "मू": 7474,
      "रि": 7475,
      "प्रधान": 7476,
      "साम्राज्य": 7477,
      "इतिहा": 7478,
      "मै": 7479,
      "शक": 7480,
      "सभा": 7481,
      "त्व": 7482,
      "पाकि": 7483,
      "विधान": 7484,
      "संस्कृती": 7485,
      "पाकिस्तान": 7486,
      "गी": 7487,
      "गो": 7488,
      "ज़": 7489,
      "ृष्ट": 7490,
      "सेना": 7491,
      "ष्ठ": 7492,
      "जाता": 7493,
      "हिन्दी": 7494,
      "पूर्ण": 7495,
      "भर": 7496,
      "संख": 7497,
      "होती": 7498,
      "टे": 7499,
      "दु": 7500,
      "दान": 7501,
      "आज": 7502,
      "थे": 7503,
      "तिश": 7504,
      "ज्": 7505,
      "टक्": 7506,
      "ण्यात": 7507,
      "तंत्र": 7508,
      "ोड़": 7509,
      "प्रजाती": 7510,
      "मिल": 7511,
      "समय": 7512,
      "आणि": 7513,
      "पार": 7514,
      "ब्": 7515,
      "स्ट": 7516,
      "डी": 7517,
      "ृत": 7518,
      "संघ": 7519,
      "साहित्य": 7520,
      "हिमालय": 7521,
      "न्या": 7522,
      "बढ़": 7523,
      "हीं": 7524,
      "राज्यों": 7525,
      "इंग": 7526,
      "तसे": 7527,
      "नंतर": 7528,
      "बंगा": 7529,
      "मन": 7530,
      "वळ": 7531,
      "वार": 7532,
      "साठी": 7533,
      "पर्य": 7534,
      "ल्ली": 7535,
      "इंडिया": 7536,
      "शिक्षण": 7537,
      "तसेच": 7538,
      "शु": 7539,
      "आर्थ": 7540,
      "पी": 7541,
      "क्त": 7542,
      "लीन": 7543,
      "आर्थिक": 7544,
      "चल": 7545,
      "मं": 7546,
      "शन": 7547,
      "सह": 7548,
      "जाते": 7549,
      "लिए": 7550,
      "अन्य": 7551,
      "पै": 7552,
      "बां": 7553,
      "सिंध": 7554,
      "पह": 7555,
      "पे": 7556,
      "पती": 7557,
      "बौ": 7558,
      "योग": 7559,
      "्याने": 7560,
      "केले": 7561,
      "संसद": 7562,
      "दिल्ली": 7563,
      "युद्ध": 7564,
      "दोन": 7565,
      "इतिहास": 7566,
      "टक्के": 7567,
      "बौद्ध": 7568,
      "अर": 7569,
      "अन्": 7570,
      "दर": 7571,
      "पड": 7572,
      "बर": 7573,
      "रहा": 7574,
      "शह": 7575,
      "क्रम": 7576,
      "पश्चिम": 7577,
      "मार": 7578,
      "कां": 7579,
      "देशों": 7580,
      "महारा": 7581,
      "द्योग": 7582,
      "दिक": 7583,
      "मुद्र": 7584,
      "वैदिक": 7585,
      "त्ये": 7586,
      "दर्": 7587,
      "संविधान": 7588,
      "ग्र": 7589,
      "घे": 7590,
      "दार": 7591,
      "पृ": 7592,
      "सू": 7593,
      "सैन": 7594,
      "कारण": 7595,
      "पुर": 7596,
      "असते": 7597,
      "ार्थ": 7598,
      "झाला": 7599,
      "पासून": 7600,
      "इन": 7601,
      "इस्": 7602,
      "पर्व": 7603,
      "बना": 7604,
      "करने": 7605,
      "च्च": 7606,
      "जग": 7607,
      "विस्त": 7608,
      "वाद": 7609,
      "संख्या": 7610,
      "नाट": 7611,
      "बंगाल": 7612,
      "पार्": 7613,
      "विक": 7614,
      "वारा": 7615,
      "हार": 7616,
      "कालीन": 7617,
      "प्रत्ये": 7618,
      "भूमि": 7619,
      "प्रत्येक": 7620,
      "अंग्रे": 7621,
      "इतर": 7622,
      "एशिया": 7623,
      "कई": 7624,
      "जून": 7625,
      "डा": 7626,
      "नहीं": 7627,
      "यों": 7628,
      "हवा": 7629,
      "केली": 7630,
      "जाति": 7631,
      "हुए": 7632,
      "१९९": 7633,
      "इसके": 7634,
      "झाली": 7635,
      "अनुसार": 7636,
      "चुनाव": 7637,
      "ज्ञ": 7638,
      "हवामान": 7639,
      "आप": 7640,
      "उदा": 7641,
      "चार": 7642,
      "दृष्ट": 7643,
      "उन": 7644,
      "ाता": 7645,
      "नेत": 7646,
      "निर्माण": 7647,
      "महाराष्ट्र": 7648,
      "घो": 7649,
      "निक": 7650,
      "पठ": 7651,
      "साय": 7652,
      "लाल": 7653,
      "संबंध": 7654,
      "न्न": 7655,
      "द्वारा": 7656,
      "मैदान": 7657,
      "कॉ": 7658,
      "दशक": 7659,
      "श्र": 7660,
      "ौर": 7661,
      "क्ति": 7662,
      "करोड़": 7663,
      "ड़ा": 7664,
      "भाषाओं": 7665,
      "इस्ला": 7666,
      "टा": 7667,
      "ण्या": 7668,
      "शै": 7669,
      "सण": 7670,
      "समुद्र": 7671,
      "ृत्य": 7672,
      "वेश": 7673,
      "मोठ": 7674,
      "अभ": 7675,
      "अव": 7676,
      "वली": 7677,
      "लाग": 7678,
      "सर्वाधिक": 7679,
      "अर्थव्यवस्था": 7680,
      "ण्": 7681,
      "भे": 7682,
      "१८": 7683,
      "प्रमाण": 7684,
      "विका": 7685,
      "सैन्य": 7686,
      "नेतृ": 7687,
      "गठ": 7688,
      "तन": 7689,
      "ूह": 7690,
      "ारिक": 7691,
      "स्वर": 7692,
      "काम": 7693,
      "शास्त्र": 7694,
      "सम्": 7695,
      "स्वतंत्र": 7696,
      "बीच": 7697,
      "ंग्रेस": 7698,
      "चुनावों": 7699,
      "घोष": 7700,
      "क्षण": 7701,
      "देख": 7702,
      "च्छ": 7703,
      "जय": 7704,
      "फ्र": 7705,
      "बदल": 7706,
      "२००": 7707,
      "५०": 7708,
      "प्रां": 7709,
      "सामाज": 7710,
      "विष": 7711,
      "संगी": 7712,
      "ांचा": 7713,
      "भाज": 7714,
      "जातो": 7715,
      "किल्": 7716,
      "वेग": 7717,
      "असले": 7718,
      "असून": 7719,
      "येथ": 7720,
      "काळात": 7721,
      "शेष": 7722,
      "इंग्र": 7723,
      "पर्यंत": 7724,
      "सिंधू": 7725,
      "सामाजिक": 7726,
      "लन": 7727,
      "लु": 7728,
      "लिया": 7729,
      "व्": 7730,
      "समा": 7731,
      "विद्य": 7732,
      "उदाहर": 7733,
      "फ़": 7734,
      "बे": 7735,
      "यू": 7736,
      "परंत": 7737,
      "न्ह": 7738,
      "१९७": 7739,
      "संस्कृत": 7740,
      "कॉंग्रेस": 7741,
      "परंतु": 7742,
      "पं": 7743,
      "पक्ष": 7744,
      "शो": 7745,
      "सित": 7746,
      "िका": 7747,
      "ुनिक": 7748,
      "२०": 7749,
      "ाती": 7750,
      "सेवा": 7751,
      "शासित": 7752,
      "आधुनिक": 7753,
      "गंगा": 7754,
      "बो": 7755,
      "यात": 7756,
      "स्थित": 7757,
      "अतिश": 7758,
      "ग्": 7759,
      "द्या": 7760,
      "धि": 7761,
      "भग": 7762,
      "रक्षा": 7763,
      "शिय": 7764,
      "सक": 7765,
      "समाज": 7766,
      "ांशी": 7767,
      "करून": 7768,
      "भाष": 7769,
      "राज्यां": 7770,
      "निर": 7771,
      "वरील": 7772,
      "त्यां": 7773,
      "प्राप्त": 7774,
      "युक्त": 7775,
      "आधार": 7776,
      "बांध": 7777,
      "जगातील": 7778,
      "ण्ड": 7779,
      "संगीत": 7780,
      "येथील": 7781,
      "ंह": 7782,
      "जब": 7783,
      "ध्या": 7784,
      "लर": 7785,
      "ूप": 7786,
      "्यों": 7787,
      "यास": 7788,
      "भाव": 7789,
      "परमाण": 7790,
      "ष्ण": 7791,
      "कार्य": 7792,
      "वीं": 7793,
      "जनजाति": 7794,
      "गणराज्य": 7795,
      "सर्वो": 7796,
      "प्रधानमंत्री": 7797,
      "न्याया": 7798,
      "स्वरूप": 7799,
      "परमाणु": 7800,
      "अथ": 7801,
      "अम": 7802,
      "आक्रम": 7803,
      "कला": 7804,
      "जै": 7805,
      "नदी": 7806,
      "बार": 7807,
      "यी": 7808,
      "्यता": 7809,
      "वादी": 7810,
      "तरी": 7811,
      "युग": 7812,
      "अमे": 7813,
      "खन": 7814,
      "गों": 7815,
      "जल": 7816,
      "डॉ": 7817,
      "नृत्य": 7818,
      "प्रति": 7819,
      "धार": 7820,
      "बि": 7821,
      "रिक": 7822,
      "वृ": 7823,
      "साल": 7824,
      "सागर": 7825,
      "शहरी": 7826,
      "भूमिका": 7827,
      "अं": 7828,
      "आर": 7829,
      "आले": 7830,
      "आहार": 7831,
      "इम": 7832,
      "ईसा": 7833,
      "ओर": 7834,
      "ओळ": 7835,
      "गई": 7836,
      "तमिळ": 7837,
      "मसा": 7838,
      "मां": 7839,
      "मार्": 7840,
      "यार": 7841,
      "लों": 7842,
      "ळी": 7843,
      "वड": 7844,
      "शता": 7845,
      "ातंत्र": 7846,
      "ाना": 7847,
      "ांमध्ये": 7848,
      "भाई": 7849,
      "त्वा": 7850,
      "हाला": 7851,
      "न्द्र": 7852,
      "न्तु": 7853,
      "निवड": 7854,
      "वरून": 7855,
      "त्याचे": 7856,
      "लिये": 7857,
      "दक्षिणे": 7858,
      "ियों": 7859,
      "वर्षों": 7860,
      "वर्षां": 7861,
      "राष्ट्रपती": 7862,
      "स्वातंत्र": 7863,
      "क्षेत्रीय": 7864,
      "जिसमें": 7865,
      "गुप्त": 7866,
      "धीरे": 7867,
      "सर्वांत": 7868,
      "बहुतांशी": 7869,
      "ब्दी": 7870,
      "पहले": 7871,
      "अरब": 7872,
      "मोठ्या": 7873,
      "विकास": 7874,
      "नेतृत्व": 7875,
      "अतिशय": 7876,
      "इमारत": 7877,
      "ओळख": 7878,
      "शताब्दी": 7879,
      "उद्योग": 7880,
      "पीय": 7881,
      "राण": 7882,
      "वाह": 7883,
      "शिष्ट": 7884,
      "उदाहरण": 7885,
      "सर्वोच्च": 7886,
      "गत": 7887,
      "गां": 7888,
      "ज्या": 7889,
      "पहा": 7890,
      "नाड": 7891,
      "करण": 7892,
      "त्तर": 7893,
      "देशी": 7894,
      "वर्ण": 7895,
      "पुत्र": 7896,
      "वरी": 7897,
      "दिव": 7898,
      "सिद्ध": 7899,
      "भरत": 7900,
      "पर्वत": 7901,
      "अथवा": 7902,
      "गांधी": 7903,
      "ंती": 7904,
      "ऑफ": 7905,
      "जैन": 7906,
      "डे": 7907,
      "शां": 7908,
      "स्ति": 7909,
      "परंप": 7910,
      "किन": 7911,
      "सीमा": 7912,
      "गोल": 7913,
      "परंपरा": 7914,
      "एँ": 7915,
      "एवं": 7916,
      "पो": 7917,
      "पत्": 7918,
      "१५": 7919,
      "वायु": 7920,
      "राजनी": 7921,
      "हाँ": 7922,
      "ड़ी": 7923,
      "मोह": 7924,
      "म्भ": 7925,
      "प्ले": 7926,
      "जिन": 7927,
      "जनसंख्या": 7928,
      "दोलन": 7929,
      "सदस": 7930,
      "संस्कृति": 7931,
      "लगभग": 7932,
      "बंधन": 7933,
      "अपने": 7934,
      "कुछ": 7935,
      "कुल": 7936,
      "गुज": 7937,
      "दोनों": 7938,
      "अन्त": 7939,
      "स्वतंत्रता": 7940,
      "न्हें": 7941,
      "अजून": 7942,
      "आढ": 7943,
      "आली": 7944,
      "ख्": 7945,
      "घल": 7946,
      "घा": 7947,
      "चना": 7948,
      "ण्यां": 7949,
      "तयार": 7950,
      "नै": 7951,
      "नगर": 7952,
      "सभे": 7953,
      "सध्या": 7954,
      "ुसार": 7955,
      "नावा": 7956,
      "वाळ": 7957,
      "ांची": 7958,
      "मुघल": 7959,
      "होत": 7960,
      "देशा": 7961,
      "प्रामुख": 7962,
      "भारताचे": 7963,
      "मोठा": 7964,
      "सिंह": 7965,
      "सुरू": 7966,
      "सुरु": 7967,
      "भागात": 7968,
      "सदार": 7969,
      "खासदार": 7970,
      "स्थानिक": 7971,
      "निर्मि": 7972,
      "गेट": 7973,
      "कडे": 7974,
      "पैकी": 7975,
      "पृष्ठ": 7976,
      "विकसित": 7977,
      "दृष्ट्या": 7978,
      "किल्ला": 7979,
      "वेगळे": 7980,
      "पंजा": 7981,
      "प्रामुख्याने": 7982,
      "सुरुव": 7983,
      "आदि": 7984,
      "टन": 7985,
      "बत": 7986,
      "भि": 7987,
      "मरा": 7988,
      "सात": 7989,
      "सां": 7990,
      "श्च": 7991,
      "अधिकार": 7992,
      "स्थापना": 7993,
      "रोपीय": 7994,
      "इस्लामी": 7995,
      "इत्या": 7996,
      "उस": 7997,
      "कू": 7998,
      "ग्रा": 7999,
      "मिक": 8000,
      "सत": 8001,
      "ारे": 8002,
      "सम्रा": 8003,
      "लिय": 8004,
      "१९८": 8005,
      "बहुमत": 8006,
      "खास": 8007,
      "वंश": 8008,
      "सम्राट": 8009,
      "Ind": 8010,
      "ँकि": 8011,
      "अप्र": 8012,
      "अलग": 8013,
      "आधिक": 8014,
      "जु": 8015,
      "डि": 8016,
      "तमिल": 8017,
      "थिय": 8018,
      "पड़": 8019,
      "बद": 8020,
      "बने": 8021,
      "बनी": 8022,
      "मक": 8023,
      "रहे": 8024,
      "वल": 8025,
      "शक्ति": 8026,
      "हथिय": 8027,
      "्ट": 8028,
      "१७": 8029,
      "२६": 8030,
      "ारम्भ": 8031,
      "केन्द्र": 8032,
      "स्तर": 8033,
      "प्रारम्भ": 8034,
      "संयुक्त": 8035,
      "करना": 8036,
      "ियाँ": 8037,
      "निभाई": 8038,
      "वर्ग": 8039,
      "समूह": 8040,
      "इसी": 8041,
      "अपनी": 8042,
      "बड़ा": 8043,
      "मूल": 8044,
      "ज़ी": 8045,
      "पार्टी": 8046,
      "पठार": 8047,
      "शैली": 8048,
      "गठबंधन": 8049,
      "भाजपा": 8050,
      "न्यायालय": 8051,
      "हालाँकि": 8052,
      "प्लेट": 8053,
      "आधिकारिक": 8054,
      "हथियार": 8055,
      "उष्ण": 8056,
      "पान": 8057,
      "फा": 8058,
      "मौर": 8059,
      "१०": 8060,
      "ात्": 8061,
      "प्रग": 8062,
      "प्रिय": 8063,
      "राजा": 8064,
      "ष्क": 8065,
      "पुरु": 8066,
      "ज्ञान": 8067,
      "पंजाब": 8068,
      "ंचा": 8069,
      "अशी": 8070,
      "उभ": 8071,
      "कमी": 8072,
      "चळ": 8073,
      "ठिका": 8074,
      "तां": 8075,
      "दख्": 8076,
      "ध्य": 8077,
      "नौ": 8078,
      "पंत": 8079,
      "भवन": 8080,
      "यक": 8081,
      "ळा": 8082,
      "शत": 8083,
      "हज": 8084,
      "ातून": 8085,
      "भारताने": 8086,
      "लां": 8087,
      "वापर": 8088,
      "ांच्या": 8089,
      "करतात": 8090,
      "करण्यात": 8091,
      "माध्य": 8092,
      "राज्या": 8093,
      "ष्ठा": 8094,
      "मानवी": 8095,
      "त्यात": 8096,
      "प्राण्यां": 8097,
      "सरे": 8098,
      "बाह": 8099,
      "भारताची": 8100,
      "मीर": 8101,
      "भूमी": 8102,
      "जास्त": 8103,
      "वैशिष्ट": 8104,
      "साम्राज्या": 8105,
      "गेली": 8106,
      "कडील": 8107,
      "यांनी": 8108,
      "हिंदू": 8109,
      "पूर्वीचे": 8110,
      "सोबत": 8111,
      "ंबे": 8112,
      "म्हणून": 8113,
      "म्हणजे": 8114,
      "पृष्ठा": 8115,
      "ार्थ्यां": 8116,
      "ण्यास": 8117,
      "घोषणा": 8118,
      "इंग्रजी": 8119,
      "व्हा": 8120,
      "विद्यार्थ्यां": 8121,
      "तमिळनाड": 8122,
      "आढळ": 8123,
      "निर्मिती": 8124,
      "चळवळ": 8125,
      "पंतप्रधान": 8126,
      "तमिळनाडू": 8127,
      "ंची": 8128,
      "अधि": 8129,
      "अस्ति": 8130,
      "ऋष": 8131,
      "कटि": 8132,
      "खो": 8133,
      "गंग": 8134,
      "तः": 8135,
      "धो": 8136,
      "धार्": 8137,
      "पि": 8138,
      "रण": 8139,
      "वसाय": 8140,
      "१२": 8141,
      "स्वी": 8142,
      "िकी": 8143,
      "त्रिक": 8144,
      "करता": 8145,
      "माना": 8146,
      "१९६": 8147,
      "व्यु": 8148,
      "स्थापत्य": 8149,
      "वंट": 8150,
      "मंदि": 8151,
      "जयंती": 8152,
      "धारण": 8153,
      "धार्मिक": 8154,
      "ँच": 8155,
      "ऊँ": 8156,
      "एं": 8157,
      "कह": 8158,
      "गए": 8159,
      "जवा": 8160,
      "जंग": 8161,
      "तत्": 8162,
      "नवी": 8163,
      "फल": 8164,
      "फे": 8165,
      "बै": 8166,
      "बॉ": 8167,
      "११": 8168,
      "१६": 8169,
      "प्रसिद्ध": 8170,
      "विभाग": 8171,
      "विदेशी": 8172,
      "लावा": 8173,
      "पालि": 8174,
      "किन्तु": 8175,
      "मान्य": 8176,
      "वर्त": 8177,
      "वेद": 8178,
      "ल्प": 8179,
      "जिसके": 8180,
      "महाद्वीप": 8181,
      "कर्ज": 8182,
      "बड़ी": 8183,
      "बड़े": 8184,
      "शुरू": 8185,
      "सहयोग": 8186,
      "विस्तृत": 8187,
      "अंग्रेजी": 8188,
      "आधारित": 8189,
      "डॉलर": 8190,
      "दिवस": 8191,
      "शांति": 8192,
      "पालिका": 8193,
      "खंड": 8194,
      "जाने": 8195,
      "लू": 8196,
      "राजस्थान": 8197,
      "लोकसभा": 8198,
      "महासागर": 8199,
      "इंडो": 8200,
      "चो": 8201,
      "भु": 8202,
      "४७": 8203,
      "नेह": 8204,
      "नागर": 8205,
      "वास्त": 8206,
      "तीन": 8207,
      "त्न": 8208,
      "ियां": 8209,
      "पाल": 8210,
      "श्मीर": 8211,
      "राज्यसभा": 8212,
      "१९५०": 8213,
      "०००": 8214,
      "उपयोग": 8215,
      "शुष्क": 8216,
      "गुजर": 8217,
      "मौर्य": 8218,
      "पुरुष": 8219,
      "घड": 8220,
      "चला": 8221,
      "छो": 8222,
      "जवळ": 8223,
      "णात": 8224,
      "द्यां": 8225,
      "नद्यां": 8226,
      "रंग": 8227,
      "वान": 8228,
      "वारी": 8229,
      "सून": 8230,
      "सस्त": 8231,
      "सल्": 8232,
      "सऱ्या": 8233,
      "सृष्ट": 8234,
      "ह्या": 8235,
      "ाला": 8236,
      "ूण": 8237,
      "१४": 8238,
      "केला": 8239,
      "भारती": 8240,
      "र्त": 8241,
      "स्लि": 8242,
      "स्पती": 8243,
      "स्मार": 8244,
      "प्रचल": 8245,
      "साग": 8246,
      "साली": 8247,
      "विद्या": 8248,
      "वाघ": 8249,
      "लेला": 8250,
      "क्षर": 8251,
      "देव": 8252,
      "राज्ये": 8253,
      "राजधान": 8254,
      "त्त्वा": 8255,
      "मुस्लि": 8256,
      "द्दल": 8257,
      "निय": 8258,
      "पूर": 8259,
      "त्यामुळे": 8260,
      "भारताला": 8261,
      "कृष": 8262,
      "येतात": 8263,
      "वर्षात": 8264,
      "णाऱ्या": 8265,
      "प्रदेशात": 8266,
      "वैविध": 8267,
      "प्रकारच्या": 8268,
      "गेल्या": 8269,
      "वनस्पती": 8270,
      "यांच्या": 8271,
      "व्यावसाय": 8272,
      "पदवी": 8273,
      "हिंदी": 8274,
      "सोयी": 8275,
      "रिका": 8276,
      "इंग्": 8277,
      "वारे": 8278,
      "पेक्ष": 8279,
      "पेक्षा": 8280,
      "पडले": 8281,
      "कांच्या": 8282,
      "विस्तार": 8283,
      "नाटके": 8284,
      "बंगालच्या": 8285,
      "तनत": 8286,
      "निरपेक्ष": 8287,
      "अमेरिका": 8288,
      "वर्षांपूर्वी": 8289,
      "स्वातंत्र्य": 8290,
      "अजूनही": 8291,
      "वाळवंट": 8292,
      "इत्यादी": 8293,
      "लियन": 8294,
      "दख्खन": 8295,
      "माध्यम": 8296,
      "गंगे": 8297,
      "सस्तन": 8298,
      "सल्तनत": 8299,
      "राजधानी": 8300,
      "मुस्लिम": 8301,
      "अब": 8302,
      "अभी": 8303,
      "अफ्र": 8304,
      "आर्": 8305,
      "आन्": 8306,
      "इं": 8307,
      "ऋतु": 8308,
      "कम": 8309,
      "जलो": 8310,
      "जाना": 8311,
      "धर्": 8312,
      "फै": 8313,
      "लया": 8314,
      "िम": 8315,
      "ीका": 8316,
      "ैल": 8317,
      "ोसी": 8318,
      "केवल": 8319,
      "र्ष": 8320,
      "प्रतिश": 8321,
      "प्रयास": 8322,
      "प्रभाव": 8323,
      "विवाद": 8324,
      "विभि": 8325,
      "लाख": 8326,
      "वाली": 8327,
      "ियान": 8328,
      "पाद": 8329,
      "मिला": 8330,
      "समर्थ": 8331,
      "वेष": 8332,
      "कृष्ट": 8333,
      "इसकी": 8334,
      "उत्पाद": 8335,
      "हिन्दू": 8336,
      "बनाने": 8337,
      "वन्य": 8338,
      "व्यापार": 8339,
      "अंग्रेज़ी": 8340,
      "यूरोपीय": 8341,
      "जबकि": 8342,
      "अमरी": 8343,
      "जलवायु": 8344,
      "राजनीतिक": 8345,
      "अप्रैल": 8346,
      "पड़ोसी": 8347,
      "ऋषभ": 8348,
      "वर्तमान": 8349,
      "अफ्रीका": 8350,
      "आन्दोलन": 8351,
      "जलोढ़": 8352,
      "धर्मा": 8353,
      "प्रतिशत": 8354,
      "विभिन्न": 8355,
      "समर्थन": 8356,
      "ंद": 8357,
      "आम": 8358,
      "आकर्": 8359,
      "उद": 8360,
      "उठा": 8361,
      "कल": 8362,
      "गम": 8363,
      "महि": 8364,
      "रचना": 8365,
      "१३": 8366,
      "त्त": 8367,
      "चाल": 8368,
      "केंद्रशासित": 8369,
      "कर्नाट": 8370,
      "तत्कालीन": 8371,
      "कर्नाटक": 8372,
      "ईस्ट": 8373,
      "कंप": 8374,
      "टना": 8375,
      "तरा": 8376,
      "वत": 8377,
      "सरा": 8378,
      "परि": 8379,
      "मिश्र": 8380,
      "मानव": 8381,
      "लिख": 8382,
      "१९४७": 8383,
      "ग्री": 8384,
      "इस्लाम": 8385,
      "घोषित": 8386,
      "गोंड": 8387,
      "गुजरात": 8388,
      "ंका": 8389,
      "अग": 8390,
      "कों": 8391,
      "टर": 8392,
      "डर": 8393,
      "डिया": 8394,
      "रल": 8395,
      "शहर": 8396,
      "शस्त्र": 8397,
      "सन्": 8398,
      "सक्र": 8399,
      "हॉ": 8400,
      "ाम": 8401,
      "ेक्षा": 8402,
      "४०": 8403,
      "प्रणा": 8404,
      "वित": 8405,
      "विजय": 8406,
      "वास": 8407,
      "क्ट": 8408,
      "त्री": 8409,
      "करते": 8410,
      "हाल": 8411,
      "ीलंका": 8412,
      "जीवन": 8413,
      "स्कृतिक": 8414,
      "लोकप्रिय": 8415,
      "पर्यटन": 8416,
      "सूची": 8417,
      "मैदानी": 8418,
      "श्रीलंका": 8419,
      "सांस्कृतिक": 8420,
      "कटिबंध": 8421,
      "नागरिक": 8422,
      "प्रणाली": 8423,
      "ns": 8424,
      "ंवर": 8425,
      "ंनी": 8426,
      "अशिया": 8427,
      "अलावा": 8428,
      "आत": 8429,
      "आस": 8430,
      "आला": 8431,
      "उच्च": 8432,
      "एन": 8433,
      "कले": 8434,
      "कच्छ": 8435,
      "गति": 8436,
      "घात": 8437,
      "छोड़": 8438,
      "जां": 8439,
      "जहाँ": 8440,
      "णु": 8441,
      "णारे": 8442,
      "तम": 8443,
      "थार": 8444,
      "दारी": 8445,
      "नदिया": 8446,
      "नद्या": 8447,
      "नुसार": 8448,
      "पर्": 8449,
      "पहि": 8450,
      "पहु": 8451,
      "पद्ध": 8452,
      "पणे": 8453,
      "फि": 8454,
      "बरो": 8455,
      "बद्दल": 8456,
      "भार": 8457,
      "भील": 8458,
      "मौ": 8459,
      "यत": 8460,
      "यश": 8461,
      "रह": 8462,
      "रही": 8463,
      "ळू": 8464,
      "ळूह": 8465,
      "वू": 8466,
      "वणात": 8467,
      "षणा": 8468,
      "हारा": 8469,
      "हळूह": 8470,
      "ाचा": 8471,
      "ेत": 8472,
      "ैकी": 8473,
      "ौद्योग": 8474,
      "२४": 8475,
      "्याद्र": 8476,
      "केवळ": 8477,
      "ातन": 8478,
      "स्कार": 8479,
      "प्रशासन": 8480,
      "प्रौद्योग": 8481,
      "विले": 8482,
      "वियत": 8483,
      "नेमा": 8484,
      "नाही": 8485,
      "वाढ": 8486,
      "वाटा": 8487,
      "लेय": 8488,
      "लेल्या": 8489,
      "लेणी": 8490,
      "ांत": 8491,
      "ांना": 8492,
      "देवा": 8493,
      "देखा": 8494,
      "करणे": 8495,
      "माल": 8496,
      "परी": 8497,
      "परे": 8498,
      "राज्यात": 8499,
      "राजनै": 8500,
      "त्त्व": 8501,
      "चीफ": 8502,
      "मुंब": 8503,
      "तरह": 8504,
      "हिस्": 8505,
      "न्ध": 8506,
      "होत्या": 8507,
      "कोई": 8508,
      "कोटी": 8509,
      "जातात": 8510,
      "मिलियन": 8511,
      "किये": 8512,
      "मानसून": 8513,
      "शालेय": 8514,
      "एकूण": 8515,
      "पुरा": 8516,
      "पुर्त": 8517,
      "स्तरा": 8518,
      "लिवू": 8519,
      "असल्या": 8520,
      "भारताचा": 8521,
      "रूस": 8522,
      "लोगों": 8523,
      "येते": 8524,
      "येथे": 8525,
      "स्थि": 8526,
      "झाल्या": 8527,
      "जीत": 8528,
      "सिनेमा": 8529,
      "जनता": 8530,
      "जनवरी": 8531,
      "भूषा": 8532,
      "सरकारें": 8533,
      "सदन": 8534,
      "खाली": 8535,
      "भाषाएँ": 8536,
      "उत्तरे": 8537,
      "नावाने": 8538,
      "स्थापन": 8539,
      "काळा": 8540,
      "काळातील": 8541,
      "उपमहाद्वीप": 8542,
      "महत्त्वा": 8543,
      "गेले": 8544,
      "जिसका": 8545,
      "अपना": 8546,
      "मिळते": 8547,
      "मिळतात": 8548,
      "चित्रपटसृष्ट": 8549,
      "ंपारिक": 8550,
      "ंपैकी": 8551,
      "गणला": 8552,
      "शिक्षणा": 8553,
      "पश्चिमी": 8554,
      "पदार्थ": 8555,
      "पदव्यु": 8556,
      "द्वीपसमूह": 8557,
      "जेवणात": 8558,
      "म्हणतात": 8559,
      "शेती": 8560,
      "पारंपारिक": 8561,
      "संघीय": 8562,
      "संघर्ष": 8563,
      "बढ़कर": 8564,
      "शुरु": 8565,
      "मंचा": 8566,
      "सह्याद्र": 8567,
      "युद्धात": 8568,
      "अन्तर": 8569,
      "पुरातन": 8570,
      "पुरस्कार": 8571,
      "बनाई": 8572,
      "पार्ट": 8573,
      "दृष्टि": 8574,
      "ण्याची": 8575,
      "अभियान": 8576,
      "लागले": 8577,
      "प्रमाणात": 8578,
      "क्षणिक": 8579,
      "प्रांत": 8580,
      "प्रांतात": 8581,
      "असलेली": 8582,
      "समाप्त": 8583,
      "समावेश": 8584,
      "जैसे": 8585,
      "ओळखले": 8586,
      "नावाचा": 8587,
      "सुरुवाती": 8588,
      "उसके": 8589,
      "ठिकाणी": 8590,
      "तांत्रिक": 8591,
      "बाहरी": 8592,
      "वैशिष्ट्य": 8593,
      "आढळतात": 8594,
      "चळवळी": 8595,
      "अस्तित्त्व": 8596,
      "मंदिरे": 8597,
      "कहते": 8598,
      "बॉलिवू": 8599,
      "छोटे": 8600,
      "व्यावसायिक": 8601,
      "अशियाई": 8602,
      "थारचे": 8603,
      "नदियाँ": 8604,
      "पद्धती": 8605,
      "बरोबर": 8606,
      "हळूहळू": 8607,
      "प्रौद्योगिकी": 8608,
      "राजनैतिक": 8609,
      "मुंबई": 8610,
      "पुर्तगा": 8611,
      "पदव्युत्तर": 8612,
      "सह्याद्री": 8613,
      "बॉलिवूड": 8614,
      "अज": 8615,
      "एका": 8616,
      "ओडि": 8617,
      "ख्या": 8618,
      "गि": 8619,
      "ग्रे": 8620,
      "ट्ट": 8621,
      "णि": 8622,
      "म्या": 8623,
      "सव": 8624,
      "सत्": 8625,
      "्न": 8626,
      "प्रे": 8627,
      "प्रश्": 8628,
      "वाय": 8629,
      "कीय": 8630,
      "ांग": 8631,
      "ांचे": 8632,
      "पुराण": 8633,
      "द्रा": 8634,
      "दिला": 8635,
      "उत्कृष्ट": 8636,
      "प्पा": 8637,
      "भूभाग": 8638,
      "धर्मीय": 8639,
      "अधिकृत": 8640,
      "अरबी": 8641,
      "शास्त्रीय": 8642,
      "अशो": 8643,
      "खु": 8644,
      "चर": 8645,
      "ज्य": 8646,
      "जरा": 8647,
      "पात": 8648,
      "पां": 8649,
      "यदा": 8650,
      "रत": 8651,
      "लिक": 8652,
      "शिक": 8653,
      "षिक": 8654,
      "षित": 8655,
      "स्र": 8656,
      "२८": 8657,
      "३८": 8658,
      "५७": 8659,
      "प्रभा": 8660,
      "ान्": 8661,
      "साद": 8662,
      "नेशिया": 8663,
      "वाला": 8664,
      "त्रि": 8665,
      "परिक": 8666,
      "निष्ठ": 8667,
      "शाही": 8668,
      "प्राप्": 8669,
      "क्री": 8670,
      "लगा": 8671,
      "हरलाल": 8672,
      "शिख": 8673,
      "हिंसा": 8674,
      "मध्यप्रदेश": 8675,
      "दर्श": 8676,
      "आक्रमण": 8677,
      "ात्मक": 8678,
      "जवाहरलाल": 8679,
      "इंडोनेशिया": 8680,
      "आकर्षित": 8681,
      "आंतर": 8682,
      "ईद": 8683,
      "चित": 8684,
      "नर": 8685,
      "फु": 8686,
      "ब्र": 8687,
      "बडी": 8688,
      "मले": 8689,
      "रत्न": 8690,
      "श्रे": 8691,
      "हती": 8692,
      "हारी": 8693,
      "प्रसार": 8694,
      "नेट": 8695,
      "वाज": 8696,
      "निवास": 8697,
      "वर्षा": 8698,
      "पुन": 8699,
      "सरी": 8700,
      "मोदी": 8701,
      "तुल": 8702,
      "संसदीय": 8703,
      "१९९१": 8704,
      "अमेरिक": 8705,
      "वृद्ध": 8706,
      "१९८४": 8707,
      "नेहरू": 8708,
      "प्रचलित": 8709,
      "ंक": 8710,
      "अति": 8711,
      "आग": 8712,
      "आय": 8713,
      "आयात": 8714,
      "इसे": 8715,
      "उसे": 8716,
      "उन्हें": 8717,
      "कप": 8718,
      "क्यों": 8719,
      "कश्मीर": 8720,
      "घर": 8721,
      "चली": 8722,
      "जट": 8723,
      "जमा": 8724,
      "तट": 8725,
      "तनाव": 8726,
      "बजट": 8727,
      "भ्यता": 8728,
      "यहाँ": 8729,
      "रख": 8730,
      "लै": 8731,
      "लौ": 8732,
      "लड़ा": 8733,
      "लंबे": 8734,
      "शील": 8735,
      "सहा": 8736,
      "सफल": 8737,
      "सभ्यता": 8738,
      "ृद्ध": 8739,
      "२२": 8740,
      "प्रका": 8741,
      "प्रदान": 8742,
      "प्रभु": 8743,
      "विरो": 8744,
      "विशेष": 8745,
      "नागा": 8746,
      "लेकर": 8747,
      "लीवि": 8748,
      "ांस": 8749,
      "करती": 8750,
      "परिण": 8751,
      "राजवंश": 8752,
      "पाया": 8753,
      "पाँच": 8754,
      "होना": 8755,
      "निम्": 8756,
      "निवेश": 8757,
      "किए": 8758,
      "किसी": 8759,
      "पूरा": 8760,
      "पूरे": 8761,
      "शाली": 8762,
      "समझ": 8763,
      "समृद्ध": 8764,
      "द्रो": 8765,
      "दिरा": 8766,
      "धिकार": 8767,
      "लोग": 8768,
      "इसका": 8769,
      "इसमें": 8770,
      "जिन्हें": 8771,
      "सामरिक": 8772,
      "भागी": 8773,
      "भाषाएं": 8774,
      "उत्तरी": 8775,
      "हिन्दु": 8776,
      "मंत्रिम": 8777,
      "शिक्षा": 8778,
      "सोवियत": 8779,
      "टेलीवि": 8780,
      "बढ़ती": 8781,
      "सिंधु": 8782,
      "डालर": 8783,
      "उनके": 8784,
      "उनकी": 8785,
      "संबंधों": 8786,
      "अवशेष": 8787,
      "फ्रांस": 8788,
      "२००४": 8789,
      "भाषी": 8790,
      "ण्डल": 8791,
      "कार्यकाल": 8792,
      "कार्यपालिका": 8793,
      "परंपरागत": 8794,
      "मोहन": 8795,
      "जिनमें": 8796,
      "सदस्य": 8797,
      "सदस्यों": 8798,
      "नौसेना": 8799,
      "ऊँची": 8800,
      "कृषि": 8801,
      "इंदिरा": 8802,
      "फैली": 8803,
      "अमरीकी": 8804,
      "सक्रिय": 8805,
      "हॉकी": 8806,
      "ामस्वरूप": 8807,
      "कटिबंधीय": 8808,
      "परीक्षण": 8809,
      "स्थिति": 8810,
      "शुरुआत": 8811,
      "आगमन": 8812,
      "सहायक": 8813,
      "परिणामस्वरूप": 8814,
      "निम्न": 8815,
      "मंत्रिमण्डल": 8816,
      "eters": 8817,
      "ंच्या": 8818,
      "अरा": 8819,
      "अग्": 8820,
      "अणु": 8821,
      "आसाम": 8822,
      "आहारा": 8823,
      "ईश": 8824,
      "ऊन": 8825,
      "ओघात": 8826,
      "कल्प": 8827,
      "गड": 8828,
      "टो": 8829,
      "ड्रा": 8830,
      "णू": 8831,
      "तच्या": 8832,
      "दह": 8833,
      "धा": 8834,
      "नमु": 8835,
      "नमार": 8836,
      "पसं": 8837,
      "पक्षा": 8838,
      "बळ": 8839,
      "मंड": 8840,
      "रणा": 8841,
      "ळून": 8842,
      "वतात": 8843,
      "वृत": 8844,
      "ववैविध": 8845,
      "शतक": 8846,
      "सै": 8847,
      "सदे": 8848,
      "हान": 8849,
      "ाले": 8850,
      "ीचे": 8851,
      "ृह": 8852,
      "‍नी": 8853,
      "र्ज": 8854,
      "काने": 8855,
      "प्रमा": 8856,
      "यामुळे": 8857,
      "ानंतर": 8858,
      "राला": 8859,
      "साधारण": 8860,
      "लाभ": 8861,
      "नां": 8862,
      "नाऱ्या": 8863,
      "लेख": 8864,
      "लेली": 8865,
      "संलग": 8866,
      "संपूर्ण": 8867,
      "ांवर": 8868,
      "क्षणा": 8869,
      "करत": 8870,
      "राजव": 8871,
      "राजकीय": 8872,
      "त्वे": 8873,
      "तिसऱ्या": 8874,
      "कारभार": 8875,
      "न्स": 8876,
      "पाच": 8877,
      "पाठ": 8878,
      "पाव": 8879,
      "पावली": 8880,
      "होतो": 8881,
      "देशात": 8882,
      "निध": 8883,
      "किनाऱ्या": 8884,
      "शाहज": 8885,
      "समी": 8886,
      "पुढ": 8887,
      "पुत": 8888,
      "त्याला": 8889,
      "त्याने": 8890,
      "लिश": 8891,
      "राज्यसभे": 8892,
      "सरस्व": 8893,
      "असली": 8894,
      "असतात": 8895,
      "असतो": 8896,
      "ार्थी": 8897,
      "मोठी": 8898,
      "मोसमी": 8899,
      "मीण": 8900,
      "्यांच्या": 8901,
      "्यांमध्ये": 8902,
      "सारख्या": 8903,
      "लोकसभे": 8904,
      "गरजे": 8905,
      "उपसाग": 8906,
      "प्रकारचे": 8907,
      "रोजी": 8908,
      "कडा": 8909,
      "कडून": 8910,
      "बनविले": 8911,
      "मिळाले": 8912,
      "व्यवसाय": 8913,
      "यांना": 8914,
      "यांचे": 8915,
      "यांचा": 8916,
      "आणली": 8917,
      "मुख्यत्वे": 8918,
      "हिमालया": 8919,
      "पश्चिमे": 8920,
      "पूर्वीच्या": 8921,
      "झालेले": 8922,
      "मूळ": 8923,
      "इतिहासा": 8924,
      "मैल": 8925,
      "शिक्षणपद्धती": 8926,
      "पीठ": 8927,
      "शहरे": 8928,
      "घेत": 8929,
      "घेण्यास": 8930,
      "आपले": 8931,
      "महाराष्ट्रातील": 8932,
      "पठारा": 8933,
      "शैक्षणिक": 8934,
      "मोठे": 8935,
      "देखील": 8936,
      "विषय": 8937,
      "किल्ल्या": 8938,
      "इंग्रजां": 8939,
      "विद्यार्थी": 8940,
      "शोध": 8941,
      "भाषे": 8942,
      "त्यांची": 8943,
      "आक्रमणे": 8944,
      "जैववैविध": 8945,
      "आरक्षणा": 8946,
      "आलेल्या": 8947,
      "आहारात": 8948,
      "मसाले": 8949,
      "मसाल्या": 8950,
      "निवडणू": 8951,
      "दक्षिणेकडील": 8952,
      "mother": 8953,
      "ज्याचा": 8954,
      "पत्‍नी": 8955,
      "पृष्ठीय": 8956,
      "सुरुवात": 8957,
      "मराठा": 8958,
      "ग्रामीण": 8959,
      "बदलां": 8960,
      "शतका": 8961,
      "राज्यातील": 8962,
      "जंगले": 8963,
      "जानेवारी": 8964,
      "रंगमंचा": 8965,
      "भारतीयांनी": 8966,
      "स्मारका": 8967,
      "इंग्लिश": 8968,
      "दख्खनच्या": 8969,
      "गंगेच्या": 8970,
      "ometers": 8971,
      "वेषभूषा": 8972,
      "धर्माचा": 8973,
      "आमदार": 8974,
      "यशस्वी": 8975,
      "काळाच्या": 8976,
      "सुरुवातीला": 8977,
      "अस्तित्त्वात": 8978,
      "म्यानमार": 8979,
      "kilometers": 8980,
      "अरावली": 8981,
      "अग्निध": 8982,
      "ईशान": 8983,
      "दहशत": 8984,
      "नमुने": 8985,
      "पक्षास": 8986,
      "वृतीय": 8987,
      "शतकात": 8988,
      "सैनि": 8989,
      "प्रमाणा": 8990,
      "साधारणपणे": 8991,
      "संलग्न": 8992,
      "शाहजहान": 8993,
      "सरस्वती": 8994,
      "गरजेचे": 8995,
      "उपसागराला": 8996,
      "आकार": 8997,
      "आंबे": 8998,
      "उम": 8999,
      "उर्व": 9000,
      "कथ": 9001,
      "कथा": 9002,
      "गल": 9003,
      "छा": 9004,
      "जू": 9005,
      "जंब": 9006,
      "डकर": 9007,
      "नमू": 9008,
      "पण": 9009,
      "पतन": 9010,
      "बं": 9011,
      "भौ": 9012,
      "यो": 9013,
      "यमु": 9014,
      "शृ": 9015,
      "ुव": 9016,
      "४५": 9017,
      "५००": 9018,
      "स्म": 9019,
      "कान": 9020,
      "प्रवेश": 9021,
      "हेब": 9022,
      "साहेब": 9023,
      "विरु": 9024,
      "नाइ": 9025,
      "नाग": 9026,
      "नाथ": 9027,
      "संर": 9028,
      "ांतर": 9029,
      "मुद्": 9030,
      "ताज": 9031,
      "हिनी": 9032,
      "कोर": 9033,
      "शाका": 9034,
      "पुरी": 9035,
      "ल्ले": 9036,
      "उत्तरा": 9037,
      "म्म": 9038,
      "जीव": 9039,
      "भूगोल": 9040,
      "व्यवस्थ": 9041,
      "गणतंत्र": 9042,
      "व्याप": 9043,
      "गुरू": 9044,
      "शिवा": 9045,
      "अर्थव्यवस्थ": 9046,
      "स्ट्रे": 9047,
      "हिमालयी": 9048,
      "इतिहासकार": 9049,
      "दर्भ": 9050,
      "अभि": 9051,
      "लागू": 9052,
      "लुप्त": 9053,
      "मार्ग": 9054,
      "गोलिक": 9055,
      "मराठी": 9056,
      "चोल": 9057,
      "आर्द्र": 9058,
      "कंपनी": 9059,
      "लिखित": 9060,
      "सत्ता": 9061,
      "प्रश्न": 9062,
      "Arc": 9063,
      "आंबेडकर": 9064,
      "उर्वर": 9065,
      "जंबू": 9066,
      "भौगोलिक": 9067,
      "यमुना": 9068,
      "विरुद्ध": 9069,
      "ंपरिक": 9070,
      "आठ": 9071,
      "आव": 9072,
      "ऊर्": 9073,
      "गध": 9074,
      "जारी": 9075,
      "धन": 9076,
      "नन": 9077,
      "नया": 9078,
      "नर्म": 9079,
      "पत्र": 9080,
      "पमान": 9081,
      "मात": 9082,
      "मृत्य": 9083,
      "मगध": 9084,
      "लत": 9085,
      "व्र": 9086,
      "वार्": 9087,
      "शब्": 9088,
      "सॉ": 9089,
      "सिया": 9090,
      "हम": 9091,
      "हस्त": 9092,
      "िष्ठ": 9093,
      "ीण": 9094,
      "ोर": 9095,
      "ोत्तर": 9096,
      "२३": 9097,
      "२९": 9098,
      "३७": 9099,
      "४३": 9100,
      "७९": 9101,
      "र्ट": 9102,
      "ेंद्र": 9103,
      "याब": 9104,
      "राम": 9105,
      "सामान्य": 9106,
      "लाव": 9107,
      "लादेश": 9108,
      "संबो": 9109,
      "संगम": 9110,
      "त्पत्": 9111,
      "तापमान": 9112,
      "न्हे": 9113,
      "निर्म": 9114,
      "जातीय": 9115,
      "मानी": 9116,
      "मान्यता": 9117,
      "वर्तन": 9118,
      "वरिष्ठ": 9119,
      "षाण": 9120,
      "म्बे": 9121,
      "रीबी": 9122,
      "धर्मनिरपेक्ष": 9123,
      "क्रां": 9124,
      "रेशिय": 9125,
      "अधिकारी": 9126,
      "महात्": 9127,
      "मंत्रण": 9128,
      "रिवाज": 9129,
      "पारंपरिक": 9130,
      "मंच": 9131,
      "शहरा": 9132,
      "१९९०": 9133,
      "१९९८": 9134,
      "२००९": 9135,
      "१९७१": 9136,
      "सकल": 9137,
      "आर्य": 9138,
      "किनारे": 9139,
      "घाट": 9140,
      "ग्राम": 9141,
      "्टवे": 9142,
      "फायदा": 9143,
      "विजयनगर": 9144,
      "प्रभावित": 9145,
      "नरेंद्र": 9146,
      "नर्मदा": 9147,
      "मृत्यु": 9148,
      "वार्षिक": 9149,
      "शब्द": 9150,
      "संबोध": 9151,
      "महात्मा": 9152,
      "oon": 9153,
      "ंजन": 9154,
      "ंदोलन": 9155,
      "अर्": 9156,
      "अनि": 9157,
      "असम": 9158,
      "अल्": 9159,
      "अच्छ": 9160,
      "अक्ट": 9161,
      "आई": 9162,
      "आक": 9163,
      "आते": 9164,
      "आगे": 9165,
      "आंदोलन": 9166,
      "ऊपर": 9167,
      "एव": 9168,
      "एशन": 9169,
      "ऑपरे": 9170,
      "कमां": 9171,
      "खे": 9172,
      "गै": 9173,
      "गढ़": 9174,
      "चौ": 9175,
      "छह": 9176,
      "जान": 9177,
      "जों": 9178,
      "जन्": 9179,
      "झे": 9180,
      "झार": 9181,
      "ठक": 9182,
      "ढा": 9183,
      "तब": 9184,
      "थल": 9185,
      "थान": 9186,
      "नम": 9187,
      "नदि": 9188,
      "पड़ा": 9189,
      "बल": 9190,
      "बियों": 9191,
      "बन्ध": 9192,
      "भो": 9193,
      "भरा": 9194,
      "मना": 9195,
      "मील": 9196,
      "मही": 9197,
      "यर": 9198,
      "यें": 9199,
      "यद्य": 9200,
      "यपालिका": 9201,
      "रखा": 9202,
      "शक्त": 9203,
      "सौ": 9204,
      "सों": 9205,
      "सहि": 9206,
      "सदी": 9207,
      "सभी": 9208,
      "सशस्त्र": 9209,
      "हरा": 9210,
      "हत्या": 9211,
      "हार्": 9212,
      "ाफ": 9213,
      "ुप": 9214,
      "ूत": 9215,
      "ूबर": 9216,
      "५२": 9217,
      "ातार": 9218,
      "स्ता": 9219,
      "काज": 9220,
      "साक्षर": 9221,
      "विमान": 9222,
      "विशा": 9223,
      "विज्ञान": 9224,
      "विद्रो": 9225,
      "वाम": 9226,
      "ोंने": 9227,
      "तीसरी": 9228,
      "करे": 9229,
      "करो": 9230,
      "राजभाषा": 9231,
      "त्‍": 9232,
      "तिम": 9233,
      "कारी": 9234,
      "पाई": 9235,
      "होने": 9236,
      "भारतीयों": 9237,
      "नियों": 9238,
      "चाई": 9239,
      "दीव": 9240,
      "शामिल": 9241,
      "ड़ियाँ": 9242,
      "पुलि": 9243,
      "पुड़ा": 9244,
      "नीति": 9245,
      "र्मण": 9246,
      "स्थल": 9247,
      "मोर्": 9248,
      "मीणा": 9249,
      "ियो": 9250,
      "धर्मों": 9251,
      "बहुमूल": 9252,
      "क्रय": 9253,
      "क्रि": 9254,
      "सरकारों": 9255,
      "क्षेत्रों": 9256,
      "सारी": 9257,
      "लोकतांत्रिक": 9258,
      "स्थानीय": 9259,
      "लगातार": 9260,
      "प्रदेशों": 9261,
      "स्थापित": 9262,
      "हिन्द": 9263,
      "निर्भर": 9264,
      "प्राचीनतम": 9265,
      "जिसने": 9266,
      "जिसकी": 9267,
      "अपेक्षा": 9268,
      "बनने": 9269,
      "गुट": 9270,
      "मध्यम": 9271,
      "केंद्रीय": 9272,
      "चुकी": 9273,
      "साम्राज्यों": 9274,
      "ज़्या": 9275,
      "सेनाओं": 9276,
      "तिशील": 9277,
      "स्टाफ": 9278,
      "न्यायपालिका": 9279,
      "बढ़ा": 9280,
      "बढ़ने": 9281,
      "मनमोहन": 9282,
      "पैमान": 9283,
      "पहली": 9284,
      "दर्शन": 9285,
      "सूचना": 9286,
      "सैनिक": 9287,
      "बनाया": 9288,
      "1960": 9289,
      "उनका": 9290,
      "अवधि": 9291,
      "कामकाज": 9292,
      "सम्पूर्ण": 9293,
      "न्होंने": 9294,
      "पंथी": 9295,
      "२०१४": 9296,
      "सेवाओं": 9297,
      "सकता": 9298,
      "सकते": 9299,
      "विकासशील": 9300,
      "पहाड़ी": 9301,
      "वर्णन": 9302,
      "राजनीति": 9303,
      "अन्तर्": 9304,
      "अन्ततः": 9305,
      "घाटी": 9306,
      "सतपुड़ा": 9307,
      "केन्द्रशासित": 9308,
      "प्रारम्भिक": 9309,
      "उभरा": 9310,
      "ऊँचाई": 9311,
      "बैठक": 9312,
      "वास्तविक": 9313,
      "पुरुषों": 9314,
      "चलाया": 9315,
      "नियंत्र": 9316,
      "प्रभावशाली": 9317,
      "अगस्त": 9318,
      "आसपास": 9319,
      "छोड़कर": 9320,
      "पहुँच": 9321,
      "मालदीव": 9322,
      "हिस्सा": 9323,
      "पार्टियों": 9324,
      "पुर्तगाली": 9325,
      "आंतरिक": 9326,
      "फुट": 9327,
      "तुलना": 9328,
      "वृद्धि": 9329,
      "प्रकाश": 9330,
      "विरोध": 9331,
      "समझौ": 9332,
      "भागीदारी": 9333,
      "हिन्दुस्तान": 9334,
      "अक्टूबर": 9335,
      "आकर्मण": 9336,
      "ऑपरेशन": 9337,
      "कमांडर": 9338,
      "गैर": 9339,
      "नदियों": 9340,
      "यद्यपि": 9341,
      "सौहार्": 9342,
      "साक्षरता": 9343,
      "विशाल": 9344,
      "विद्रोह": 9345,
      "पुलिस": 9346,
      "बहुमूल्य": 9347,
      "सौहार्द": 9348,
      "ँग्रे": 9349,
      "ंच": 9350,
      "ंना": 9351,
      "ंवा": 9352,
      "ंदी": 9353,
      "ंठा": 9354,
      "ंचल": 9355,
      "अख": 9356,
      "अ‍": 9357,
      "असा": 9358,
      "अजि": 9359,
      "अलिक": 9360,
      "आद्र": 9361,
      "आल्या": 9362,
      "आशिय": 9363,
      "आघा": 9364,
      "इत": 9365,
      "इंद्र": 9366,
      "इव्": 9367,
      "इराण": 9368,
      "ऋत्य": 9369,
      "ऑग": 9370,
      "ऑस्": 9371,
      "ऑस्ट्रे": 9372,
      "कॅ": 9373,
      "कमा": 9374,
      "कन्या": 9375,
      "कनिष्ठ": 9376,
      "खात": 9377,
      "खून": 9378,
      "ख्रि": 9379,
      "गडा": 9380,
      "गळी": 9381,
      "गव्हा": 9382,
      "घट": 9383,
      "घटना": 9384,
      "चक्र": 9385,
      "चस्व": 9386,
      "चतु": 9387,
      "चांग": 9388,
      "जड": 9389,
      "जॉ": 9390,
      "जम्": 9391,
      "जगा": 9392,
      "झर्व": 9393,
      "ढऱ्या": 9394,
      "तद्": 9395,
      "तज्ञ": 9396,
      "थंड": 9397,
      "दली": 9398,
      "दमान": 9399,
      "दगड": 9400,
      "धड": 9401,
      "धर": 9402,
      "नृ": 9403,
      "नष्ट": 9404,
      "परा": 9405,
      "फळ": 9406,
      "बट": 9407,
      "बती": 9408,
      "बरी": 9409,
      "भवर्ष": 9410,
      "मते": 9411,
      "मरी": 9412,
      "मारा": 9413,
      "ममाण": 9414,
      "मणि": 9415,
      "यण": 9416,
      "यातील": 9417,
      "रळ": 9418,
      "रका": 9419,
      "रममाण": 9420,
      "ऱ्यां": 9421,
      "ऱ्यात": 9422,
      "ल्य": 9423,
      "लंड": 9424,
      "लंब": 9425,
      "लब्": 9426,
      "ळची": 9427,
      "ळकार": 9428,
      "वला": 9429,
      "वने": 9430,
      "सन": 9431,
      "सचि": 9432,
      "सभाग": 9433,
      "सिक्": 9434,
      "हळे": 9435,
      "हंप": 9436,
      "हाता": 9437,
      "ावर": 9438,
      "ामध्ये": 9439,
      "ासाठी": 9440,
      "िल": 9441,
      "ोबार": 9442,
      "्लो": 9443,
      "्त्वा": 9444,
      "४८": 9445,
      "५५": 9446,
      "्याच्या": 9447,
      "्याचे": 9448,
      "्यानंतर": 9449,
      "केल्या": 9450,
      "केरळ": 9451,
      "भारतभर": 9452,
      "स्फे": 9453,
      "स्वाय": 9454,
      "कावे": 9455,
      "काबी": 9456,
      "काश्मीर": 9457,
      "कांपैकी": 9458,
      "काँग्रे": 9459,
      "ेंच": 9460,
      "ेंजो": 9461,
      "प्रशास": 9462,
      "याच": 9463,
      "याचा": 9464,
      "यादी": 9465,
      "यानंतर": 9466,
      "यासाठी": 9467,
      "रामा": 9468,
      "साचे": 9469,
      "साडी": 9470,
      "सादर": 9471,
      "साजरा": 9472,
      "नाभवर्ष": 9473,
      "वाट": 9474,
      "वालय": 9475,
      "कीम": 9476,
      "लेले": 9477,
      "संत": 9478,
      "संप": 9479,
      "संसदे": 9480,
      "संशोध": 9481,
      "संदर्भ": 9482,
      "ांका": 9483,
      "ांसोबत": 9484,
      "ांविरुद्ध": 9485,
      "तीनंतर": 9486,
      "माग": 9487,
      "माश": 9488,
      "मुलगा": 9489,
      "ताचे": 9490,
      "तासाठी": 9491,
      "न्हा": 9492,
      "न्ही": 9493,
      "द्वारे": 9494,
      "तेथे": 9495,
      "पाट": 9496,
      "पाठी": 9497,
      "होय": 9498,
      "देश्य": 9499,
      "देशातील": 9500,
      "देशांमध्ये": 9501,
      "मधे": 9502,
      "किंवा": 9503,
      "मानला": 9504,
      "मानले": 9505,
      "वर्तु": 9506,
      "वर्चस्व": 9507,
      "्येकडील": 9508,
      "एकच": 9509,
      "समज": 9510,
      "पुन्हा": 9511,
      "त्याची": 9512,
      "त्यातील": 9513,
      "त्यासाठी": 9514,
      "वेढ": 9515,
      "वेरू": 9516,
      "वेळा": 9517,
      "लिही": 9518,
      "राज्यकर्": 9519,
      "प्राणी": 9520,
      "सरपट": 9521,
      "असत": 9522,
      "असणे": 9523,
      "द्धा": 9524,
      "बायो": 9525,
      "बाबती": 9526,
      "१९२०": 9527,
      "१९१३": 9528,
      "येणारे": 9529,
      "र्मी": 9530,
      "इसवी": 9531,
      "मुखी": 9532,
      "युरोपीय": 9533,
      "पूर्वे": 9534,
      "जीवा": 9535,
      "ाराचे": 9536,
      "्यांची": 9537,
      "्यांचे": 9538,
      "्यांचा": 9539,
      "वर्षे": 9540,
      "दाख": 9541,
      "जाऊ": 9542,
      "दोन्ही": 9543,
      "सुवर्ण": 9544,
      "सुधारण": 9545,
      "सुमारा": 9546,
      "सुद्धा": 9547,
      "बहुसंख": 9548,
      "सदांना": 9549,
      "क्षेत्रात": 9550,
      "क्षेत्रामध्ये": 9551,
      "टिळ": 9552,
      "लोकसंख": 9553,
      "लोकशाही": 9554,
      "लोकनृ": 9555,
      "स्थानिक्": 9556,
      "प्रदेशांत": 9557,
      "स्थापत्याचे": 9558,
      "धान्ये": 9559,
      "साम्राज्ये": 9560,
      "उपप्रकार": 9561,
      "उपसागर": 9562,
      "उपलब्": 9563,
      "मह्त्वा": 9564,
      "प्रकारात": 9565,
      "प्रकारची": 9566,
      "दलदली": 9567,
      "रोवली": 9568,
      "रोखून": 9569,
      "कडधान्ये": 9570,
      "बनला": 9571,
      "बनली": 9572,
      "मिळाला": 9573,
      "चित्रपटांची": 9574,
      "चित्रपटाला": 9575,
      "महाल": 9576,
      "महाखंड": 9577,
      "महाविद्या": 9578,
      "नामशेष": 9579,
      "साहित्यात": 9580,
      "शिरका": 9581,
      "ब्रिटिशकालीन": 9582,
      "ब्रिटिशांविरुद्ध": 9583,
      "असेही": 9584,
      "हिंदु": 9585,
      "झालेला": 9586,
      "झालेली": 9587,
      "सर्वात": 9588,
      "द्वीपकल्प": 9589,
      "मंत्रीमंड": 9590,
      "रिझर्व": 9591,
      "शकतात": 9592,
      "सभासदांना": 9593,
      "संस्कृतीची": 9594,
      "पाकिस्तानात": 9595,
      "गोड": 9596,
      "दुसऱ्या": 9597,
      "आजही": 9598,
      "ज्वाला": 9599,
      "वारसा": 9600,
      "बांग": 9601,
      "पहाता": 9602,
      "केलेल्या": 9603,
      "दिल्लीतील": 9604,
      "इतिहासातील": 9605,
      "पडतो": 9606,
      "क्रमांका": 9607,
      "कांचे": 9608,
      "कांनी": 9609,
      "घेऊ": 9610,
      "घेण्यात": 9611,
      "पर्वता": 9612,
      "जगात": 9613,
      "ndmother": 9614,
      "विकि": 9615,
      "आपल्या": 9616,
      "निकोबार": 9617,
      "समुद्रा": 9618,
      "अवलंब": 9619,
      "लागते": 9620,
      "प्रमाणे": 9621,
      "शास्त्रातील": 9622,
      "फ्रेंच": 9623,
      "प्रांताचे": 9624,
      "विषुव": 9625,
      "भाज्या": 9626,
      "वेगवेगळे": 9627,
      "असलेला": 9628,
      "असलेल्या": 9629,
      "काळातच": 9630,
      "उदाहरणे": 9631,
      "सेवांचा": 9632,
      "राज्यांत": 9633,
      "राज्यांच्या": 9634,
      "राज्यांमध्ये": 9635,
      "त्यांचा": 9636,
      "त्यांनी": 9637,
      "बांधले": 9638,
      "बांधली": 9639,
      "बांधून": 9640,
      "बांधणी": 9641,
      "भावार्थ": 9642,
      "स्वरूपात": 9643,
      "युगातील": 9644,
      "नृत्यप्रकार": 9645,
      "वृक्ष": 9646,
      "अंदमान": 9647,
      "मसाला": 9648,
      "निवडले": 9649,
[...]
