{
  "version": "1.0",
  "truncation": null,
  "padding": null,
  "added_tokens": [],
  "normalizer": {
    "type": "Sequence",
    "normalizers": [
      {
        "type": "NFKC"
      },
      {
        "type": "Lowercase"
      }
    ]
  },
  "pre_tokenizer": {
    "type": "Metaspace",
    "replacement": "▁",
    "prepend_scheme": "always",
    "split": true
  },
  "post_processor": null,
  "decoder": null,
  "model": {
    "type": "BPE",
    "dropout": null,
    "unk_token": "[UNK]",
    "continuing_subword_prefix": null,
    "end_of_word_suffix": null,
    "fuse_unk": false,
    "byte_fallback": false,
    "ignore_merges": false,
    "vocab": {
      "[UNK]": 0,
      "\n": 1,
      "\"": 2,
      "#": 3,
      "$": 4,
      "%": 5,
      "&": 6,
      "'": 7,
      "(": 8,
      ")": 9,
      "*": 10,
      "+": 11,
      ",": 12,
      "-": 13,
      ".": 14,
      "/": 15,
      "0": 16,
      "1": 17,
      "2": 18,
      "3": 19,
      "4": 20,
      "5": 21,
      "6": 22,
      "7": 23,
      "8": 24,
      "9": 25,
      ":": 26,
      ";": 27,
      "=": 28,
      "?": 29,
      "[": 30,
      "]": 31,
      "_": 32,
      "a": 33,
      "b": 34,
      "c": 35,
      "d": 36,
      "e": 37,
      "f": 38,
      "g": 39,
      "h": 40,
      "i": 41,
      "j": 42,
      "k": 43,
      "l": 44,
      "m": 45,
      "n": 46,
      "o": 47,
      "p": 48,
      "q": 49,
      "r": 50,
      "s": 51,
      "t": 52,
      "u": 53,
      "v": 54,
      "w": 55,
      "x": 56,
      "y": 57,
      "z": 58,
      "|": 59,
      "}": 60,
      "°": 61,
      "á": 62,
      "â": 63,
      "í": 64,
      "ö": 65,
      "ā": 66,
      "ī": 67,
      "ś": 68,
      "ū": 69,
      "ə": 70,
      "ɦ": 71,
      "ɪ": 72,
      "ɾ": 73,
      "ʊ": 74,
      "ʼ": 75,
      "ˈ": 76,
      "ː": 77,
      "ί": 78,
      "α": 79,
      "δ": 80,
      "ν": 81,
      "ς": 82,
      "ό": 83,
      "ज": 84,
      "त": 85,
      "म": 86,
      "य": 87,
      "व": 88,
      "स": 89,
      "े": 90,
      "्": 91,
      "ṅ": 92,
      "ṇ": 93,
      "ṣ": 94,
      "ṭ": 95,
      "ἰ": 96,
      "–": 97,
      "—": 98,
      "′": 99,
      "₹": 100,
      "▁": 101,
      "in": 102,
      "an": 103,
      "▁t": 104,
      "he": 105,
      "▁in": 106,
      "er": 107,
      "on": 108,
      "▁the": 109,
      "al": 110,
      "ar": 111,
      "st": 112,
      "di": 113,
      "at": 114,
      "en": 115,
      "](": 116,
      "▁[": 117,
      "▁o": 118,
      "▁c": 119,
      "re": 120,
      "▁of": 121,
      "▁s": 122,
      "it": 123,
      "and": 124,
      "▁a": 125,
      "or": 126,
      "▁indi": 127,
      "ion": 128,
      "ed": 129,
      "▁b": 130,
      "▁p": 131,
      "▁w": 132,
      "es": 133,
      "▁m": 134,
      "ic": 135,
      "▁and": 136,
      "▁f": 137,
      "le": 138,
      "is": 139,
      "▁india": 140,
      "ent": 141,
      "▁\n": 142,
      "ing": 143,
      "as": 144,
      "▁e": 145,
      "om": 146,
      "ou": 147,
      "▁l": 148,
      "▁d": 149,
      "ri": 150,
      "▁g": 151,
      "▁h": 152,
      "▁n": 153,
      "am": 154,
      "),": 155,
      "▁to": 156,
      "il": 157,
      "ur": 158,
      "th": 159,
      "▁1": 160,
      "ra": 161,
      "▁re": 162,
      "ol": 163,
      "ation": 164,
      "ig": 165,
      "ly": 166,
      "ec": 167,
      "ver": 168,
      "ist": 169,
      "▁st": 170,
      "ge": 171,
      "ce": 172,
      "ro": 173,
      "ut": 174,
      "ul": 175,
      "em": 176,
      "ate": 177,
      "▁-": 178,
      "un": 179,
      "us": 180,
      "ang": 181,
      "ch": 182,
      "▁|": 183,
      "▁as": 184,
      "im": 185,
      "▁2": 186,
      "ad": 187,
      "ast": 188,
      "▁by": 189,
      "ve": 190,
      "ct": 191,
      "et": 192,
      "▁is": 193,
      "▁con": 194,
      "▁-\n": 195,
      "▁ar": 196,
      ").": 197,
      "▁r": 198,
      "id": 199,
      "▁indian": 200,
      "ir": 201,
      "um": 202,
      "xt": 203,
      "s,": 204,
      "indi": 205,
      "▁th": 206,
      "ign": 207,
      "ith": 208,
      "ak": 209,
      "ow": 210,
      "op": 211,
      "ab": 212,
      "du": 213,
      "te": 214,
      "▁19": 215,
      "'s": 216,
      "cent": 217,
      "gh": 218,
      "▁(": 219,
      "the": 220,
      "ain": 221,
      "▁for": 222,
      "▁be": 223,
      "ical": 224,
      "▁with": 225,
      "▁mo": 226,
      "ies": 227,
      "rom": 228,
      "▁20": 229,
      "a](": 230,
      "s.": 231,
      "oun": 232,
      "▁sty": 233,
      "##": 234,
      "ure": 235,
      "se": 236,
      "rit": 237,
      "▁v": 238,
      "▁it": 239,
      "▁wh": 240,
      "jp": 241,
      "ter": 242,
      "-al": 243,
      "ay": 244,
      "age": 245,
      "est": 246,
      "ld": 247,
      "▁k": 248,
      "▁style": 249,
      "ile": 250,
      "li": 251,
      "▁was": 252,
      "angu": 253,
      "-align": 254,
      "ment": 255,
      "text": 256,
      "er;": 257,
      "▁su": 258,
      "\"text": 259,
      ":cent": 260,
      "=\"text": 261,
      "▁em": 262,
      "▁style=\"text": 263,
      "-align:cent": 264,
      "er;\"": 265,
      "▁style=\"text-align:cent": 266,
      "▁style=\"text-align:center;\"": 267,
      "▁style=\"text-align:center;\"|": 268,
      "▁an": 269,
      ".\n": 270,
      "▁from": 271,
      "ag": 272,
      "con": 273,
      "ud": 274,
      "ile:": 275,
      "▁on": 276,
      "▁di": 277,
      "ial": 278,
      "ity": 279,
      "▁langu": 280,
      "ult": 281,
      "ern": 282,
      "▁ch": 283,
      "ory": 284,
      "ism": 285,
      "el": 286,
      "▁[m": 287,
      "▁par": 288,
      "▁un": 289,
      "▁or": 290,
      "ill": 291,
      "jpg": 292,
      "eral": 293,
      "hi": 294,
      "oc": 295,
      "s](": 296,
      "ary": 297,
      "end": 298,
      "▁com": 299,
      "00": 300,
      "ive": 301,
      "▁al": 302,
      "▁has": 303,
      "pp": 304,
      "ance": 305,
      "ich": 306,
      "ber": 307,
      "ot": 308,
      "res": 309,
      "▁file:": 310,
      "ish": 311,
      "outh": 312,
      "od": 313,
      "▁[c": 314,
      "▁[s": 315,
      "▁pl": 316,
      "av": 317,
      "og": 318,
      "ant": 319,
      "ction": 320,
      "▁are": 321,
      "iv": 322,
      "over": 323,
      "ong": 324,
      "▁india's": 325,
      "▁which": 326,
      "▁j": 327,
      "ap": 328,
      "▁cent": 329,
      "ount": 330,
      "▁emp": 331,
      ".jpg": 332,
      "ac": 333,
      "ian": 334,
      "ind": 335,
      "ort": 336,
      "▁de": 337,
      "ry": 338,
      "up": 339,
      "orld": 340,
      "indian": 341,
      "](m": 342,
      "▁[b": 343,
      "▁ex": 344,
      "os": 345,
      "▁inc": 346,
      "▁[p": 347,
      "ect": 348,
      "a)": 349,
      "▁##": 350,
      "▁per": 351,
      "ass": 352,
      "ire": 353,
      "▁at": 354,
      "ates": 355,
      "har": 356,
      "s)": 357,
      "](c": 358,
      "](s": 359,
      "▁its": 360,
      "▁india)": 361,
      "▁rel": 362,
      "ther": 363,
      "19": 364,
      "ore": 365,
      "▁ri": 366,
      "ere": 367,
      "arge": 368,
      "eng": 369,
      "](b": 370,
      "](p": 371,
      "▁sp": 372,
      "ution": 373,
      "▁part": 374,
      "ear": 375,
      "o-": 376,
      "▁af": 377,
      "our": 378,
      "overn": 379,
      "aj": 380,
      "uc": 381,
      "stit": 382,
      "ated": 383,
      "▁language": 384,
      ".jpg|": 385,
      "indu": 386,
      "ans": 387,
      "▁south": 388,
      "▁pro": 389,
      "▁were": 390,
      "ational": 391,
      "▁cont": 392,
      "ght": 393,
      "▁*": 394,
      "▁ele": 395,
      "ries": 396,
      "▁asi": 397,
      "▁empire": 398,
      "overnment": 399,
      "ence": 400,
      "ous": 401,
      "ame": 402,
      "uring": 403,
      "▁cl": 404,
      "▁se": 405,
      "▁mus": 406,
      "▁nor": 407,
      "▁art": 408,
      "dh": 409,
      "low": 410,
      "pt": 411,
      "▁3": 412,
      "▁le": 413,
      "ine": 414,
      "ani": 415,
      "enc": 416,
      "▁mar": 417,
      "▁india\n": 418,
      "▁dance": 419,
      "ateg": 420,
      "▁comp": 421,
      "if": 422,
      "▁sh": 423,
      "▁during": 424,
      "▁ne": 425,
      "▁reg": 426,
      "▁sub": 427,
      "ory:": 428,
      "▁after": 429,
      "ategory:": 430,
      "ub": 431,
      "▁y": 432,
      "inist": 433,
      "any": 434,
      "▁int": 435,
      "all": 436,
      "atic": 437,
      "▁gen": 438,
      "amil": 439,
      "ric": 440,
      "we": 441,
      "her": 442,
      "dit": 443,
      "▁co": 444,
      "▁count": 445,
      "▁ag": 446,
      "▁india,": 447,
      "▁econ": 448,
      "▁government": 449,
      "ages": 450,
      "▁###": 451,
      "▁econom": 452,
      "a,": 453,
      "de": 454,
      "lic": 455,
      "ok": 456,
      "ru": 457,
      "▁world": 458,
      "▁large": 459,
      "rim": 460,
      "▁202": 461,
      "illion": 462,
      "▁election": 463,
      "](l": 464,
      "▁[n": 465,
      "▁sy": 466,
      "▁bec": 467,
      "ury": 468,
      "stitution": 469,
      "▁region": 470,
      "der": 471,
      "hm": 472,
      "vi": 473,
      "▁ad": 474,
      "▁india),": 475,
      "ide": 476,
      "irst": 477,
      "▁form": 478,
      "▁into": 479,
      "ik": 480,
      "qu": 481,
      "▁ra": 482,
      "▁ter": 483,
      "▁[g": 484,
      "reat": 485,
      "▁war": 486,
      "▁dec": 487,
      "▁201": 488,
      "so": 489,
      "▁tra": 490,
      "▁[t": 491,
      "▁pol": 492,
      "▁pop": 493,
      "ulture": 494,
      "▁exp": 495,
      "▁general": 496,
      "ave": 497,
      "cc": 498,
      "ph": 499,
      "ral": 500,
      "rou": 501,
      "erv": 502,
      "ally": 503,
      "igh": 504,
      "india": 505,
      "akist": 506,
      "uddh": 507,
      "▁languages": 508,
      "ress": 509,
      "▁river": 510,
      "▁music": 511,
      "20": 512,
      "sh": 513,
      "stem": 514,
      "](f": 515,
      "](n": 516,
      "reas": 517,
      "lear": 518,
      "▁east": 519,
      "ome": 520,
      "▁rep": 521,
      "row": 522,
      "imal": 523,
      "▁system": 524,
      "ah": 525,
      "gan": 526,
      "▁5": 527,
      "▁us": 528,
      "▁im": 529,
      "anc": 530,
      "▁am": 531,
      "▁west": 532,
      "es,": 533,
      "▁minist": 534,
      "▁first": 535,
      "▁res": 536,
      "▁cons": 537,
      ").\n": 538,
      "▁relig": 539,
      "▁year": 540,
      "▁popul": 541,
      "a),": 542,
      "ban": 543,
      "lud": 544,
      "▁7": 545,
      "▁he": 546,
      "ens": 547,
      "](d": 548,
      "▁over": 549,
      "ree": 550,
      "▁pe": 551,
      "▁prim": 552,
      "isation": 553,
      "▁num": 554,
      "ural": 555,
      "ghal": 556,
      "ound": 557,
      "▁plate": 558,
      "uclear": 559,
      "ublic": 560,
      "dition": 561,
      "▁minister": 562,
      "for": 563,
      "lo": 564,
      "oth": 565,
      "ughal": 566,
      "▁4": 567,
      "inent": 568,
      "ard": 569,
      "ited": 570,
      "▁me": 571,
      "▁hindu": 572,
      "ember": 573,
      "▁comm": 574,
      "ajor": 575,
      "▁class": 576,
      ")\n": 577,
      "1,": 578,
      "ff": 579,
      "west": 580,
      "▁\"": 581,
      "▁end": 582,
      "erg": 583,
      "ers": 584,
      "arn": 585,
      "ath": 586,
      "▁[d": 587,
      "▁[indian": 588,
      "▁lat": 589,
      "aste": 590,
      "ritish": 591,
      "▁century": 592,
      "▁includ": 593,
      "engal": 594,
      "akistan": 595,
      "ai": 596,
      "ple": 597,
      "ond": 598,
      "▁their": 599,
      "](t": 600,
      "▁[ch": 601,
      "▁but": 602,
      "esh": 603,
      "▁fore": 604,
      "▁ext": 605,
      "omin": 606,
      "▁have": 607,
      "ament": 608,
      "▁states": 609,
      "anges": 610,
      "umb": 611,
      "ower": 612,
      "▁been": 613,
      "cont": 614,
      "▁also": 615,
      "▁increas": 616,
      "▁became": 617,
      "▁territ": 618,
      "aw": 619,
      "dern": 620,
      "e,": 621,
      "krit": 622,
      "lim": 623,
      "odi": 624,
      "ron": 625,
      "wo": 626,
      "ari": 627,
      "](g": 628,
      "▁sc": 629,
      "ition": 630,
      "▁had": 631,
      "▁national": 632,
      "▁18": 633,
      "olog": 634,
      "▁constitution": 635,
      "▁this": 636,
      "▁who": 637,
      "elhi": 638,
      "thern": 639,
      "](list": 640,
      "▁prime": 641,
      "▁number": 642,
      "continent": 643,
      "))": 644,
      "47": 645,
      "ket": 646,
      "lu": 647,
      "ty": 648,
      "ting": 649,
      "ust": 650,
      "ank": 651,
      "▁inf": 652,
      "▁there": 653,
      "](h": 654,
      "▁[f": 655,
      "▁[k": 656,
      "▁off": 657,
      "ord": 658,
      "ork": 659,
      "▁million": 660,
      "▁major": 661,
      "▁grow": 662,
      "▁hist": 663,
      "ations": 664,
      "▁|\n": 665,
      "vel": 666,
      "▁cong": 667,
      "duc": 668,
      "▁more": 669,
      "ivil": 670,
      "anskrit": 671,
      "ach": 672,
      "land": 673,
      "world": 674,
      "▁te": 675,
      "▁two": 676,
      "hed": 677,
      "ati": 678,
      "▁bet": 679,
      "▁both": 680,
      "▁mil": 681,
      "▁many": 682,
      "▁long": 683,
      "▁not": 684,
      "ild": 685,
      "urban": 686,
      "vers": 687,
      "▁ass": 688,
      "▁rate": 689,
      "▁that": 690,
      "▁195": 691,
      "▁196": 692,
      "▁most": 693,
      "▁modern": 694,
      "▁200": 695,
      "▁such": 696,
      "▁dis": 697,
      "indo-": 698,
      "ween": 699,
      "▁countries": 700,
      "▁tradition": 701,
      "▁among": 702,
      "▁years": 703,
      "form": 704,
      "▁between": 705,
      "0,": 706,
      "a\n": 707,
      "af": 708,
      "aus": 709,
      "▁ro": 710,
      "ince": 711,
      "ange": 712,
      "](indian": 713,
      "▁soc": 714,
      "ite": 715,
      "andhi": 716,
      "ions": 717,
      "▁buddh": 718,
      "▁mat": 719,
      "▁ear": 720,
      "rib": 721,
      "▁non": 722,
      "urop": 723,
      "raph": 724,
      "ement": 725,
      "theast": 726,
      "▁supp": 727,
      "▁under": 728,
      "▁[category:": 729,
      "ency": 730,
      "▁subcontinent": 731,
      "▁western": 732,
      "▁classical": 733,
      "*,": 734,
      "6,": 735,
      "au": 736,
      "adi": 737,
      "ace": 738,
      "ep": 739,
      "ft": 740,
      "ie": 741,
      "jab": 742,
      "les": 743,
      "ni": 744,
      "ta": 745,
      "▁6": 746,
      "▁en": 747,
      "▁tem": 748,
      "hen": 749,
      "▁ind": 750,
      "](ch": 751,
      "▁culture": 752,
      "red": 753,
      "▁ab": 754,
      "ories": 755,
      "▁pra": 756,
      "ics": 757,
      "▁dem": 758,
      "right": 759,
      "▁gandhi": 760,
      "aman": 761,
      "▁state": 762,
      "unjab": 763,
      "ople": 764,
      "▁devel": 765,
      "▁north": 766,
      "▁new": 767,
      "▁economy": 768,
      "ikh": 769,
      "▁population": 770,
      "versity": 771,
      "urope": 772,
      "▁develop": 773,
      "-d": 774,
      "act": 775,
      "dp": 776,
      "ram": 777,
      "▁urban": 778,
      "hem": 779,
      "alth": 780,
      "ature": 781,
      "ative": 782,
      "▁[th": 783,
      "▁civil": 784,
      "▁caus": 785,
      "▁serv": 786,
      "▁since": 787,
      "itical": 788,
      "▁app": 789,
      "▁acc": 790,
      "▁fol": 791,
      "▁india.": 792,
      "▁lit": 793,
      "rig": 794,
      "▁nation": 795,
      "old": 796,
      "ular": 797,
      "▁began": 798,
      "ically": 799,
      "liament": 800,
      "ially": 801,
      "ultan": 802,
      "ell": 803,
      "lowing": 804,
      "▁economic": 805,
      "▁largest": 806,
      "▁republic": 807,
      "▁people": 808,
      ");": 809,
      "0.": 810,
      "dar": 811,
      "fe": 812,
      "ient": 813,
      "iod": 814,
      "uj": 815,
      "ule": 816,
      "vement": 817,
      "y)": 818,
      "▁tamil": 819,
      "ered": 820,
      "art": 821,
      "att": 822,
      "▁[e": 823,
      "▁[h": 824,
      "▁cour": 825,
      "▁caste": 826,
      "▁sec": 827,
      "itary": 828,
      "▁bas": 829,
      "▁pain": 830,
      "ess": 831,
      "▁mid": 832,
      "ice": 833,
      "ley": 834,
      "asi": 835,
      "▁land": 836,
      "▁hum": 837,
      "ech": 838,
      "▁rule": 839,
      "ident": 840,
      "ird": 841,
      "able": 842,
      "▁emerg": 843,
      "▁union": 844,
      "▁all": 845,
      "ograph": 846,
      "indus": 847,
      "▁period": 848,
      "▁language),": 849,
      "▁northern": 850,
      "▁country": 851,
      "](file:": 852,
      "imalay": 853,
      "▁later": 854,
      "▁congress": 855,
      "▁liter": 856,
      "-l": 857,
      "ble": 858,
      "count": 859,
      "dle": 860,
      "ef": 861,
      "iz": 862,
      "ool": 863,
      "vent": 864,
      "▁eng": 865,
      "ins": 866,
      "▁tim": 867,
      "ali": 868,
      "dic": 869,
      "enni": 870,
      "](j": 871,
      "](k": 872,
      "▁[j": 873,
      "▁[19": 874,
      "▁col": 875,
      "▁cap": 876,
      "▁sing": 877,
      "▁sultan": 878,
      "▁pres": 879,
      "▁pakistan": 880,
      "▁famil": 881,
      "ise": 882,
      "rahm": 883,
      "utt": 884,
      "ately": 885,
      "ade": 886,
      "own": 887,
      "abl": 888,
      "▁val": 889,
      "illenni": 890,
      "s](c": 891,
      "000": 892,
      "▁central": 893,
      "ack": 894,
      "▁right": 895,
      "rough": 896,
      "▁imp": 897,
      "▁forest": 898,
      "umb|": 899,
      "▁territories": 900,
      "▁influ": 901,
      "▁mathem": 902,
      "▁non-": 903,
      "uropean": 904,
      "▁court": 905,
      "▁painting": 906,
      "illennium": 907,
      ")s": 908,
      "11": 909,
      "6%": 910,
      "bar": 911,
      "desh": 912,
      "hru": 913,
      "ii": 914,
      "ood": 915,
      "pend": 916,
      "rans": 917,
      "ti": 918,
      "vol": 919,
      "▁,": 920,
      "▁9": 921,
      "▁up": 922,
      "hes": 923,
      "▁indu": 924,
      "eration": 925,
      "arat": 926,
      "▁sch": 927,
      "ities": 928,
      "▁british": 929,
      "▁bengal": 930,
      "▁power": 931,
      "esp": 932,
      "ised": 933,
      "ashm": 934,
      "▁est": 935,
      "omen": 936,
      "ough": 937,
      "▁lif": 938,
      "ript": 939,
      "▁gdp": 940,
      "▁nuclear": 941,
      "▁12": 942,
      "ly,": 943,
      "rop": 944,
      "ett": 945,
      "▁199": 946,
      "▁1947": 947,
      "▁movement": 948,
      "s.\n": 949,
      "ism)": 950,
      "▁plain": 951,
      "▁pers": 952,
      "▁spec": 953,
      ".jpg|a": 954,
      "▁company": 955,
      "▁religion": 956,
      "▁increased": 957,
      "▁pradesh": 958,
      "▁sultanate": 959,
      "▁valley": 960,
      "▁indust": 961,
      "1.": 962,
      "24": 963,
      "3,": 964,
      "7,": 965,
      "can": 966,
      "dom": 967,
      "hat": 968,
      "ia": 969,
      "mar": 970,
      "ost": 971,
      "ose": 972,
      "rol": 973,
      "tect": 974,
      "va": 975,
      "ved": 976,
      "here": 977,
      "▁inter": 978,
      "▁these": 979,
      "ale": 980,
      "](19": 981,
      "](indo-": 982,
      "▁out": 983,
      "▁occ": 984,
      "read": 985,
      "▁some": 986,
      "▁sanskrit": 987,
      "▁act": 988,
      "▁billion": 989,
      "▁man": 990,
      "▁member": 991,
      "▁millennium": 992,
      "icial": 993,
      "▁fl": 994,
      "isl": 995,
      "ash": 996,
      "▁himalay": 997,
      "▁no": 998,
      "▁17": 999,
      "verse": 1000,
      "▁asian": 1001,
      "▁island": 1002,
      "▁than": 1003,
      "▁through": 1004,
      "life": 1005,
      "▁one": 1006,
      "▁parliament": 1007,
      "ocal": 1008,
      "s)\n": 1009,
      "argest": 1010,
      "▁contain": 1011,
      "▁asia](": 1012,
      "▁empire)": 1013,
      "▁lead": 1014,
      "▁world's": 1015,
      "roup": 1016,
      "▁plateau": 1017,
      "▁common": 1018,
      "ology": 1019,
      "▁growth": 1020,
      "▁temple": 1021,
      "▁human": 1022,
      "▁school": 1023,
      "▁species": 1024,
      "-b": 1025,
      "0%": 1026,
      "3em": 1027,
      "5.": 1028,
      "bal": 1029,
      "ck": 1030,
      "ew": 1031,
      "han": 1032,
      "ib": 1033,
      "ious": 1034,
      "kh": 1035,
      "lish": 1036,
      "ma": 1037,
      "mon": 1038,
      "pur": 1039,
      "ration": 1040,
      "s:": 1041,
      "s),": 1042,
      "ten": 1043,
      "ted": 1044,
      "ww": 1045,
      "ya": 1046,
      "yan": 1047,
      "▁ed": 1048,
      "▁tech": 1049,
      "ert": 1050,
      "ering": 1051,
      "onom": 1052,
      "▁them": 1053,
      "▁they": 1054,
      "ality": 1055,
      "ara": 1056,
      "](e": 1057,
      "▁[ar": 1058,
      "▁[un": 1059,
      "▁other": 1060,
      "▁ce": 1061,
      "▁cre": 1062,
      "▁cens": 1063,
      "rect": 1064,
      "▁sou": 1065,
      "▁sur": 1066,
      "▁sign": 1067,
      "ederal": 1068,
      "▁pre": 1069,
      "▁we": 1070,
      "es.": 1071,
      "▁main": 1072,
      "ingdom": 1073,
      "omp": 1074,
      "out": 1075,
      "▁des": 1076,
      "▁gre": 1077,
      "▁gra": 1078,
      "amp": 1079,
      "▁1.": 1080,
      "▁rec": 1081,
      "ver,": 1082,
      "ulpt": 1083,
      "cted": 1084,
      ").jpg": 1085,
      "▁198": 1086,
      "ultural": 1087,
      "▁chin": 1088,
      "▁united": 1089,
      "ock": 1090,
      "▁areas": 1091,
      "acy": 1092,
      "](mughal": 1093,
      "▁party": 1094,
      "▁contrib": 1095,
      "▁asia": 1096,
      "▁33em": 1097,
      "▁left": 1098,
      "▁nehru": 1099,
      "▁agric": 1100,
      "▁including": 1101,
      "▁history": 1102,
      "▁military": 1103,
      "▁social": 1104,
      "▁early": 1105,
      "▁caused": 1106,
      "▁following": 1107,
      "-largest": 1108,
      "countries": 1109,
      "▁capit": 1110,
      "umb|right": 1111,
      "▁mathematic": 1112,
      "▁life": 1113,
      "▁census": 1114,
      "▁33em\n": 1115,
      "-p": 1116,
      "-s": 1117,
      "2,": 1118,
      "4%": 1119,
      "5,": 1120,
      "ail": 1121,
      "eg": 1122,
      "european": 1123,
      "ever,": 1124,
      "gen": 1125,
      "i,": 1126,
      "ied": 1127,
      "line": 1128,
      "me": 1129,
      "mer": 1130,
      "national": 1131,
      "oor": 1132,
      "tt": 1133,
      "uri": 1134,
      "uries": 1135,
      "▁8": 1136,
      "▁ve": 1137,
      "▁inde": 1138,
      "▁[world": 1139,
      "▁sm": 1140,
      "▁so": 1141,
      "orn": 1142,
      "ed,": 1143,
      "▁bi": 1144,
      "▁bce": 1145,
      "▁wide": 1146,
      "▁work": 1147,
      "▁women": 1148,
      "ico": 1149,
      "▁fe": 1150,
      "▁far": 1151,
      "▁found": 1152,
      "▁india).": 1153,
      "ing,": 1154,
      "▁led": 1155,
      "▁local": 1156,
      "▁dra": 1157,
      "▁delhi": 1158,
      "▁how": 1159,
      "▁nad": 1160,
      "amm": 1161,
      "utes": 1162,
      "und": 1163,
      "angl": 1164,
      "astri": 1165,
      "▁rural": 1166,
      "aksh": 1167,
      "a](k": 1168,
      "▁kingdom": 1169,
      "lief": 1170,
      "anguage": 1171,
      "▁diversity": 1172,
      "ism),": 1173,
      "ism](h": 1174,
      "▁play": 1175,
      "▁centuries": 1176,
      ".jpg)\n": 1177,
      "harat": 1178,
      "▁relations": 1179,
      "▁spe": 1180,
      "ucation": 1181,
      "▁asia)": 1182,
      "▁marri": 1183,
      "▁coast": 1184,
      "▁cook": 1185,
      "▁election),": 1186,
      "▁raj": 1187,
      "▁political": 1188,
      "▁export": 1189,
      "▁eastern": 1190,
      "ominion": 1191,
      "▁official": 1192,
      "ording": 1193,
      "▁democ": 1194,
      "▁development": 1195,
      "▁served": 1196,
      "▁second": 1197,
      "▁literacy": 1198,
      "▁english": 1199,
      "s](category:": 1200,
      "▁influenc": 1201,
      "ashmir": 1202,
      "▁industry": 1203,
      "▁education": 1204,
      "▁however,": 1205,
      "▁nadu": 1206,
      "-e": 1207,
      "//": 1208,
      "3.": 1209,
      "4.": 1210,
      "cient": 1211,
      "ee": 1212,
      "ey": 1213,
      "fer": 1214,
      "fore": 1215,
      "ject": 1216,
      "lig": 1217,
      "man": 1218,
      "minist": 1219,
      "o,": 1220,
      "oin": 1221,
      "ps:": 1222,
      "rum": 1223,
      "tal": 1224,
      "ual": 1225,
      "war": 1226,
      "work": 1227,
      "▁ent": 1228,
      "▁esp": 1229,
      "anat": 1230,
      "▁tig": 1231,
      "▁trans": 1232,
      "er,": 1233,
      "ers,": 1234,
      "als": 1235,
      "dian": 1236,
      "▁[l": 1237,
      "▁old": 1238,
      "▁cav": 1239,
      "▁set": 1240,
      "▁shar": 1241,
      "its": 1242,
      "andaman": 1243,
      "ors": 1244,
      "▁punjab": 1245,
      "▁made": 1246,
      "iss": 1247,
      "ising": 1248,
      "ished": 1249,
      "▁india#": 1250,
      "▁india](": 1251,
      "ould": 1252,
      "▁last": 1253,
      "▁lank": 1254,
      "▁gar": 1255,
      "▁gree": 1256,
      "▁guj": 1257,
      "▁group": 1258,
      "▁hindi": 1259,
      "▁high": 1260,
      "ility": 1261,
      "rac": 1262,
      "▁rem": 1263,
      "ecut": 1264,
      "ecially": 1265,
      "very": 1266,
      "istic": 1267,
      "get": 1268,
      "emb": 1269,
      "ung": 1270,
      "ety": 1271,
      "▁arm": 1272,
      "▁rul": 1273,
      "▁three": 1274,
      "▁third": 1275,
      "abad": 1276,
      "▁193": 1277,
      "central": 1278,
      "▁(n": 1279,
      "▁vill": 1280,
      "▁ancient": 1281,
      "constitution": 1282,
      "▁diff": 1283,
      "▁direct": 1284,
      "▁emplo": 1285,
      "▁control": 1286,
      "▁sever": 1287,
      "▁muslim": 1288,
      "ricket": 1289,
      "▁administ": 1290,
      "▁decl": 1291,
      "▁us$": 1292,
      "▁used": 1293,
      "▁religious": 1294,
      "ergy": 1295,
      "arnatic": 1296,
      "▁century,": 1297,
      "▁include": 1298,
      "limate": 1299,
      "▁sculpt": 1300,
      "▁majority": 1301,
      "▁histor": 1302,
      "duced": 1303,
      "ildlife": 1304,
      "▁buddhist": 1305,
      "▁support": 1306,
      "▁energy": 1307,
      "-dram": 1308,
      "▁civilisation": 1309,
      "▁according": 1310,
      "ropical": 1311,
      "▁persian": 1312,
      "▁techn": 1313,
      "ttps:": 1314,
      "▁especially": 1315,
      "▁greek": 1316,
      "▁employ": 1317,
      "ttps://": 1318,
      "%.": 1319,
      "-f": 1320,
      "0s,": 1321,
      "200": 1322,
      "app": 1323,
      "ahar": 1324,
      "cript": 1325,
      "ez": 1326,
      "fin": 1327,
      "gar": 1328,
      "ha": 1329,
      "i),": 1330,
      "led": 1331,
      "na": 1332,
      "nam": 1333,
      "ook": 1334,
      "ped": 1335,
      "pic": 1336,
      "rat": 1337,
      "rish": 1338,
      "ratic": 1339,
      "round": 1340,
      "s\n": 1341,
      "si": 1342,
      "sar": 1343,
      "ue": 1344,
      "ually": 1345,
      "ven": 1346,
      "ward": 1347,
      "▁.\n": 1348,
      "ini": 1349,
      "ines": 1350,
      "an,": 1351,
      "ann": 1352,
      "eri": 1353,
      "ones": 1354,
      "al)": 1355,
      "atak": 1356,
      "enins": 1357,
      "▁[v": 1358,
      "▁[re": 1359,
      "▁orig": 1360,
      "▁car": 1361,
      "▁cor": 1362,
      "▁cities": 1363,
      "itect": 1364,
      "▁ac": 1365,
      "▁bu": 1366,
      "▁prom": 1367,
      "▁men": 1368,
      "▁fig": 1369,
      "leg": 1370,
      "ouse": 1371,
      "▁dy": 1372,
      "▁danc": 1373,
      "▁ge": 1374,
      "▁great": 1375,
      "▁ghat": 1376,
      "urn": 1377,
      "▁1,": 1378,
      "▁15": 1379,
      "ola": 1380,
      "olk": 1381,
      "olence": 1382,
      "eccan": 1383,
      "▁str": 1384,
      "▁stat": 1385,
      "uted": 1386,
      "utra": 1387,
      "emale": 1388,
      "angered": 1389,
      "chitect": 1390,
      "adesh": 1391,
      "etic": 1392,
      "▁rates": 1393,
      "▁range": 1394,
      "akh": 1395,
      "operation": 1396,
      "ability": 1397,
      "▁197": 1398,
      "ained": 1399,
      "▁keral": 1400,
      "liance": 1401,
      "▁animal": 1402,
      "▁[mughal": 1403,
      "▁park": 1404,
      "▁unt": 1405,
      "aryan": 1406,
      "00\n": 1407,
      "▁alliance": 1408,
      "ody": 1409,
      "odern": 1410,
      "anta": 1411,
      "ives": 1412,
      "▁jain": 1413,
      "aputra": 1414,
      "upta": 1415,
      "osed": 1416,
      "▁language)": 1417,
      "▁leg": 1418,
      "▁market": 1419,
      "▁dance-dram": 1420,
      "ific": 1421,
      "wealth": 1422,
      "▁coal": 1423,
      "▁regional": 1424,
      "vidian": 1425,
      "ight": 1426,
      "▁river),": 1427,
      "201": 1428,
      "western": 1429,
      "▁endangered": 1430,
      "umbai": 1431,
      "▁increasing": 1432,
      "ront": 1433,
      "▁whose": 1434,
      "▁milk": 1435,
      "▁assemb": 1436,
      "▁disp": 1437,
      "▁indo-": 1438,
      "▁based": 1439,
      "▁middle": 1440,
      "▁emerged": 1441,
      "▁singh": 1442,
      "▁president": 1443,
      "rahmaputra": 1444,
      "uttar": 1445,
      "▁import": 1446,
      "▁establ": 1447,
      "▁pradesh\n": 1448,
      "▁occup": 1449,
      "▁himalayas": 1450,
      "▁grew": 1451,
      ").jpg|": 1452,
      "▁independ": 1453,
      "angladesh": 1454,
      "▁speak": 1455,
      "▁caves": 1456,
      "ecutive": 1457,
      "▁technology": 1458,
      "▁origin": 1459,
      "▁figure": 1460,
      "▁assembly": 1461,
      "-m": 1462,
      "1%": 1463,
      "28": 1464,
      "4,": 1465,
      "57": 1466,
      "60": 1467,
      "8.": 1468,
      "a.": 1469,
      "ax": 1470,
      "aury": 1471,
      "cul": 1472,
      "ip": 1473,
      "jo-": 1474,
      "lal": 1475,
      "lit": 1476,
      "mit": 1477,
      "member": 1478,
      "ning": 1479,
      "nast": 1480,
      "nown": 1481,
      "ov": 1482,
      "ohen": 1483,
      "pe": 1484,
      "rin": 1485,
      "sp": 1486,
      "uk": 1487,
      "uent": 1488,
      "uary": 1489,
      "vid": 1490,
      "wn": 1491,
      "wan": 1492,
      "yam": 1493,
      "|th": 1494,
      "▁her": 1495,
      "inter": 1496,
      "anag": 1497,
      "anuary": 1498,
      "▁tri": 1499,
      "▁treat": 1500,
      "▁trib": 1501,
      "▁inst": 1502,
      "erc": 1503,
      "erial": 1504,
      "ared": 1505,
      "states": 1506,
      "stani": 1507,
      "ating": 1508,
      "](un": 1509,
      "](india": 1510,
      "](world": 1511,
      "](indus": 1512,
      "▁[a": 1513,
      "▁[di": 1514,
      "▁[indi": 1515,
      "▁[se": 1516,
      "▁[indo-": 1517,
      "▁ob": 1518,
      "▁cr": 1519,
      "▁cu": 1520,
      "▁can": 1521,
      "▁che": 1522,
      "▁cur": 1523,
      "▁often": 1524,
      "▁she": 1525,
      "▁sit": 1526,
      "▁sim": 1527,
      "▁sum": 1528,
      "andoor": 1529,
      "oro": 1530,
      "oram": 1531,
      "▁band": 1532,
      "▁bir": 1533,
      "▁bjp": 1534,
      "▁penins": 1535,
      "▁won": 1536,
      "▁when": 1537,
      "▁well": 1538,
      "▁mon": 1539,
      "▁mak": 1540,
      "▁mani": 1541,
      "▁mughal": 1542,
      "icles": 1543,
      "▁fur": 1544,
      "▁four": 1545,
      "▁federal": 1546,
      "▁front": 1547,
      "▁india.\n": 1548,
      "ouch": 1549,
      "ought": 1550,
      "outheast": 1551,
      "▁lower": 1552,
      "▁dal": 1553,
      "river": 1554,
      "▁gr": 1555,
      "▁glo": 1556,
      "▁ganges": 1557,
      "▁gold": 1558,
      "▁his": 1559,
      "▁nar": 1560,
      "▁net": 1561,
      "▁near": 1562,
      "▁nico": 1563,
      "ames": 1564,
      "ilg": 1565,
      "▁10": 1566,
      "▁reform": 1567,
      "olitical": 1568,
      "ation,": 1569,
      "rotect": 1570,
      "une": 1571,
      "angra": 1572,
      "▁2.": 1573,
      "▁architect": 1574,
      "▁ram": 1575,
      "▁rise": 1576,
      "▁indians": 1577,
      "india)": 1578,
      "tel": 1579,
      "▁within": 1580,
      "▁modi": 1581,
      "sequ": 1582,
      "▁vari": 1583,
      "▁kashmir": 1584,
      "ments": 1585,
      "constit": 1586,
      "oci": 1587,
      "s](m": 1588,
      "▁along": 1589,
      "▁file:s": 1590,
      "▁[south": 1591,
      "▁just": 1592,
      "▁january": 1593,
      "indones": 1594,
      "▁[buddh": 1595,
      "](category:": 1596,
      "](climate": 1597,
      "▁sport": 1598,
      "▁spread": 1599,
      "▁parties": 1600,
      "▁proc": 1601,
      "ameez": 1602,
      "▁comple": 1603,
      "▁shank": 1604,
      "alled": 1605,
      "herry": 1606,
      "rust": 1607,
      "▁[nuclear": 1608,
      "▁become": 1609,
      "quality": 1610,
      "▁2011": 1611,
      "▁trade": 1612,
      "▁polit": 1613,
      "▁polic": 1614,
      "▁river)": 1615,
      "▁music)": 1616,
      "ancient": 1617,
      "▁popular": 1618,
      "▁held": 1619,
      "▁health": 1620,
      "](delhi": 1621,
      "athak": 1622,
      "▁foreign": 1623,
      "amental": 1624,
      "▁territory": 1625,
      "awahar": 1626,
      "odiversity": 1627,
      "▁text": 1628,
      "▁longer": 1629,
      "▁traditional": 1630,
      "▁rock": 1631,
      "▁soci": 1632,
      "▁earli": 1633,
      "▁indus": 1634,
      "ics\n": 1635,
      "atures": 1636,
      "▁[thumb|right": 1637,
      "daro": 1638,
      "▁[hindu": 1639,
      "vention": 1640,
      "▁families": 1641,
      "▁1947,": 1642,
      "islam": 1643,
      "▁parliamentary": 1644,
      "▁asia](s": 1645,
      "ibet": 1646,
      "▁created": 1647,
      "▁southern": 1648,
      "▁signific": 1649,
      "▁desert": 1650,
      "▁gradu": 1651,
      "▁agriculture": 1652,
      "▁widely": 1653,
      "undamental": 1654,
      "anata": 1655,
      "▁tiger": 1656,
      "▁differ": 1657,
      "▁sculpture": 1658,
      "▁employed": 1659,
      "garh": 1660,
      "▁dynast": 1661,
      "▁until": 1662,
      "▁established": 1663,
      "▁independence": 1664,
      "▁speakers": 1665,
      "jo-daro": 1666,
      "ohenjo-daro": 1667,
      "▁further": 1668,
      "▁nicobar": 1669,
      "sequent": 1670,
      "constituent": 1671,
      "▁shankar": 1672,
      "awaharlal": 1673,
      "▁[thumb|right|": 1674,
      "▁significant": 1675,
      "\".": 1676,
      ")s,": 1677,
      "-c": 1678,
      "-k": 1679,
      "05": 1680,
      "17": 1681,
      "1st": 1682,
      "22": 1683,
      "3%": 1684,
      "38": 1685,
      "40": 1686,
      "6.": 1687,
      "67": 1688,
      "7%": 1689,
      "8,": 1690,
      "aith": 1691,
      "bh": 1692,
      "book": 1693,
      "c,": 1694,
      "ched": 1695,
      "ded": 1696,
      "day": 1697,
      "e.": 1698,
      "ely": 1699,
      "eign": 1700,
      "equality": 1701,
      "hindu": 1702,
      "ix": 1703,
      "jay": 1704,
      "ked": 1705,
      "ling": 1706,
      "mace": 1707,
      "nd": 1708,
      "och": 1709,
      "px": 1710,
      "per": 1711,
      "pakist": 1712,
      "public": 1713,
      "ras": 1714,
      "ss": 1715,
      "sv": 1716,
      "t,": 1717,
      "touch": 1718,
      "ued": 1719,
      "uch": 1720,
      "upp": 1721,
      "uduc": 1722,
      "val": 1723,
      "vis": 1724,
      "ving": 1725,
      "w.": 1726,
      "way": 1727,
      "xim": 1728,
      "ym": 1729,
      "y),": 1730,
      "zoro": 1731,
      "|the": 1732,
      "▁i": 1733,
      "▁ens": 1734,
      "▁0.": 1735,
      "▁ii": 1736,
      "▁uttar": 1737,
      "▁upp": 1738,
      "an)": 1739,
      "anoram": 1740,
      "▁test": 1741,
      "▁tree": 1742,
      "▁inequality": 1743,
      "eries": 1744,
      "onic": 1745,
      "ales": 1746,
      "alay": 1747,
      "alore": 1748,
      "alwar": 1749,
      "araj": 1750,
      "stru": 1751,
      "div": 1752,
      "atal": 1753,
      "ather": 1754,
      "enew": 1755,
      "](ar": 1756,
      "▁[ra": 1757,
      "▁[the": 1758,
      "▁[indus": 1759,
      "▁[its": 1760,
      "▁cal": 1761,
      "▁cro": 1762,
      "▁carnatic": 1763,
      "reme": 1764,
      "▁sun": 1765,
      "▁air": 1766,
      "orth": 1767,
      "ion,": 1768,
      "ional": 1769,
      "ions,": 1770,
      "▁bor": 1771,
      "▁bri": 1772,
      "▁bro": 1773,
      "▁back": 1774,
      "▁bharat": 1775,
      "▁port": 1776,
      "▁whe": 1777,
      "▁where": 1778,
      "▁worn": 1779,
      "▁andaman": 1780,
      "▁fil": 1781,
      "▁fun": 1782,
      "▁fest": 1783,
      "▁five": 1784,
      "▁fish": 1785,
      "▁fall": 1786,
      "ents": 1787,
      "as,": 1788,
      "ase": 1789,
      "▁eth": 1790,
      "▁every": 1791,
      "▁l.": 1792,
      "▁low": 1793,
      "▁dom": 1794,
      "rid": 1795,
      "rial": 1796,
      "rist": 1797,
      "▁gas": 1798,
      "▁hor": 1799,
      "▁hig": 1800,
      "▁hock": 1801,
      "▁now": 1802,
      "am,": 1803,
      "▁top": 1804,
      "▁total": 1805,
      "ilt": 1806,
      "iling": 1807,
      "urg": 1808,
      "th,": 1809,
      "though": 1810,
      "▁11": 1811,
      "econom": 1812,
      "ists": 1813,
      "istory": 1814,
      "▁ste": 1815,
      "ross": 1816,
      "roxim": 1817,
      "utical": 1818,
      "uscript": 1819,
      "anged": 1820,
      "angam": 1821,
      "angalore": 1822,
      "▁25": 1823,
      "adh": 1824,
      "ctive": 1825,
      "▁condu": 1826,
      "▁around": 1827,
      "▁though": 1828,
      "▁thought": 1829,
      "abian": 1830,
      "▁(g": 1831,
      "▁(19": 1832,
      "▁bel": 1833,
      "▁before": 1834,
      "▁va": 1835,
      "▁vi": 1836,
      "▁vis": 1837,
      "▁vast": 1838,
      "▁vie": 1839,
      "▁ann": 1840,
      "▁dist": 1841,
      "ity,": 1842,
      "ulti": 1843,
      "ernal": 1844,
      "▁changes": 1845,
      "ism](s": 1846,
      "▁[mah": 1847,
      "endra": 1848,
      "ively": 1849,
      "▁although": 1850,
      "pped": 1851,
      "ott": 1852,
      "▁file:p": 1853,
      "▁[sikh": 1854,
      "ants": 1855,
      "anted": 1856,
      "ival": 1857,
      "ived": 1858,
      "overeign": 1859,
      "apon": 1860,
      "▁centre": 1861,
      "ians": 1862,
      "▁dev": 1863,
      "▁[bi": 1864,
      "▁[british": 1865,
      "▁[bengal": 1866,
      "oss": 1867,
      "▁[par": 1868,
      "harmace": 1869,
      "](south": 1870,
      "ength": 1871,
      "](british": 1872,
      "](par": 1873,
      ".jpg|the": 1874,
      "▁protect": 1875,
      "▁contin": 1876,
      "▁empire](mughal": 1877,
      "▁northeast": 1878,
      "ineering": 1879,
      "▁composed": 1880,
      "▁subsequent": 1881,
      "allav": 1882,
      "▁again": 1883,
      "dev": 1884,
      "▁2026": 1885,
      "▁2026,": 1886,
      "▁election](": 1887,
      "▁[national": 1888,
      "▁regions": 1889,
      "viet": 1890,
      "▁formed": 1891,
      "▁term": 1892,
      "▁2011,": 1893,
      "soon": 1894,
      "▁languages,": 1895,
      "](nuclear": 1896,
      "▁report": 1897,
      "▁system,": 1898,
      "▁resp": 1899,
      "▁reserv": 1900,
      "▁consid": 1901,
      "▁consum": 1902,
      "▁here": 1903,
      "▁endem": 1904,
      "arnatak": 1905,
      "▁[delhi": 1906,
      "▁external": 1907,
      "▁script": 1908,
      "ological": 1909,
      "▁constitutional": 1910,
      "▁congres": 1911,
      "▁associ": 1912,
      "▁1950,": 1913,
      "▁1965": 1914,
      "ield": 1915,
      "▁about": 1916,
      "▁approxim": 1917,
      "▁nations)\n": 1918,
      "▁nations](category:": 1919,
      "articles": 1920,
      "▁basin": 1921,
      "▁time": 1922,
      "▁times": 1923,
      "▁rights": 1924,
      "▁estim": 1925,
      "](199": 1926,
      "▁containing": 1927,
      "▁leading": 1928,
      "▁commonwealth": 1929,
      "www.": 1930,
      "yanmar": 1931,
      "▁surv": 1932,
      "▁record": 1933,
      "genous": 1934,
      "▁[world's": 1935,
      "▁small": 1936,
      "ammu": 1937,
      "astrian": 1938,
      "▁marriage": 1939,
      "▁cooking": 1940,
      "▁democratic": 1941,
      "▁influenced": 1942,
      "oint": 1943,
      "▁oldest": 1944,
      "ission": 1945,
      "▁gujarat": 1946,
      "racy": 1947,
      "▁remain": 1948,
      "▁village": 1949,
      "ttps://www.": 1950,
      "rishna": 1951,
      "▁dances": 1952,
      "▁geograph": 1953,
      "▁legisl": 1954,
      "▁coalition": 1955,
      "▁president,": 1956,
      "▁important": 1957,
      "▁cuis": 1958,
      "▁summer": 1959,
      "▁birth": 1960,
      "▁peninsular": 1961,
      "▁architecture": 1962,
      "▁earliest": 1963,
      "▁different": 1964,
      "pakistani": 1965,
      "uducherry": 1966,
      "zoroastrian": 1967,
      "▁upper": 1968,
      "▁film": 1969,
      "▁view": 1970,
      "harmaceutical": 1971,
      "▁approximately": 1972,
      "--": 1973,
      "-g": 1974,
      "-re": 1975,
      "15": 1976,
      "2%": 1977,
      "26": 1978,
      "48": 1979,
      "49": 1980,
      "51": 1981,
      "7c": 1982,
      "9%": 1983,
      "9,": 1984,
      "aver": 1985,
      "aist": 1986,
      "a).": 1987,
      "air": 1988,
      "bell": 1989,
      "che": 1990,
      "com": 1991,
      "codi": 1992,
      "eval": 1993,
      "g,": 1994,
      "gu": 1995,
      "gre": 1996,
      "gani": 1997,
      "gress": 1998,
      "has": 1999,
      "ham": 2000,
      "hangra": 2001,
      "iri": 2002,
      "ira": 2003,
      "iber": 2004,
      "ken": 2005,
      "kim": 2006,
      "la": 2007,
      "lam": 2008,
      "list": 2009,
      "lus": 2010,
      "lay": 2011,
      "lac": 2012,
      "lass": 2013,
      "lack": 2014,
      "m,": 2015,
      "min": 2016,
      "o.": 2017,
      "other": 2018,
      "phere": 2019,
      "ran": 2020,
      "sl": 2021,
      "s).": 2022,
      "tra": 2023,
      "tropical": 2024,
      "uber": 2025,
      "wat": 2026,
      "wildlife": 2027,
      "yth": 2028,
      "ya](": 2029,
      "ze": 2030,
      "zation": 2031,
      "▁.": 2032,
      "▁ir": 2033,
      "inc": 2034,
      "inning": 2035,
      "andi": 2036,
      "anch": 2037,
      "▁turn": 2038,
      "▁tax": 2039,
      "▁tibet": 2040,
      "hest": 2041,
      "head": 2042,
      "▁ins": 2043,
      "▁invol": 2044,
      "one": 2045,
      "alli": 2046,
      "arg": 2047,
      "aran": 2048,
      "aries": 2049,
      "sted": 2050,
      "dis": 2051,
      "diction": 2052,
      "diately": 2053,
      "dieval": 2054,
      "atri": 2055,
      "atical": 2056,
      "atma": 2057,
      "ataraj": 2058,
      "ened": 2059,
      "](v": 2060,
      "](re": 2061,
      "](th": 2062,
      "](ra": 2063,
      "▁[st": 2064,
      "▁[or": 2065,
      "▁[20": 2066,
      "▁[west": 2067,
      "▁[andaman": 2068,
      "▁[central": 2069,
      "▁oly": 2070,
      "▁oce": 2071,
      "▁coun": 2072,
      "▁cup": 2073,
      "▁creat": 2074,
      "▁cricket": 2075,
      "▁called": 2076,
      "▁crust": 2077,
      "republic": 2078,
      "▁sri": 2079,
      "▁sab": 2080,
      "▁shi": 2081,
      "▁sect": 2082,
      "▁sik": 2083,
      "▁sari": 2084,
      "▁saf": 2085,
      "▁sikh": 2086,
      "itat": 2087,
      "and\n": 2088,
      "anding": 2089,
      "▁aver": 2090,
      "▁age": 2091,
      "▁a7c": 2092,
      "oral": 2093,
      "orter": 2094,
      "▁indira": 2095,
      "▁indigenous": 2096,
      "ion)": 2097,
      "edabad": 2098,
      "▁bron": 2099,
      "▁body": 2100,
      "▁bott": 2101,
      "▁pal": 2102,
      "▁pri": 2103,
      "▁public": 2104,
      "▁pred": 2105,
      "▁writ": 2106,
      "▁wear": 2107,
      "▁wildlife": 2108,
      "▁waist": 2109,
      "▁mal": 2110,
      "▁mig": 2111,
      "▁map": 2112,
      "▁mumbai": 2113,
      "ict": 2114,
      "ices": 2115,
      "▁fr": 2116,
      "▁flow": 2117,
      "▁fact": 2118,
      "isdiction": 2119,
      "▁india](p": 2120,
      "ings": 2121,
      "asure": 2122,
      "asian": 2123,
      "▁equ": 2124,
      "▁epic": 2125,
      "▁elit": 2126,
      "▁lo": 2127,
      "▁lim": 2128,
      "▁lay": 2129,
      "▁liber": 2130,
      "▁do": 2131,
      "▁der": 2132,
      "▁det": 2133,
      "▁del": 2134,
      "▁gate": 2135,
      "▁gard": 2136,
      "▁hot": 2137,
      "▁nag": 2138,
      "▁name": 2139,
      "▁nomin": 2140,
      "amb": 2141,
      "▁took": 2142,
      "ili": 2143,
      "urch": 2144,
      "urdu": 2145,
      "urisdiction": 2146,
      "▁13": 2147,
      "ravidian": 2148,
      "▁relief": 2149,
      "▁refer": 2150,
      "▁reduced": 2151,
      "▁rebell": 2152,
      "olid": 2153,
      "igin": 2154,
      "cept": 2155,
      "ute": 2156,
      "uture": 2157,
      "uled": 2158,
      "emble": 2159,
      "change": 2160,
      "▁ash": 2161,
      "ades": 2162,
      "adwe": 2163,
      "etry": 2164,
      "▁renew": 2165,
      "iddle": 2166,
      "▁thar": 2167,
      "aking": 2168,
      "akbar": 2169,
      "ably": 2170,
      "abitat": 2171,
      "duction": 2172,
      "▁(c": 2173,
      "▁(india)": 2174,
      "ains": 2175,
      "▁being": 2176,
      "▁below": 2177,
      "▁moist": 2178,
      "a](g": 2179,
      "a](h": 2180,
      "s.jpg": 2181,
      "▁styles": 2182,
      "sease": 2183,
      "ritsar": 2184,
      "▁vict": 2185,
      "jput": 2186,
      "▁known": 2187,
      "▁kathak": 2188,
      "lied": 2189,
      "▁diverse": 2190,
      "▁disease": 2191,
      "ulting": 2192,
      "▁char": 2193,
      "▁chand": 2194,
      "▁change": 2195,
      "▁champ": 2196,
      "elf": 2197,
      "elag": 2198,
      "▁[modern": 2199,
      "▁organi": 2200,
      "hib": 2201,
      "hip": 2202,
      "ocial": 2203,
      "s](indian": 2204,
      "ender": 2205,
      "resent": 2206,
      "▁file:b": 2207,
      "▁file:c": 2208,
      "▁[sanskrit": 2209,
      "▁place": 2210,
      "aving": 2211,
      "avira": 2212,
      "ogam": 2213,
      "iving": 2214,
      "overty": 2215,
      "▁jurisdiction": 2216,
      "ianity": 2217,
      "ortality": 2218,
      "▁depend": 2219,
      "▁defin": 2220,
      "upt": 2221,
      "▁exc": 2222,
      "▁executive": 2223,
      "osis": 2224,
      "osition": 2225,
      "osphere": 2226,
      "▁[pakistan": 2227,
      "▁[punjab": 2228,
      "ectanc": 2229,
      "▁perform": 2230,
      "assin": 2231,
      "harkh": 2232,
      "](caste": 2233,
      "](sanskrit": 2234,
      "▁relation": 2235,
      "](bi": 2236,
      "](buddh": 2237,
      "](bengal": 2238,
      "](punjab": 2239,
      "▁partic": 2240,
      "▁aff": 2241,
      "▁produc": 2242,
      "▁project": 2243,
      "▁**": 2244,
      "▁*p": 2245,
      "▁clim": 2246,
      "▁cloth": 2247,
      "▁sept": 2248,
      "▁art,": 2249,
      "▁30": 2250,
      "ine,": 2251,
      "ified": 2252,
      "▁show": 2253,
      "▁shastri": 2254,
      "▁intro": 2255,
      "▁gener": 2256,
      "▁agency": 2257,
      "▁ago.": 2258,
      "▁governments": 2259,
      "▁election).": 2260,
      "▁syn": 2261,
      "hmedabad": 2262,
      "vijay": 2263,
      "▁[gen": 2264,
      "▁[ganges": 2265,
      "▁decades": 2266,
      "▁2018": 2267,
      "▁poll": 2268,
      "ervation": 2269,
      "▁languages)": 2270,
      "sha": 2271,
      "ganisation": 2272,
      "▁50": 2273,
      "▁use": 2274,
      "▁image": 2275,
      "▁imme": 2276,
      "▁resulting": 2277,
      "▁consolid": 2278,
      "▁religions": 2279,
      "▁7.": 2280,
      "](deccan": 2281,
      "▁primary": 2282,
      "▁minister.": 2283,
      "▁meat": 2284,
      "▁medic": 2285,
      "▁medieval": 2286,
      "▁hinduism": 2287,
      "▁hindustani": 2288,
      "▁commerc": 2289,
      "ffect": 2290,
      "arna": 2291,
      "athur": 2292,
      "▁[dominion": 2293,
      "ondwan": 2294,
      "▁extant": 2295,
      "▁extens": 2296,
      "▁growing": 2297,
      "achal": 2298,
      "▁tea": 2299,
      "▁traditionally": 2300,
      "formation": 2301,
      "0,000": 2302,
      "▁[category:countries": 2303,
      "▁subcontinent)": 2304,
      "adiverse": 2305,
      "▁enact": 2306,
      "▁pract": 2307,
      "▁demograph": 2308,
      "▁gandhi)": 2309,
      "▁developed": 2310,
      "▁appear": 2311,
      "rigonom": 2312,
      "liamentary": 2313,
      "artition": 2314,
      "attle": 2315,
      "▁secular": 2316,
      "▁mid-": 2317,
      "▁rule.": 2318,
      "▁emergency": 2319,
      "▁engineering": 2320,
      "▁[jain": 2321,
      "▁coll": 2322,
      "▁colon": 2323,
      "▁single": 2324,
      "▁family": 2325,
      "▁influence": 2326,
      "volution": 2327,
      "hess": 2328,
      "](indo-pakistani": 2329,
      "▁manuscript": 2330,
      "▁flut": 2331,
      "▁commonly": 2332,
      "▁species,": 2333,
      "▁[united": 2334,
      "▁weapon": 2335,
      "▁china": 2336,
      "▁areas.": 2337,
      "▁contribution": 2338,
      "▁agricultural": 2339,
      "umb|right](file:": 2340,
      "ailand": 2341,
      "egadiverse": 2342,
      "uridar": 2343,
      "▁veget": 2344,
      "▁features": 2345,
      "akshadwe": 2346,
      "▁kingdoms": 2347,
      "ism](hindu": 2348,
      "ism](history": 2349,
      "▁cooked": 2350,
      "▁democracy": 2351,
      "▁share": 2352,
      "▁lankan": 2353,
      "▁garment": 2354,
      "▁several": 2355,
      "▁historical": 2356,
      "▁across": 2357,
      "▁built": 2358,
      "▁greater": 2359,
      "olkat": 2360,
      "▁kerala": 2361,
      "▁dance-dramas": 2362,
      "culosis": 2363,
      "spot": 2364,
      "|thumb|right](file:": 2365,
      "international": 2366,
      "anagara": 2367,
      "](india–": 2368,
      "▁curr": 2369,
      "▁makes": 2370,
      "▁global": 2371,
      "▁network": 2372,
      "rotected": 2373,
      "indonesi": 2374,
      "▁society": 2375,
      "▁[hinduism](hindu": 2376,
      "▁gradually": 2377,
      "touchability": 2378,
      "▁border": 2379,
      "▁broad": 2380,
      "▁festival": 2381,
      "ristianity": 2382,
      "▁highest": 2383,
      "▁hockey": 2384,
      "economic": 2385,
      "▁conducted": 2386,
      "▁violence": 2387,
      "overeignty": 2388,
      "▁continued": 2389,
      "▁reserves": 2390,
      "▁estimated": 2391,
      "▁recorded": 2392,
      "▁cuisine": 2393,
      "averi": 2394,
      "lassical": 2395,
      "lackb": 2396,
      "uberculosis": 2397,
      "▁olym": 2398,
      "▁sector": 2399,
      "▁sikkim": 2400,
      "▁bottom": 2401,
      "▁garden": 2402,
      "▁hotspot": 2403,
      "▁rebellion": 2404,
      "▁organization": 2405,
      "▁[sanskrit](sanskrit": 2406,
      "▁september": 2407,
      "vijayanagara": 2408,
      "▁immediately": 2409,
      "▁commercial": 2410,
      "▁enacted": 2411,
      "akshadweep": 2412,
      "%,": 2413,
      ")),": 2414,
      ")s.": 2415,
      "*.": 2416,
      "-h": 2417,
      "-w": 2418,
      "-y": 2419,
      "-te": 2420,
      ".g": 2421,
      ".og": 2422,
      "10": 2423,
      "2\n": 2424,
      "2)": 2425,
      "2.": 2426,
      "23": 2427,
      "25": 2428,
      "3\n": 2429,
      "36": 2430,
      "5\n": 2431,
      "5%": 2432,
      "62": 2433,
      "71": 2434,
      "8%": 2435,
      "80": 2436,
      "81": 2437,
      "84": 2438,
      "9.": 2439,
      "az": 2440,
      "aic": 2441,
      "aem": 2442,
      "aud": 2443,
      "a*,": 2444,
      "bc": 2445,
      "bi": 2446,
      "back": 2447,
      "ced": 2448,
      "ces": 2449,
      "cil": 2450,
      "category:": 2451,
      "crim": 2452,
      "cutt": 2453,
      "da": 2454,
      "del": 2455,
      "dance": 2456,
      "ex": 2457,
      "eol": 2458,
      "ground": 2459,
      "hut": 2460,
      "hau": 2461,
      "house": 2462,
      "i)": 2463,
      "i.": 2464,
      "iary": 2465,
      "ji": 2466,
      "kani": 2467,
      "len": 2468,
      "lated": 2469,
      "les,": 2470,
      "lock": 2471,
      "language": 2472,
      "lung": 2473,
      "ms": 2474,
      "men": 2475,
      "mad": 2476,
      "ne": 2477,
      "ner": 2478,
      "nic": 2479,
      "new": 2480,
      "oo": 2481,
      "ox": 2482,
      "ove": 2483,
      "oetic": 2484,
      "pa": 2485,
      "pal": 2486,
      "pro": 2487,
      "post": 2488,
      "prol": 2489,
      "ring": 2490,
      "rative": 2491,
      "rising": 2492,
      "tre": 2493,
      "turn": 2494,
      "u,": 2495,
      "ug": 2496,
      "ues": 2497,
      "uous": 2498,
      "vanc": 2499,
      "wh": 2500,
      "wal": 2501,
      "wani": 2502,
      "women": 2503,
      "xist": 2504,
      "y\n": 2505,
      "y,": 2506,
      "yp": 2507,
      "y](": 2508,
      "yder": 2509,
      "ārat": 2510,
      "–india": 2511,
      "–201": 2512,
      "—s": 2513,
      "▁+": 2514,
      "▁0": 2515,
      "▁z": 2516,
      "▁er": 2517,
      "▁qu": 2518,
      "▁very": 2519,
      "inf": 2520,
      "inor": 2521,
      "ining": 2522,
      "inct": 2523,
      "ina](": 2524,
      "ana": 2525,
      "anies": 2526,
      "ana,": 2527,
      "animal": 2528,
      "▁ten": 2529,
      "▁tit": 2530,
      "▁tel": 2531,
      "▁tect": 2532,
      "▁taj": 2533,
      "hel": 2534,
      "▁init": 2535,
      "▁institution": 2536,
      "eror": 2537,
      "erly": 2538,
      "erch": 2539,
      "ers](": 2540,
      "erous": 2541,
      "onkani": 2542,
      "▁then": 2543,
      "▁theory": 2544,
      "alam": 2545,
      "ar,": 2546,
      "arb": 2547,
      "arian": 2548,
      "arati": 2549,
      "arendra": 2550,
      "stan": 2551,
      "dict": 2552,
      "aten": 2553,
      "atpur": 2554,
      "enhouse": 2555,
      "](te": 2556,
      "](ass": 2557,
      "](west": 2558,
      "](river": 2559,
      "](islam": 2560,
      "](wildlife": 2561,
      "▁[r": 2562,
      "▁[am": 2563,
      "▁[te": 2564,
      "▁[india": 2565,
      "▁[va": 2566,
      "▁[constitution": 2567,
      "▁[river": 2568,
      "▁[ancient": 2569,
      "▁[constituent": 2570,
      "▁[dev": 2571,
      "▁[indonesi": 2572,
      "▁op": 2573,
      "▁opp": 2574,
      "▁crit": 2575,
      "▁cli": 2576,
      "▁came": 2577,
      "▁cultural": 2578,
      "▁could": 2579,
      "▁cym": 2580,
      "▁city,": 2581,
      "▁cattle": 2582,
      "▁chess": 2583,
      "ret": 2584,
      "ream": 2585,
      "reement": 2586,
      "▁sa": 2587,
      "▁san": 2588,
      "▁sal": 2589,
      "▁som": 2590,
      "▁sem": 2591,
      "▁sav": 2592,
      "▁slow": 2593,
      "▁siz": 2594,
      "▁sett": 2595,
      "▁six": 2596,
      "itud": 2597,
      "itated": 2598,
      "ither": 2599,
      "ands": 2600,
      "▁ak": 2601,
      "ortheast": 2602,
      "▁bah": 2603,
      "▁bread": 2604,
      "▁bangladesh": 2605,
      "▁bangalore": 2606,
      "▁p.": 2607,
      "▁pur": 2608,
      "▁pet": 2609,
      "▁pilg": 2610,
      "▁panoram": 2611,
      "▁puducherry": 2612,
      "▁pharmaceutical": 2613,
      "▁poverty": 2614,
      "▁went": 2615,
      "▁wet": 2616,
      "▁wind": 2617,
      "▁would": 2618,
      "es\n": 2619,
      "ese": 2620,
      "▁mang": 2621,
      "▁may": 2622,
      "▁mount": 2623,
      "▁mi,": 2624,
      "▁much": 2625,
      "▁madh": 2626,
      "▁merch": 2627,
      "icken": 2628,
      "▁fin": 2629,
      "▁fast": 2630,
      "▁fac": 2631,
      "▁food": 2632,
      "▁fash": 2633,
      "▁faith": 2634,
      "▁future": 2635,
      "▁foetic": 2636,
      "lege": 2637,
      "is,": 2638,
      "isen": 2639,
      "ises": 2640,
      "▁india).\n": 2641,
      "▁india](d": 2642,
      "▁india](h": 2643,
      "▁india](south": 2644,
      "asar": 2645,
      "▁each": 2646,
      "▁european": 2647,
      "▁eight": 2648,
      "▁effect": 2649,
      "▁eaten": 2650,
      "omm": 2651,
      "omy": 2652,
      "oming": 2653,
      "▁lab": 2654,
      "▁lies": 2655,
      "▁lik": 2656,
      "▁law": 2657,
      "▁lib": 2658,
      "▁loss": 2659,
      "▁dh": 2660,
      "▁den": 2661,
      "▁due": 2662,
      "▁go": 2663,
      "▁god": 2664,
      "▁govern": 2665,
      "▁gave": 2666,
      "▁good": 2667,
      "▁har": 2668,
      "▁him": 2669,
      "▁hub": 2670,
      "▁having": 2671,
      "am)": 2672,
      "ample": 2673,
      "▁toward": 2674,
      "▁town": 2675,
      "▁today": 2676,
      "ilar": 2677,
      "ilway": 2678,
      "urt": 2679,
      "urred": 2680,
      "urasi": 2681,
      "urasian": 2682,
      "▁16": 2683,
      "▁real": 2684,
      "▁rest": 2685,
      "▁reor": 2686,
      "▁recent": 2687,
      "▁reac": 2688,
      "▁reven": 2689,
      "▁revolution": 2690,
      "▁return": 2691,
      "oli": 2692,
      "oll": 2693,
      "olo": 2694,
      "olent": 2695,
      "igar": 2696,
      "▁still": 2697,
      "room": 2698,
      "rock": 2699,
      "ulk": 2700,
      "uls": 2701,
      "emoc": 2702,
      "▁-2\n": 2703,
      "union": 2704,
      "united": 2705,
      "ush": 2706,
      "used": 2707,
      "usic": 2708,
      "uslim": 2709,
      "chin": 2710,
      "imes": 2711,
      "▁26": 2712,
      "▁26,": 2713,
      "▁26%": 2714,
      "adur": 2715,
      "adra": 2716,
      "adem": 2717,
      "etric": 2718,
      "etah": 2719,
      "etimes": 2720,
      "▁isol": 2721,
      "▁islam": 2722,
      "▁conf": 2723,
      "▁rich": 2724,
      "▁rup": 2725,
      "▁rather": 2726,
      "iding": 2727,
      "umber": 2728,
      "▁those": 2729,
      "ithic": 2730,
      "ake": 2731,
      "akti": 2732,
      "centage": 2733,
      "▁(e": 2734,
      "▁belief": 2735,
      "▁moh": 2736,
      "romise": 2737,
      "a](c": 2738,
      "a](m": 2739,
      "a](p": 2740,
      "a](ar": 2741,
      "▁ved": 2742,
      "▁vide": 2743,
      "jpay": 2744,
      "estic": 2745,
      "▁kh": 2746,
      "▁kill": 2747,
      "▁kameez": 2748,
      "▁karnatak": 2749,
      "▁krishna": 2750,
      "▁km,": 2751,
      "-aligned": 2752,
      "▁emb": 2753,
      "▁any": 2754,
      "▁another": 2755,
      "▁chos": 2756,
      "▁chandi": 2757,
      "ism](j": 2758,
      "ism](buddh": 2759,
      "▁[maury": 2760,
      "▁[mohenjo-daro": 2761,
      "▁order": 2762,
      "eralisation": 2763,
      "hi,": 2764,
      "s](f": 2765,
      "ends": 2766,
      "▁file:g": 2767,
      "oda": 2768,
      "▁[caste": 2769,
      "▁[civil": 2770,
      "▁[comp": 2771,
      "▁[southeast": 2772,
      "▁plant": 2773,
      "ogn": 2774,
      "ivity": 2775,
      "▁jac": 2776,
      "▁jawaharlal": 2777,
      "▁jammu": 2778,
      "aps": 2779,
      "▁emperor": 2780,
      "indh": 2781,
      "▁def": 2782,
      "▁devi": 2783,
      "▁defe": 2784,
      "](mah": 2785,
      "](mohenjo-daro": 2786,
      "▁[brahm": 2787,
      "▁exchange": 2788,
      "▁example": 2789,
      "osi": 2790,
      "▁income": 2791,
      "a)s": 2792,
      "▁percentage": 2793,
      "assing": 2794,
      "](co": 2795,
      "](comp": 2796,
      "▁relative": 2797,
      "](pro": 2798,
      "](pakistan": 2799,
      "](political": 2800,
      "▁parts": 2801,
      "▁partition": 2802,
      "o-operation": 2803,
      "▁afric": 2804,
      "ajanta": 2805,
      "~": 2806,
      "ం": 2807,
      "ః": 2808,
      "అ": 2809,
      "ఆ": 2810,
      "ఇ": 2811,
      "ఈ": 2812,
      "ఉ": 2813,
      "ఋ": 2814,
      "ఎ": 2815,
      "ఏ": 2816,
      "ఐ": 2817,
      "ఒ": 2818,
      "ఓ": 2819,
      "ఔ": 2820,
      "క": 2821,
      "ఖ": 2822,
      "గ": 2823,
      "ఘ": 2824,
      "చ": 2825,
      "ఛ": 2826,
      "జ": 2827,
      "ఞ": 2828,
      "ట": 2829,
      "ఠ": 2830,
      "డ": 2831,
      "ఢ": 2832,
      "ణ": 2833,
      "త": 2834,
      "థ": 2835,
      "ద": 2836,
      "ధ": 2837,
      "న": 2838,
      "ప": 2839,
      "ఫ": 2840,
      "బ": 2841,
      "భ": 2842,
      "మ": 2843,
      "య": 2844,
      "ర": 2845,
      "ల": 2846,
      "ళ": 2847,
      "వ": 2848,
      "శ": 2849,
      "ష": 2850,
      "స": 2851,
      "హ": 2852,
      "ా": 2853,
      "ి": 2854,
      "ీ": 2855,
      "ు": 2856,
      "ూ": 2857,
      "ృ": 2858,
      "ె": 2859,
      "ే": 2860,
      "ై": 2861,
      "ొ": 2862,
      "ో": 2863,
      "ౌ": 2864,
      "్": 2865,
      "‌": 2866,
      "్ర": 2867,
      "ార": 2868,
      "▁ప": 2869,
      "లు": 2870,
      "స్": 2871,
      "్య": 2872,
      "లో": 2873,
      "భార": 2874,
      "భారత": 2875,
      "▁క": 2876,
      "▁వ": 2877,
      "దే": 2878,
      "న్": 2879,
      "▁స": 2880,
      "దేశ": 2881,
      "ర్": 2882,
      "ది": 2883,
      "ాల": 2884,
      "▁మ": 2885,
      "ిం": 2886,
      "ిక": 2887,
      "▁ర": 2888,
      "ాలు": 2889,
      "▁ప్ర": 2890,
      "న్న": 2891,
      "త్ర": 2892,
      "▁అ": 2893,
      "గా": 2894,
      "ీయ": 2895,
      "▁జ": 2896,
      "▁భారత": 2897,
      "క్": 2898,
      "ాత": 2899,
      "ని": 2900,
      "▁ఉ": 2901,
      "ది.": 2902,
      "ము": 2903,
      "ాయ": 2904,
      "దేశం": 2905,
      "కు": 2906,
      "ాన": 2907,
      "్ట": 2908,
      "ల్": 2909,
      "ండ": 2910,
      "ద్": 2911,
      "▁చ": 2912,
      "తి": 2913,
      "▁న": 2914,
      "త్": 2915,
      "ంగ": 2916,
      "రి": 2917,
      "ిన": 2918,
      "▁ఇ": 2919,
      "స్థ": 2920,
      "ులు": 2921,
      "▁ఆ": 2922,
      "స్త": 2923,
      "ించ": 2924,
      "తం": 2925,
      "▁ద": 2926,
      "ను": 2927,
      "వి": 2928,
      "ాష": 2929,
      "ాజ": 2930,
      "ైన": 2931,
      "రు": 2932,
      "](భారత": 2933,
      "ంట": 2934,
      "▁భారతదేశం": 2935,
      "▁త": 2936,
      "▁వి": 2937,
      "ాయి": 2938,
      "▁భ": 2939,
      "క్ష": 2940,
      "ాం": 2941,
      "ార్": 2942,
      "స్త్ర": 2943,
      "▁సం": 2944,
      "ింది.": 2945,
      "ంది.": 2946,
      "ధిక": 2947,
      "పు": 2948,
      "▁గ": 2949,
      "ంలో": 2950,
      "టి": 2951,
      "ామ": 2952,
      "▁బ": 2953,
      "▁శ": 2954,
      "▁జాత": 2955,
      "ం:": 2956,
      "యా": 2957,
      "ూడ": 2958,
      "▁ఎ": 2959,
      "▁ఉన్న": 2960,
      "ంగా": 2961,
      "ాబ": 2962,
      "్చ": 2963,
      "▁[భారత": 2964,
      "▁జాతీయ": 2965,
      "ద్ర": 2966,
      "ంచ": 2967,
      "ప్ర": 2968,
      "లి": 2969,
      "ిత": 2970,
      "ారు": 2971,
      "ం](": 2972,
      "ట్ట": 2973,
      "్ట్ర": 2974,
      "ల్ల": 2975,
      "ాష్ట్ర": 2976,
      "తో": 2977,
      "ాన్": 2978,
      "ద్ధ": 2979,
      "చ్చ": 2980,
      "్ల": 2981,
      "స్వ": 2982,
      "▁రాజ": 2983,
      "ం)": 2984,
      "దు": 2985,
      "ాక": 2986,
      "నా": 2987,
      "నే": 2988,
      "▁దేశ": 2989,
      "్యవ": 2990,
      "త్వ": 2991,
      "్మ": 2992,
      "▁మత": 2993,
      "ాయి.": 2994,
      ".j": 2995,
      "డు": 2996,
      "తర": 2997,
      "సి": 2998,
      "▁లో": 2999,
      "్రీ": 3000,
      "▁కూడ": 3001,
      "ింద": 3002,
      "ండి": 3003,
      "స్త్రం:": 3004,
      ".jp": 3005,
      "ఖ్య": 3006,
      "ణా": 3007,
      "▁దేశం": 3008,
      "▁ఈ": 3009,
      "▁ఒ": 3010,
      "▁స్థ": 3011,
      "్యం": 3012,
      "తు": 3013,
      "▁ల": 3014,
      "▁[క": 3015,
      "](భారతీయ": 3016,
      "50": 3017,
      "గు": 3018,
      "పాల": 3019,
      "హింద": 3020,
      "▁[స": 3021,
      "▁పే": 3022,
      "ర్వ": 3023,
      "▁రై": 3024,
      "్యవస్థ": 3025,
      "ht": 3026,
      "టు": 3027,
      "డ్": 3028,
      "పంచ": 3029,
      "మైన": 3030,
      "▁కా": 3031,
      "ికి": 3032,
      "▁ప్రాం": 3033,
      "▁ఒక": 3034,
      "ంత్ర": 3035,
      "డి": 3036,
      "ధాన": 3037,
      "పా": 3038,
      "్‌": 3039,
      "▁ని": 3040,
      "ాలు,": 3041,
      "▁అధిక": 3042,
      "ంబ": 3043,
      "ధ్య": 3044,
      "మా": 3045,
      "రణ": 3046,
      "ారి": 3047,
      "](క": 3048,
      "దిన": 3049,
      "▁రాష్ట్ర": 3050,
      "ాలు\n": 3051,
      "▁ఉంది.": 3052,
      "▁దస్త్రం:": 3053,
      "భా": 3054,
      "వా": 3055,
      "▁మొ": 3056,
      "▁భారతదేశ": 3057,
      "క్షి": 3058,
      "▁ప్రాంత": 3059,
      ")లో": 3060,
      "ంద్ర": 3061,
      "ష్": 3062,
      "ిల్ల": 3063,
      "ెండ": 3064,
      "▁స్వ": 3065,
      "▁[ప": 3066,
      "▁వ్యవస్థ": 3067,
      "▁ము": 3068,
      "న్ని": 3069,
      "▁ఎన్న": 3070,
      ".jpg\n": 3071,
      "హిందూ": 3072,
      "గో": 3073,
      "ట్": 3074,
      "ిస్త": 3075,
      "ీ](": 3076,
      "▁ఏ": 3077,
      "ారం": 3078,
      "▁[జ": 3079,
      "స్క": 3080,
      "▁కే": 3081,
      "ాల్": 3082,
      "▁భాష": 3083,
      "▁మతము": 3084,
      "://": 3085,
      "co": 3086,
      "tp": 3087,
      "ర్య": 3088,
      "వే": 3089,
      "ావ": 3090,
      "ిన్న": 3091,
      "్రి": 3092,
      "](జ": 3093,
      "](స": 3094,
      "▁[మ": 3095,
      "▁మార్": 3096,
      "ానికి": 3097,
      "ద్ద": 3098,
      "▁భారతదేశంలో": 3099,
      "▁శా": 3100,
      "▁[భారతీయ": 3101,
      "▁దేశాల": 3102,
      "http": 3103,
      "గర": 3104,
      "ప్": 3105,
      "యు": 3106,
      "రా": 3107,
      "ుక": 3108,
      "ార్ట": 3109,
      "](ప": 3110,
      "▁పరి": 3111,
      "▁పార్ట": 3112,
      "▁వచ్చ": 3113,
      "▁మధ్య": 3114,
      "▁ప్రజ": 3115,
      "▁ప్రపంచ": 3116,
      "▁చె": 3117,
      "▁ఇది": 3118,
      "సియా": 3119,
      "▁స్థాన": 3120,
      "▁మార్గ": 3121,
      "http://": 3122,
      "ంక": 3123,
      "ం),": 3124,
      "త్య": 3125,
      "దాయ": 3126,
      "మి": 3127,
      "వు": 3128,
      "▁[బ": 3129,
      "▁పు": 3130,
      "▁కలి": 3131,
      "▁క్రీ": 3132,
      "▁సామ": 3133,
      "క్కు": 3134,
      "▁ఆర్": 3135,
      "ారు.": 3136,
      "నాభా": 3137,
      "▁కూడా": 3138,
      "▁పేరు": 3139,
      "▁పార్టీ": 3140,
      "of": 3141,
      "ఢిల్ల": 3142,
      "పతి": 3143,
      "మే": 3144,
      "రాష్ట్ర": 3145,
      "వర్": 3146,
      "ిమ": 3147,
      "ీన": 3148,
      "ుల": 3149,
      "ెద్ద": 3150,
      "్రమ": 3151,
      "](ద": 3152,
      "లు)": 3153,
      "్యా": 3154,
      "లోని": 3155,
      "▁కో": 3156,
      "▁సంగ": 3157,
      "▁జాబ": 3158,
      "▁చే": 3159,
      "▁ను": 3160,
      "తంత్ర": 3161,
      "▁గల": 3162,
      "▁ఉన్నాయి.": 3163,
      "ాబ్": 3164,
      "ితా": 3165,
      "▁రైలు": 3166,
      "స్కృ": 3167,
      "▁కేంద్ర": 3168,
      "▁క్రీడ": 3169,
      "▁సంగీ": 3170,
      "▁జాబితా": 3171,
      "ం,": 3172,
      "ంధ": 3173,
      "గ్": 3174,
      "టె": 3175,
      "ాధ": 3176,
      "ీర్": 3177,
      "](http://": 3178,
      "▁[చ": 3179,
      "▁పట్ట": 3180,
      "▁కాల": 3181,
      "▁ప్రధాన": 3182,
      "▁అయ": 3183,
      "ముద్ర": 3184,
      "ించింది.": 3185,
      "▁భా": 3186,
      "క్షిణ": 3187,
      "260": 3188,
      "▁చెం": 3189,
      "▁50px": 3190,
      "nt": 3191,
      "గి": 3192,
      "బడ": 3193,
      "భు": 3194,
      "సు": 3195,
      "హద": 3196,
      "ాహ": 3197,
      "ెలు": 3198,
      "్వ": 3199,
      "▁–": 3200,
      "](చ": 3201,
      "](బ": 3202,
      "▁పర": 3203,
      "▁పా": 3204,
      "▁సాం": 3205,
      "▁రహద": 3206,
      "▁ప్రా": 3207,
      "▁ప్రభు": 3208,
      "క్క": 3209,
      "▁ఉప": 3210,
      "▁ఉత్": 3211,
      "ంగ్ల": 3212,
      "▁ఇతర": 3213,
      "స్తు": 3214,
      "ించిన": 3215,
      "ైనా": 3216,
      "▁అధికార": 3217,
      "▁మొద": 3218,
      "క్కువ": 3219,
      "▁ప్రభుత్వ": 3220,
      "కీయ": 3221,
      "గిన": 3222,
      "ట్ల": 3223,
      "ణి": 3224,
      "దర": 3225,
      "లలో": 3226,
      "ీ,": 3227,
      "ుకు": 3228,
      "ెంగ": 3229,
      "్రె": 3230,
      "ారులు": 3231,
      "](మ": 3232,
      "▁[అ": 3233,
      "▁పాల": 3234,
      "▁కొ": 3235,
      "▁కార": 3236,
      "▁వే": 3237,
      "▁వంట": 3238,
      "▁సభ": 3239,
      "ిక్": 3240,
      "▁రెండ": 3241,
      "▁జనాభా": 3242,
      "▁భారతీయ": 3243,
      "ము)": 3244,
      "ండు": 3245,
      "ద్వ": 3246,
      "రిహ": 3247,
      "ాజ్య": 3248,
      "ంటు": 3249,
      "ాయి.\n": 3250,
      "▁బహ": 3251,
      "ద్ధి": 3252,
      "ాకిస్త": 3253,
      "ంత్రి": 3254,
      "వాణా": 3255,
      "▁ముఖ్య": 3256,
      "▁శాస్త్ర": 3257,
      "▁వచ్చింది.": 3258,
      "▁ఆర్ధిక": 3259,
      "▁సంగీతం": 3260,
      "ాకిస్తాన్": 3261,
      "చే": 3262,
      "టిక": 3263,
      "తాబ్": 3264,
      "ధు": 3265,
      "పూ": 3266,
      "మె": 3267,
      "లకు": 3268,
      "లను": 3269,
      "వ,": 3270,
      "వాత": 3271,
      "ష్ట": 3272,
      "ా)": 3273,
      "ూప": 3274,
      "ూర్": 3275,
      "▁గా": 3276,
      "▁హిందూ": 3277,
      "▁ద్వ": 3278,
      "▁పెద్ద": 3279,
      "స్ల": 3280,
      "▁కు": 3281,
      "▁వా": 3282,
      "▁వాత": 3283,
      "▁సి": 3284,
      "▁సరిహ": 3285,
      "ాలలో": 3286,
      "▁మా": 3287,
      "▁అతి": 3288,
      "▁అనే": 3289,
      "▁జరి": 3290,
      "ాతంత్ర": 3291,
      "ద్దు": 3292,
      "▁చి": 3293,
      "▁చరి": 3294,
      "▁నా": 3295,
      "త్స": 3296,
      "ంగ్రె": 3297,
      "విధ": 3298,
      "రువాత": 3299,
      "](భారతదేశ": 3300,
      "▁తరువాత": 3301,
      "▁శతాబ్": 3302,
      "▁ఎక్కువ": 3303,
      "ాబా": 3304,
      "ప్రదాయ": 3305,
      "▁రాజ్య": 3306,
      "▁రాజకీయ": 3307,
      "ండియా": 3308,
      "alt": 3309,
      "పాలిత": 3310,
      "డ్డ": 3311,
      "▁కాంగ్రె": 3312,
      "ావరణ": 3313,
      "ప్ప": 3314,
      "ుకో": 3315,
      "మిళ": 3316,
      "▁అయిన": 3317,
      "▁రహదారులు": 3318,
      "▁ఉత్తర": 3319,
      "▁బహు": 3320,
      "▁వాతావరణ": 3321,
      "▁చరిత్ర": 3322,
      "▁శతాబ్ద": 3323,
      "|alt": 3324,
      "ంత": 3325,
      "ంది": 3326,
      "కాలు": 3327,
      "గం": 3328,
      "ణతంత్ర": 3329,
      "నవ": 3330,
      "నాలు": 3331,
      "మీ": 3332,
      "మ్మ": 3333,
      "మంత్రి": 3334,
      "యో": 3335,
      "లం": 3336,
      "షు": 3337,
      "హా": 3338,
      "ిల్": 3339,
      "ీక": 3340,
      "ెల": 3341,
      "ౌక": 3342,
      "▁డ": 3343,
      "▁యు": 3344,
      "▁[ఇ": 3345,
      "▁[హ": 3346,
      "▁వై": 3347,
      "న్మ": 3348,
      "▁సమ": 3349,
      "▁సాధ": 3350,
      "▁అత్య": 3351,
      "నిమా": 3352,
      "ముంబ": 3353,
      "ించి": 3354,
      "▁దా": 3355,
      "▁దక్షిణ": 3356,
      "▁సంస్కృ": 3357,
      "▁[భారతదేశ": 3358,
      "ారు.\n": 3359,
      "తున్న": 3360,
      "▁ఎన్నో": 3361,
      "▁ఏర్": 3362,
      "▁భాషలు": 3363,
      "▁కలిగి": 3364,
      "▁సామ్ర": 3365,
      "ఢిల్లీ": 3366,
      "▁నుండి": 3367,
      "▁ప్రాచ": 3368,
      "▁గాంధ": 3369,
      "▁సరిహద్దు": 3370,
      "|alt=": 3371,
      "▁అత్యధిక": 3372,
      ".in": 3373,
      ".పూ": 3374,
      "30": 3375,
      "cia": 3376,
      "కాల": 3377,
      "క్రమ": 3378,
      "గలు": 3379,
      "గంగా": 3380,
      "జి": 3381,
      "టా": 3382,
      "టీ": 3383,
      "డే": 3384,
      "తా": 3385,
      "తిక": 3386,
      "దా": 3387,
      "ద్య": 3388,
      "ఫ్": 3389,
      "భూ": 3390,
      "రే": 3391,
      "రో": 3392,
      "లతో": 3393,
      "వులు": 3394,
      "శా": 3395,
      "శ్మ": 3396,
      "సింది.": 3397,
      "సత్వ": 3398,
      "ా,": 3399,
      "ీ;": 3400,
      "ీర": 3401,
      "ృద్ధి": 3402,
      "ెబ": 3403,
      "ైగా": 3404,
      "ౌద్ధ": 3405,
      "▁హ": 3406,
      "▁—": 3407,
      "ారసత్వ": 3408,
      "](అ": 3409,
      "▁[త": 3410,
      "▁[వ": 3411,
      "▁[వి": 3412,
      "▁పైగా": 3413,
      "స్య": 3414,
      "▁వారసత్వ": 3415,
      "న్‌": 3416,
      "▁సముద్ర": 3417,
      "దేశ్": 3418,
      "ర్లు": 3419,
      "ాలయ": 3420,
      "ాలను": 3421,
      "ికత": 3422,
      "▁రో": 3423,
      "▁రవాణా": 3424,
      "▁ప్రతి": 3425,
      "▁ప్రస్తు": 3426,
      "గా,": 3427,
      "▁భారత్": 3428,
      "▁చిన్న": 3429,
      "▁నగర": 3430,
      "▁ఆధ": 3431,
      "స్తాన్": 3432,
      "▁విస్త": 3433,
      "▁వివిధ": 3434,
      "ణాసియా": 3435,
      "▁లే": 3436,
      "▁కాశ్మ": 3437,
      "▁ఒకటి": 3438,
      "డిప": 3439,
      "మాఖ్య": 3440,
      "▁ప్రాంతాలు": 3441,
      "▁స్వాతంత్ర": 3442,
      "ాల్లో": 3443,
      "cou": 3444,
      "్రిటి": 3445,
      "▁పరిశ": 3446,
      "▁ప్రజా": 3447,
      "](దస్త్రం:": 3448,
      "▁కేంద్రపాలిత": 3449,
      "▁పట్టణ": 3450,
      "▁కాలంలో": 3451,
      "ంటుంది.": 3452,
      "▁ఏర్ప": 3453,
      "▁సామ్రాజ్య": 3454,
      ".పూ.": 3455,
      "▁[thumb|": 3456,
      ".n": 3457,
      ".co": 3458,
      "go": 3459,
      "x260": 3460,
      "ం.": 3461,
      "ంతో": 3462,
      "కళ": 3463,
      "కి": 3464,
      "కొ": 3465,
      "కారం": 3466,
      "ఖండ": 3467,
      "గ్ర": 3468,
      "గం:": 3469,
      "టో": 3470,
      "ణంగా": 3471,
      "దీ": 3472,
      "ధి": 3473,
      "పె": 3474,
      "బె": 3475,
      "భి": 3476,
      "మహ": 3477,
      "శ్చ": 3478,
      "సభ": 3479,
      "ాని": 3480,
      "ిస్థ": 3481,
      "ీప": 3482,
      "ూచ": 3483,
      "ోర్": 3484,
      "](ఇ": 3485,
      "](ప్ర": 3486,
      "▁[ఆ": 3487,
      "▁[ప్ర": 3488,
      "▁[రాష్ట్ర": 3489,
      "▁పత": 3490,
      "▁పండు": 3491,
      "▁పాకిస్తాన్": 3492,
      "్యులు": 3493,
      "▁కను": 3494,
      "▁వర్": 3495,
      "▁వ్యా": 3496,
      "▁సిం": 3497,
      "▁సౌక": 3498,
      "▁మూడ": 3499,
      "▁రంగ": 3500,
      "▁ప్రము": 3501,
      "▁ప్రకారం": 3502,
      "▁అభి": 3503,
      "క్‌": 3504,
      "ాతి": 3505,
      "ాత్మ": 3506,
      "▁ఉంట": 3507,
      "ల్వే": 3508,
      "▁నడిప": 3509,
      "త్త": 3510,
      "▁ఇండియా": 3511,
      "ులు,": 3512,
      "▁భూ": 3513,
      "▁సంఘ": 3514,
      "▁సంఖ్య": 3515,
      "▁గు": 3516,
      "ద్ధం": 3517,
      "ాకిస్థ": 3518,
      "▁దేశంలోని": 3519,
      "▁రైల్వే": 3520,
      "htm": 3521,
      "px|": 3522,
      "టుంబ": 3523,
      "ధానమంత్రి": 3524,
      "▁రాష్ట్రపతి": 3525,
      "▁భారతదేశానికి": 3526,
      "ష్ణ": 3527,
      "గోళ": 3528,
      "▁దేశాలలో": 3529,
      "గరికత": 3530,
      "▁ప్రపంచంలో": 3531,
      "▁పుట్ట": 3532,
      "వర్గం:": 3533,
      "ిమాలయ": 3534,
      "▁కోర్": 3535,
      "ీర్ణ": 3536,
      "](http://www.": 3537,
      "260x260": 3538,
      "ntr": 3539,
      "ంగ్లా": 3540,
      "▁మొదల": 3541,
      "ెంగాల": 3542,
      "▁రెండు": 3543,
      "▁మాత్ర": 3544,
      "▁అనేక": 3545,
      "▁నాగరికత": 3546,
      "ాబాద్": 3547,
      "▁కాంగ్రెసు": 3548,
      "ప్పటిక": 3549,
      "మ్మూ": 3550,
      "ముంబై": 3551,
      "▁సంస్కృతి": 3552,
      "|alt=](దస్త్రం:": 3553,
      ".in)\n": 3554,
      "ఫ్ఘ": 3555,
      "శ్చిమ": 3556,
      "▁ప్రముఖ": 3557,
      "ాకిస్థాన్": 3558,
      "\",": 3559,
      ".htm": 3560,
      "77": 3561,
      "bo": 3562,
      "m/": 3563,
      "s/": 3564,
      "గే": 3565,
      "టే": 3566,
      "ట్ర": 3567,
      "టాన్": 3568,
      "డమ": 3569,
      "త్యం": 3570,
      "నాల": 3571,
      "బడ్డ": 3572,
      "భర": 3573,
      "మన": 3574,
      "రీ": 3575,
      "లమె": 3576,
      "ళా": 3577,
      "ళ్ల": 3578,
      "వం": 3579,
      "వడ": 3580,
      "వత్స": 3581,
      "వృద్ధి": 3582,
      "శ్ర": 3583,
      "శ్వ": 3584,
      "హ్మ": 3585,
      "ాన్ని": 3586,
      "ిప": 3587,
      "ీ)": 3588,
      "ీ),": 3589,
      "ూరు": 3590,
      "ెహ": 3591,
      "ెన్న": 3592,
      "▁ఖ": 3593,
      "▁ఘ": 3594,
      "▁దిన": 3595,
      "](ఆ": 3596,
      "](త": 3597,
      "](వ": 3598,
      "](శ": 3599,
      "](హ": 3600,
      "▁[ద": 3601,
      "▁[ర": 3602,
      "▁[శ": 3603,
      "▁పార్": 3604,
      "▁పద్ధ": 3605,
      "లు\n": 3606,
      "్యాయ": 3607,
      "భారతదేశం": 3608,
      "▁వెబ": 3609,
      "▁సు": 3610,
      "▁సర్వ": 3611,
      "▁సమాఖ్య": 3612,
      "ర్,": 3613,
      "ర్త": 3614,
      "▁మన": 3615,
      "ిక,": 3616,
      "▁రూప": 3617,
      "ాలు)": 3618,
      "న్నడ": 3619,
      "▁అను": 3620,
      "▁జన్మ": 3621,
      "క్తి": 3622,
      "ాయక": 3623,
      "ాయు": 3624,
      "దేశంలోని": 3625,
      "ల్ప": 3626,
      "ండో": 3627,
      "▁నే": 3628,
      "▁నది": 3629,
      "▁న్యాయ": 3630,
      "త్తం": 3631,
      "ించే": 3632,
      "▁తన": 3633,
      "▁విశ": 3634,
      "క్షరా": 3635,
      "▁సంవత్స": 3636,
      "▁గణతంత్ర": 3637,
      "▁ఉన్నాయి.\n": 3638,
      "ం](క": 3639,
      "స్వామ": 3640,
      "్రీ.పూ.": 3641,
      "▁కూడిన": 3642,
      "▁దేశంలో": 3643,
      "పాల్": 3644,
      "ర్వహ": 3645,
      "▁నిర్వహ": 3646,
      "▁రాష్ట్రాలు,": 3647,
      "▁మొత్తం": 3648,
      "▁భారతదేశపు": 3649,
      "▁స్వతంత్ర": 3650,
      "▁ఎన్నిక": 3651,
      "▁మతము)": 3652,
      "▁మతము),": 3653,
      "▁పరిపాల": 3654,
      "▁స్థానంలో": 3655,
      "▁మార్గాలు": 3656,
      "▁చేయ": 3657,
      "▁జాబితా)\n": 3658,
      "ic.in)\n": 3659,
      "బడిన": 3660,
      "ెలుగు": 3661,
      "▁ఉపఖండ": 3662,
      "▁అధికారిక": 3663,
      "▁మొదటి": 3664,
      "▁కార్య": 3665,
      "▁కారణంగా": 3666,
      "▁వేగంగా": 3667,
      "ిక్కు": 3668,
      "▁ముఖ్యమైన": 3669,
      "ూర్పు": 3670,
      "▁ద్వీప": 3671,
      "స్లామ": 3672,
      "▁జరిగిన": 3673,
      "▁చిత్ర": 3674,
      "▁ఎక్కువగా": 3675,
      "నవరి": 3676,
      "హాస": 3677,
      "ెలవు": 3678,
      "▁దక్షిణాన": 3679,
      "▁ప్రాచీన": 3680,
      "స్యత": 3681,
      "న్‌ఫ": 3682,
      "▁ప్రస్తుతం": 3683,
      "countr": 3684,
      "▁పరిశ్రమ": 3685,
      "▁[thumb|260x260": 3686,
      ".nic.in)\n": 3687,
      ".com/": 3688,
      "▁సౌకర్య": 3689,
      "▁అభివృద్ధి": 3690,
      "క్‌సభ": 3691,
      "ాత్మా": 3692,
      ".html": 3693,
      "▁పార్లమె": 3694,
      "క్షరాస్యత": 3695,
      "country": 3696,
      "▁[thumb|260x260px|": 3697,
      "%),": 3698,
      ")లు": 3699,
      "**": 3700,
      ",000": 3701,
      "..": 3702,
      "85": 3703,
      "98": 3704,
      "fact": 3705,
      "ం)\n": 3706,
      "ం](భారత": 3707,
      "ంతు": 3708,
      "ందిన": 3709,
      "ంపె": 3710,
      "కాత": 3711,
      "ఖో": 3712,
      "గణ": 3713,
      "గష్ట": 3714,
      "జ్": 3715,
      "జ్య": 3716,
      "టక": 3717,
      "టై": 3718,
      "టర్": 3719,
      "థ్యం": 3720,
      "దన": 3721,
      "దావ": 3722,
      "నతా": 3723,
      "నగణ": 3724,
      "బంధ": 3725,
      "భాష": 3726,
      "మల": 3727,
      "మై": 3728,
      "మతి": 3729,
      "రిక": 3730,
      "లస": 3731,
      "లంక": 3732,
      "ళి": 3733,
      "ళ్": 3734,
      "వచ్చ": 3735,
      "వలం": 3736,
      "శీ": 3737,
      "షన్": 3738,
      "సై": 3739,
      "హార": 3740,
      "ిలో": 3741,
      "ీఠ": 3742,
      "ీలు": 3743,
      "ెల్ల": 3744,
      "ెట్": 3745,
      "ే,": 3746,
      "ోల్": 3747,
      "ోత్స": 3748,
      "ౌర్య": 3749,
      "‌కాత": 3750,
      "▁ఐ": 3751,
      "▁తి": 3752,
      "▁టె": 3753,
      "▁టై": 3754,
      "ారస్వ": 3755,
      "](ర": 3756,
      "](వి": 3757,
      "](హిందూ": 3758,
      "](రాష్ట్ర": 3759,
      "▁[హిందూ": 3760,
      "▁[గో": 3761,
      "▁పద": 3762,
      "▁పి": 3763,
      "▁పొ": 3764,
      "▁పంచ": 3765,
      "▁పశ్చిమ": 3766,
      "▁పీఠ": 3767,
      "స్](": 3768,
      "్యాల": 3769,
      "▁కింద": 3770,
      "▁కంపె": 3771,
      "▁క్యాల": 3772,
      "▁వహ": 3773,
      "▁వు": 3774,
      "▁సైన": 3775,
      "▁సార్": 3776,
      "▁సూచ": 3777,
      "దేశాల": 3778,
      "ర్మ": 3779,
      "ర్మే": 3780,
      "ర్కొ": 3781,
      "ర్థ్యం": 3782,
      "ాలతో": 3783,
      "▁మహ": 3784,
      "▁మతం": 3785,
      "▁మహాస": 3786,
      "ింప": 3787,
      "ింగ్": 3788,
      "ింధు": 3789,
      "▁రే": 3790,
      "▁రకాల": 3791,
      "ాలు.": 3792,
      "త్రక": 3793,
      "త్రి": 3794,
      "త్రిక": 3795,
      "▁అని": 3796,
      "▁జంతు": 3797,
      "క్టో": 3798,
      "క్నాల": 3799,
      "ాతీయ": 3800,
      "దేశంలో": 3801,
      "కుంట": 3802,
      "ల్లో": 3803,
      "▁చారి": 3804,
      "▁నెహ": 3805,
      "▁ఇవ": 3806,
      "స్థాన": 3807,
      "ులు),": 3808,
      "▁ఆక్రమ": 3809,
      "వి.": 3810,
      "ంటే": 3811,
      "ంటో": 3812,
      "▁విభ": 3813,
      "▁భౌ": 3814,
      "▁సంబంధ": 3815,
      "టిలో": 3816,
      "ామి": 3817,
      "▁శెలవు": 3818,
      "ద్రా": 3819,
      "ంచి": 3820,
      "ప్రిల్": 3821,
      "చ్చే": 3822,
      "▁రాజ్యా": 3823,
      "దుతున్న": 3824,
      "నాథ": 3825,
      "నేపాల్": 3826,
      "▁దేశానికి": 3827,
      "డు)": 3828,
      "సినిమా": 3829,
      "▁లోని": 3830,
      "▁దేశం.": 3831,
      "్యం,": 3832,
      "▁లక్ష": 3833,
      "గువ": 3834,
      "▁రైళ్ల": 3835,
      "టు](http://": 3836,
      "డ్డు": 3837,
      "పంచము": 3838,
      "మైనది.": 3839,
      "▁నిర్మ": 3840,
      "ారిగా": 3841,
      "▁ఉంది.\n": 3842,
      "▁దస్త్రం:india": 3843,
      "వాద": 3844,
      "క్షిణాసియా": 3845,
      "ెండర్": 3846,
      "ట్లు": 3847,
      "ీ](ఢిల్లీ": 3848,
      "▁కేవలం": 3849,
      "ుకొ": 3850,
      "▁వచ్చిన": 3851,
      "▁ప్రజల": 3852,
      "▁మార్గాలు\n": 3853,
      "▁సామర్థ్యం": 3854,
      "▁ఆర్థ": 3855,
      "ఢిల్లీ](ఢిల్లీ": 3856,
      "మేన": 3857,
      "▁కోట్ల": 3858,
      "▁చెందిన": 3859,
      "▁చెందుతున్న": 3860,
      "▁పరంగా": 3861,
      "▁పాత్ర": 3862,
      "▁పాక్": 3863,
      "▁సాంప్రదాయ": 3864,
      "ణిజ్య": 3865,
      "దరంగ": 3866,
      "▁కొన్ని": 3867,
      "▁వేల": 3868,
      "▁వంటి": 3869,
      "stat": 3870,
      "మెరిక": 3871,
      "ూర్తి": 3872,
      "▁కుటుంబ": 3873,
      "▁వాణిజ్య": 3874,
      "▁సినిమా": 3875,
      "▁రాజ్యాలు": 3876,
      "ుకోవడ": 3877,
      "▁బహుళ": 3878,
      "ీకరణ": 3879,
      "▁డాల": 3880,
      "▁యుద్ధం": 3881,
      "▁సమర": 3882,
      "ించి,": 3883,
      "ద్యు": 3884,
      "భూటాన్": 3885,
      "శాఖ": 3886,
      "▁రోడ్డు": 3887,
      "▁ఆధార": 3888,
      "▁స్వాతంత్ర్య": 3889,
      "్రిటిషు": 3890,
      "▁ప్రజాస్వామ": 3891,
      "▁కనుమ": 3892,
      "▁వ్యాప": 3893,
      "▁మూడు": 3894,
      "▁నడిపించ": 3895,
      "▁గుర్త": 3896,
      "ంగ్లాదేశ్": 3897,
      "▁మాత్రం": 3898,
      "ట్రో": 3899,
      "ెన్నై": 3900,
      "▁దినోత్స": 3901,
      "▁సర్వీ": 3902,
      "▁పరిపాలన": 3903,
      "స్లామాబాద్": 3904,
      "న్‌ఫర్మే": 3905,
      "▁పార్లమెంట": 3906,
      "factbook": 3907,
      "గష్టు": 3908,
      "ళ్ళ": 3909,
      "ిలోమీ": 3910,
      "ోల్‌కాత": 3911,
      "▁టెక్నాల": 3912,
      "ారస్వతం": 3913,
      "▁కంపెన": 3914,
      "▁క్యాలెండర్": 3915,
      "▁సైనిక": 3916,
      "▁మహాసముద్ర": 3917,
      "▁జంతువు": 3918,
      "▁చారిత్రక": 3919,
      "▁రాజ్యాంగ": 3920,
      "మెరికా": 3921,
      "న్‌ఫర్మేషన్": 3922,
      "▁టెక్నాలజ": 3923,
      ")న": 3924,
      "*),": 3925,
      ",26": 3926,
      ".7": 3927,
      ".go": 3928,
      "/1": 3929,
      "/g": 3930,
      "1-": 3931,
      "42": 3932,
      "46": 3933,
      "65": 3934,
      "90": 3935,
      "91": 3936,
      "bb": 3937,
      "be": 3938,
      "bl": 3939,
      "bn": 3940,
      "eo": 3941,
      "hal": 3942,
      "no": 3943,
      "oid": 3944,
      "pu": 3945,
      "rof": 3946,
      "su": 3947,
      "ం\n": 3948,
      "ంజ": 3949,
      "ందు": 3950,
      "ం](భారతీయ": 3951,
      "ఎల": 3952,
      "ఒల": 3953,
      "కే": 3954,
      "క్య": 3955,
      "కటి": 3956,
      "ఖాత": 3957,
      "గర్": 3958,
      "గణతంత్ర": 3959,
      "చు": 3960,
      "చ్": 3961,
      "టం": 3962,
      "డిన": 3963,
      "ఢాక": 3964,
      "తూ": 3965,
      "తము": 3966,
      "తులు": 3967,
      "తము)": 3968,
      "తీర": 3969,
      "దటి": 3970,
      "దరణ": 3971,
      "నై": 3972,
      "నలో": 3973,
      "నది": 3974,
      "పై": 3975,
      "పచ్చ": 3976,
      "బా": 3977,
      "బి": 3978,
      "భాత": 3979,
      "మొ": 3980,
      "మాన": 3981,
      "యం": 3982,
      "యన్మ": 3983,
      "రల్": 3984,
      "రామ": 3985,
      "రాజ్య": 3986,
      "లా": 3987,
      "లే": 3988,
      "లాహ": 3989,
      "ళలు": 3990,
      "వె": 3991,
      "వార్": 3992,
      "వ్యవస్థ": 3993,
      "వత్రిక": 3994,
      "శో": 3995,
      "శాల": 3996,
      "సే": 3997,
      "సులు": 3998,
      "హ్": 3999,
      "ాణ": 4000,
      "ాగా": 4001,
      "ాడే": 4002,
      "ియ": 4003,
      "ితి": 4004,
      "ీం": 4005,
      "ీరు": 4006,
      "ీక్ష": 4007,
      "ీషు": 4008,
      "ీటిలో": 4009,
      "ు.": 4010,
      "ుప్ర": 4011,
      "ృష్": 4012,
      "ెర్": 4013,
      "ెట్రో": 4014,
      "ేర": 4015,
      "ైదర": 4016,
      "ొగలు": 4017,
      "ౌర": 4018,
      "‌ల": 4019,
      "▁ఓ": 4020,
      "▁ధ": 4021,
      "▁స్": 4022,
      "్రై": 4023,
      "్రాన్": 4024,
      "ారా": 4025,
      "](గో": 4026,
      "](వర్గం:": 4027,
      "](ముంబై": 4028,
      "▁[కు": 4029,
      "▁[యు": 4030,
      "▁[వర్గం:": 4031,
      "▁[ముంబై": 4032,
      "▁[ఢిల్లీ](ఢిల్లీ": 4033,
      "▁పూ": 4034,
      "▁పో": 4035,
      "▁ప్ల": 4036,
      "▁పర్వ": 4037,
      "▁పర్య": 4038,
      "లుగా": 4039,
      "స్స": 4040,
      "స్),": 4041,
      "స్ట్": 4042,
      "లోయ": 4043,
      "▁కుల": 4044,
      "▁వల": 4045,
      "▁వీటిలో": 4046,
      "▁సహ": 4047,
      "దేశీ": 4048,
      "దేశ్‌": 4049,
      "ర్జ": 4050,
      "ర్ష": 4051,
      "ాలా": 4052,
      "ాలకు": 4053,
      "ాలనే": 4054,
      "▁మై": 4055,
      "▁మంది": 4056,
      "▁రి": 4057,
      "ాలు),": 4058,
      "ాలు)\n": 4059,
      "▁ప్రారం": 4060,
      "న్నది.": 4061,
      "న్నాయి.": 4062,
      "న్నారు.": 4063,
      "▁అవ": 4064,
      "గాన్ని": 4065,
      "▁జల": 4066,
      "▁జరు": 4067,
      "▁జనా": 4068,
      "▁జంబ": 4069,
      "▁జనవరి": 4070,
      "ాతర": 4071,
      "నిస్తాన్": 4072,
      "▁ఉండ": 4073,
      "▁ఉంటుంది.": 4074,
      "ము.": 4075,
      "ములో": 4076,
      "కుపచ్చ": 4077,
      "ానీ": 4078,
      "ాను": 4079,
      "ండమ": 4080,
      "▁చవి": 4081,
      "▁చైన": 4082,
      "▁చాలా": 4083,
      "▁నాలు": 4084,
      "రిస్త": 4085,
      "ినీ": 4086,
      "▁ఇవి": 4087,
      "▁ఇక్క": 4088,
      "ులు](": 4089,
      "▁ఆసియా": 4090,
      "▁ఆకుపచ్చ": 4091,
      "స్తులు": 4092,
      "తంగా": 4093,
      "▁దీ": 4094,
      "నుకటి": 4095,
      "విస్త": 4096,
      "ాజ్‌": 4097,
      "రుష": 4098,
      "రుగు": 4099,
      "](భారతదేశంలోని": 4100,
      "ంటి": 4101,
      "▁భారతదేశం,": 4102,
      "▁తే": 4103,
      "▁తత్వ": 4104,
      "▁తమిళ": 4105,
      "▁తూర్పు": 4106,
      "▁భిన్న": 4107,
      "క్షణాసియా": 4108,
      "ాంబ": 4109,
      "in.html": 4110,
      "▁సంస్థ": 4111,
      "▁సంస్క": 4112,
      "▁సంప్రదాయ": 4113,
      "ంది.\n": 4114,
      "▁29": 4115,
      "యాళ": 4116,
      "ూడండి": 4117,
      "▁ఉన్నారు.": 4118,
      "ంగాళా": 4119,
      "లిచ": 4120,
      "ం](అ": 4121,
      "ట్టు": 4122,
      "ట్టమొ": 4123,
      "▁రాజ్యం,": 4124,
      "నేసియా": 4125,
      "▁([": 4126,
      "▁(వె": 4127,
      "్యవస": 4128,
      "▁లోయ": 4129,
      "▁లోక్‌సభ": 4130,
      "్రీలంక": 4131,
      "▁కూడుకు": 4132,
      "▁కూడుకొ": 4133,
      "ండిచ్చే": 4134,
      "▁దేశం\n": 4135,
      "▁దేశంగా": 4136,
      "▁పేర్లు": 4137,
      "▁పేర్కొ": 4138,
      "▁ప్రాంతం": 4139,
      "▁ఒకే": 4140,
      "పావ": 4141,
      "పాదన": 4142,
      "్‌సై": 4143,
      "india.nic.in)\n": 4144,
      "▁రాష్ట్రాల": 4145,
      "▁రాష్ట్రాలు": 4146,
      "▁దస్త్రం:v": 4147,
      "భాగం": 4148,
      "వాస": 4149,
      "▁మొట్టమొ": 4150,
      "▁ప్రాంతీయ": 4151,
      "▁వ్యవస్థ)": 4152,
      "ిస్తు": 4153,
      "ాల్దీ": 4154,
      "▁భాషలు)": 4155,
      "▁మతము,": 4156,
      "్రిటీ": 4157,
      "▁శాఖ": 4158,
      "▁ప్రజలు": 4159,
      "▁1950": 4160,
      "▁[197": 4161,
      "▁పురుష": 4162,
      "▁కలిసి": 4163,
      "▁కలిగిన": 4164,
      "ofindia.nic.in)\n": 4165,
      "వర్ష": 4166,
      "ీనంలో": 4167,
      "▁చేసింది.": 4168,
      "▁నుంచి": 4169,
      "స్కృతిక": 4170,
      "టెడ్": 4171,
      "▁[చైనా": 4172,
      "▁కాలే": 4173,
      "▁భాగ": 4174,
      "▁భాగాన్ని": 4175,
      "ాహార": 4176,
      "](చైనా": 4177,
      "▁పరీక్ష": 4178,
      "▁సాంస్కృతిక": 4179,
      "ంగ్లీషు": 4180,
      "▁ప్రభుత్వం": 4181,
      "ట్లాడే": 4182,
      "▁పాలించ": 4183,
      "▁శాస్త్రీయ": 4184,
      "▁శాస్త్రం](భారతీయ": 4185,
      "▁సంగీతం)": 4186,
      "arch": 4187,
      "▁హిందూదేశం": 4188,
      "▁ద్వారా": 4189,
      "▁మాట్లాడే": 4190,
      "▁చిహ్": 4191,
      "▁తరువాతి": 4192,
      "ాబాదు": 4193,
      "▁రహదారులు),": 4194,
      "▁ఉత్తరాన": 4195,
      "▁వాతావరణం)": 4196,
      "▁శతాబ్దం](క": 4197,
      "▁\"[": 4198,
      "▁వైశాల": 4199,
      "▁సాధించ": 4200,
      "▁దాదా": 4201,
      "▁గాంధీ](": 4202,
      "▁గాంధీ)": 4203,
      "▁సరిహద్దుగా": 4204,
      "రేబి": 4205,
      "రోపా": 4206,
      "లతో,": 4207,
      "శాస్త్ర": 4208,
      "▁[తమిళ": 4209,
      "▁సముద్రతీర": 4210,
      "▁ప్రతిపాదన": 4211,
      "▁2003": 4212,
      "▁2004": 4213,
      "▁లేదా": 4214,
      "▁కాశ్మీర్": 4215,
      "▁కాశ్మీరు": 4216,
      "▁స్వాతంత్ర్యం": 4217,
      "్రిటిష్": 4218,
      "▁ప్రజాదరణ": 4219,
      "▁ఏర్పడ్డ": 4220,
      "▁సామ్రాజ్యం)": 4221,
      "మహల్": 4222,
      "ానిస్తాన్": 4223,
      "](ప్రధానమంత్రి": 4224,
      "▁[ప్రధానమంత్రి": 4225,
      "▁[రాష్ట్రపతి": 4226,
      "▁పతాక": 4227,
      "▁వర్గ": 4228,
      "▁సింధ": 4229,
      "▁రాష్ట్రపతి,": 4230,
      "గోళిక": 4231,
      "▁కోర్టు": 4232,
      "▁మొదలైన": 4233,
      "ప్పటికీ,": 4234,
      "ఫ్ఘనిస్తాన్": 4235,
      "ఫ్ఘానిస్తాన్": 4236,
      "డమ్": 4237,
      "బడ్డీ": 4238,
      "భరత": 4239,
      "హ్మద": 4240,
      "▁పద్ధతి": 4241,
      "▁వెబ్‌సై": 4242,
      "ాయుత": 4243,
      "ండోనేసియా": 4244,
      "▁నది),": 4245,
      "▁సంవత్సర": 4246,
      "▁నిర్వహణ": 4247,
      "▁కార్యక్రమ": 4248,
      "▁పరిశ్రమలు": 4249,
      "web": 4250,
      "టర్లకు": 4251,
      "దావరి": 4252,
      "▁తిరుగు": 4253,
      "▁పొందిన": 4254,
      "▁పశ్చిమాన": 4255,
      "▁పీఠభూ": 4256,
      "▁వుంటుంది.": 4257,
      "▁సార్వత్రిక": 4258,
      "▁మహి": 4259,
      "క్టోరల్": 4260,
      "▁విభిన్న": 4261,
      "▁భౌగోళిక": 4262,
      "▁శెలవుదిన": 4263,
      "▁రైళ్లను": 4264,
      "▁ఆర్థిక": 4265,
      "▁సాంప్రదాయిక": 4266,
      "statoid": 4267,
      "▁డాలర్లు": 4268,
      "ద్యుత్": 4269,
      "▁ప్రజాస్వామ్య": 4270,
      "▁కనుమలు": 4271,
      "▁వ్యాపార": 4272,
      "▁దినోత్సవం": 4273,
      "▁సర్వీసులు": 4274,
      "▁పార్లమెంటరీ": 4275,
      "ిలోమీటర్లకు": 4276,
      "ోల్‌కాతా": 4277,
      ".gov": 4278,
      "bbc": 4279,
      "blic": 4280,
      "rofile": 4281,
      "svg,": 4282,
      "ఎలక్టోరల్": 4283,
      "ఒలింప": 4284,
      "కేతిక": 4285,
      "చ్ఛ": 4286,
      "నైటెడ్": 4287,
      "బాటు": 4288,
      "భాతో": 4289,
      "యన్మార్": 4290,
      "లాహోర్": 4291,
      "శోకు": 4292,
      "ుప్రీం": 4293,
      "ృష్ణా": 4294,
      "▁[ముంబై](ముంబై": 4295,
      "▁ప్రారంభ": 4296,
      "▁జరుపు": 4297,
      "▁జనాభాతో": 4298,
      "▁జంబూ": 4299,
      "▁చైనాను": 4300,
      "ాజ్‌మహల్": 4301,
      "▁తూర్పున": 4302,
      "▁సంస్కరణ": 4303,
      "▁సంప్రదాయాలు": 4304,
      "ంగాళాఖాత": 4305,
      "▁(వెనుకటి": 4306,
      "▁కూడుకొని": 4307,
      "ండిచ్చేరి": 4308,
      "▁మొట్టమొదటి": 4309,
      "ాల్దీవులు": 4310,
      "▁[చైనా](చైనా": 4311,
      "▁శతాబ్దం](క్రీ.పూ.": 4312,
      "▁వైశాల్య": 4313,
      "▁దాదాపు": 4314,
      "రేబియా": 4315,
      "](ప్రధానమంత్రి)": 4316,
      "▁[ప్రధానమంత్రి](ప్రధానమంత్రి)": 4317,
      "▁వెబ్‌సైటు](http://": 4318,
      "▁తిరుగుబాటు": 4319,
      "statoids": 4320,
      "(భారత": 4321,
      "):": 4322,
      ")కు": 4323,
      ")తో": 4324,
      ")'s": 4325,
      ",3": 4326,
      ",5": 4327,
      "-0": 4328,
      "-7": 4329,
      "-[": 4330,
      "-|": 4331,
      "-ఆ": 4332,
      "-ద": 4333,
      "-దేశ": 4334,
      "-ఖో": 4335,
      ".ఇ": 4336,
      ".ఏ": 4337,
      ".|alt=](దస్త్రం:": 4338,
      ".svg,": 4339,
      "/cia": 4340,
      "/public": 4341,
      "0px": 4342,
      "14": 4343,
      "185": 4344,
      "390": 4345,
      "56": 4346,
      "59": 4347,
      "5-0": 4348,
      "7,26": 4349,
      "87,26": 4350,
      "96": 4351,
      "ahal": 4352,
      "bs": 4353,
      "d,": 4354,
      "eth": 4355,
      "e.com/": 4356,
      "hz": 4357,
      "iew": 4358,
      "l.jpg\n": 4359,
      "lan": 4360,
      "pin": 4361,
      "pre": 4362,
      "rt": 4363,
      "taj": 4364,
      "wor": 4365,
      "ం;": 4366,
      "ంశ": 4367,
      "ంద్": 4368,
      "ంస్కృ": 4369,
      "ందర": 4370,
      "ంప్రదాయ": 4371,
      "ం\",": 4372,
      "ఈస్ట్": 4373,
      "ఉప": 4374,
      "ఉష్ణ": 4375,
      "ఋతు": 4376,
      "ఏప్రిల్": 4377,
      "ఐక్య": 4378,
      "ఐరోపా": 4379,
      "ఒడి": 4380,
      "కం": 4381,
      "కూ": 4382,
      "కో": 4383,
      "క్ర": 4384,
      "కీర్ణ": 4385,
      "కాహార": 4386,
      "గన": 4387,
      "గతి": 4388,
      "గిల్ల": 4389,
      "గిన్న": 4390,
      "గలు)": 4391,
      "చయ": 4392,
      "చె": 4393,
      "చార": 4394,
      "చుకోవడ": 4395,
      "జు": 4396,
      "జ్ర": 4397,
      "జన్": 4398,
      "జాలు": 4399,
      "జెట్": 4400,
      "ఞాన": 4401,
      "టన": 4402,
      "టలు": 4403,
      "ట్య": 4404,
      "టన్": 4405,
      "టులు": 4406,
      "ట్‌": 4407,
      "టన్‌": 4408,
      "డవ": 4409,
      "డైన": 4410,
      "డ్మ": 4411,
      "డారి": 4412,
      "ణు": 4413,
      "ణే": 4414,
      "ణులు": 4415,
      "ణ్వ": 4416,
      "తల": 4417,
      "తాన": 4418,
      "తను": 4419,
      "తమిళ": 4420,
      "తకాలు": 4421,
      "తారు.\n": 4422,
      "థమ": 4423,
      "థక్": 4424,
      "థాన": 4425,
      "థార్": 4426,
      "థకళ": 4427,
      "దగా": 4428,
      "దాయి.": 4429,
      "దక్షిణ": 4430,
      "ధనా": 4431,
      "నక": 4432,
      "నృ": 4433,
      "నె": 4434,
      "నో": 4435,
      "నలు": 4436,
      "న్య": 4437,
      "నిక": 4438,
      "నర్వ": 4439,
      "నంద్": 4440,
      "పం": 4441,
      "పద": 4442,
      "పవ": 4443,
      "పో": 4444,
      "పరి": 4445,
      "పక్ష": 4446,
      "పట్": 4447,
      "పెద్ద": 4448,
      "పకళ": 4449,
      "పడిన": 4450,
      "ఫల": 4451,
      "ఫ్రాన్": 4452,
      "బై": 4453,
      "బెంగాల": 4454,
      "భవ": 4455,
      "భిం": 4456,
      "మ)": 4457,
      "మూ": 4458,
      "మో": 4459,
      "మాలు": 4460,
      "మించ": 4461,
      "మలి": 4462,
      "మిత": 4463,
      "మారు": 4464,
      "మ్‌": 4465,
      "మశీ": 4466,
      "మూర్తి": 4467,
      "మాతర": 4468,
      "యూ": 4469,
      "యము": 4470,
      "యింది.": 4471,
      "యాలు\n": 4472,
      "యమించ": 4473,
      "రవ": 4474,
      "రాలు": 4475,
      "రద్": 4476,
      "రత్": 4477,
      "రాజ": 4478,
      "రారి": 4479,
      "రాలు\n": 4480,
      "రెండ": 4481,
      "ర్రి": 4482,
      "రంత": 4483,
      "లీ": 4484,
      "లక్ష": 4485,
      "లీన": 4486,
      "లస్య": 4487,
      "ల](ఆ": 4488,
      "లయాళ": 4489,
      "లబై": 4490,
      "ళుక": 4491,
      "ళూరు": 4492,
      "వల": 4493,
      "వహ": 4494,
      "వీ": 4495,
      "వార": 4496,
      "వైన": 4497,
      "వల్ల": 4498,
      "వారి": 4499,
      "వరాలు\n": 4500,
      "శాన": 4501,
      "షే": 4502,
      "షకాహార": 4503,
      "షయాలు\n": 4504,
      "సన": 4505,
      "స్ర": 4506,
      "సరా": 4507,
      "సమి": 4508,
      "సింగ్": 4509,
      "హాయ": 4510,
      "హాత్మా": 4511,
      "ాఫ": 4512,
      "ా](": 4513,
      "ాము": 4514,
      "ాటక": 4515,
      "ాళుక": 4516,
      "ిర": 4517,
      "ిరు": 4518,
      "ి](క": 4519,
      "ిళ్ళ": 4520,
      "ిటన్": 4521,
      "ీ\n": 4522,
      "ీ-ద": 4523,
      "ీదగా": 4524,
      "ుల్": 4525,
      "ుపూ": 4526,
      "ుస్తులు": 4527,
      "ుళూరు": 4528,
      "ూనది": 4529,
      "ూణే": 4530,
      "ూరత్": 4531,
      "ృష్ట": 4532,
      "ెస్": 4533,
      "ెక్క": 4534,
      "ే.": 4535,
      "ేక": 4536,
      "ేత": 4537,
      "ేయ": 4538,
      "ేష": 4539,
      "ేంద్ర": 4540,
      "ేష్": 4541,
      "ేచ్ఛ": 4542,
      "ైక": 4543,
      "ొల": 4544,
      "ోర": 4545,
      "ోళ": 4546,
      "ోలో": 4547,
      "ోత్": 4548,
      "ోటి": 4549,
      "ోద్య": 4550,
      "ోత్రి": 4551,
      "ోధనా": 4552,
      "ోవార": 4553,
      "ోషకాహార": 4554,
      "ౌళి": 4555,
      "్వాస": 4556,
      "▁$": 4557,
      "▁=": 4558,
      "▁భార": 4559,
      "▁ది": 4560,
      "▁స్త్ర": 4561,
      "▁యా": 4562,
      "▁40": 4563,
      "▁టా": 4564,
      "▁factbook": 4565,
      "▁hz": 4566,
      "్రా": 4567,
      "్రూ": 4568,
      "్రాం": 4569,
      "్రహ్మ": 4570,
      "ారమ్‌": 4571,
      "](కు": 4572,
      "](పా": 4573,
      "](యు": 4574,
      "](నేపాల్": 4575,
      "](సినిమా": 4576,
      "](భూటాన్": 4577,
      "](ఒలింప": 4578,
      "▁[దేశ": 4579,
      "▁[ని": 4580,
      "▁[హింద": 4581,
      "▁[టె": 4582,
      "▁[cia": 4583,
      "▁[నేపాల్": 4584,
      "▁[సినిమా": 4585,
      "▁[భూటాన్": 4586,
      "▁[శాస్త్ర": 4587,
      "▁[ఎలక్టోరల్": 4588,
      "▁పట": 4589,
      "▁పలు": 4590,
      "▁పవి": 4591,
      "▁పక్షి": 4592,
      "▁పక్క": 4593,
      "▁పాకిస్థాన్": 4594,
      "▁పూర్తి": 4595,
      "లు.": 4596,
      "లు](భారతీయ": 4597,
      "్యారమ్‌": 4598,
      "లోక్‌సభ": 4599,
      "▁కల": 4600,
      "▁కలు": 4601,
      "▁కాయ": 4602,
      "▁కల్": 4603,
      "▁కార్": 4604,
      "▁క్రి": 4605,
      "▁కమీ": 4606,
      "▁కల్ప": 4607,
      "▁కింగ్": 4608,
      "▁కంటే": 4609,
      "▁కళలు": 4610,
      "▁కిలోమీటర్లకు": 4611,
      "▁వర": 4612,
      "▁వ్య": 4613,
      "▁వారం": 4614,
      "▁వాహ": 4615,
      "▁వనాలు": 4616,
      "▁వృద్ధి": 4617,
      "▁వాయు": 4618,
      "▁వారిగా": 4619,
      "▁వంశ": 4620,
      "▁వన్య": 4621,
      "దేమాతర": 4622,
      "▁సారస్వతం": 4623,
      "దేశాలలో": 4624,
      "ర్ద": 4625,
      "ర్ల": 4626,
      "ర్శ": 4627,
      "ర్ధిక": 4628,
      "ర్ణా": 4629,
      "ర్‌ల": 4630,
      "▁మే": 4631,
      "▁మార": 4632,
      "▁మాన": 4633,
      "▁మీర్": 4634,
      "▁మంత్రి": 4635,
      "▁మరో": 4636,
      "▁మెట్రో": 4637,
      "▁మీదగా": 4638,
      "ింది": 4639,
      "ింద్": 4640,
      "ింటన్‌": 4641,
      "ిక\n": 4642,
      "ిక్‌": 4643,
      "ికలు\n": 4644,
      "▁రకాలు": 4645,
      "▁రచయ": 4646,
      "ాలు:": 4647,
      "ాలు](": 4648,
      "ాలు](భారత": 4649,
      "▁ప్రసి": 4650,
      "▁ప్రత్య": 4651,
      "▁ప్రయో": 4652,
      "▁ప్రదేశ్": 4653,
      "▁ప్రదేశాల": 4654,
      "న్నీ": 4655,
      "న్నాయి.\n": 4656,
      "▁అవి": 4657,
      "▁అరు": 4658,
      "▁అన్ని": 4659,
      "▁అప్ప": 4660,
      "▁అంత": 4661,
      "▁అత్యం": 4662,
      "▁అక్షరాస్యత": 4663,
      "▁అమెరికా": 4664,
      "▁అణ్వ": 4665,
      "▁అరవ": 4666,
      "▁జో": 4667,
      "▁జమ్మూ": 4668,
      "▁జనతా": 4669,
      "క్స్": 4670,
      "ాతం": 4671,
      "నిచ్చ": 4672,
      "నిజాలు": 4673,
      "నిమాలు": 4674,
      "▁ఉండి": 4675,
      "ము,": 4676,
      "ము](భారత": 4677,
      "ముఖ్య": 4678,
      "ాయణ": 4679,
      "ాయాలు": 4680,
      "ాయల్": 4681,
      "ాయతి": 4682,
      "కు,": 4683,
      "కుల": 4684,
      "కులు": 4685,
      "కుంత": 4686,
      "ానపద": 4687,
      "ల్లు": 4688,
      "ల్వార్": 4689,
      "ల్తాన": 4690,
      "ండ్": 4691,
      "ండర్": 4692,
      "ండా)": 4693,
      "ండ్యులు": 4694,
      "▁చట్ట": 4695,
      "▁చైనా": 4696,
      "▁చూడండి": 4697,
      "▁చక్ర": 4698,
      "తి)": 4699,
      "తి](": 4700,
      "తి),": 4701,
      "తిశీ": 4702,
      "▁నృ": 4703,
      "▁నెల": 4704,
      "▁నాయక": 4705,
      "ంగారు": 4706,
      "ంగోత్రి": 4707,
      "ినాయక": 4708,
      "ినేత": 4709,
      "▁ఇ-": 4710,
      "▁ఇంక": 4711,
      "▁ఇటీ": 4712,
      "▁ఇస్లామాబాద్": 4713,
      "▁ఇన్‌ఫర్మేషన్": 4714,
      "▁|--": 4715,
      "ులు](జ": 4716,
      "▁ఆదాయ": 4717,
      "▁ఆగష్టు": 4718,
      "▁ఆనంద్": 4719,
      "స్తానీ": 4720,
      "తంలో": 4721,
      "తం),": 4722,
      "▁ద్ర": 4723,
      "▁దగ్": 4724,
      "▁దక్షిణాసియా": 4725,
      "▁దుస్తులు": 4726,
      "విడ": 4727,
      "విధ్య": 4728,
      "విజన్": 4729,
      "ాజిక,": 4730,
      "రు)": 4731,
      "ంటార్": 4732,
      "ంటారు.": 4733,
      "▁భారతదేశం.": 4734,
      "▁తర": 4735,
      "▁తె": 4736,
      "▁తర్వ": 4737,
      "▁తక్కువ": 4738,
      "▁విధ": 4739,
      "▁విలు": 4740,
      "▁విధాన": 4741,
      "▁వివాద": 4742,
      "▁విమాన": 4743,
      "▁విదేశీ": 4744,
      "▁వివరాలు\n": 4745,
      "▁విషయాలు\n": 4746,
      "▁భక్తి": 4747,
      "ాంతర": 4748,
      "ార్థ": 4749,
      "▁సంకీర్ణ": 4750,
      "ింది.\n": 4751,
      "పు,": 4752,
      "పుత్ర": 4753,
      "పులి": 4754,
      "పుతూ": 4755,
      "పుకో": 4756,
      "పుణులు": 4757,
      "▁గత": 4758,
      "▁గెలు": 4759,
      "▁గణి": 4760,
      "▁గమన": 4761,
      "▁గంగోత్రి": 4762,
      "ంలో,": 4763,
      "టియో": 4764,
      "ామిక": 4765,
      "▁2వ,": 4766,
      "▁230": 4767,
      "▁25%": 4768,
      "▁బి": 4769,
      "▁బాం": 4770,
      "▁బడ్": 4771,
      "▁బాబ్": 4772,
      "▁బెంగ": 4773,
      "▁బౌద్ధ": 4774,
      "▁బెంగాల": 4775,
      "▁బ్రిటీ": 4776,
      "▁బ్రిటిష్": 4777,
      "▁శిల్": 4778,
      "▁శక్తి": 4779,
      "▁జాతి": 4780,
      "యాండర్": 4781,
      "▁ఎల్ల": 4782,
      "▁ఎడమ": 4783,
      "▁ఎడారి": 4784,
      "▁ఎక్స్": 4785,
      "▁[భారతదేశంలోని": 4786,
      "▁జాతీయవాద": 4787,
      "ంచిన": 4788,
      "ప్రాణ": 4789,
      "లియ": 4790,
      "లివిజన్": 4791,
      "లియాండర్": 4792,
      "ితే,": 4793,
      "ారులను": 4794,
      "ం](చ": 4795,
      "ం](బ": 4796,
      "ం](మ": 4797,
      "ం](స": 4798,
      "ం](వి": 4799,
      "ం](http://": 4800,
      "ం](తమిళ": 4801,
      "ల్లవులు": 4802,
      "తోంది.": 4803,
      "తోష్ణ": 4804,
      "స్వాతంత్ర": 4805,
      "▁రాజు": 4806,
      "ం).": 4807,
      "ం)లో": 4808,
      "ం).\n": 4809,
      "దుగా": 4810,
      "నేరే": 4811,
      "▁(0.": 4812,
      "▁(గిల్ల": 4813,
      "▁14": 4814,
      "▁దేశపు": 4815,
      "త్వంలో": 4816,
      "డు](": 4817,
      "డుంబ": 4818,
      "డుతున్న": 4819,
      "డుకుంట": 4820,
      "తరాలు\n": 4821,
      "సిల్లు": 4822,
      "్రీరామ": 4823,
      "▁కూడి": 4824,
      "▁ఈశాన": 4825,
      "▁స్థావ": 4826,
      "▁స్థితి": 4827,
      "్యం),": 4828,
      "తులతో": 4829,
      "తుంది.\n": 4830,
      "▁లభ": 4831,
      "▁లా": 4832,
      "▁లకు": 4833,
      "▁లౌక": 4834,
      "▁[కన్నడ": 4835,
      "▁[క్రీ.పూ.": 4836,
      "▁[కబడ్డీ": 4837,
      "▁[కోల్‌కాతా": 4838,
      "గుప్": 4839,
      "పాలిటన్": 4840,
      "▁[సంక": 4841,
      "▁[సిక్కు": 4842,
      "▁[సింధు": 4843,
      "▁[సారస్వతం": 4844,
      "▁[సుప్రీం": 4845,
      "ర్వోత్": 4846,
      "్యవస్థీకరణ": 4847,
      "పంచె": 4848,
      "▁కాపా": 4849,
      "▁ఒకటో": 4850,
      "డివి": 4851,
      "పాటు": 4852,
      "్‌లో": 4853,
      "▁నియమించ": 4854,
      "▁నిపుణులు": 4855,
      "▁నిడివి": 4856,
      "▁అధికారం": 4857,
      "india/": 4858,
      "మాండమ": 4859,
      "ారిశ్ర": 4860,
      "](కృష్ణా": 4861,
      "▁దస్త్రం:ch": 4862,
      "▁ప్రాంతాల": 4863,
      "▁ప్రాంతాలు\n": 4864,
      "▁ప్రాంతాల్లో": 4865,
      "ంద్రనాథ": 4866,
      "ిల్లా": 4867,
      "▁స్వీక": 4868,
      "▁స్వేచ్ఛ": 4869,
      "▁[పాకిస్తాన్": 4870,
      "▁[పాకిస్థాన్": 4871,
      "▁వ్యవస్థ\n": 4872,
      "▁వ్యవస్థలో": 4873,
      "▁ముడి": 4874,
      "▁ఎన్నుకు": 4875,
      "▁ఎన్నుకో": 4876,
      "గోర్": 4877,
      "ట్క": 4878,
      "ీ](హ": 4879,
      "ీ](బెంగాల": 4880,
      "▁ఏక": 4881,
      "▁ఏడు": 4882,
      "▁ఏప్రిల్": 4883,
      "▁[జైన": 4884,
      "▁[జనాభా": 4885,
      "▁[జమ్మూ": 4886,
      "▁[జనగణ": 4887,
      "▁భాషలను": 4888,
      "ర్యన్": 4889,
      "వే.": 4890,
      "వేద": 4891,
      "వేత్త": 4892,
      "](జనాభా": 4893,
      "](జమ్మూ": 4894,
      "](సిక్కు": 4895,
      "](సింధు": 4896,
      "▁[మౌర్య": 4897,
      "▁[మొగలు": 4898,
      "▁[మహాత్మా": 4899,
      "▁భారతదేశంలోని": 4900,
      "▁శాసన": 4901,
      "▁దేశాలతో": 4902,
      "గరలో": 4903,
      "ప్పుకో": 4904,
      "](పాకిస్తాన్": 4905,
      "](పాకిస్థాన్": 4906,
      "▁ప్రపంచదేశాలలో": 4907,
      "▁చెప్పుకో": 4908,
      "▁స్థానం": 4909,
      "▁స్థానిక": 4910,
      "▁స్థానాలను": 4911,
      "ంకెలు": 4912,
      "త్యజి": 4913,
      "దాయంలో": 4914,
      "వుతుంది.\n": 4915,
      "▁*లో": 4916,
      "▁1956": 4917,
      "▁[బౌద్ధ": 4918,
      "▁[బెంగాల": 4919,
      "▁[1947": 4920,
      "▁[1977": 4921,
      "▁పుష్": 4922,
      "▁పునర్వ": 4923,
      "▁సామాజిక,": 4924,
      "▁పేరు,": 4925,
      "▁పార్టీ)": 4926,
      "▁పార్టీ,": 4927,
      "▁పార్టీల": 4928,
      "ెద్దపులి": 4929,
      "్యాడ్మ": 4930,
      "▁చేసే": 4931,
      "ాబ్ది": 4932,
      "▁క్రీడా": 4933,
      "▁క్రీడలు": 4934,
      "▁క్రీడలు)": 4935,
      "▁క్రీడలలో": 4936,
      "▁క్రీడలు\n": 4937,
      "▁జాబితా)": 4938,
      "▁జాబితాలో": 4939,
      "▁జాబితా](భారతదేశంలోని": 4940,
      "గ్గు": 4941,
      "ాధినేత": 4942,
      "▁[చదరంగ": 4943,
      "▁[చెన్నై": 4944,
      "▁ప్రధానమంత్రి": 4945,
      "▁అయితే,": 4946,
      "ించింది.\n": 4947,
      "▁భాగం": 4948,
      "▁భావిస్త": 4949,
      "▁చెంది": 4950,
      "▁చెందాయి.": 4951,
      "ntofindia.nic.in)\n": 4952,
      "oria": 4953,
      "బడింది.": 4954,
      "బడతారు.\n": 4955,
      "సు),": 4956,
      "్వాల్": 4957,
      "](చెన్నై": 4958,
      "](బౌద్ధ": 4959,
      "](బ్రిటిషు": 4960,
      "](బంగ్లాదేశ్": 4961,
      "](197": 4962,
      "](1977": 4963,
      "▁సాంకేతిక": 4964,
      "▁రహదారులను": 4965,
      "▁ఉపయో": 4966,
      "ించినట్లు": 4967,
      "▁ప్రభుత్వాన్ని": 4968,
      "గినది.": 4969,
      "ట్లకు": 4970,
      "ుకుంటో": 4971,
      "ెంగుళూరు": 4972,
      "▁పాలనలో": 4973,
      "▁కొత్త": 4974,
      "▁వంటకాలు": 4975,
      "▁సభ*": 4976,
      "▁సభ్య": 4977,
      "▁సభను": 4978,
      "▁సభ్యులు": 4979,
      "▁రెండవ": 4980,
      "▁రెండో": 4981,
      "▁జనాభాలో": 4982,
      "▁ముఖ్యంగా": 4983,
      "▁శాస్త్రం),": 4984,
      "▁సంగీతం](భారతీయ": 4985,
      "▁7/1": 4986,
      "▁march": 4987,
      "▁mahal": 4988,
      "▁india](http://www.": 4989,
      "▁india.svg,": 4990,
      "స్లిం": 4991,
      "▁వాటి": 4992,
      "▁సినిమాలు": 4993,
      "▁అతిపెద్ద": 4994,
      "▁జరిగే": 4995,
      "విధ్యం": 4996,
      "▁రాజ్యంగా": 4997,
      "ండియాలో": 4998,
      "▁కాంగ్రెస్": 4999,
      "ుకోట్లకు": 5000,
      "▁అయినా,": 5001,
      "▁రహదారులు](జ": 5002,
      "▁బహుభాష": 5003,
      "▁బహుమతి": 5004,
      "▁చరిత్ర\n": 5005,
      "▁చరిత్ర)\n": 5006,
      "▁చరిత్ర](భారతదేశ": 5007,
      "▁శతాబ్దం": 5008,
      "▁శతాబ్దం)": 5009,
      "ందిరా": 5010,
      "నవమి": 5011,
      "లంప": 5012,
      "హాభారత": 5013,
      "ిల్లు.": 5014,
      "▁[హిమాలయ": 5015,
      "▁వైవిధ్య": 5016,
      "▁వైవిధ్యం": 5017,
      "▁సమాజ": 5018,
      "▁సాధించిన": 5019,
      "ముంబాయి": 5020,
      "▁దాటే": 5021,
      "▁భాషలు,": 5022,
      "▁కలిగి,": 5023,
      "▁నుండి,": 5024,
      "▁ప్రాచ్య": 5025,
      "▁గాంధీ": 5026,
      "▁సరిహద్దులను": 5027,
      "403": 5028,
      "cia.gov": 5029,
      "టాక్": 5030,
      "ెబియ": 5031,
      "▁హక్కు": 5032,
      "](అహ్మద": 5033,
      "▁[తెలుగు": 5034,
      "▁[విశ్వ": 5035,
      "▁[విద్యుత్": 5036,
      "▁రోజు": 5037,
      "▁ప్రతిపక్ష": 5038,
      "▁భారత్,": 5039,
      "▁నగరాలు,": 5040,
      "▁ఆధీనంలో": 5041,
      "▁విస్తర": 5042,
      "▁విస్తీర్ణ": 5043,
      "▁లేని": 5044,
      "▁ఒకటిగా": 5045,
      "▁ఒకటిగా,": 5046,
      "court": 5047,
      "▁పరిశోధనా": 5048,
      "▁పట్టణాలు": 5049,
      "▁పట్టణాలు,": 5050,
      "▁కాలంలో,": 5051,
      "ం.|alt=](దస్త్రం:": 5052,
      "గ్రహ": 5053,
      "గ్రామ": 5054,
      "బెల్": 5055,
      "బెట్క": 5056,
      "మహాత్మా": 5057,
      "ానియా": 5058,
      "ూచిప": 5059,
      "ోర్చు": 5060,
      "▁profile": 5061,
      "](ప్రపంచము": 5062,
      "▁[ప్రపంచము": 5063,
      "▁[రాష్ట్రాల": 5064,
      "▁పతకాలు": 5065,
      "▁పండుగలు": 5066,
      "▁కనుక": 5067,
      "▁వ్యాస": 5068,
      "▁సింధు": 5069,
      "▁రంగం": 5070,
      "▁ఉంటాయి.": 5071,
      "▁ఉంటాయి.\n": 5072,
      "▁ఇండియా*": 5073,
      "▁భూపతి": 5074,
      "▁భూభాగం": 5075,
      "▁సంఘము.": 5076,
      "▁రైల్వేశాఖ": 5077,
      "▁ప్రపంచంలోని": 5078,
      "▁ప్రపంచంలోనే": 5079,
      "▁పుట్టుపూ": 5080,
      "▁పుట్టిల్లు.": 5081,
      "](http://www.statoids": 5082,
      "ంగ్లాదేశ్‌": 5083,
      "▁మాత్రమే": 5084,
      "▁నాగరికత](సింధు": 5085,
      "ప్పటికినీ": 5086,
      "▁సంస్కృతి\n": 5087,
      "▁ప్రముఖమైన": 5088,
      "s/factbook": 5089,
      "s/in.html": 5090,
      "భరతు": 5091,
      "▁ఖగోళ": 5092,
      "▁ఖనిజాలు": 5093,
      "▁ఘట్ట": 5094,
      "](తెలుగు": 5095,
      "](హిమాలయ": 5096,
      "▁వెబ్": 5097,
      "▁సుల్తాన": 5098,
      "▁సమాఖ్య.": 5099,
      "▁మనదేశం": 5100,
      "▁రూపాంతర": 5101,
      "▁జన్మనిచ్చ": 5102,
      "ండో-ఆ": 5103,
      "▁న్యాయవ్యవస్థ": 5104,
      "▁విశేష": 5105,
      "▁విశ్వాస": 5106,
      "▁నిర్వహించింది.": 5107,
      "▁ఎన్నికల్లో": 5108,
      "▁స్థానంలో,": 5109,
      "▁2023": 5110,
      "▁2021,": 5111,
      "▁కారణంగా,": 5112,
      "▁ద్వీప-దేశ": 5113,
      "▁చిత్రకళ": 5114,
      "▁సౌకర్యాలలో": 5115,
      ".html)\n": 5116,
      "...": 5117,
      "2004": 5118,
      "logu": 5119,
      "name": 5120,
      "ఖో-ఖో": 5121,
      "జ్ఞాన": 5122,
      "వచ్చని": 5123,
      "ెల్లూరు": 5124,
      "▁టైటి": 5125,
      "▁టైగర్": 5126,
      "](విశ్వ": 5127,
      "▁[హిందూ](హిందూ": 5128,
      "▁పి.": 5129,
      "▁పంచాయతి": 5130,
      "▁పంచుకుంటో": 5131,
      "▁కిందకు": 5132,
      "▁సూచించినట్లు": 5133,
      "కుంటారు.": 5134,
      "▁నెహ్రూ": 5135,
      "▁నెహ్వాల్": 5136,
      "▁ఇవిక": 5137,
      "స్థానంలో": 5138,
      "ామిత్ర": 5139,
      "ామిడి": 5140,
      "ద్రావిడ": 5141,
      "నాథన్": 5142,
      "డు)\"": 5143,
      "మేనని": 5144,
      "▁రాజ్యాలుగా": 5145,
      "▁సమరం)": 5146,
      "శాఖపట్": 5147,
      "▁ఆధారపడిన": 5148,
      "▁కంపెనీ": 5149,
      "/geo": 5150,
      "beach": 5151,
      "cee": 5152,
      "nologu": 5153,
      "రాజ్యసమి": 5154,
      "లేదు": 5155,
      "ెర్టియో": 5156,
      "ైదరాబాదు": 5157,
      "▁స్టాక్": 5158,
      "▁isbn": 5159,
      "్రైస్త": 5160,
      "▁[ఢిల్లీ](ఢిల్లీ),": 5161,
      "▁పూర్వ": 5162,
      "▁ప్లగ్గు": 5163,
      "▁పర్యాయాలు": 5164,
      "▁కులాలు,": 5165,
      "▁వలన": 5166,
      "▁సహస్ర": 5167,
      "ర్జాతీయ": 5168,
      "ర్షణ": 5169,
      "▁నాలుగు": 5170,
      "▁ఆకుపచ్చ,": 5171,
      "ాంబే": 5172,
      "<": 5173,
      ">": 5174,
      "ँ": 5175,
      "ं": 5176,
      "ः": 5177,
      "अ": 5178,
      "आ": 5179,
      "इ": 5180,
      "ई": 5181,
      "उ": 5182,
      "ऊ": 5183,
      "ऋ": 5184,
      "ए": 5185,
      "ऐ": 5186,
      "ऑ": 5187,
      "ओ": 5188,
      "औ": 5189,
      "क": 5190,
      "ख": 5191,
      "ग": 5192,
      "घ": 5193,
      "च": 5194,
      "छ": 5195,
      "झ": 5196,
      "ञ": 5197,
      "ट": 5198,
      "ठ": 5199,
      "ड": 5200,
      "ढ": 5201,
      "ण": 5202,
      "थ": 5203,
      "द": 5204,
      "ध": 5205,
      "न": 5206,
      "प": 5207,
      "फ": 5208,
      "ब": 5209,
      "भ": 5210,
      "र": 5211,
      "ऱ": 5212,
      "ल": 5213,
      "ळ": 5214,
      "श": 5215,
      "ष": 5216,
      "ह": 5217,
      "़": 5218,
      "ा": 5219,
      "ि": 5220,
      "ी": 5221,
      "ु": 5222,
      "ू": 5223,
      "ृ": 5224,
      "ॅ": 5225,
      "ै": 5226,
      "ॉ": 5227,
      "ो": 5228,
      "ौ": 5229,
      "ॠ": 5230,
      "।": 5231,
      "०": 5232,
      "१": 5233,
      "२": 5234,
      "३": 5235,
      "४": 5236,
      "५": 5237,
      "६": 5238,
      "७": 5239,
      "८": 5240,
      "९": 5241,
      "॰": 5242,
      "ॲ": 5243,
      "‍": 5244,
      "‘": 5245,
      "’": 5246,
      "“": 5247,
      "”": 5248,
      "†": 5249,
      "▁क": 5250,
      "्य": 5251,
      "्र": 5252,
      "ार": 5253,
      "▁स": 5254,
      "▁प": 5255,
      "▁म": 5256,
      "▁ह": 5257,
      "▁भ": 5258,
      "्या": 5259,
      "▁व": 5260,
      "ारत": 5261,
      "र्": 5262,
      "▁आ": 5263,
      "▁अ": 5264,
      "ात": 5265,
      "▁भारत": 5266,
      "▁के": 5267,
      "ान": 5268,
      "▁न": 5269,
      "या": 5270,
      "िक": 5271,
      "ें": 5272,
      "रा": 5273,
      "▁ज": 5274,
      "▁द": 5275,
      "▁प्र": 5276,
      "्त": 5277,
      "ाल": 5278,
      "▁ब": 5279,
      "▁में": 5280,
      "▁त": 5281,
      "▁है": 5282,
      "ीय": 5283,
      "ां": 5284,
      "्ष": 5285,
      "ित": 5286,
      "हे": 5287,
      "▁का": 5288,
      "ों": 5289,
      "▁ग": 5290,
      "▁आहे": 5291,
      "ाच": 5292,
      "स्": 5293,
      "ला": 5294,
      "▁रा": 5295,
      "▁श": 5296,
      "ंग": 5297,
      "ेश": 5298,
      "ास": 5299,
      "▁औ": 5300,
      "ना": 5301,
      "ष्": 5302,
      "ले": 5303,
      "▁और": 5304,
      "▁उ": 5305,
      "ाम": 5306,
      "िया": 5307,
      "▁इ": 5308,
      "ील": 5309,
      "्व": 5310,
      "▁सं": 5311,
      "▁की": 5312,
      "ंत": 5313,
      "क्ष": 5314,
      "ने": 5315,
      "▁वि": 5316,
      "था": 5317,
      "ली": 5318,
      "▁से": 5319,
      "र्व": 5320,
      "▁य": 5321,
      "दी": 5322,
      "▁ए": 5323,
      "▁राज": 5324,
      "न्": 5325,
      "▁है।": 5326,
      "▁र": 5327,
      "ष्ट": 5328,
      "ृत": 5329,
      "▁आहे.": 5330,
      "▁ल": 5331,
      "ता": 5332,
      "▁पर": 5333,
      "▁१": 5334,
      "▁या": 5335,
      "▁च": 5336,
      "से": 5337,
      "ून": 5338,
      "ाज": 5339,
      "▁हो": 5340,
      "चे": 5341,
      "ेत": 5342,
      "▁कर": 5343,
      "वि": 5344,
      "र्म": 5345,
      "▁भारतीय": 5346,
      "री": 5347,
      "ची": 5348,
      "द्": 5349,
      "ाव": 5350,
      "▁को": 5351,
      "िय": 5352,
      "स्त": 5353,
      "कार": 5354,
      "च्या": 5355,
      "द्र": 5356,
      "भारत": 5357,
      "वा": 5358,
      "ध्य": 5359,
      "िम": 5360,
      "िल": 5361,
      "ष्ट्र": 5362,
      "▁एक": 5363,
      "ति": 5364,
      "ती": 5365,
      "▁सम": 5366,
      "ाग": 5367,
      "▁ध": 5368,
      "ही": 5369,
      "ते": 5370,
      "▁स्": 5371,
      "▁हैं": 5372,
      "द्ध": 5373,
      "ाण": 5374,
      "▁देश": 5375,
      "ड़": 5376,
      "ुर": 5377,
      "देश": 5378,
      "त्त": 5379,
      "▁सा": 5380,
      "िं": 5381,
      "्रे": 5382,
      "▁अस": 5383,
      "ाष": 5384,
      "ीन": 5385,
      "▁ने": 5386,
      "नी": 5387,
      "मु": 5388,
      "▁साम": 5389,
      "ंड": 5390,
      "▁जात": 5391,
      "धिक": 5392,
      "हा": 5393,
      "िण": 5394,
      "▁वर्": 5395,
      "चा": 5396,
      "िन्": 5397,
      "्यां": 5398,
      "▁आहेत": 5399,
      "▁[स": 5400,
      "](स": 5401,
      "के": 5402,
      "ित्र": 5403,
      "ंत्र": 5404,
      "▁झ": 5405,
      "▁नि": 5406,
      "ोक": 5407,
      "्म": 5408,
      "क्षिण": 5409,
      "ाच्या": 5410,
      "का": 5411,
      "पा": 5412,
      "ूर्व": 5413,
      "धान": 5414,
      "▁घ": 5415,
      "▁मु": 5416,
      "्च": 5417,
      "▁हे": 5418,
      "▁क्ष": 5419,
      "ातील": 5420,
      "▁राज्य": 5421,
      "िस": 5422,
      "कृत": 5423,
      "▁राष्ट्र": 5424,
      "▁धर्म": 5425,
      "प्र": 5426,
      "▁झाल": 5427,
      "▁अन": 5428,
      "कि": 5429,
      "सा": 5430,
      "ेत्र": 5431,
      "▁भाष": 5432,
      "स्कृत": 5433,
      "▁आहेत.": 5434,
      "▁क्षेत्र": 5435,
      "हार": 5436,
      "▁हैं।": 5437,
      "](म": 5438,
      "▁[म": 5439,
      "▁१९": 5440,
      "ध्ये": 5441,
      "▁वा": 5442,
      "▁२": 5443,
      "्यात": 5444,
      "▁तथा": 5445,
      "ाने": 5446,
      "▁ट": 5447,
      "▁इस": 5448,
      "हु": 5449,
      "िश": 5450,
      "▁ख": 5451,
      "ार्": 5452,
      "▁भारतात": 5453,
      "ल्या": 5454,
      "भारतीय": 5455,
      "िल्": 5456,
      "वी": 5457,
      "ोल": 5458,
      "▁हु": 5459,
      "▁वर्ष": 5460,
      "ोग": 5461,
      "्राज": 5462,
      "र्थ": 5463,
      "▁साम्राज": 5464,
      "ी](": 5465,
      "▁सर": 5466,
      "▁प्रदेश": 5467,
      "रे": 5468,
      "▁मो": 5469,
      "ात.": 5470,
      "राज": 5471,
      "की": 5472,
      "▁भाषा": 5473,
      "▁मान": 5474,
      "▁भी": 5475,
      "▁[ब": 5476,
      "▁बा": 5477,
      "त्": 5478,
      "मी": 5479,
      "▁स्व": 5480,
      "▁संस्कृत": 5481,
      "ी)": 5482,
      "▁[अ": 5483,
      "▁साम्राज्य": 5484,
      "कर": 5485,
      "▁सर्व": 5486,
      "थान": 5487,
      "ळे": 5488,
      "िन": 5489,
      "िळ": 5490,
      "स्तान": 5491,
      "](ब": 5492,
      "शिया": 5493,
      "▁[क": 5494,
      "ांत": 5495,
      "पट": 5496,
      "प्त": 5497,
      "▁अधिक": 5498,
      "▁दक्षिण": 5499,
      "त्तर": 5500,
      "दा": 5501,
      "हर": 5502,
      "ाली": 5503,
      "▁पूर्व": 5504,
      "ाला": 5505,
      "ंब": 5506,
      "ूप": 5507,
      "▁बहु": 5508,
      "ते.": 5509,
      "▁सरकार": 5510,
      "त्य": 5511,
      "वर": 5512,
      "](क": 5513,
      "ंग्रे": 5514,
      "पु": 5515,
      "ाचे": 5516,
      "▁किया": 5517,
      "▁तक": 5518,
      "िव": 5519,
      "▁पु": 5520,
      "▁उप": 5521,
      "नेक": 5522,
      "ंद": 5523,
      "तात.": 5524,
      "ीत": 5525,
      "▁[ग": 5526,
      "▁जन": 5527,
      "ंध": 5528,
      "जी": 5529,
      "णि": 5530,
      "णी": 5531,
      "हास": 5532,
      "▁अनेक": 5533,
      "थाप": 5534,
      "ंद्र": 5535,
      "किस्तान": 5536,
      "जा": 5537,
      "जात": 5538,
      "तम": 5539,
      "वे": 5540,
      "्ह": 5541,
      "▁ही": 5542,
      "िका": 5543,
      "ख्य": 5544,
      "ीप": 5545,
      "ुस": 5546,
      "ूर": 5547,
      "ैन": 5548,
      "▁फ": 5549,
      "▁हा": 5550,
      "fi": 5551,
      "त्र": 5552,
      "▁[इ": 5553,
      "▁भू": 5554,
      "▁ते": 5555,
      "ास्त": 5556,
      "▁राष्ट्रीय": 5557,
      "ठी": 5558,
      "श्च": 5559,
      "▁भारताच्या": 5560,
      "▁नदी": 5561,
      "▁यु": 5562,
      "ंप": 5563,
      "क्त": 5564,
      "द्य": 5565,
      "](ग": 5566,
      "▁दो": 5567,
      "ालय": 5568,
      "क्": 5569,
      "भा": 5570,
      "माण": 5571,
      "](अ": 5572,
      "▁काळ": 5573,
      "ाची": 5574,
      "ाचीन": 5575,
      "▁चित्र": 5576,
      "ल्": 5577,
      "ैद": 5578,
      "▁लोक": 5579,
      "मध्ये": 5580,
      "शी": 5581,
      "००": 5582,
      "▁सब": 5583,
      "▁शिक": 5584,
      "विध": 5585,
      "श्चिम": 5586,
      "णा": 5587,
      "वर्": 5588,
      "ृत्य": 5589,
      "म्": 5590,
      "ाट": 5591,
      "▁पा": 5592,
      "▁गया": 5593,
      "▁साथ": 5594,
      "िन्दी": 5595,
      "राज्य": 5596,
      "▁सबसे": 5597,
      "हित": 5598,
      "्यव": 5599,
      "▁वे": 5600,
      "ाचा": 5601,
      "▁स्थाप": 5602,
      "▁चित्रपट": 5603,
      "पर": 5604,
      "।\n": 5605,
      "▁जिस": 5606,
      "▁है।\n": 5607,
      "वं": 5608,
      "्रि": 5609,
      "▁भाग": 5610,
      "ंतर": 5611,
      "ओं": 5612,
      "चित्र": 5613,
      "बंध": 5614,
      "▁थ": 5615,
      "▁गे": 5616,
      "ष्ठ": 5617,
      "ख्या": 5618,
      "दल": 5619,
      "▁ओ": 5620,
      "▁प्राचीन": 5621,
      "▁विश": 5622,
      "▁विविध": 5623,
      "ढ़": 5624,
      "दू": 5625,
      "दार": 5626,
      "मान": 5627,
      "ेक": 5628,
      "▁था": 5629,
      "▁[ह": 5630,
      "्वीप": 5631,
      "▁यह": 5632,
      "सद": 5633,
      "▁होता": 5634,
      "thumb": 5635,
      "िल्ली": 5636,
      "ज़": 5637,
      "त्या": 5638,
      "र)": 5639,
      "सं": 5640,
      "▁बन": 5641,
      "ंगा": 5642,
      "िमालय": 5643,
      "▁शिक्ष": 5644,
      "ीम": 5645,
      "▁कार": 5646,
      "](ह": 5647,
      "▁गण": 5648,
      "तिहास": 5649,
      "्रिट": 5650,
      "काल": 5651,
      "यु": 5652,
      "▁ये": 5653,
      "▁बाद": 5654,
      "thumb|": 5655,
      "क्र": 5656,
      "न)": 5657,
      "ौद्ध": 5658,
      "ंडिया": 5659,
      "पाकिस्तान": 5660,
      "▁प्रकार": 5661,
      "▁मुख्य": 5662,
      "्यवस्": 5663,
      "टी": 5664,
      "ठा": 5665,
      "णे": 5666,
      "▁ड": 5667,
      "▁[द": 5668,
      "▁आणि": 5669,
      "▁नाम": 5670,
      "ंगाल": 5671,
      "▁आहे.\n": 5672,
      "▁साहित": 5673,
      "ृष्ट": 5674,
      "▁त्या": 5675,
      "▁है,": 5676,
      "▁लि": 5677,
      "्रिटिश": 5678,
      "ाष्ट्र": 5679,
      "धार": 5680,
      "पूर्व": 5681,
      "ेख": 5682,
      "▁ला": 5683,
      "▁अप": 5684,
      "▁असे": 5685,
      "▁नाव": 5686,
      "▁नृत्य": 5687,
      "▁उत्तर": 5688,
      "▁स्थान": 5689,
      "िंध": 5690,
      "ुसार": 5691,
      "ूर्": 5692,
      "ेव": 5693,
      "ारा": 5694,
      "](इ": 5695,
      "](भारतीय": 5696,
      "ांध": 5697,
      "स्ट": 5698,
      "ासन": 5699,
      "तर": 5700,
      "▁अर्थ": 5701,
      "विधान": 5702,
      "ियों": 5703,
      "ब्": 5704,
      "मार": 5705,
      "ाय": 5706,
      "▁पद": 5707,
      "▁पुर": 5708,
      "](द": 5709,
      "▁केंद्र": 5710,
      "ांग": 5711,
      "ली.": 5712,
      "▁निर्म": 5713,
      "▁झाले": 5714,
      "▁शिक्षण": 5715,
      "िर": 5716,
      "▁तर": 5717,
      "्यवस्था": 5718,
      "ोब": 5719,
      "▁ई": 5720,
      "ारी": 5721,
      "▁सु": 5722,
      "▁संग": 5723,
      "▁पह": 5724,
      "▁रूप": 5725,
      "ुरू": 5726,
      "हाराष्ट्र": 5727,
      "धील": 5728,
      "ऱ्या": 5729,
      "▁म्ह": 5730,
      "▁[प": 5731,
      "▁जो": 5732,
      "▁काही": 5733,
      "le:": 5734,
      "file:": 5735,
      "▁म्हण": 5736,
      "्ञ": 5737,
      "बी": 5738,
      "में": 5739,
      "वाम": 5740,
      "▁ऑ": 5741,
      "▁क्र": 5742,
      "ार्थ": 5743,
      "▁युद्ध": 5744,
      "▁विश्व": 5745,
      "पास": 5746,
      "ाप्त": 5747,
      "▁ले": 5748,
      "▁कि": 5749,
      "▁दिल्ली": 5750,
      "ामु": 5751,
      "▁इतिहास": 5752,
      "क्षा": 5753,
      "▁होती": 5754,
      "▁संस्कृती": 5755,
      "ोह": 5756,
      "ोड़": 5757,
      "](भारत": 5758,
      "▁[श": 5759,
      "▁[भारतीय": 5760,
      "▁हिन्दी": 5761,
      "▁ब्रिटिश": 5762,
      "▁संविधान": 5763,
      "चित्र:": 5764,
      "लग": 5765,
      "्न": 5766,
      "▁अभ": 5767,
      "मुख": 5768,
      "तंत्र": 5769,
      "पती": 5770,
      "रिक": 5771,
      "ोर": 5772,
      "▁कु": 5773,
      "▁मिळ": 5774,
      "](प": 5775,
      "▁[न": 5776,
      "▁हवाम": 5777,
      "▁प्राण": 5778,
      "▁प्रजात": 5779,
      "ड़ा": 5780,
      "मुळे": 5781,
      "▁जाता": 5782,
      "▁टक्": 5783,
      "▁खास": 5784,
      "▁बहुत": 5785,
      "द्योग": 5786,
      "▁येथ": 5787,
      "▁हवामान": 5788,
      "▁प्रजाती": 5789,
      "फ्र": 5790,
      "▁मध्य": 5791,
      "](चित्र:": 5792,
      "▁व्या": 5793,
      "▁आज": 5794,
      "▁प्रमुख": 5795,
      "▁उत्": 5796,
      "तिश": 5797,
      "ंत्री": 5798,
      "▁अर्थव": 5799,
      "ंजा": 5800,
      "सम": 5801,
      "ौर": 5802,
      "▁छ": 5803,
      "▁पठ": 5804,
      "▁शासन": 5805,
      "क्षण": 5806,
      "ास्त्र": 5807,
      "ैदिक": 5808,
      "ूर्ण": 5809,
      "ण्यात": 5810,
      "पे": 5811,
      "वळ": 5812,
      "ो.": 5813,
      "▁५": 5814,
      "](श": 5815,
      "▁विक": 5816,
      "▁तसे": 5817,
      "▁यां": 5818,
      "▁तसेच": 5819,
      "तु": 5820,
      "रत": 5821,
      "▁पश्चिम": 5822,
      "](ज": 5823,
      "▁[ज": 5824,
      "स्ला": 5825,
      "▁एशिया": 5826,
      "▁चु": 5827,
      "▁हुआ": 5828,
      "▁हुई": 5829,
      "डे": 5830,
      "भू": 5831,
      "िला": 5832,
      "ारे": 5833,
      "नाड": 5834,
      "▁संसद": 5835,
      "र्थिक": 5836,
      "च्च": 5837,
      "द्वीप": 5838,
      "सभा": 5839,
      "ुप्त": 5840,
      "ृष्ठ": 5841,
      "ोष": 5842,
      "▁पृष्ठ": 5843,
      "ाता": 5844,
      "▁केले": 5845,
      "▁संघ": 5846,
      "▁विभ": 5847,
      "▁होते.": 5848,
      "ावर": 5849,
      "▁अन्य": 5850,
      "▁साहित्य": 5851,
      "▁टक्के": 5852,
      "वन": 5853,
      "▁पर्व": 5854,
      "▁मह": 5855,
      "स्व": 5856,
      "नाव": 5857,
      "▁नदी)": 5858,
      "---|": 5859,
      "डी": 5860,
      "थित": 5861,
      "भाष": 5862,
      "सी": 5863,
      "ुज": 5864,
      "▁४": 5865,
      "ारिक": 5866,
      "▁सैन": 5867,
      "](आ": 5868,
      "](न": 5869,
      "▁हिं": 5870,
      "▁नद": 5871,
      "▁जग": 5872,
      "▁दिया": 5873,
      "▁इंडिया": 5874,
      "हीं": 5875,
      "▁जाते": 5876,
      "▁थी": 5877,
      "▁पठार": 5878,
      "मधील": 5879,
      "श्म": 5880,
      "ुन": 5881,
      "ेट": 5882,
      "▁देख": 5883,
      "▁प्रत्य": 5884,
      "ांच्या": 5885,
      "ांचा": 5886,
      "स्थान": 5887,
      "▁झाला": 5888,
      "िंधू": 5889,
      "▁अर्थव्यवस्था": 5890,
      "रु": 5891,
      "रात": 5892,
      "लोक": 5893,
      "ुव": 5894,
      "्छ": 5895,
      "▁न्या": 5896,
      "▁द्व": 5897,
      "ाले": 5898,
      "▁बढ़": 5899,
      "▁राज्यों": 5900,
      "ंग्रेज़": 5901,
      "▁दोन": 5902,
      "ंजाब": 5903,
      "▁ऊ": 5904,
      "▁पक्ष": 5905,
      "▁प्रमाण": 5906,
      "▁निव": 5907,
      "▁गणराज्य": 5908,
      "पूर्वी": 5909,
      "▁प्रत्येक": 5910,
      "गर": 5911,
      "ण्": 5912,
      "ण्या": 5913,
      "पूर्ण": 5914,
      "मे": 5915,
      "म्म": 5916,
      "योग": 5917,
      "लय": 5918,
      "ाद": 5919,
      "ाधिक": 5920,
      "▁कम": 5921,
      "▁किल्": 5922,
      "्यंत": 5923,
      "▁मध्ये": 5924,
      "र्ज": 5925,
      "▁आहार": 5926,
      "ले.": 5927,
      "▁इतर": 5928,
      "िये": 5929,
      "वाद": 5930,
      "▁समय": 5931,
      "▁समु": 5932,
      "▁हैं,": 5933,
      "्रेणी": 5934,
      "▁असते.": 5935,
      "▁धर्म)": 5936,
      "साठी": 5937,
      "▁मोठ": 5938,
      "तमिळ": 5939,
      "▁लिए": 5940,
      "्ञान": 5941,
      "पासून": 5942,
      "*)": 5943,
      "च्छ": 5944,
      "शास": 5945,
      "हरी": 5946,
      "ीस": 5947,
      "्ल": 5948,
      "▁आप": 5949,
      "▁आर्थिक": 5950,
      "▁बदल": 5951,
      "नाट": 5952,
      "ष्ण": 5953,
      "▁उदा": 5954,
      "न्न": 5955,
      "कालीन": 5956,
      "मंत्री": 5957,
      "ीच": 5958,
      "ूल": 5959,
      "ूह": 5960,
      "ेड": 5961,
      "१९": 5962,
      "▁मा": 5963,
      "▁बना": 5964,
      "ित्त": 5965,
      "▁ग्र": 5966,
      "ियाँ": 5967,
      "▁सेना": 5968,
      "▁लग": 5969,
      "▁स्थित": 5970,
      "▁देशों": 5971,
      "ड़ी": 5972,
      "▁हैं।\n": 5973,
      "▁इसके": 5974,
      "▁हुए": 5975,
      "▁न्याया": 5976,
      "ंच": 5977,
      "गोल": 5978,
      "टा": 5979,
      "ैकी": 5980,
      "▁काल": 5981,
      "▁सण": 5982,
      "▁मैद": 5983,
      "र्श": 5984,
      "▁जल": 5985,
      "▁दश": 5986,
      "▁प्रांत": 5987,
      "ांची": 5988,
      "ांमध्ये": 5989,
      "▁विस्त": 5990,
      "चीन": 5991,
      "▁झाली": 5992,
      "▁साम्राज्य)": 5993,
      "▁संगीत": 5994,
      "▁येथील": 5995,
      "नाडू": 5996,
      "श्मी": 5997,
      "▁समुद्र": 5998,
      "▁मैदान": 5999,
      "डा": 6000,
      "मन": 6001,
      "रब": 6002,
      "४७": 6003,
      "५०": 6004,
      "▁किन": 6005,
      "▁सह": 6006,
      "▁स्त": 6007,
      "▁पार्": 6008,
      "](उ": 6009,
      "▁हिमालय": 6010,
      "▁वै": 6011,
      "▁नहीं": 6012,
      "▁जय": 6013,
      "▁रहा": 6014,
      "▁करने": 6015,
      "▁भाषाओं": 6016,
      "▁सर्वाधिक": 6017,
      "जाति": 6018,
      "माणु": 6019,
      "▁लाग": 6020,
      "▁ऑफ": 6021,
      "▁द्वारा": 6022,
      "ण्ड": 6023,
      "्रेणी:": 6024,
      "शासित": 6025,
      "धि": 6026,
      "धर्म": 6027,
      "लाल": 6028,
      "ॉल": 6029,
      "▁३": 6030,
      "▁सुर": 6031,
      "▁[भारत": 6032,
      "▁वन": 6033,
      "ाती": 6034,
      "राण": 6035,
      "▁प्राप्त": 6036,
      "▁१२": 6037,
      "ीमा": 6038,
      "दु": 6039,
      "धी": 6040,
      "ेष": 6041,
      "ोच्च": 6042,
      "▁कई": 6043,
      "▁सभ": 6044,
      "▁पड": 6045,
      "▁महा": 6046,
      "▁वैदिक": 6047,
      "▁अग": 6048,
      "▁अज": 6049,
      "ातंत्र": 6050,
      "▁जी": 6051,
      "▁काम": 6052,
      "▁शता": 6053,
      "ंग्र": 6054,
      "▁येत": 6055,
      "सेना": 6056,
      "ाजिक": 6057,
      "▁होत": 6058,
      "▁करोड़": 6059,
      "▁असले": 6060,
      "▁असून": 6061,
      "▁सामाजिक": 6062,
      "▁जाती": 6063,
      "्यांची": 6064,
      "▁अनुसार": 6065,
      "साय": 6066,
      "▁काळात": 6067,
      "▁जिसमें": 6068,
      "▁होता.": 6069,
      "▁कारण": 6070,
      "ब्दी": 6071,
      "▁निर्माण": 6072,
      "▁चुनाव": 6073,
      "ंग्रेज़ी": 6074,
      "तमिळनाडू": 6075,
      "▁शताब्दी": 6076,
      "खन": 6077,
      "तिक": 6078,
      "पाल": 6079,
      "िख": 6080,
      "्ट": 6081,
      "▁मस": 6082,
      "▁[उ": 6083,
      "्यान": 6084,
      "र्ष": 6085,
      "▁प्रस": 6086,
      "▁शै": 6087,
      "▁उत्त": 6088,
      "▁संबंध": 6089,
      "▁विद्य": 6090,
      "▁१९९": 6091,
      "ंबई": 6092,
      "▁भूम": 6093,
      "▁पर्वत": 6094,
      "▁उदाहर": 6095,
      "एँ": 6096,
      "देव": 6097,
      "बर": 6098,
      "ीया": 6099,
      "ोन": 6100,
      "ोप": 6101,
      "▁ठ": 6102,
      "▁सद": 6103,
      "▁मिल": 6104,
      "](पाकिस्तान": 6105,
      "▁[पाकिस्तान": 6106,
      "▁अव": 6107,
      "▁नाग": 6108,
      "राष्ट्र": 6109,
      "▁जा": 6110,
      "▁द्वीप": 6111,
      "▁बीच": 6112,
      "ांस": 6113,
      "▁इन": 6114,
      "ंतु": 6115,
      "न्द": 6116,
      "▁परंतु": 6117,
      "िंह": 6118,
      "▁घे": 6119,
      "▁घोष": 6120,
      "प्रधान": 6121,
      "▁अन्त": 6122,
      "▁स्वतंत्र": 6123,
      "ंदि": 6124,
      "क्ति": 6125,
      "वंट": 6126,
      "▁था।": 6127,
      "0px|": 6128,
      "▁नृत्य)": 6129,
      "ुजरात": 6130,
      "▁दशक": 6131,
      "right|": 6132,
      "गत": 6133,
      "चना": 6134,
      "जे": 6135,
      "दि": 6136,
      "पैकी": 6137,
      "भाव": 6138,
      "मत": 6139,
      "वले": 6140,
      "स्य": 6141,
      "ोड": 6142,
      "▁६": 6143,
      "्राट": 6144,
      "▁पार": 6145,
      "▁आध": 6146,
      "▁आधार": 6147,
      "▁अतिश": 6148,
      "▁भारताची": 6149,
      "▁नेत": 6150,
      "ांशी": 6151,
      "से|": 6152,
      "्यांच्या": 6153,
      "्यांमध्ये": 6154,
      "▁स्वातंत्र": 6155,
      "ंग्रेस": 6156,
      "वंश": 6157,
      "क्रम": 6158,
      "▁स्थानिक": 6159,
      "▁सैन्य": 6160,
      "▁किल्ला": 6161,
      "▁मोठ्या": 6162,
      "▁विद्यार्थ": 6163,
      "वलेसे|": 6164,
      "▁नेतृत": 6165,
      "टि": 6166,
      "िद्ध": 6167,
      "ीं": 6168,
      "▁मे": 6169,
      "▁[आ": 6170,
      "▁अंग्रेज़ी": 6171,
      "ात्म": 6172,
      "▁प्रश": 6173,
      "▁प्रधान": 6174,
      "▁गांध": 6175,
      "▁घाट": 6176,
      "▁क्षेत्रीय": 6177,
      "वीं": 6178,
      "▁संस्कृति": 6179,
      "▁पूर्वी": 6180,
      "fic": 6181,
      "▁चुनावों": 6182,
      "ोनेश": 6183,
      "▁[पाकिस्तान](पाकिस्तान": 6184,
      ";\n": 6185,
      "चल": 6186,
      "जय": 6187,
      "ी),": 6188,
      "▁ऋ": 6189,
      "▁कॉ": 6190,
      "▁महाराष्ट्र": 6191,
      "र्नाट": 6192,
      "▁आक": 6193,
      "▁आक्रम": 6194,
      "▁अथ": 6195,
      "ाना": 6196,
      "▁बंगाल": 6197,
      "काश": 6198,
      "िवस": 6199,
      "ल्प": 6200,
      "वर्ग": 6201,
      "म्ब": 6202,
      "युक्त": 6203,
      "द्योगिक": 6204,
      "ौर्य": 6205,
      "स्लामी": 6206,
      "---|---|": 6207,
      "ुनिक": 6208,
      "▁जयंत": 6209,
      "र्नाटक": 6210,
      "-20": 6211,
      "ख्": 6212,
      "गी": 6213,
      "ग्र": 6214,
      "घल": 6215,
      "जन": 6216,
      "तील": 6217,
      "द्या": 6218,
      "पूर": 6219,
      "फ़": 6220,
      "मारत": 6221,
      "यार": 6222,
      "रूप": 6223,
      "ळख": 6224,
      "ळवंट": 6225,
      "साग": 6226,
      "ूळ": 6227,
      "ूस": 6228,
      "्यता": 6229,
      "▁सो": 6230,
      "▁मत": 6231,
      "▁[वि": 6232,
      "ानंतर": 6233,
      "▁नी": 6234,
      "यास": 6235,
      "▁दृष्ट": 6236,
      "▁बांध": 6237,
      "ला.": 6238,
      "ंग्ल": 6239,
      "▁उन": 6240,
      "▁इमारत": 6241,
      "▁राजवंश": 6242,
      "न्द्र": 6243,
      "▁(*": 6244,
      "▁परंप": 6245,
      "▁करून": 6246,
      "▁जातो.": 6247,
      "धिकारिक": 6248,
      "▁वर्षां": 6249,
      "▁सर्वांत": 6250,
      "पुरी": 6251,
      "▁उपसाग": 6252,
      "▁[इवलेसे|": 6253,
      "▁वेग": 6254,
      "▁गेट": 6255,
      "▁ओर": 6256,
      "▁ओळख": 6257,
      "▁बहुतांशी": 6258,
      "भाषा": 6259,
      "▁जगातील": 6260,
      "▁निवड": 6261,
      "▁न्यायालय": 6262,
      "▁झाली.": 6263,
      "▁सदस्य": 6264,
      "▁अतिशय": 6265,
      "▁प्रधानमंत्री": 6266,
      "▁[पाकिस्तान](पाकिस्तान)": 6267,
      "▁परंपरा": 6268,
      ".s": 6269,
      "टे": 6270,
      "न्त": 6271,
      "प्": 6272,
      "मा": 6273,
      "िष्ट": 6274,
      "ीका": 6275,
      "ुष": 6276,
      "्ले": 6277,
      "▁९": 6278,
      "्यु": 6279,
      "▁पू": 6280,
      "▁वृ": 6281,
      "▁अश": 6282,
      "राव": 6283,
      "▁बौद्ध": 6284,
      "▁शा": 6285,
      "▁शहरी": 6286,
      "ासा": 6287,
      "▁उद्योग": 6288,
      "▁रो": 6289,
      "वादी": 6290,
      "▁समाज": 6291,
      "मुंबई": 6292,
      "▁[सं": 6293,
      "्मिक": 6294,
      "▁१९७": 6295,
      "▁युग": 6296,
      "▁पाकिस्तान": 6297,
      "▁[दक्षिण": 6298,
      "▁उदाहरण": 6299,
      "▁आधुनिक": 6300,
      "▁नेतृत्व": 6301,
      ".sv": 6302,
      "ई।": 6303,
      "ओड": 6304,
      "रो": 6305,
      "सून": 6306,
      "ुट": 6307,
      "ुष्": 6308,
      "०१": 6309,
      "▁सक": 6310,
      "▁सीमा": 6311,
      "▁सिंह": 6312,
      "▁महास": 6313,
      "](भ": 6314,
      "](वि": 6315,
      "▁वर": 6316,
      "▁वार": 6317,
      "▁आधिकारिक": 6318,
      "▁ज्या": 6319,
      "▁प्रभाव": 6320,
      "▁में,": 6321,
      "▁ति": 6322,
      "▁तो": 6323,
      "्वे": 6324,
      "▁लिये": 6325,
      "▁१८": 6326,
      "स्त्र": 6327,
      "▁किया।": 6328,
      "▁जनजाति": 6329,
      "संख्या": 6330,
      "▁व्याप": 6331,
      "▁विकास": 6332,
      "▁थी।": 6333,
      "श्मीर": 6334,
      "▁वैश": 6335,
      "▁कॉंग्रेस": 6336,
      "▁अथवा": 6337,
      "ुष्क": 6338,
      "▁महासाग": 6339,
      ".स": 6340,
      "ंनी": 6341,
      "ध्या": 6342,
      "वृत": 6343,
      "वरी": 6344,
      "सभ": 6345,
      "सित": 6346,
      "हें": 6347,
      "ाप": 6348,
      "ुल": 6349,
      "ोद": 6350,
      "▁सल": 6351,
      "▁साल": 6352,
      "▁सध्या": 6353,
      "▁[भ": 6354,
      "▁आढ": 6355,
      "▁आले": 6356,
      "▁आशिया": 6357,
      "▁अमे": 6358,
      "▁भारताचे": 6359,
      "▁केली": 6360,
      "▁जै": 6361,
      "▁जाने": 6362,
      "▁प्रामु": 6363,
      "▁तरी": 6364,
      "▁तयार": 6365,
      "िती": 6366,
      "▁गंगा": 6367,
      "▁राज्यात": 6368,
      "▁रंग": 6369,
      "▁यादी": 6370,
      "ेतील": 6371,
      "](सं": 6372,
      "▁राष्ट्रपती": 6373,
      "▁आहेत.\n": 6374,
      "▁वाघ": 6375,
      "▁मोठा": 6376,
      "▁[बौद्ध": 6377,
      "](बौद्ध": 6378,
      "वर्ष": 6379,
      "▁भागात": 6380,
      "ख्याने": 6381,
      "](दक्षिण": 6382,
      "ामुळे": 6383,
      "▁प्राणी": 6384,
      "▁खासदार": 6385,
      "▁सुरुव": 6386,
      "▁अजून": 6387,
      "▁भूमिका": 6388,
      "वर्ग:": 6389,
      ".स.": 6390,
      "▁प्रामुख्याने": 6391,
      ".0": 6392,
      "_o": 6393,
      "_s": 6394,
      "चोल": 6395,
      "बाद": 6396,
      "भग": 6397,
      "मर": 6398,
      "मह": 6399,
      "लों": 6400,
      "वार": 6401,
      "िने": 6402,
      "िष्ठ": 6403,
      "२६": 6404,
      "▁'": 6405,
      "▁मन": 6406,
      "▁हिम": 6407,
      "▁आय": 6408,
      "▁नौ": 6409,
      "िक्": 6410,
      "▁जब": 6411,
      "▁तम": 6412,
      "ांड": 6413,
      "ांचे": 6414,
      "्षिक": 6415,
      "ोंड": 6416,
      "ंगे": 6417,
      "नाथ": 6418,
      "▁राजनी": 6419,
      "▁रक्षा": 6420,
      "▁लोग": 6421,
      "ियार": 6422,
      "▁स्मार": 6423,
      "त्ता": 6424,
      "ंडोनेश": 6425,
      "हाँ": 6426,
      "ोलन": 6427,
      "▁वर्षों": 6428,
      "ी](अ": 6429,
      "▁मानसून": 6430,
      "▁अधिकार": 6431,
      "▁बहुमत": 6432,
      "तमिल": 6433,
      "▁कार्य": 6434,
      "▁ईसा": 6435,
      "▁पहले": 6436,
      "tion": 6437,
      "फ्रीका": 6438,
      "▁हुआ।": 6439,
      "म्मू": 6440,
      "ोपीय": 6441,
      "▁स्वतंत्रता": 6442,
      "टिबंध": 6443,
      "▁स्मारक": 6444,
      "ंडोनेशिया": 6445,
      "तो": 6446,
      "पी": 6447,
      "यी": 6448,
      "शन": 6449,
      "षभ": 6450,
      "हू": 6451,
      "ैस": 6452,
      "०,": 6453,
      "▁%": 6454,
      "ार्मिक": 6455,
      "▁हर": 6456,
      "र्त": 6457,
      "▁आग": 6458,
      "ान](": 6459,
      "▁प्रद": 6460,
      "स्ल": 6461,
      "▁इत्या": 6462,
      "▁११": 6463,
      "▁चार": 6464,
      "ियन": 6465,
      "▁धार्मिक": 6466,
      "▁नेहर": 6467,
      "▁अनु": 6468,
      "▁[बंगाल": 6469,
      "करण": 6470,
      "▁सर्वोच्च": 6471,
      "िवाज": 6472,
      "▁ma": 6473,
      "पेक्ष": 6474,
      "▁विकसित": 6475,
      "स्लाम": 6476,
      "▁पारंप": 6477,
      "प्पा": 6478,
      "ँच": 6479,
      "ंका": 6480,
      "एं": 6481,
      "कल्प": 6482,
      "ज्ञान": 6483,
      "डील": 6484,
      "थियार": 6485,
      "नत": 6486,
      "नुसार": 6487,
      "रस्व": 6488,
      "ळ)": 6489,
      "ळी": 6490,
      "ळवळ": 6491,
      "साम": 6492,
      "िध": 6493,
      "ूण": 6494,
      "ूची": 6495,
      "ौद्योगिक": 6496,
      "्ला": 6497,
      "▁कमी": 6498,
      "्रील": 6499,
      "▁सुरू": 6500,
      "▁सिंधू": 6501,
      "▁पंत": 6502,
      "▁पाव": 6503,
      "▁प्ले": 6504,
      "▁मरा": 6505,
      "▁हथियार": 6506,
      "्याच्या": 6507,
      "्याद्र": 6508,
      "र्जा": 6509,
      "▁आण": 6510,
      "▁आम": 6511,
      "▁आन्द": 6512,
      "▁अप्र": 6513,
      "▁अशी": 6514,
      "▁अरब": 6515,
      "▁भारताने": 6516,
      "▁नाट": 6517,
      "िकाण": 6518,
      "ेंद्र": 6519,
      "▁जिन": 6520,
      "▁जास्त": 6521,
      "▁प्रौद्योगिक": 6522,
      "्तु": 6523,
      "्तनत": 6524,
      "▁बने": 6525,
      "▁तिस": 6526,
      "ांनी": 6527,
      "▁गठ": 6528,
      "▁आहे,": 6529,
      "▁शक": 6530,
      "▁शत": 6531,
      "▁शास्त्र": 6532,
      "ामध्ये": 6533,
      "▁इंग्र": 6534,
      "▁विष": 6535,
      "▁विदेश": 6536,
      "▁एवं": 6537,
      "▁लिया": 6538,
      "▁(पूर्वी": 6539,
      "▁चळवळ": 6540,
      "▁करतात.": 6541,
      "▁करण्यात": 6542,
      "स्तन": 6543,
      "द्रा": 6544,
      "ड़े": 6545,
      "त्त्व": 6546,
      "िन्दू": 6547,
      "्यांना": 6548,
      "्यांचा": 6549,
      "▁घड": 6550,
      "▁मुघल": 6551,
      "▁राज्ये": 6552,
      "▁वापर": 6553,
      "▁वाळवंट": 6554,
      "▁२००": 6555,
      "▁२०१": 6556,
      "▁खो": 6557,
      "▁वर्षा": 6558,
      "राजस्थान": 6559,
      "▁मानवी": 6560,
      "▁जनसंख्या": 6561,
      "वेर": 6562,
      "▁भूगोल": 6563,
      "म्भ": 6564,
      "▁गया।\n": 6565,
      "▁स्थापना": 6566,
      "बंधन": 6567,
      "▁थे": 6568,
      "ांग्ला": 6569,
      "ोबत": 6570,
      "▁म्हणून": 6571,
      "▁म्हणजे": 6572,
      "▁होती.": 6573,
      "▁कुछ": 6574,
      "पेक्षा": 6575,
      "**\n": 6576,
      "▁विभाग": 6577,
      "▁जाते.": 6578,
      "▁दोनों": 6579,
      "ण्यास": 6580,
      "▁लगभग": 6581,
      "पालिका": 6582,
      "▁प्रसिद्ध": 6583,
      "▁शैली": 6584,
      "▁ठिकाण": 6585,
      "▁स्वातंत्र्य": 6586,
      "ficial": 6587,
      "ख्खन": 6588,
      "िष्ट्य": 6589,
      "▁वैशिष्ट्य": 6590,
      "▁सल्तनत": 6591,
      "▁आढळ": 6592,
      "रस्वती": 6593,
      "्रीलंका": 6594,
      "▁पंतप्रधान": 6595,
      "▁प्लेट": 6596,
      "चि": 6597,
      "पात": 6598,
      "पश्चिम": 6599,
      "मरी": 6600,
      "महा": 6601,
      "रबी": 6602,
      "रक्षण": 6603,
      "ल)": 6604,
      "लि": 6605,
      "वसाय": 6606,
      "सर": 6607,
      "ा)": 6608,
      "ाइ": 6609,
      "ुक": 6610,
      "ेस": 6611,
      "▁७": 6612,
      "▁कंप": 6613,
      "्रिक": 6614,
      "ारो": 6615,
      "▁पहा": 6616,
      "▁मंत्र": 6617,
      "▁मार्": 6618,
      "](ची": 6619,
      "▁[चीन": 6620,
      "▁भवन": 6621,
      "▁अस्त": 6622,
      "▁भारत\n": 6623,
      "▁प्रति": 6624,
      "▁शहर": 6625,
      "▁शुष्क": 6626,
      "ेशन": 6627,
      "▁रि": 6628,
      "▁लाल": 6629,
      "▁१०": 6630,
      "▁१५": 6631,
      "ावे": 6632,
      "▁१९८": 6633,
      "िश्च": 6634,
      "▁प्रदेश)": 6635,
      "](बंगाल": 6636,
      "पुत्र": 6637,
      "▁स्थापत्य": 6638,
      "संख्य": 6639,
      "▁ड्र": 6640,
      "धारण": 6641,
      "▁ईस्ट": 6642,
      "▁क्रम": 6643,
      "भूष": 6644,
      "वसायिक": 6645,
      "▁[चीन](ची": 6646,
      ".६": 6647,
      "ँकि": 6648,
      "ंक": 6649,
      "ंथ": 6650,
      "ंश": 6651,
      "खंड": 6652,
      "ट्ट": 6653,
      "तन": 6654,
      "थक": 6655,
      "दक्षिण": 6656,
      "नगर": 6657,
      "फे": 6658,
      "यक": 6659,
      "र-": 6660,
      "वल": 6661,
      "वैदिक": 6662,
      "सत": 6663,
      "ाँ": 6664,
      "ीण": 6665,
      "ोध": 6666,
      "२०": 6667,
      "ारम्भ": 6668,
      "▁सार": 6669,
      "▁पास": 6670,
      "▁पड़": 6671,
      "▁मौ": 6672,
      "](य": 6673,
      "▁[ड": 6674,
      "▁[य": 6675,
      "▁[लोक": 6676,
      "▁[१९": 6677,
      "▁हाला": 6678,
      "र्दू": 6679,
      "▁अलग": 6680,
      "▁केन्द्र": 6681,
      "ान्य": 6682,
      "▁निम": 6683,
      "▁ज़": 6684,
      "▁जंग": 6685,
      "▁दर": 6686,
      "▁दिवस": 6687,
      "▁प्रारम्भ": 6688,
      "▁बै": 6689,
      "▁बनी": 6690,
      "▁बड़ा": 6691,
      "▁बड़ी": 6692,
      "ांति": 6693,
      "▁गए": 6694,
      "▁सेवा": 6695,
      "▁रहे": 6696,
      "▁परमाणु": 6697,
      "▁१६": 6698,
      "ाजपा": 6699,
      "▁करना": 6700,
      "▁करता": 6701,
      "वायु": 6702,
      "ध्यम": 6703,
      "▁सम्राट": 6704,
      "▁धी": 6705,
      "ुरु": 6706,
      "िन्दु": 6707,
      "▁निभा": 6708,
      "▁१९५०": 6709,
      "▁२६": 6710,
      "▁इसी": 6711,
      "▁मोदी": 6712,
      "त्न": 6713,
      "▁स्वरूप": 6714,
      "ंबेड": 6715,
      "ंग्रेजी": 6716,
      "परमाणु": 6717,
      "▁था,": 6718,
      "](हिमालय": 6719,
      "▁अपने": 6720,
      "▁अपनी": 6721,
      "▁केंद्रशासित": 6722,
      "▁[श्रेणी:": 6723,
      "](श्रेणी:": 6724,
      "▁ऊँ": 6725,
      "▁माध्यम": 6726,
      "▁विस्तार": 6727,
      "▁किन्तु": 6728,
      "▁सहयोग": 6729,
      "▁पार्टी": 6730,
      "▁घोषणा": 6731,
      "▁आधारित": 6732,
      "▁अशोक": 6733,
      "षभदेव": 6734,
      "▁गठबंधन": 6735,
      "▁हालाँकि": 6736,
      "ंबेडकर": 6737,
      "%;\n": 6738,
      "जिं": 6739,
      "णात": 6740,
      "तः": 6741,
      "निर": 6742,
      "भर": 6743,
      "भाग": 6744,
      "रण": 6745,
      "रिका": 6746,
      "लु": 6747,
      "ळू": 6748,
      "वै": 6749,
      "व्या": 6750,
      "व्ह": 6751,
      "हान": 6752,
      "ाळ": 6753,
      "िले": 6754,
      "ूड": 6755,
      "ृष": 6756,
      "ोळ": 6757,
      "ोसी": 6758,
      "्स": 6759,
      "१८": 6760,
      "▁ढ": 6761,
      "▁कला": 6762,
      "्रम": 6763,
      "ारचे": 6764,
      "▁साली": 6765,
      "▁मंदि": 6766,
      "▁मौर्य": 6767,
      "](तमिळनाडू": 6768,
      "▁[त": 6769,
      "▁ह्या": 6770,
      "▁हाल": 6771,
      "▁भरत": 6772,
      "्याचे": 6773,
      "▁आली": 6774,
      "▁आदि": 6775,
      "▁अधि": 6776,
      "ातून": 6777,
      "▁भारताला": 6778,
      "▁केली.": 6779,
      "▁ना": 6780,
      "▁जेव": 6781,
      "▁प्रग": 6782,
      "▁बज": 6783,
      "▁बार": 6784,
      "▁बंद": 6785,
      "▁तीन": 6786,
      "▁त्यात": 6787,
      "▁ताप": 6788,
      "ांना": 6789,
      "ांवर": 6790,
      "स्थ": 6791,
      "स्कार": 6792,
      "स्पती": 6793,
      "▁इ.": 6794,
      "▁इस्लामी": 6795,
      "▁संख्या": 6796,
      "क्षर": 6797,
      "▁यात": 6798,
      "▁राजधान": 6799,
      "▁(इ": 6800,
      "▁परि": 6801,
      "▁पर्यंत": 6802,
      "▁१७": 6803,
      "▁करते": 6804,
      "द्दल": 6805,
      "ियर": 6806,
      "वाहर": 6807,
      "मुद्र": 6808,
      "▁निर्": 6809,
      "](महाराष्ट्र": 6810,
      "▁टिळ": 6811,
      "▁वर्षात": 6812,
      "▁प्रदेशात": 6813,
      "िवूड": 6814,
      "▁नदी),": 6815,
      "](गंगा": 6816,
      "णाऱ्या": 6817,
      "▁गेल्या": 6818,
      "▁गेली.": 6819,
      "ेकडील": 6820,
      "▁प्रकारच्या": 6821,
      "▁त्यामुळे": 6822,
      "िंधु": 6823,
      "▁पदव": 6824,
      "▁पदवी": 6825,
      "▁पुरस्कार": 6826,
      "▁निर्मिती": 6827,
      "ोबर": 6828,
      "हाराष्ट्र](महाराष्ट्र": 6829,
      "▁लेणी": 6830,
      "](पंजाब": 6831,
      "▁व्यावसायिक": 6832,
      "▁झाला.": 6833,
      "ंजाब](पंजाब": 6834,
      "ित्त्व": 6835,
      "ॉलिवूड": 6836,
      "▁वनस्पती": 6837,
      "तमिळनाडू](तमिळनाडू": 6838,
      "्यानमार": 6839,
      "▁गांधी": 6840,
      "▁वर्षांपूर्वी": 6841,
      "▁वेगळे": 6842,
      "▁व्यापार": 6843,
      "वृतीय": 6844,
      "▁अजूनही": 6845,
      "▁इत्यादी": 6846,
      "▁नाटके": 6847,
      "▁शतक": 6848,
      "वेरूळ": 6849,
      "▁अस्तित्त्व": 6850,
      "▁[चीन](चीन)": 6851,
      "जिंठा": 6852,
      "निरपेक्ष": 6853,
      "वाहरलाल": 6854,
      "▁टिळक": 6855,
      "*[": 6856,
      "-पश्चिम": 6857,
      ".३": 6858,
      ".५": 6859,
      "/w": 6860,
      "_b": 6861,
      "_d": 6862,
      "f)": 6863,
      "ंभ": 6864,
      "ंची": 6865,
      "इट": 6866,
      "ई)": 6867,
      "कृष्ट": 6868,
      "खा": 6869,
      "गध": 6870,
      "पति": 6871,
      "म)": 6872,
      "यत": 6873,
      "ये": 6874,
      "शेष": 6875,
      "हते": 6876,
      "हात्म": 6877,
      "ुप": 6878,
      "ूचना": 6879,
      "५७": 6880,
      "▁कड": 6881,
      "▁कर्ज": 6882,
      "्यट": 6883,
      "्यों": 6884,
      "▁सां": 6885,
      "▁पै": 6886,
      "](लोक": 6887,
      "▁हिल्": 6888,
      "▁वास्त": 6889,
      "▁व्यवस्था": 6890,
      "र्द्र": 6891,
      "▁आर्द्र": 6892,
      "▁नम": 6893,
      "▁जिन्": 6894,
      "▁दे": 6895,
      "▁प्रतिश": 6896,
      "▁बड़े": 6897,
      "▁तट": 6898,
      "▁तीस": 6899,
      "▁गो": 6900,
      "ाचल": 6901,
      "स्थाप": 6902,
      "लावा": 6903,
      "▁शुरू": 6904,
      "नाग": 6905,
      "▁उस": 6906,
      "▁यूर": 6907,
      "▁राजा": 6908,
      "▁(क": 6909,
      "▁पर्यट": 6910,
      "ेती": 6911,
      "वाह": 6912,
      "▁सम्": 6913,
      "्रेल": 6914,
      "नी)": 6915,
      "िन्न": 6916,
      "▁निर": 6917,
      "पाद": 6918,
      "▁धर्म](बौद्ध": 6919,
      "प्रिय": 6920,
      "▁क्षेत्रों": 6921,
      "](मोह": 6922,
      "▁[मध्य": 6923,
      "▁[मोह": 6924,
      "िशा": 6925,
      "▁194": 6926,
      "▁अधिकृत": 6927,
      "ंग्रेज": 6928,
      "▁उपयोग": 6929,
      "▁उपमहा": 6930,
      "▁जनवरी": 6931,
      "▁फै": 6932,
      "०००": 6933,
      "परेशन": 6934,
      "▁जिसके": 6935,
      "▁डॉल": 6936,
      "स्ट्रेल": 6937,
      "▁पुरुष": 6938,
      "▁कुल": 6939,
      "▁उत्पाद": 6940,
      "▁एशिया)": 6941,
      "▁संसदीय": 6942,
      "▁विभिन्न": 6943,
      "▁जलवायु": 6944,
      "▁विस्तृत": 6945,
      "▁स्तर": 6946,
      "▁वन्य": 6947,
      "जयनगर": 6948,
      "▁राजवंश)": 6949,
      "▁वार्षिक": 6950,
      "_of": 6951,
      "▁नौसेना": 6952,
      "▁जबकि": 6953,
      "▁तमिल": 6954,
      "टिबंधीय": 6955,
      "▁आन्दोलन": 6956,
      "▁विदेशी": 6957,
      "▁धीरे": 6958,
      "िन्दुस्तान": 6959,
      "हात्मा": 6960,
      "▁हिल्स": 6961,
      "▁प्रतिशत": 6962,
      "▁उपमहाद्वीप": 6963,
      "▁डॉलर": 6964,
      ":/": 6965,
      "ई](": 6966,
      "चाल": 6967,
      "द्व": 6968,
      "निष्ठ": 6969,
      "ोज": 6970,
      "ोस": 6971,
      "१५": 6972,
      "▁पस": 6973,
      "▁मंत्री": 6974,
      "](ड": 6975,
      "](धर्म": 6976,
      "▁[ल": 6977,
      "▁[धर्म": 6978,
      "▁हि": 6979,
      "▁हस्त": 6980,
      "ेंज": 6981,
      "▁जून": 6982,
      "▁दल": 6983,
      "▁प्रण": 6984,
      "▁प्रचल": 6985,
      "▁तत्": 6986,
      "▁तुल": 6987,
      "▁उद": 6988,
      "▁उभ": 6989,
      "ियां": 6990,
      "▁संयुक्त": 6991,
      "▁रचना": 6992,
      "्रेस": 6993,
      "मुना": 6994,
      "▁१९४७": 6995,
      "lef": 6996,
      "▁[गण": 6997,
      "जीव": 6998,
      "वर्ण": 6999,
      "दारी": 7000,
      "▁[हिमालय": 7001,
      "▁संविधान)": 7002,
      "▁अभिय": 7003,
      "▁सैनिक": 7004,
      "▁प्रशासन": 7005,
      "▁आकर्ष": 7006,
      "स्लिम": 7007,
      "लुग": 7008,
      "▁तापमान": 7009,
      "▁तत्कालीन": 7010,
      ")ात": 7011,
      "-पूर्व": 7012,
      "_m": 7013,
      "ंदी": 7014,
      "ई,": 7015,
      "एशिया": 7016,
      "ऑपरेशन": 7017,
      "ऑस्ट्रेल": 7018,
      "क,": 7019,
      "कू": 7020,
      "खी": 7021,
      "गड": 7022,
      "गण": 7023,
      "गातील": 7024,
      "गढ़": 7025,
      "गस्ट": 7026,
      "घात": 7027,
      "चर": 7028,
      "जास": 7029,
      "ज्ञ": 7030,
      "टना": 7031,
      "डो": 7032,
      "ण,": 7033,
      "णु": 7034,
      "णारे": 7035,
      "तात": 7036,
      "तांत": 7037,
      "थे": 7038,
      "पणे": 7039,
      "फल": 7040,
      "बट": 7041,
      "बद्दल": 7042,
      "मंच": 7043,
      "यर": 7044,
      "र्य": 7045,
      "रवि": 7046,
      "ळा": 7047,
      "ळ](": 7048,
      "ळूह": 7049,
      "वट": 7050,
      "वन)": 7051,
      "वारी": 7052,
      "शत": 7053,
      "श्य": 7054,
      "षुव": 7055,
      "षभूष": 7056,
      "समी": 7057,
      "सृष्ट": 7058,
      "हज": 7059,
      "हिं": 7060,
      "ह्याद्र": 7061,
      "हशत": 7062,
      "ीक्षण": 7063,
      "ूक": 7064,
      "ूद्वीप": 7065,
      "ैल": 7066,
      "ोर्": 7067,
      "ोली": 7068,
      "ोढ़": 7069,
      "२००": 7070,
      "▁ऐ": 7071,
      "▁ॲ": 7072,
      "▁कश्मीर": 7073,
      "▁स.": 7074,
      "▁सस्तन": 7075,
      "▁पी": 7076,
      "▁मार": 7077,
      "▁महार": 7078,
      "▁मिला": 7079,
      "](वर्ग:": 7080,
      "▁[तमिळनाडू](तमिळनाडू": 7081,
      "▁हळूह": 7082,
      "▁भाव": 7083,
      "▁भाजपा": 7084,
      "▁वाला": 7085,
      "▁वारे": 7086,
      "▁अब": 7087,
      "▁अशिया": 7088,
      "ातन": 7089,
      "ात्र": 7090,
      "▁भारतीया": 7091,
      "▁केवळ": 7092,
      "▁केवल": 7093,
      "▁नव": 7094,
      "▁निय": 7095,
      "▁नगर": 7096,
      "▁नकाश": 7097,
      "राम": 7098,
      "राठा": 7099,
      "▁जवळ": 7100,
      "▁जाना": 7101,
      "▁जहाँ": 7102,
      "▁दिस": 7103,
      "▁दख्खन": 7104,
      "▁प्रव": 7105,
      "▁प्रयास": 7106,
      "▁प्रजास": 7107,
      "ांपैकी": 7108,
      "▁गई": 7109,
      "▁गुजरात": 7110,
      "लाव": 7111,
      "लादेश": 7112,
      "▁शह": 7113,
      "▁शास": 7114,
      "▁शाले": 7115,
      "▁शेती": 7116,
      "▁औसत": 7117,
      "नाइट": 7118,
      "लेली": 7119,
      "लेल्या": 7120,
      "▁उन्": 7121,
      "▁उर्दू": 7122,
      "▁की।": 7123,
      "▁विवाद": 7124,
      "▁राजक": 7125,
      "▁राजवट": 7126,
      "▁परीक्षण": 7127,
      "▁होते": 7128,
      "▁होत्या": 7129,
      "▁करणे": 7130,
      "विध्य": 7131,
      "र्मदा": 7132,
      "ावेश": 7133,
      "▁कोटी": 7134,
      "वाळ": 7135,
      "िलों": 7136,
      "▁एकूण": 7137,
      "▁समर्थ": 7138,
      "▁समाप्त": 7139,
      "▁समावेश": 7140,
      "द्धती": 7141,
      "200px|": 7142,
      "िंदू": 7143,
      "▁असत": 7144,
      "▁असल्या": 7145,
      "▁जातात.": 7146,
      "▁वर्ग": 7147,
      "▁वर्ण": 7148,
      "▁वर्तम": 7149,
      "्यांचे": 7150,
      "्यांनी": 7151,
      "▁[सिंधू": 7152,
      "केर": 7153,
      "an_": 7154,
      "▁घेत": 7155,
      "प्रकार": 7156,
      "हारी": 7157,
      "](मध्य": 7158,
      "▁[महाराष्ट्र](महाराष्ट्र": 7159,
      "▁१९६": 7160,
      "▁वाढ": 7161,
      "▁वायु": 7162,
      "▁वाटा": 7163,
      "▁२८": 7164,
      "▁इसकी": 7165,
      "िश्र": 7166,
      "▁मोसमी": 7167,
      "▁भाषाएँ": 7168,
      "▁भाषाएं": 7169,
      "▁माना": 7170,
      "▁मानचित्र": 7171,
      "वरून": 7172,
      "▁पुत्र": 7173,
      "onso": 7174,
      "जी:": 7175,
      "णिपुरी": 7176,
      "त्रि": 7177,
      "▁भूमी": 7178,
      "▁काळातील": 7179,
      "▁लोकसभा": 7180,
      "▁गया।": 7181,
      "▁वेषभूष": 7182,
      "▁चित्रपटसृष्ट": 7183,
      "पर्यंत": 7184,
      "▁बनाने": 7185,
      "▁गणला": 7186,
      "▁लाख": 7187,
      "▁नावाने": 7188,
      "▁नावाचा": 7189,
      "▁पदार्थ": 7190,
      "▁पुरातन": 7191,
      "ांगलादेश": 7192,
      "▁झाले.": 7193,
      "▁[पंजाब](पंजाब": 7194,
      "▁म्हणतात.": 7195,
      "▁लेख": 7196,
      "▁अभी": 7197,
      "▁मिळतात.": 7198,
      "▁[नवी": 7199,
      "▁येथे": 7200,
      "फ्रांस": 7201,
      "▁उत्प": 7202,
      "समूह": 7203,
      "क्षणिक": 7204,
      "▁यांच्या": 7205,
      "ावरून": 7206,
      "▁टक्के,": 7207,
      "▁महत्त्व": 7208,
      "भाषी": 7209,
      "▁हिंदी": 7210,
      "▁हिंदू": 7211,
      "▁नद्या": 7212,
      "ेटवे": 7213,
      "▁देखा": 7214,
      "रुण": 7215,
      "▁प्रमाणात": 7216,
      "ण्याची": 7217,
      "▁ग्राम": 7218,
      "▁जलोढ़": 7219,
      "▁लागले.": 7220,
      "▁सभ्यता": 7221,
      "▁पडले": 7222,
      "ंग्रजी:": 7223,
      "▁येते": 7224,
      "▁येतात.": 7225,
      "▁असलेली": 7226,
      "्यानंतर": 7227,
      "▁उत्तरे": 7228,
      "बरोबर": 7229,
      "▁द्वीपकल्प": 7230,
      "▁द्वीपसमूह": 7231,
      "▁घोषित": 7232,
      "ात्मक": 7233,
      "-201": 7234,
      "▁सोयी": 7235,
      "▁दृष्ट्या": 7236,
      "ंग्लिश": 7237,
      "▁उपसागरा": 7238,
      "▁ओळखले": 7239,
      "्युत्तर": 7240,
      "▁वृक्ष": 7241,
      "ासाठी": 7242,
      "ओडिशा": 7243,
      "▁अमेरिका": 7244,
      "▁जानेवारी": 7245,
      "▁रंगमंच": 7246,
      "▁सुरुवाती": 7247,
      "महाल": 7248,
      "िक्की": 7249,
      "▁राजनीतिक": 7250,
      "पीठ": 7251,
      "र्तग": 7252,
      "िवाजी": 7253,
      "▁पारंपारिक": 7254,
      "▁मराठी": 7255,
      "▁अप्रैल": 7256,
      "▁इंग्रज": 7257,
      "▁विषय": 7258,
      "▁(पूर्वीचे": 7259,
      "▁ठिकाणी": 7260,
      "▁आढळतात.": 7261,
      "▁पड़ोसी": 7262,
      "▁मंदिरे": 7263,
      "▁जेवणात": 7264,
      "▁(इंग्रजी:": 7265,
      "▁पदव्युत्तर": 7266,
      "तांत्रिक": 7267,
      "▁महाराज": 7268,
      "▁[तमिळनाडू](तमिळनाडू)": 7269,
      "▁हळूहळू": 7270,
      "▁प्रजासत्ता": 7271,
      "▁शालेय": 7272,
      "▁समर्थन": 7273,
      "▁वर्तमान": 7274,
      "onsoon": 7275,
      "-अ": 7276,
      "-ग": 7277,
      ":\n": 7278,
      "gn": 7279,
      "इंडिया": 7280,
      "कों": 7281,
      "धन": 7282,
      "मृत": 7283,
      "म्राट": 7284,
      "लया": 7285,
      "वत": 7286,
      "वान": 7287,
      "शा": 7288,
      "शस्": 7289,
      "िनी": 7290,
      "ूद": 7291,
      "ौगोल": 7292,
      "्‍": 7293,
      "▁कल": 7294,
      "▁कृष": 7295,
      "▁सभा": 7296,
      "▁सूची": 7297,
      "▁पत्": 7298,
      "](छ": 7299,
      "](त": 7300,
      "](ल": 7301,
      "▁भौगोल": 7302,
      "र्ग": 7303,
      "▁आद": 7304,
      "▁निक": 7305,
      "▁ज्य": 7306,
      "▁दी": 7307,
      "▁दिन": 7308,
      "▁दिला": 7309,
      "हेब": 7310,
      "▁उठ": 7311,
      "न्स": 7312,
      "▁रह": 7313,
      "ंत्रण": 7314,
      "▁मुस्लिम": 7315,
      "िसी": 7316,
      "▁धर्मीय": 7317,
      "स्कृतिक": 7318,
      "▁सरपट": 7319,
      "▁बाब": 7320,
      "▁साम्राज्य](म": 7321,
      "▁[कला": 7322,
      "▁पुराण": 7323,
      "ंदिर": 7324,
      "▁[गंगा": 7325,
      "▁भूभाग": 7326,
      "क्ट": 7327,
      "▁लोकप्रिय": 7328,
      "▁मुख्यत": 7329,
      "str": 7330,
      "▁उत्कृष्ट": 7331,
      "](जैन": 7332,
      "▁[जैन": 7333,
      "---|\n": 7334,
      "▁मैदानी": 7335,
      "▁अग्न": 7336,
      "▁नागरिक": 7337,
      "▁प्रश्न": 7338,
      "enter": 7339,
      "▁परंपरागत": 7340,
      "ासाहेब": 7341,
      "▁नेहरू": 7342,
      "▁शास्त्रीय": 7343,
      "▁राजधानी": 7344,
      "▁भौगोलिक": 7345,
      "-भाषी": 7346,
      "°f)": 7347,
      "ंट": 7348,
      "इन": 7349,
      "ओण": 7350,
      "कट": 7351,
      "काता": 7352,
      "गढ": 7353,
      "घू": 7354,
      "चंद्र": 7355,
      "थम": 7356,
      "थि": 7357,
      "द)": 7358,
      "द](": 7359,
      "नै": 7360,
      "पि": 7361,
      "बेट": 7362,
      "भु": 7363,
      "मूल": 7364,
      "रम": 7365,
      "रल": 7366,
      "रेंद्र": 7367,
      "व्य": 7368,
      "शील": 7369,
      "श्व": 7370,
      "शास्त्र": 7371,
      "हम": 7372,
      "ी](स": 7373,
      "ुद्ध": 7374,
      "ृष्": 7375,
      "ेन": 7376,
      "ेम": 7377,
      "ैंड": 7378,
      "ोटे": 7379,
      "४.": 7380,
      "५.": 7381,
      "▁८": 7382,
      "▁°f)": 7383,
      "▁किये": 7384,
      "▁कहते": 7385,
      "▁स्र": 7386,
      "▁सात": 7387,
      "▁सिने": 7388,
      "▁पहु": 7389,
      "▁पूर्ण": 7390,
      "▁मि": 7391,
      "▁मूल": 7392,
      "](१९": 7393,
      "](चोल": 7394,
      "](तमिल": 7395,
      "▁[ई": 7396,
      "▁[वे": 7397,
      "▁[राष्ट्र": 7398,
      "▁[चोल": 7399,
      "▁वीं": 7400,
      "▁वंश": 7401,
      "▁आंबेडकर": 7402,
      "▁अमरी": 7403,
      "▁अलावा": 7404,
      "▁भारत-": 7405,
      "▁जीत": 7406,
      "▁जैन": 7407,
      "▁दृ": 7408,
      "▁देत": 7409,
      "▁दौर": 7410,
      "▁दूस": 7411,
      "ालर": 7412,
      "▁बांग्ला": 7413,
      "▁का*[": 7414,
      "▁गुप्त": 7415,
      "▁गई।": 7416,
      "▁गारो": 7417,
      "स्वर": 7418,
      "▁शांति": 7419,
      "▁शुरु": 7420,
      "ंगीत": 7421,
      "▁संब": 7422,
      "▁विरो": 7423,
      "थाई": 7424,
      "▁से,": 7425,
      "र्वर": 7426,
      "▁राजनै": 7427,
      "▁रही": 7428,
      "▁लड़ा": 7429,
      "ताज": 7430,
      "▁चला": 7431,
      "चेन्न": 7432,
      "वियत": 7433,
      "री)": 7434,
      "री,": 7435,
      "▁कोई": 7436,
      "▁कोर": 7437,
      "वाँ": 7438,
      "▁समान": 7439,
      "▁समूह": 7440,
      "▁देश)\n": 7441,
      "िन्द": 7442,
      "▁धर्म](ह": 7443,
      "प्रदेश": 7444,
      "प्राचीन": 7445,
      "ोलकाता": 7446,
      "ी](ब": 7447,
      "▁1971": 7448,
      "▁बाहरी": 7449,
      "मी.": 7450,
      "▁सरकारें": 7451,
      "▁किया,": 7452,
      "▁जनता": 7453,
      "जी-": 7454,
      "ैनिक": 7455,
      "▁[इंडोनेशिया": 7456,
      "राज्य)": 7457,
      "▁स्थापित": 7458,
      "▁जिसका": 7459,
      "▁[हिन्दी": 7460,
      "ीमबेट": 7461,
      "▁अपना": 7462,
      "](इंडोनेशिया": 7463,
      "](दिल्ली": 7464,
      "▁सुधार": 7465,
      "▁लेकर": 7466,
      "▁किए": 7467,
      "▁इतिहास\n": 7468,
      "](पश्चिम": 7469,
      "rap": 7470,
      "▁छोड़": 7471,
      "रतनाट": 7472,
      "▁हुई।": 7473,
      "▁संघीय": 7474,
      "▁संघर्ष": 7475,
      "▁विभाज": 7476,
      "▁नदियाँ": 7477,
      "▁दिया।": 7478,
      "▁अर्थव्यवस्था\n": 7479,
      "▁बढ़कर": 7480,
      "*);\n": 7481,
      "▁ग्री": 7482,
      "र्शन": 7483,
      "▁संगीत)": 7484,
      "▁पार्ट": 7485,
      "▁अगस्त": 7486,
      "▁उत्तरी": 7487,
      "ंदिरा": 7488,
      "▁घाटी": 7489,
      "▁ऋतु": 7490,
      "▁आक्रमण": 7491,
      "▁दृष्टि": 7492,
      "ोदाव": 7493,
      "▁लोगों": 7494,
      "▁आगमन": 7495,
      "▁प्रदान": 7496,
      "▁जिनमें": 7497,
      "लिंग": 7498,
      "▁कंपनी": 7499,
      "▁मौसम": 7500,
      "▁निभाई": 7501,
      "](हिमालय)": 7502,
      "▁बजट": 7503,
      "▁उसके": 7504,
      "▁यूरोपीय": 7505,
      "_of_": 7506,
      "://w": 7507,
      "▁हिस्": 7508,
      "▁अभियान": 7509,
      "▁आकर्षित": 7510,
      "▁वायुसेना": 7511,
      "रुणाचल": 7512,
      "मूल्य": 7513,
      "ृष्णा": 7514,
      "▁सिनेमा": 7515,
      "▁शुरुआ": 7516,
      "▁राजनैतिक": 7517,
      "▁[इंडोनेशिया](इंडोनेशिया": 7518,
      "ीमबेटका": 7519,
      "रतनाट्य": 7520,
      "▁[इंडोनेशिया](इंडोनेशिया)": 7521,
      ")ातील": 7522,
      ")मधील": 7523,
      "-वेरूळ": 7524,
      ".](चित्र:": 7525,
      "/india": 7526,
      "300": 7527,
      "=\"": 7528,
      "to": 7529,
      "ँग": 7530,
      "ंच्या": 7531,
      "ंवर": 7532,
      "उज": 7533,
      "ऊन": 7534,
      "ऋत्य": 7535,
      "कड": 7536,
      "कूल": 7537,
      "खाली": 7538,
      "गल": 7539,
      "जार": 7540,
      "झर्व": 7541,
      "डप्पा": 7542,
      "ण)": 7543,
      "णूक": 7544,
      "तच्या": 7545,
      "थारचे": 7546,
      "दृष्ट": 7547,
      "दिवस": 7548,
      "न्या": 7549,
      "नात्मक": 7550,
      "पड": 7551,
      "पू": 7552,
      "पुर": 7553,
      "पद्धती": 7554,
      "भार": 7555,
      "रजे": 7556,
      "ळ,": 7557,
      "ळून": 7558,
      "वतात.": 7559,
      "ववै": 7560,
      "शान्य": 7561,
      "सरी": 7562,
      "ह्य": 7563,
      "हती": 7564,
      "ाड": 7565,
      "ाशी": 7566,
      "ृह": 7567,
      "ॅक": 7568,
      "ेला": 7569,
      "ेचे": 7570,
      "ैऋत्य": 7571,
      "ोस्": 7572,
      "ो.\n": 7573,
      "्ज": 7574,
      "्ने": 7575,
      "१३": 7576,
      "४०": 7577,
      "‍नी": 7578,
      "▁किं": 7579,
      "▁कमान": 7580,
      "▁कर्नाटक": 7581,
      "्रिश्च": 7582,
      "▁साज": 7583,
      "▁साग": 7584,
      "▁पाच": 7585,
      "▁मध": 7586,
      "▁मी": 7587,
      "▁मिश्र": 7588,
      "▁मंदिर": 7589,
      "](वा": 7590,
      "](मुंबई": 7591,
      "](राजस्थान": 7592,
      "▁[छ": 7593,
      "▁[ने": 7594,
      "▁[वा": 7595,
      "▁[मु": 7596,
      "▁[मुंबई": 7597,
      "▁[वर्ग:": 7598,
      "▁भा": 7599,
      "्याने": 7600,
      "▁व्यव": 7601,
      "▁आव": 7602,
      "▁आंतर": 7603,
      "▁आरक्षण": 7604,
      "▁अल": 7605,
      "▁अहिं": 7606,
      "ातर": 7607,
      "▁भारताचा": 7608,
      "▁केला": 7609,
      "ान)": 7610,
      "ान्त": 7611,
      "▁नमु": 7612,
      "ेंच": 7613,
      "रावर": 7614,
      "▁दु": 7615,
      "▁द्र": 7616,
      "▁दर्श": 7617,
      "▁दर्जा": 7618,
      "▁दगड": 7619,
      "ालामु": 7620,
      "▁बॉलिवूड": 7621,
      "▁तिर": 7622,
      "ांक": 7623,
      "ांद": 7624,
      "ांमुळे": 7625,
      "▁काँग": 7626,
      "▁|---|\n": 7627,
      "▁गोड": 7628,
      "▁गरजे": 7629,
      "नाऱ्या": 7630,
      "ष्म": 7631,
      "लेला": 7632,
      "िया)": 7633,
      "्वालामु": 7634,
      "▁संलग": 7635,
      "▁संपूर्ण": 7636,
      "ंती": 7637,
      "▁विद्या": 7638,
      "▁सेव": 7639,
      "▁युर": 7640,
      "▁राज्या": 7641,
      "▁(अ": 7642,
      "▁परदेश": 7643,
      "▁यामुळे": 7644,
      "▁च्या": 7645,
      "▁चतु": 7646,
      "▁करत": 7647,
      "विले": 7648,
      "विद्या": 7649,
      "द्दा": 7650,
      "▁धोर": 7651,
      "▁देशांची": 7652,
      "▁देश](वर्ग:": 7653,
      "▁साद": 7654,
      "▁साधारण": 7655,
      "▁असली": 7656,
      "▁असतात.": 7657,
      "ीनंतर": 7658,
      "▁[सरस्वती": 7659,
      "](संत": 7660,
      "](सिंधू": 7661,
      "](सरस्वती": 7662,
      "काळ": 7663,
      "▁राज्यसभा": 7664,
      "▁राज्यसभ": 7665,
      "▁वाह": 7666,
      "▁टाग": 7667,
      "ल्या.": 7668,
      "ी](प": 7669,
      "ी](ह": 7670,
      "▁मोठी": 7671,
      "▁भाषा)": 7672,
      "▁मान्यता": 7673,
      "▁[बि": 7674,
      "▁संस्कृती)": 7675,
      "▁साम्राज्य),": 7676,
      "▁सर्वात": 7677,
      "](बि": 7678,
      "▁[कच्छ": 7679,
      "▁दक्षिणेकडील": 7680,
      "ाली,": 7681,
      "](कला": 7682,
      "](कच्छ": 7683,
      "▁पुढ": 7684,
      "▁पुत": 7685,
      "▁पुन": 7686,
      "ंदमान": 7687,
      "▁[गुप्त": 7688,
      "▁[गंगे": 7689,
      "ंद्रनाथ": 7690,
      "वे|": 7691,
      "िका)": 7692,
      "▁तेलुग": 7693,
      "](गुप्त": 7694,
      "▁काळाच्या": 7695,
      "ल्ली": 7696,
      "▁लोकसभ": 7697,
      "शीख": 7698,
      "▁स्थापन": 7699,
      "▁स्थापत्या": 7700,
      "▁गेले.": 7701,
      "▁ओघात": 7702,
      "ेकडे": 7703,
      "संघ": 7704,
      "▁बनविले": 7705,
      "▁प्रकारचे": 7706,
      "▁साहित्यात": 7707,
      "▁त्याला": 7708,
      "▁त्याचे": 7709,
      "▁लाभ": 7710,
      "▁झालेले": 7711,
      "ोबार": 7712,
      "▁ईशान्य": 7713,
      "▁सुवर्ण": 7714,
      "ुरूकूल": 7715,
      "▁ऑगस्ट": 7716,
      "▁युद्ध)": 7717,
      "▁युद्धात": 7718,
      "▁किंग": 7719,
      "▁दिल्ली](न": 7720,
      "▁[शास्त्र": 7721,
      "▁मिळते.": 7722,
      "▁मिळाले": 7723,
      "फ्रेंच": 7724,
      "▁मध्यम": 7725,
      "▁([आ": 7726,
      "](शास्त्र": 7727,
      "▁यांना": 7728,
      "▁यांनी": 7729,
      "▁यांचा": 7730,
      "▁2013": 7731,
      "▁पृष्ठीय": 7732,
      "ावरील": 7733,
      "▁**भारत": 7734,
      "](आसाम": 7735,
      "▁देखील": 7736,
      "▁झाला.\n": 7737,
      "▁पक्षास": 7738,
      "▁निवास": 7739,
      "▁गणराज्य,": 7740,
      "▁किल्ल्या": 7741,
      "▁आहारात": 7742,
      "▁मोठे": 7743,
      "▁आपले": 7744,
      "▁प्रांतात": 7745,
      "▁स्तरावर": 7746,
      "](उत्तर": 7747,
      "](उष्ण": 7748,
      "धीश": 7749,
      "▁महाविद्या": 7750,
      "▁होतो.": 7751,
      "▁मसाल": 7752,
      "▁मसाला": 7753,
      "▁मसाले": 7754,
      "▁[उष्ण": 7755,
      "▁प्रसार": 7756,
      "▁शैक्षणिक": 7757,
      "▁१९९१": 7758,
      "▁घेण्यास": 7759,
      "▁विद्यार्थी": 7760,
      "▁पूर्वीच्या": 7761,
      "▁ऋषभदेव": 7762,
      "▁आक्रमणे": 7763,
      "म्बे": 7764,
      "ंग्लंड": 7765,
      "▁उपसागर)": 7766,
      "▁[इवलेसे|उज": 7767,
      "भाषा](": 7768,
      "▁निवडणूक": 7769,
      "▁वृद्ध": 7770,
      "रावली": 7771,
      "▁शाहज": 7772,
      "▁रोजी": 7773,
      "▁वरील": 7774,
      "▁ज्याचा": 7775,
      "▁महासागर": 7776,
      "ोदडो": 7777,
      "▁आलेल्या": 7778,
      "▁अमेरिक": 7779,
      "▁जैववै": 7780,
      "▁राज्यातील": 7781,
      "▁सुरुवात": 7782,
      "▁[बंगालच्या": 7783,
      "साम](आसाम": 7784,
      "िध्र": 7785,
      "िधाड": 7786,
      "▁आमदार": 7787,
      "▁तिसऱ्या": 7788,
      "▁चळवळी": 7789,
      "▁खोरे": 7790,
      "राजस्थान](राजस्थान": 7791,
      "ाइव्ह": 7792,
      "▁रिझर्व": 7793,
      "▁१९८४": 7794,
      "](बंगालचा": 7795,
      "संख्ये": 7796,
      "▁ड्राइव्ह": 7797,
      "▁सारख्या": 7798,
      "▁जंगले": 7799,
      "▁प्रगती": 7800,
      "▁बंदर)": 7801,
      "▁शतकात": 7802,
      "▁अस्तित्त्वात": 7803,
      "जिंठा-वेरूळ": 7804,
      "▁सांस्कृतिक": 7805,
      "ेंजोदडो": 7806,
      "▁प्रचलित": 7807,
      "रविंद्रनाथ": 7808,
      "हशतवाद": 7809,
      "▁भारतीयांनी": 7810,
      "▁नकाशा": 7811,
      "▁दख्खनच्या": 7812,
      "▁शहरे": 7813,
      "▁राजकीय": 7814,
      "▁वेषभूषा": 7815,
      "▁चित्रपटसृष्टी": 7816,
      "▁लेखक": 7817,
      "▁ग्रामीण": 7818,
      "▁सुरुवातीला": 7819,
      "शस्वी": 7820,
      "▁पत्‍नी": 7821,
      "▁निकोबार": 7822,
      "▁उठाव": 7823,
      "▁[कला](कला": 7824,
      "▁मुख्यत्वे": 7825,
      "▁अग्निध्र": 7826,
      "दृष्ट्या": 7827,
      "▁किंवा": 7828,
      "्रिश्चन": 7829,
      "](मुंबई)": 7830,
      "▁[मुंबई](मुंबई)": 7831,
      "▁व्यवसाय": 7832,
      "▁नमुने": 7833,
      "▁काँग्रेस": 7834,
      "▁गरजेचे": 7835,
      "▁संलग्न": 7836,
      "▁साधारणपणे": 7837,
      "▁दिल्ली](नवी": 7838,
      "▁[इवलेसे|उजवे|": 7839,
      "▁शाहजहान": 7840,
      "जिंठा-वेरूळची": 7841,
      ",२६": 7842,
      "-आ": 7843,
      ".5": 7844,
      "/20": 7845,
      "12": 7846,
      "27": 7847,
      "72": 7848,
      "_c": 7849,
      "eb": 7850,
      "mo": 7851,
      "monsoon": 7852,
      "s://w": 7853,
      "van": 7854,
      "°c": 7855,
      "ं।": 7856,
      "एस": 7857,
      "क),": 7858,
      "कटिबंधीय": 7859,
      "खण्ड": 7860,
      "घा": 7861,
      "चक्र": 7862,
      "ज्य": 7863,
      "जरा": 7864,
      "ण),": 7865,
      "णी)": 7866,
      "तपु": 7867,
      "थल": 7868,
      "धु": 7869,
      "नप": 7870,
      "बू": 7871,
      "म),": 7872,
      "मोह": 7873,
      "यपालिका": 7874,
      "रक्ष": 7875,
      "रूस": 7876,
      "ल-": 7877,
      "लत": 7878,
      "लम": 7879,
      "लू": 7880,
      "लंग": 7881,
      "शाली": 7882,
      "सार": 7883,
      "हों": 7884,
      "ह्म": 7885,
      "हिन्दी": 7886,
      "ाऊ": 7887,
      "ा।": 7888,
      "ाहित": 7889,
      "िए": 7890,
      "िप": 7891,
      "िर्": 7892,
      "ी,": 7893,
      "ुचि": 7894,
      "ृद्ध": 7895,
      "ेल": 7896,
      "ेली": 7897,
      "ेक्षा": 7898,
      "ॉकी": 7899,
      "ो-": 7900,
      "ोत": 7901,
      "ोला": 7902,
      "ोने": 7903,
      "ौहार": 7904,
      "्द": 7905,
      "२,": 7906,
      "▁ti": 7907,
      "▁किसी": 7908,
      "्रह्म": 7909,
      "▁सश": 7910,
      "▁सहा": 7911,
      "▁सक्र": 7912,
      "▁सिद्ध": 7913,
      "▁सफल": 7914,
      "▁पतन": 7915,
      "](पु": 7916,
      "](परमाणु": 7917,
      "▁[पु": 7918,
      "▁[स्व": 7919,
      "▁[तमिल": 7920,
      "▁[परमाणु": 7921,
      "▁हरी": 7922,
      "▁हॉकी": 7923,
      "▁भील": 7924,
      "▁वाली": 7925,
      "▁वाले": 7926,
      "र्भ": 7927,
      "▁आई": 7928,
      "▁आस": 7929,
      "▁आकार": 7930,
      "▁अर्": 7931,
      "▁अति": 7932,
      "▁केरल": 7933,
      "▁नई": 7934,
      "या।": 7935,
      "िक,": 7936,
      "▁जे": 7937,
      "▁जंब": 7938,
      "▁जमा": 7939,
      "▁प्रकाश": 7940,
      "▁प्रथम": 7941,
      "ालदी": 7942,
      "▁बल": 7943,
      "▁बडी": 7944,
      "▁में।": 7945,
      "▁ताज": 7946,
      "▁तनाव": 7947,
      "ांश": 7948,
      "▁गति": 7949,
      "▁ग्ल": 7950,
      "ाचार": 7951,
      "▁शक्त": 7952,
      "▁शक्ति": 7953,
      "नाभ": 7954,
      "▁उम": 7955,
      "▁उसे": 7956,
      "▁उच्च": 7957,
      "▁उष्ण": 7958,
      "ामस्वर": 7959,
      "िया,": 7960,
      "▁इसे": 7961,
      "▁संरक्षण": 7962,
      "▁विधान": 7963,
      "▁विमान": 7964,
      "▁विजय": 7965,
      "▁विज्ञान": 7966,
      "र्वोच्च": 7967,
      "▁यहाँ": 7968,
      "▁एड": 7969,
      "▁एव": 7970,
      "▁राजस्थान": 7971,
      "▁रत्न": 7972,
      "▁लू": 7973,
      "▁लंब": 7974,
      "▁(स": 7975,
      "ता)": 7976,
      "▁परिण": 7977,
      "▁१३": 7978,
      "▁चल": 7979,
      "▁ची": 7980,
      "▁चाल": 7981,
      "▁चीन": 7982,
      "▁होना": 7983,
      "▁करती": 7984,
      "द्देश": 7985,
      "ावा": 7986,
      "िमण्ड": 7987,
      "▁समझ": 7988,
      "▁समृद्ध": 7989,
      "ड़िया": 7990,
      "त्ति": 7991,
      "त्तीस": 7992,
      "▁असम": 7993,
      "▁सामरिक": 7994,
      "ंडो-": 7995,
      "िन्धु": 7996,
      "▁[सात": 7997,
      "▁झार": 7998,
      "▁धर्म](": 7999,
      "▁धर्म),": 8000,
      "प्राप्त": 8001,
      "प्रभु": 8002,
      "▁अनुस": 8003,
      "किन": 8004,
      "▁२२": 8005,
      "▁२४": 8006,
      "▁टेली": 8007,
      "▁इसका": 8008,
      "▁इसमें": 8009,
      "हुमूल्य": 8010,
      "ार्कट": 8011,
      "▁मोर": 8012,
      "▁भाषा)\n": 8013,
      "▁[अफ्रीका": 8014,
      "▁[कर्नाटक": 8015,
      "▁अधिकांश": 8016,
      "ंबर": 8017,
      "](कर्नाटक": 8018,
      "पुरा": 8019,
      "▁पुर्तग": 8020,
      "▁[गुजरात": 8021,
      "▁[गोंड": 8022,
      "ंध्र": 8023,
      "जाप": 8024,
      "](गण": 8025,
      "](गोंड": 8026,
      "](अफ्रीका": 8027,
      "ल्पा": 8028,
      "वर्तन": 8029,
      "▁पाया": 8030,
      "▁पाँच": 8031,
      "राज्यसभा": 8032,
      "▁भागी": 8033,
      "▁विशेष": 8034,
      "▁शिक्षा": 8035,
      "](हिन्दी": 8036,
      "्यवस्थ": 8037,
      "▁[दिल्ली": 8038,
      "▁लिख": 8039,
      "▁उत्तर-पश्चिम": 8040,
      "▁स्थानीय": 8041,
      "ब्ब": 8042,
      "▁तरह": 8043,
      "▁2,": 8044,
      "▁22": 8045,
      "▁संगठ": 8046,
      "▁india.jpg)\n": 8047,
      "▁क्रय": 8048,
      "▁खासी": 8049,
      "▁अर्थव्यवस्थ": 8050,
      "ंजाबी": 8051,
      "▁छोटे": 8052,
      "▁पश्चिमी": 8053,
      "▁एशिया](दक्षिण": 8054,
      "नाडु": 8055,
      "▁हिंस": 8056,
      "▁पठार)": 8057,
      "रुद्ध": 8058,
      "▁बढ़ती": 8059,
      "▁ऊपर": 8060,
      "hic": 8061,
      "▁रहा।": 8062,
      "▁लागू": 8063,
      "▁जीवन": 8064,
      "▁संबंधों": 8065,
      "▁2007": 8066,
      "▁भूमि": 8067,
      "▁अवशेष": 8068,
      "▁मेघ": 8069,
      "---|---|---|---|": 8070,
      "▁उनके": 8071,
      "▁उनकी": 8072,
      "▁सदस्यों": 8073,
      "▁पूरा": 8074,
      "▁पूरे": 8075,
      "▁शाका": 8076,
      "रोमन": 8077,
      "▁सकल": 8078,
      "▁विकासशील": 8079,
      "▁जैसे": 8080,
      "▁आयात": 8081,
      "ांडर": 8082,
      "▁राजनीति": 8083,
      "▁कार्यकाल": 8084,
      "हूदी": 8085,
      "▁नेहरु": 8086,
      "▁[बंगाल](बंगाल": 8087,
      "प्पा](ह": 8088,
      "▁भूगोल\n": 8089,
      "पातकाल": 8090,
      "▁मार्ग": 8091,
      "▁निम्न": 8092,
      "▁ज़िलों": 8093,
      "▁ऊँची": 8094,
      "▁अधिराज्य": 8095,
      "▁परिष": 8096,
      "▁वास्तव": 8097,
      "▁जिन्हें": 8098,
      "▁पर्यटन": 8099,
      "▁फैली": 8100,
      "▁वन्यजीव": 8101,
      "िन्दुस्तानी": 8102,
      "https://w": 8103,
      "ograp": 8104,
      "▁प्रवेश": 8105,
      "▁उन्हें": 8106,
      "-गंगा": 8107,
      "मृतसर": 8108,
      "लयालम": 8109,
      "शाही": 8110,
      "](जैन)": 8111,
      "▁[जैन](जैन)": 8112,
      "घूमर": 8113,
      "▁अमरीकी": 8114,
      "▁दृश्य": 8115,
      "▁[हिन्दी](हिन्दी": 8116,
      "▁ऋतु**": 8117,
      "ोदावरी": 8118,
      "▁शुरुआत": 8119,
      "270px|": 8120,
      "जराय": 8121,
      "तपुड़ा": 8122,
      "मोहन": 8123,
      "ाहित्य": 8124,
      "्रह्मपुत्र": 8125,
      "▁सहायक": 8126,
      "▁सक्रिय": 8127,
      "▁जंबूद्वीप": 8128,
      "ालदीव": 8129,
      "ामस्वरूप": 8130,
      "▁लंबे": 8131,
      "▁परिणामस्वरूप": 8132,
      "िमण्डल": 8133,
      "िन्धु-गंगा": 8134,
      "▁टेलीवि": 8135,
      "▁[अफ्रीका](अफ्रीका": 8136,
      "ographic": 8137,
      "▁[अफ्रीका](अफ्रीका)": 8138,
      ".२": 8139,
      "t|": 8140,
      "ंज": 8141,
      "ग्वे": 8142,
      "जु": 8143,
      "ज्ज": 8144,
      "न्य": 8145,
      "पण": 8146,
      "फ्ट": 8147,
      "ब्र": 8148,
      "बिने": 8149,
      "मेव": 8150,
      "रिवाज": 8151,
      "व्र": 8152,
      "वाने": 8153,
      "हिमालय": 8154,
      "ेज": 8155,
      "ेद": 8156,
      "ेगी": 8157,
      "ैव": 8158,
      "ोत्": 8159,
      "ोत्तर": 8160,
      "१,": 8161,
      "▁u": 8162,
      "▁सूर": 8163,
      "▁पाष": 8164,
      "▁मज": 8165,
      "▁मृत्य": 8166,
      "](वैदिक": 8167,
      "▁[ख": 8168,
      "▁[राज": 8169,
      "▁[भू": 8170,
      "▁[वैदिक": 8171,
      "▁हल्": 8172,
      "▁भर": 8173,
      "▁वस्त": 8174,
      "▁आठ": 8175,
      "▁अंग": 8176,
      "▁भारतवर्ष": 8177,
      "ान),": 8178,
      "रा),": 8179,
      "▁जि": 8180,
      "▁जु": 8181,
      "▁दुस": 8182,
      "▁दाद": 8183,
      "▁बंग": 8184,
      "▁बेस": 8185,
      "▁शब्": 8186,
      "▁ए.": 8187,
      "▁रुप": 8188,
      "▁(आ": 8189,
      "रीबी": 8190,
      "ावली": 8191,
      "ियन)": 8192,
      "िमान": 8193,
      "▁सामान्य": 8194,
      "](सिंधु": 8195,
      "साद": 8196,
      "](महात्मा": 8197,
      "▁[मगध": 8198,
      "▁[महात्मा": 8199,
      "▁खा": 8200,
      "▁खु": 8201,
      "▁[ब्रिटिश": 8202,
      "▁साम्राज्य](वि": 8203,
      "▁अधिकारी": 8204,
      "त्यमेव": 8205,
      "▁फाय": 8206,
      "▁[इस्लाम": 8207,
      "ल्ट": 8208,
      "ल्स": 8209,
      "दलीय": 8210,
      "ठाया": 8211,
      "▁डि": 8212,
      "](इस्लाम": 8213,
      "▁[पश्चिम": 8214,
      "▁[श्रीलंका": 8215,
      "▁संविधान](भारत": 8216,
      "▁खासकर": 8217,
      "▁मध्यप्रदेश": 8218,
      "▁instr": 8219,
      "▁५४": 8220,
      "](श्रीलंका": 8221,
      "▁४०": 8222,
      "▁ग्रंथ": 8223,
      "श्मीर)": 8224,
      "▁किनारे": 8225,
      "▁जयते": 8226,
      "▁उत्तरा": 8227,
      "▁१९९०": 8228,
      "▁१९९८": 8229,
      "▁गांधी)": 8230,
      "▁घाट)": 8231,
      "▁[विजयनगर": 8232,
      "▁[संसद": 8233,
      "ओडिस": 8234,
      "▁वरिष्ठ": 8235,
      "▁प्रभावित": 8236,
      "▁महासागर)": 8237,
      "](संसद": 8238,
      "▁[thumb|right|300": 8239,
      "▁पारंपरिक": 8240,
      "ection": 8241,
      "▁२००९": 8242,
      "align": 8243,
      "▁[धर्म](धर्म": 8244,
      "left|": 8245,
      "▁[गंगा](गंगा": 8246,
      "▁संबोध": 8247,
      "▁**भारत**": 8248,
      "▁महासागर](ह": 8249,
      "बिनेट": 8250,
      "▁पाषाण": 8251,
      "▁शब्द": 8252,
      "▁साम्राज्य](विजयनगर": 8253,
      "▁फायदा": 8254,
      "▁[इस्लाम](इस्लाम": 8255,
      "▁[श्रीलंका](श्रीलंका": 8256,
      "▁[thumb|right|300px|": 8257,
      "▁[श्रीलंका](श्रीलंका)": 8258,
      "%)": 8259,
      "(प": 8260,
      ")ने": 8261,
      ")च्या": 8262,
      ")ाने": 8263,
      ")पासून": 8264,
      ")तील": 8265,
      "-स": 8266,
      "-धी": 8267,
      ".c": 8268,
      ".मी.": 8269,
      "02": 8270,
      "64": 8271,
      "<c": 8272,
      "_p": 8273,
      "_indi": 8274,
      "ds": 8275,
      "eas": 8276,
      "gl": 8277,
      "g)\n": 8278,
      "pos": 8279,
      "rand": 8280,
      "sgar": 8281,
      "tro": 8282,
      "u_": 8283,
      "ww.": 8284,
      "yes": 8285,
      "ंचे": 8286,
      "ंचा": 8287,
      "ंमध्ये": 8288,
      "ंजन": 8289,
      "अर": 8290,
      "अट्ट": 8291,
      "आश": 8292,
      "आर्": 8293,
      "उन": 8294,
      "ए)": 8295,
      "एयर": 8296,
      "ओस": 8297,
      "कल": 8298,
      "कले": 8299,
      "कथा": 8300,
      "काज": 8301,
      "कडे": 8302,
      "कांच्या": 8303,
      "खट": 8304,
      "खून": 8305,
      "खिल": 8306,
      "ख्न": 8307,
      "गळे": 8308,
      "गुप्त": 8309,
      "गळी": 8310,
      "गेटवे": 8311,
      "ग्ने": 8312,
      "घ्र": 8313,
      "चार": 8314,
      "चित": 8315,
      "चिव": 8316,
      "चस्व": 8317,
      "चंदी": 8318,
      "झे": 8319,
      "झिक,": 8320,
      "झांडर": 8321,
      "टल": 8322,
      "टने": 8323,
      "ठक": 8324,
      "ठित": 8325,
      "ठाण": 8326,
      "डॅ": 8327,
      "डॉ": 8328,
      "डी](": 8329,
      "डी)": 8330,
      "ढऱ्या": 8331,
      "णारा": 8332,
      "तू": 8333,
      "त्व": 8334,
      "तून": 8335,
      "तका": 8336,
      "तज्ञ": 8337,
      "थी": 8338,
      "थ्": 8339,
      "दाम": 8340,
      "दली": 8341,
      "दूर": 8342,
      "दांना": 8343,
      "दर्भ": 8344,
      "धर": 8345,
      "ध्यात": 8346,
      "धम्म": 8347,
      "नि": 8348,
      "नदी": 8349,
      "नचे": 8350,
      "निय": 8351,
      "नृत्य": 8352,
      "नंतर": 8353,
      "नियों": 8354,
      "पोल": 8355,
      "पाली": 8356,
      "पंथ": 8357,
      "फळ": 8358,
      "बन्": 8359,
      "बद्ध": 8360,
      "बाळ": 8361,
      "भय": 8362,
      "भुज": 8363,
      "भद्रा": 8364,
      "मल": 8365,
      "मि": 8366,
      "मवि": 8367,
      "मते": 8368,
      "म](स": 8369,
      "मूर": 8370,
      "ममाण": 8371,
      "मराव": 8372,
      "मडॉ": 8373,
      "यें": 8374,
      "रणा": 8375,
      "ऱ्यात": 8376,
      "ल्य": 8377,
      "लिस": 8378,
      "लंब": 8379,
      "लब्": 8380,
      "लवाद": 8381,
      "ळकार": 8382,
      "ळुरू": 8383,
      "ळपुरी": 8384,
      "वंग": 8385,
      "वली": 8386,
      "वली.": 8387,
      "शोक": 8388,
      "शक्ति": 8389,
      "शोध": 8390,
      "षवृतीय": 8391,
      "संप": 8392,
      "सीम": 8393,
      "संगीत": 8394,
      "सैनिक": 8395,
      "ाख": 8396,
      "ाभू": 8397,
      "ाक्षर": 8398,
      "ाबद्दल": 8399,
      "ापर्यंत": 8400,
      "ीकार": 8401,
      "ीकरण": 8402,
      "ुकार": 8403,
      "ुमार": 8404,
      "ुर्ग": 8405,
      "ूला": 8406,
      "ूजा": 8407,
      "ूबर": 8408,
      "ूनाइट": 8409,
      "ॅशन": 8410,
      "ॅडॅ": 8411,
      "ेप": 8412,
      "ेची": 8413,
      "ैद्रा": 8414,
      "ैर-": 8415,
      "ैथि": 8416,
      "ैमूर": 8417,
      "ॉक": 8418,
      "ॉर्ज": 8419,
      "ोले": 8420,
      "ोती": 8421,
      "ोटा": 8422,
      "ोचीन": 8423,
      "्हा": 8424,
      "३८": 8425,
      "४८": 8426,
      "६५": 8427,
      "८,": 8428,
      "९.": 8429,
      "‍ॅक": 8430,
      "▁ॠ": 8431,
      "▁०": 8432,
      "▁‘": 8433,
      "▁hi": 8434,
      "▁lef": 8435,
      "▁yes": 8436,
      "▁कप": 8437,
      "▁कले": 8438,
      "▁कटिबंध": 8439,
      "▁कटिबंधीय": 8440,
      "्ये": 8441,
      "्राम": 8442,
      "ारु": 8443,
      "ारंग": 8444,
      "ारीत": 8445,
      "ारसी": 8446,
      "▁सव": 8447,
      "▁सी": 8448,
      "▁सदी": 8449,
      "▁सारी": 8450,
      "▁सोबत": 8451,
      "▁सौहार": 8452,
      "▁पान": 8453,
      "▁परा": 8454,
      "▁पड़ा": 8455,
      "▁पंजाब": 8456,
      "▁पर्ज": 8457,
      "▁पंजाबी": 8458,
      "▁मना": 8459,
      "▁माम": 8460,
      "▁मील": 8461,
      "▁माग": 8462,
      "▁मही": 8463,
      "▁मिस": 8464,
      "▁मधील": 8465,
      "▁मूळ": 8466,
      "▁म्यु": 8467,
      "](१८": 8468,
      "](२००": 8469,
      "](त्रि": 8470,
      "](फ्रांस": 8471,
      "](ओडिशा": 8472,
      "▁[ऋ": 8473,
      "▁[त्रि": 8474,
      "▁[फ्रांस": 8475,
      "▁[थारचे": 8476,
      "▁[राजस्थान](राजस्थान": 8477,
      "▁हरा": 8478,
      "▁हत्या": 8479,
      "▁हाता": 8480,
      "▁हिन्दू": 8481,
      "▁भरा": 8482,
      "▁भित्त": 8483,
      "▁भवन)": 8484,
      "्याची": 8485,
      "्याचल": 8486,
      "▁व्य": 8487,
      "▁वाल": 8488,
      "▁वने": 8489,
      "▁व्ह": 8490,
      "र्फ": 8491,
      "र्ज़": 8492,
      "र्बट": 8493,
      "▁आत": 8494,
      "▁आर": 8495,
      "▁आला": 8496,
      "▁आद्र": 8497,
      "▁आते": 8498,
      "▁आंद": 8499,
      "▁आली.": 8500,
      "▁आला.": 8501,
      "▁आघा": 8502,
      "▁अत्य": 8503,
      "▁अच्छ": 8504,
      "▁अंग्रेजी": 8505,
      "▁अणु": 8506,
      "▁अक्ट": 8507,
      "▁अरावली": 8508,
      "▁अ‍ॅक": 8509,
      "ातार": 8510,
      "ात्यांचे": 8511,
      "▁भारतभर": 8512,
      "▁भारत)ात": 8513,
      "▁केला.": 8514,
      "ानी": 8515,
      "ानुसार": 8516,
      "ानपूर": 8517,
      "ान्स": 8518,
      "ानिप": 8519,
      "▁नष्ट": 8520,
      "▁नंतर": 8521,
      "ेंट": 8522,
      "राथ": 8523,
      "राणे": 8524,
      "▁जम": 8525,
      "▁जन्": 8526,
      "▁जवा": 8527,
      "▁जाग": 8528,
      "▁जुन": 8529,
      "▁ज्ञान": 8530,
      "▁जम्मू": 8531,
      "▁जवान": 8532,
      "▁जॉर्ज": 8533,
      "▁दिले": 8534,
      "▁दर्ज़": 8535,
      "▁प्रेम": 8536,
      "▁प्रवर्तन": 8537,
      "्तीय": 8538,
      "्त्व": 8539,
      "ालया": 8540,
      "ालचि": 8541,
      "▁बद": 8542,
      "▁बि": 8543,
      "▁बरी": 8544,
      "▁ब्रे": 8545,
      "▁बोल": 8546,
      "▁बिन": 8547,
      "▁तब": 8548,
      "▁ती": 8549,
      "▁त्यांची": 8550,
      "▁त्यांचा": 8551,
      "▁है:": 8552,
      "ांवि": 8553,
      "ांद्र": 8554,
      "ांदू": 8555,
      "ांसाठी": 8556,
      "ांपासून": 8557,
      "ांढऱ्या": 8558,
      "ित्रे": 8559,
      "▁काय": 8560,
      "▁काबी": 8561,
      "▁काश्म": 8562,
      "▁कासीम": 8563,
      "ोंद": 8564,
      "ों](": 8565,
      "ों](भारत": 8566,
      "▁गा": 8567,
      "▁ग्रे": 8568,
      "▁गोल": 8569,
      "▁गंगे": 8570,
      "▁गाँ": 8571,
      "▁गिधाड": 8572,
      "▁गैर-": 8573,
      "स्कर": 8574,
      "स्थित": 8575,
      "▁शाम": 8576,
      "▁शिर": 8577,
      "▁शेष": 8578,
      "▁शिख": 8579,
      "▁शिवाजी": 8580,
      "ंगल": 8581,
      "ंगभद्रा": 8582,
      "ंगळुरू": 8583,
      "ेश्व": 8584,
      "ेशियर": 8585,
      "ासदांना": 8586,
      "लेले": 8587,
      "लेक्": 8588,
      "▁उड़ी": 8589,
      "▁उर्वर": 8590,
      "ामित्र": 8591,
      "ामधील": 8592,
      "ियाचीन": 8593,
      "▁इन्": 8594,
      "▁इंद्र": 8595,
      "▁इण्ड": 8596,
      "▁इ.स.": 8597,
      "▁इंग्लिश": 8598,
      "▁इंदिरा": 8599,
      "▁इतका": 8600,
      "्वार": 8601,
      "▁संदर्भ": 8602,
      "▁संशोध": 8603,
      "क्षद्वीप": 8604,
      "क्षलवाद": 8605,
      "▁विद्र": 8606,
      "लीन": 8607,
      "▁यातील": 8608,
      "▁यद्य": 8609,
      "▁यानंतर": 8610,
      "▁यशस्वी": 8611,
      "▁एन": 8612,
      "▁राज्यांच्या": 8613,
      "▁राज्यांमध्ये": 8614,
      "न्ट": 8615,
      "न्ही": 8616,
      "न्हा": 8617,
      "▁है।,": 8618,
      "▁रख": 8619,
      "▁री": 8620,
      "▁रु": 8621,
      "▁रूस": 8622,
      "▁रखा": 8623,
      "▁रममाण": 8624,
      "▁लुप्त": 8625,
      "▁लुट": 8626,
      "▁(2": 8627,
      "▁(चित्र": 8628,
      "▁(०,": 8629,
      "▁(हिन्दी": 8630,
      "▁याच": 8631,
      "▁याचा": 8632,
      "▁यासाठी": 8633,
      "▁चा": 8634,
      "▁चे": 8635,
      "▁चौ": 8636,
      "▁चली": 8637,
      "▁चांग": 8638,
      "सेतू": 8639,
      "ाज्या": 8640,
      "▁होय": 8641,
      "▁होने": 8642,
      "ेतही": 8643,
      "विन": 8644,
      "र्मण": 8645,
      "▁भारतीयों": 8646,
      "रीन": 8647,
      "द्दु": 8648,
      "ाव्या": 8649,
      "ियस": 8650,
      "ियातील": 8651,
      "कारी": 8652,
      "िमा": 8653,
      "िल्म": 8654,
      "▁एकच": 8655,
      "▁एका": 8656,
      "▁एकनाथ": 8657,
      "तिखट": 8658,
      "तीत": 8659,
      "तीसरी": 8660,
      "▁समज": 8661,
      "▁सम्म": 8662,
      "ागृह": 8663,
      "▁धड": 8664,
      "▁धरत": 8665,
      "ही.": 8666,
      "▁स्टा": 8667,
      "▁हैं:\n": 8668,
      "द्धा": 8669,
      "▁देशात": 8670,
      "▁देशाचे": 8671,
      "▁देशांमध्ये": 8672,
      "ड़ियाँ": 8673,
      "ुरत": 8674,
      "ुरंग": 8675,
      "ुरोप": 8676,
      "त्तरा": 8677,
      "▁साडी": 8678,
      "▁साक्षर": 8679,
      "िंदी": 8680,
      "▁असा": 8681,
      "▁असणे": 8682,
      "ंडळ": 8683,
      "▁जातो.\n": 8684,
      "धिकार": 8685,
      "हा:": 8686,
      "हाभारत": 8687,
      "▁वर्तु": 8688,
      "▁वर्गी": 8689,
      "▁वर्चस्व": 8690,
      "चाई": 8691,
      "्यांपैकी": 8692,
      "्यांपेक्षा": 8693,
      "▁आहेत,": 8694,
      "▁[समुद्र": 8695,
      "▁[सूचना": 8696,
      "▁[सह्याद्र": 8697,
      "▁[सिक्की": 8698,
      "](सात": 8699,
      "](समुद्र": 8700,
      "](सम्राट": 8701,
      "पाट": 8702,
      "पाठ": 8703,
      "धानिक": 8704,
      "धान्ये": 8705,
      "▁घरे": 8706,
      "▁मुख": 8707,
      "▁मुलग": 8708,
      "▁मुंबई": 8709,
      "▁राज्यक": 8710,
      "▁राष्ट्रपति": 8711,
      "▁धर्मों": 8712,
      "प्रमाण": 8713,
      "प्रकल्प": 8714,
      "▁झाल्यानंतर": 8715,
      "साई": 8716,
      "▁क्षेत्रात": 8717,
      "▁क्षेत्र)\n": 8718,
      "▁क्षेत्रामध्ये": 8719,
      "▁क्षेत्र](श्रेणी:": 8720,
      "](म्यानमार": 8721,
      "▁[म्यानमार": 8722,
      "▁[मराठा": 8723,
      "▁१९२०": 8724,
      "▁१९१३": 8725,
      "▁वाट": 8726,
      "▁२.": 8727,
      "▁इसवी": 8728,
      "ार्ध": 8729,
      "ार्जार": 8730,
      "▁वर्षे": 8731,
      "ोगल": 8732,
      "▁साम्राज्यांची": 8733,
      "▁साम्राज्याच्या": 8734,
      "ी](ज": 8735,
      "▁प्रदेशों": 8736,
      "▁प्रदेशांत": 8737,
      "▁प्रदेश)),": 8738,
      "▁प्रदेश](उत्तर": 8739,
      "▁मोर्": 8740,
      "▁मानव": 8741,
      "▁मान्य": 8742,
      "▁मानला": 8743,
      "▁मानले": 8744,
      "▁[बांगलादेश": 8745,
      "▁बाह्य": 8746,
      "▁2020": 8747,
      "▁स्वाय": 8748,
      "▁स्वीकार": 8749,
      "▁[अरबी": 8750,
      "▁[अंग्रेज": 8751,
      "▁साम्राज्ये": 8752,
      "▁साम्राज्यों": 8753,
      "▁साम्राज्य](चोल": 8754,
      "करसं": 8755,
      "▁*ज": 8756,
      "▁*आर्": 8757,
      "](बांगलादेश": 8758,
      "ांतर": 8759,
      "पट))": 8760,
      "▁दक्षिणेतील": 8761,
      "▁दक्षिण-पश्चिम": 8762,
      "दाय": 8763,
      "दाबाद": 8764,
      "ाला.": 8765,
      "ंबळपुरी": 8766,
      "▁बहुसंख्य": 8767,
      "▁सरकार\n": 8768,
      "▁सरकारों": 8769,
      "वरात्र": 8770,
      "uman": 8771,
      "पुडा": 8772,
      "▁पुराव": 8773,
      "▁पुलिस": 8774,
      "▁पुन्हा": 8775,
      "▁उपप्रकार": 8776,
      "▁उपलब्": 8777,
      "ीतील": 8778,
      "▁जनगण": 8779,
      "ंध्याचल": 8780,
      "णिज्य": 8781,
      "वेयर": 8782,
      "वेगळे": 8783,
      "्हैस": 8784,
      "्हपुत्र": 8785,
      "▁फळ": 8786,
      "▁फ़": 8787,
      "▁फुट": 8788,
      "▁फाळ": 8789,
      "त्रपती": 8790,
      "त्रीया": 8791,
      "▁[इतिहास": 8792,
      "▁[इंडिया": 8793,
      "▁[इराण": 8794,
      "▁[इ.स.": 8795,
      "▁तेथे": 8796,
      "▁नदी](सरस्वती": 8797,
      "ंपी)": 8798,
      "ंपी](ह": 8799,
      "](गुजरात": 8800,
      "▁दोन्ही": 8801,
      "](अरबी": 8802,
      "ल्ल": 8803,
      "▁लोकसंख्ये": 8804,
      "▁लोकशाही": 8805,
      "▁शिकारी": 8806,
      "▁पाठी": 8807,
      "▁गया,": 8808,
      "▁साथ,": 8809,
      "राज्य](": 8810,
      "▁वेढ": 8811,
      "▁वेद": 8812,
      "▁वेळा": 8813,
      "▁चित्रपटाला": 8814,
      "▁चित्रपटांची": 8815,
      "▁जिसने": 8816,
      "▁जिसकी": 8817,
      "▁थंड": 8818,
      "▁थारचे": 8819,
      "▁प्राचीनतम": 8820,
      "▁विशाल": 8821,
      "मान्य": 8822,
      "▁[हिन्दू": 8823,
      "▁[हिंदू": 8824,
      "▁[हंपी](ह": 8825,
      "ज़ी": 8826,
      "त्याने": 8827,
      "संस्कृत": 8828,
      "▁बनला": 8829,
      "▁बनने": 8830,
      "▁बनली": 8831,
      "ीमंडळ": 8832,
      "▁कारभार": 8833,
      "▁येणारे": 8834,
      "क्रांत": 8835,
      "▁प्रकारात": 8836,
      "▁प्रकारची": 8837,
      "▁डालर": 8838,
      "▁डान्स": 8839,
      "▁नामशेष": 8840,
      "▁त्याची": 8841,
      "▁त्यासाठी": 8842,
      "▁लिह": 8843,
      "stor": 8844,
      "ाष्ट्रीय": 8845,
      "▁अपेक्षा": 8846,
      "▁असेही": 8847,
      "▁नावाची": 8848,
      "▁नृत्यप्रकार": 8849,
      "▁उत्तर-पूर्व": 8850,
      "ारा)": 8851,
      "](इतिहास": 8852,
      "](इंडिया": 8853,
      "](इराण": 8854,
      "](इ.स.": 8855,
      "ांधी": 8856,
      "▁[thumb|270px|": 8857,
      "मारास": 8858,
      "ायली": 8859,
      "ायोस्": 8860,
      "▁केंद्रीय": 8861,
      "▁केंद्रित": 8862,
      "ांगडा": 8863,
      "▁झालेली": 8864,
      "▁शिक्षणाच्या": 8865,
      "▁शिक्षणपद्धती": 8866,
      "▁21": 8867,
      "▁24": 8868,
      "▁सुधारण": 8869,
      "▁सुलत": 8870,
      "▁सुद्धा": 8871,
      "▁सुमारास": 8872,
      "▁संग्राम": 8873,
      "▁पहली": 8874,
      "▁पहिला": 8875,
      "▁पहाता": 8876,
      "tisgar": 8877,
      "▁ऑस्कर": 8878,
      "▁युद्ध),": 8879,
      "▁लेण": 8880,
      "▁किनाऱ्या": 8881,
      "▁कि.मी.": 8882,
      "▁दिल्ली)": 8883,
      "▁दिल्लीतील": 8884,
      "▁इतिहासातील": 8885,
      "▁संस्कृती,": 8886,
      "▁संस्कृतीची": 8887,
      "▁संस्कृती](सिंधू": 8888,
      "](भारताच्या": 8889,
      "▁[शिख": 8890,
      "▁ब्रिटिशकालीन": 8891,
      "▁ब्रिटिशांवि": 8892,
      "ोरोनेश": 8893,
      "▁मिळाला.": 8894,
      "▁प्राणी)": 8895,
      "▁प्राण्यांच्या": 8896,
      "▁प्राण्यांमध्ये": 8897,
      "▁हवामान)": 8898,
      "▁हवामान),": 8899,
      "▁हवामान](वि": 8900,
      "](चित्र:indi": 8901,
      "▁आजही": 8902,
      "तिशील": 8903,
      "▁छह": 8904,
      "▁छत्तीस": 8905,
      "▁([म": 8906,
      "▁([ओडिशा": 8907,
      "पेन": 8908,
      "▁५०": 8909,
      "▁2012": 8910,
      "▁2014": 8911,
      "agni": 8912,
      "तुगी": 8913,
      "तुंगभद्रा": 8914,
      "▁पश्चिमेकडे": 8915,
      "](ज्ञान": 8916,
      "](जम्मू": 8917,
      "](जगातील": 8918,
      "▁[ज्ञान": 8919,
      "▁[जम्मू": 8920,
      "▁चुकी": 8921,
      "▁हुआ,": 8922,
      "डे,": 8923,
      "भूमी": 8924,
      "▁केले.": 8925,
      "▁केलेल्या": 8926,
      "▁संघ)": 8927,
      "▁होते.\n": 8928,
      "वन](गोंड": 8929,
      "▁महिन": 8930,
      "▁मह्त्व": 8931,
      "urpos": 8932,
      "ुजराथ": 8933,
      "▁purpos": 8934,
      "](आशिया": 8935,
      "▁हिंदु": 8936,
      "▁नदियों": 8937,
      "▁जगात": 8938,
      "▁जाते.\n": 8939,
      "▁थी,": 8940,
      "▁पठार](द": 8941,
      "▁पठारावरील": 8942,
      "▁बढ़ने": 8943,
      "▁ऊर्जा": 8944,
      "▁पक्षी": 8945,
      "म्मद": 8946,
      "▁कमाली": 8947,
      "▁धर्म)ाचा": 8948,
      "issi": 8949,
      "▁आपल्या": 8950,
      "▁बदलांमुळे": 8951,
      "न्नड": 8952,
      "ीचित्रे": 8953,
      "▁माश": 8954,
      "▁बनाया": 8955,
      "▁सेनाओं": 8956,
      "▁लगातार": 8957,
      "▁स्थिति": 8958,
      "▁हुए,": 8959,
      "▁न्यायाधीश": 8960,
      "ंचल": 8961,
      "▁कालीन": 8962,
      "▁प्रांताचे": 8963,
      "▁साम्राज्य)ाची": 8964,
      "▁समुद्र](अरबी": 8965,
      "▁किनार": 8966,
      "▁सह्याद्र": 8967,
      "▁पार्क": 8968,
      "▁वैविध्य": 8969,
      "▁लागते.": 8970,
      "▁१२.६": 8971,
      "▁सभी": 8972,
      "▁सभासदांना": 8973,
      "▁सभागृह": 8974,
      "▁पडतो": 8975,
      "▁महाखंड": 8976,
      "▁अजनाभ": 8977,
      "▁कामकाज": 8978,
      "▁असलेला": 8979,
      "▁असलेल्या": 8980,
      "▁1960": 8981,
      "▁1962": 8982,
      "▁1965,": 8983,
      "▁काळातच": 8984,
      "▁[उत्तर": 8985,
      "▁2008": 8986,
      "▁उदाहरणे": 8987,
      "ीयांचे": 8988,
      "▁मिलियन": 8989,
      "▁अवधि": 8990,
      "▁अवलंब": 8991,
      "▁नागपूर": 8992,
      "राष्ट्रपति": 8993,
      "▁जाऊ": 8994,
      "ांसोबत": 8995,
      "▁घेऊ": 8996,
      "▁घेण्यात": 8997,
      "▁अन्तर्": 8998,
      "▁अन्ततः": 8999,
      "दिवाळ": 9000,
      "▁\"स": 9001,
      "▁स्थानिक्": 9002,
      "▁विद्यार्थ्यांची": 9003,
      "टिपू": 9004,
      "▁महाराष्ट्रातील": 9005,
      "▁आकर्मण": 9006,
      "▁बंगालच्या": 9007,
      "▁बंगाल](पश्चिम": 9008,
      "▁जयंती](": 9009,
      "▁जयंती)": 9010,
      "ख्ख्न": 9011,
      "ग्री": 9012,
      "द्याने": 9013,
      "▁सोवियत": 9014,
      "▁नीले": 9015,
      "▁नीचे": 9016,
      "▁बांधले": 9017,
      "▁बांधली": 9018,
      "▁बांधून": 9019,
      "▁उनका": 9020,
      "▁इमारती": 9021,
      "पुरी,": 9022,
      "▁वेगवेगळे": 9023,
      "▁गेट)": 9024,
      "▁गेट](इंडिया": 9025,
      "▁ओळखला": 9026,
      "▁निवडले": 9027,
      "▁रोखून": 9028,
      "▁रोवली": 9029,
      "▁[संस्कृत": 9030,
      "▁[संयुक्त": 9031,
      "▁सकता": 9032,
      "▁सकते": 9033,
      "▁वरळी": 9034,
      "▁वारसा": 9035,
      "▁प्रभावशाली": 9036,
      "▁महासागरात": 9037,
      "वृत्तीय": 9038,
      "ापूजा": 9039,
      "▁आशियाई": 9040,
      "▁गंगाधर": 9041,
      "▁यादी)": 9042,
      "](संस्कृत": 9043,
      "](संयुक्त": 9044,
      "▁वाघ,": 9045,
      ".0–": 9046,
      "वार्षिक": 9047,
      "▁$2": 9048,
      "▁हिमनदी": 9049,
      "▁हिमालया": 9050,
      "▁तमिळ": 9051,
      "▁कार्यपालिका": 9052,
      "▁fort": 9053,
      "▁स्मारकावरून": 9054,
      "ैसुरू": 9055,
      "▁हरिश्च": 9056,
      "▁आगे": 9057,
      "▁प्रदर्शन": 9058,
      "स्लमडॉ": 9059,
      "▁पावली": 9060,
      "▁आणली.": 9061,
      "ेंद्रशासित": 9062,
      "▁प्रौद्योगिकी)": 9063,
      "▁तिसरे": 9064,
      "▁इंग्रजी": 9065,
      "▁करतात.\n": 9066,
      "त्त्वज्ञान": 9067,
      "▁घडल्या": 9068,
      "▁वाळवंट)": 9069,
      "▁२००४": 9070,
      "▁२०११": 9071,
      "▁२०१४": 9072,
      "▁थे।": 9073,
      "▁स्वातंत्र्यदिवस": 9074,
      "▁स्वातंत्र्यप्राप्त": 9075,
      "ख्खनचे": 9076,
      "▁वैशिष्ट्ये": 9077,
      "▁पहाड़ी": 9078,
      "▁मंत्रिमण्डल": 9079,
      "▁मंत्रीमंडळ": 9080,
      "▁शहरों": 9081,
      "ावेरी": 9082,
      "▁ड्राम": 9083,
      "▁क्रमांक": 9084,
      "थकल्ली": 9085,
      "फेअर": 9086,
      "▁पासून": 9087,
      "▁केन्द्रशासित": 9088,
      "▁ज़्या": 9089,
      "▁प्रारम्भिक": 9090,
      "▁बैंक": 9091,
      "▁बैठक": 9092,
      "▁सेवाओं": 9093,
      "▁१६३८": 9094,
      "▁१६४८": 9095,
      "▁निभाई।": 9096,
      "▁1980": 9097,
      "▁स्वरूपात": 9098,
      "▁ऊँचाई": 9099,
      "वैधानिक": 9100,
      "व्याघ्र": 9101,
      "हानदी": 9102,
      "िलेला": 9103,
      "्रम्हपुत्र": 9104,
      "▁नाही.": 9105,
      "▁बंदर": 9106,
      "▁निर्भर": 9107,
      "येन्स": 9108,
      "▁engl": 9109,
      "▁कडधान्ये": 9110,
      "▁नमूद": 9111,
      "▁तीसरी": 9112,
      "▁गोवा": 9113,
      "स्थापत्य": 9114,
      "नागपूर": 9115,
      "वाहन": 9116,
      "▁सम्पूर्ण": 9117,
      "▁निर्यात": 9118,
      "](मोहेंजोदडो": 9119,
      "▁फैला": 9120,
      "▁पुरुषों": 9121,
      "▁वन्यसंप": 9122,
      "▁धीरे-धी": 9123,
      "▁हिल्स,": 9124,
      "द्वारे": 9125,
      "ोजपुरी,": 9126,
      "▁पसंती": 9127,
      "▁हस्ताक्षर": 9128,
      "▁दलदली": 9129,
      "▁प्रणाली": 9130,
      "▁तुलना": 9131,
      "▁उदयास": 9132,
      "▁उभरा": 9133,
      "बट्या": 9134,
      "ळ](केर": 9135,
      "षुववृतीय": 9136,
      "षुववृत्तीय": 9137,
      "ोर्तुगी": 9138,
      "▁ॲण्ड": 9139,
      "▁भावार्थ": 9140,
      "▁अशियाई": 9141,
      "▁नियु": 9142,
      "रामाय": 9143,
      "▁जवळपास": 9144,
      "▁होत्या.": 9145,
      "▁असतो.": 9146,
      "▁असल्याने": 9147,
      "▁असल्याची": 9148,
      "▁वर्णन": 9149,
      "केरळ](केर": 9150,
      "▁[महाराष्ट्र](महाराष्ट्र),": 9151,
      "▁भाषाएँ\n": 9152,
      "▁पदार्थांचा": 9153,
      "▁महत्त्वाच्या": 9154,
      "▁येते.": 9155,
      "▁उपसागराला": 9156,
      "▁उपसागरा](बंगालचा": 9157,
      "िक्कीम)": 9158,
      "▁इंग्रजांनी": 9159,
      "▁प्रजासत्ताक": 9160,
      "▁प्रजासत्ताक,": 9161,
      "pex": 9162,
      "िनीअट्ट": 9163,
      "▁chhat": 9164,
      "▁कृषि": 9165,
      "▁आदर्श": 9166,
      "▁ज्योती": 9167,
      "▁बाबतीत": 9168,
      "▁साम्राज्य](मराठा": 9169,
      "enter>": 9170,
      "चंद्रगुप्त": 9171,
      "श्वामित्र": 9172,
      "शास्त्रातील": 9173,
      "हमदाबाद": 9174,
      "ी](सह्याद्र": 9175,
      "ेनका": 9176,
      "५.८": 9177,
      "▁पहुँच": 9178,
      "▁भारत-पाकिस्तान": 9179,
      "▁दौरान": 9180,
      "▁विरोध": 9181,
      "▁लड़ाकू": 9182,
      "ताजमहाल": 9183,
      "▁कोरडे": 9184,
      "वाँ,": 9185,
      "▁धर्म](हिंदू": 9186,
      "▁1999": 9187,
      "जी-२०": 9188,
      "▁छोड़कर": 9189,
      "▁ग्रीक": 9190,
      "▁पार्टियों": 9191,
      "▁हिस्सा": 9192,
      "कडून": 9193,
      "▁साजरा": 9194,
      "▁मधे": 9195,
      "▁आंतरिक": 9196,
      "▁आरक्षणामुळे": 9197,
      "▁अलिक": 9198,
      "▁अहिंस": 9199,
      "ांदेड": 9200,
      "▁गोडसे": 9201,
      "्वालामुख": 9202,
      "▁विद्यापीठ": 9203,
      "▁सेवांचा": 9204,
      "▁युरोपीय": 9205,
      "▁राज्यांत": 9206,
      "▁चतुर्थ": 9207,
      "द्दाख": 9208,
      "▁धोरण": 9209,
      "indo": 9210,
      "▁सादर": 9211,
      "▁राज्यसभेतील": 9212,
      "▁टागोर": 9213,
      "▁[कच्छ](कच्छ": 9214,
      "▁पुढार": 9215,
      "▁पुतळा": 9216,
      "▁[गंगेचे": 9217,
      "▁स्थापत्याचे": 9218,
      "संघीय": 9219,
      "▁ईशान्येकडील": 9220,
      "▁किंगड": 9221,
      "▁[शास्त्र](शास्त्र": 9222,
      "▁([आसाम](आसाम": 9223,
      "](उष्णकटिबंधीय": 9224,
      "▁महाविद्यालय": 9225,
      "▁वृद्धि": 9226,
      "▁जैववैविध्य": 9227,
      "▁[कला](कला),": 9228,
      "▁[इवलेसे|उजवे|200px|": 9229,
      "▁शाहजहानने": 9230,
      "mother": 9231,
      "नपथ": 9232,
      "बूत": 9233,
      "होंने": 9234,
      "ुचिपु": 9235,
      "ोनेर": 9236,
      "२,८": 9237,
      "▁सशस्त्र": 9238,
      "▁[तमिल](तमिल": 9239,
      "▁हरीण)": 9240,
      "▁आसपास": 9241,
      "▁अर्ध": 9242,
      "▁ताजमहाल": 9243,
      "▁ग्लेशियर": 9244,
      "▁उमट": 9245,
      "▁एडविन": 9246,
      "▁चीफ": 9247,
      "▁चालतो": 9248,
      "▁समझौ": 9249,
      "ंडो-ऑस्ट्रेल": 9250,
      "▁[कर्नाटक](कर्नाटक": 9251,
      "▁पुर्तगाली": 9252,
      "▁[गुजरात](गुजरात": 9253,
      "▁[गोंडवन](गोंड": 9254,
      "▁भागीदारी": 9255,
      "▁लिखित": 9256,
      "▁क्रयशक्ति": 9257,
      "▁अर्थव्यवस्थेत": 9258,
      "▁हिंसाचार": 9259,
      "प्पा](हडप्पा": 9260,
      "▁वास्तविक": 9261,
      "▁दृश्य\n": 9262,
      "▁[हिन्दी](हिन्दी)": 9263,
      "(पहा:": 9264,
      "<center>": 9265,
      "_indian_": 9266,
      "randmother": 9267,
      "आशियातील": 9268,
      "ग्नेय": 9269,
      "चिवालय": 9270,
      "चंदीगढ": 9271,
      "ठाणे": 9272,
      "थ्थक": 9273,
      "ध्यात्म": 9274,
      "धम्मचक्र": 9275,
      "पोलो": 9276,
      "पंथी": 9277,
      "भयचर": 9278,
      "मविषुववृतीय": 9279,
      "म](सिक्कीम)": 9280,
      "मरावती": 9281,
      "ुर्गापूजा": 9282,
      "ूनाइटेड": 9283,
      "ॅशनल": 9284,
      "ॅडॅमी": 9285,
      "ैद्राबाद": 9286,
      "ैथिली": 9287,
      "ैमूरलंग": 9288,
      "▁left,": 9289,
      "▁yes\n": 9290,
      "▁सौहार्द": 9291,
      "▁पानगळी": 9292,
      "▁मिसाइ": 9293,
      "▁म्युझिक,": 9294,
      "▁[फ्रांस](फ्रांस": 9295,
      "▁[राजस्थान](राजस्थान)": 9296,
      "▁हाताळून": 9297,
      "▁भित्तीचित्रे": 9298,
      "▁व्हावे": 9299,
      "▁आंदोलन": 9300,
      "▁आघाडी": 9301,
      "▁अक्टूबर": 9302,
      "▁अ‍ॅकॅडॅमी": 9303,
      "▁जवाब": 9304,
      "▁जुन्या": 9305,
      "▁ज्ञानेश्व": 9306,
      "▁बरीच": 9307,
      "▁ब्रेकर": 9308,
      "ांद्रे": 9309,
      "▁काबीज": 9310,
      "▁गोलार्ध": 9311,
      "▁गंगेच्या": 9312,
      "▁शामिल": 9313,
      "▁शिरक": 9314,
      "▁शिखर": 9315,
      "लेक्झांडर": 9316,
      "▁उड़ीसा": 9317,
      "▁उर्वरित": 9318,
      "▁विद्रोह": 9319,
      "▁यद्यपि": 9320,
      "▁लुटयेन्स": 9321,
      "▁(चित्रपट))": 9322,
      "द्दुचे": 9323,
      "▁धरतो": 9324,
      "▁स्टाफ": 9325,
      "▁साक्षरता": 9326,
      "▁वर्तुळकार": 9327,
      "▁वर्गीकरण": 9328,
      "▁[सह्याद्री](सह्याद्र": 9329,
      "▁[सिक्कीम](सिक्कीम)": 9330,
      "▁घरेलू": 9331,
      "▁मुलगा": 9332,
      "प्रमाणे": 9333,
      "](म्यानमार)": 9334,
      "▁[म्यानमार](म्यानमार)": 9335,
      "▁[बांगलादेश](बांगलादेश": 9336,
      "▁[अंग्रेजी](अ": 9337,
      "करसंक्रांत": 9338,
      "▁*आर्क": 9339,
      "▁उपलब्ध": 9340,
      "▁जनगणना": 9341,
      "्हैसूर": 9342,
      "▁[इराण](इराण": 9343,
      "▁[हंपी](हंपी)": 9344,
      "▁सुधारणांचा": 9345,
      "▁किनाऱ्यालग": 9346,
      "▁ब्रिटिशांविरुद्ध": 9347,
      "ोरोनेशन": 9348,
      "▁([ओडिशा](ओडिशा": 9349,
      "▁purposes": 9350,
      "▁हिंदुस्थान": 9351,
      "issile": 9352,
      "▁अजनाभवर्ष": 9353,
      "▁नागपूरचे": 9354,
      "ख्ख्ननचे": 9355,
      "▁हरिश्चंद्र": 9356,
      "स्लमडॉग": 9357,
      "▁स्वातंत्र्यप्राप्तीनंतर": 9358,
      "▁१६३८ला": 9359,
      "व्याघ्रप्रकल्प": 9360,
      "](मोहेंजोदडो)": 9361,
      "▁धीरे-धीरे": 9362,
      "ोर्तुगीज": 9363,
      "▁chhattisgar": 9364,
      "▁[शास्त्र](शास्त्र),": 9365,
      "](उष्णकटिबंधीय)": 9366,
      "▁[कर्नाटक](कर्नाटक)": 9367,
      "▁[गुजरात](गुजरात)": 9368,
      "▁[गोंडवन](गोंडवन)": 9369,
      "\"\n": 9370,
      ").svg,": 9371,
      ",०": 9372,
      ",३": 9373,
      "-७": 9374,
      "09": 9375,
      "1.jpg)\n": 9376,
      "94,": 9377,
      ";\"": 9378,
      "ahi": 9379,
      "b)": 9380,
      "den": 9381,
      "gri": 9382,
      "jection": 9383,
      "lag": 9384,
      "lden": 9385,
      "mrit": 9386,
      "pl": 9387,
      "sar,": 9388,
      "ts": 9389,
      "yle": 9390,
      "घकाल": 9391,
      "च](ड": 9392,
      "णी](": 9393,
      "थर": 9394,
      "पदी": 9395,
      "पाती": 9396,
      "फग": 9397,
      "बा": 9398,
      "बि": 9399,
      "भरत": 9400,
      "भेद": 9401,
      "म](": 9402,
      "म](भ": 9403,
      "रद": 9404,
      "सव": 9405,
      "हि": 9406,
      "ा,": 9407,
      "ाह": 9408,
      "ा](न": 9409
    },
    "merges": [
      [
        "i",
        "n"
      ],
      [
        "a",
        "n"
      ],
      [
        "▁",
        "t"
      ],
      [
        "h",
        "e"
      ],
      [
        "▁",
        "in"
      ],
      [
        "e",
        "r"
      ],
      [
        "o",
        "n"
      ],
      [
        "▁t",
        "he"
      ],
      [
        "a",
        "l"
      ],
      [
        "a",
        "r"
      ],
      [
        "s",
        "t"
      ],
      [
        "d",
        "i"
      ],
      [
        "a",
        "t"
      ],
      [
        "e",
        "n"
      ],
      [
        "]",
        "("
      ],
      [
        "▁",
        "["
      ],
      [
        "▁",
        "o"
      ],
      [
        "▁",
        "c"
      ],
      [
        "r",
        "e"
      ],
      [
        "▁o",
        "f"
      ],
      [
        "▁",
        "s"
      ],
      [
        "i",
        "t"
      ],
      [
        "an",
        "d"
      ],
      [
        "▁",
        "a"
      ],
      [
        "o",
        "r"
      ],
      [
        "▁in",
        "di"
      ],
      [
        "i",
        "on"
      ],
      [
        "e",
        "d"
      ],
      [
        "▁",
        "b"
      ],
      [
        "▁",
        "p"
      ],
      [
        "▁",
        "w"
      ],
      [
        "e",
        "s"
      ],
      [
        "▁",
        "m"
      ],
      [
        "i",
        "c"
      ],
      [
        "▁",
        "and"
      ],
      [
        "▁",
        "f"
      ],
      [
        "l",
        "e"
      ],
      [
        "i",
        "s"
      ],
      [
        "▁indi",
        "a"
      ],
      [
        "en",
        "t"
      ],
      [
        "▁",
        "\n"
      ],
      [
        "in",
        "g"
      ],
      [
        "a",
        "s"
      ],
      [
        "▁",
        "e"
      ],
      [
        "o",
        "m"
      ],
      [
        "o",
        "u"
      ],
      [
        "▁",
        "l"
      ],
      [
        "▁",
        "d"
      ],
      [
        "r",
        "i"
      ],
      [
        "▁",
        "g"
      ],
      [
        "▁",
        "h"
      ],
      [
        "▁",
        "n"
      ],
      [
        "a",
        "m"
      ],
      [
        ")",
        ","
      ],
      [
        "▁t",
        "o"
      ],
      [
        "i",
        "l"
      ],
      [
        "u",
        "r"
      ],
      [
        "t",
        "h"
      ],
      [
        "▁",
        "1"
      ],
      [
        "r",
        "a"
      ],
      [
        "▁",
        "re"
      ],
      [
        "o",
        "l"
      ],
      [
        "at",
        "ion"
      ],
      [
        "i",
        "g"
      ],
      [
        "l",
        "y"
      ],
      [
        "e",
        "c"
      ],
      [
        "v",
        "er"
      ],
      [
        "i",
        "st"
      ],
      [
        "▁",
        "st"
      ],
      [
        "g",
        "e"
      ],
      [
        "c",
        "e"
      ],
      [
        "r",
        "o"
      ],
      [
        "u",
        "t"
      ],
      [
        "u",
        "l"
      ],
      [
        "e",
        "m"
      ],
      [
[...]
