{
  "version": "1.0",
  "truncation": null,
  "padding": null,
  "added_tokens": [],
  "normalizer": {
    "type": "NFKC"
  },
  "pre_tokenizer": {
    "type": "Metaspace",
    "replacement": "▁",
    "prepend_scheme": "always",
    "split": true
  },
  "post_processor": null,
  "decoder": {
    "type": "Metaspace",
    "replacement": "▁",
    "prepend_scheme": "always",
    "split": true
  },
  "model": {
    "type": "BPE",
    "dropout": null,
    "unk_token": "[UNK]",
    "continuing_subword_prefix": null,
    "end_of_word_suffix": null,
    "fuse_unk": false,
    "byte_fallback": false,
    "ignore_merges": false,
    "vocab": {
      "[UNK]": 0,
      "\n": 1,
      "\"": 2,
      "#": 3,
      "$": 4,
      "%": 5,
      "&": 6,
      "'": 7,
      "(": 8,
      ")": 9,
      "*": 10,
      "+": 11,
      ",": 12,
      "-": 13,
      ".": 14,
      "/": 15,
      "0": 16,
      "1": 17,
      "2": 18,
      "3": 19,
      "4": 20,
      "5": 21,
      "6": 22,
      "7": 23,
      "8": 24,
      "9": 25,
      ":": 26,
      ";": 27,
      "=": 28,
      "?": 29,
      "A": 30,
      "B": 31,
      "C": 32,
      "D": 33,
      "E": 34,
      "F": 35,
      "G": 36,
      "H": 37,
      "I": 38,
      "J": 39,
      "K": 40,
      "L": 41,
      "M": 42,
      "N": 43,
      "O": 44,
      "P": 45,
      "Q": 46,
      "R": 47,
      "S": 48,
      "T": 49,
      "U": 50,
      "V": 51,
      "W": 52,
      "Y": 53,
      "Z": 54,
      "[": 55,
      "]": 56,
      "_": 57,
      "a": 58,
      "b": 59,
      "c": 60,
      "d": 61,
      "e": 62,
      "f": 63,
      "g": 64,
      "h": 65,
      "i": 66,
      "j": 67,
      "k": 68,
      "l": 69,
      "m": 70,
      "n": 71,
      "o": 72,
      "p": 73,
      "q": 74,
      "r": 75,
      "s": 76,
      "t": 77,
      "u": 78,
      "v": 79,
      "w": 80,
      "x": 81,
      "y": 82,
      "z": 83,
      "|": 84,
      "}": 85,
      "°": 86,
      "Ö": 87,
      "á": 88,
      "â": 89,
      "í": 90,
      "ā": 91,
      "ī": 92,
      "Ś": 93,
      "ū": 94,
      "ə": 95,
      "ɦ": 96,
      "ɪ": 97,
      "ɾ": 98,
      "ʊ": 99,
      "ʼ": 100,
      "ˈ": 101,
      "ː": 102,
      "ί": 103,
      "α": 104,
      "δ": 105,
      "ν": 106,
      "ς": 107,
      "ό": 108,
      "ज": 109,
      "त": 110,
      "म": 111,
      "य": 112,
      "व": 113,
      "स": 114,
      "े": 115,
      "्": 116,
      "ṅ": 117,
      "ṇ": 118,
      "ṣ": 119,
      "ṭ": 120,
      "Ἰ": 121,
      "–": 122,
      "—": 123,
      "′": 124,
      "₹": 125,
      "▁": 126,
      "an": 127,
      "in": 128,
      "th": 129,
      "er": 130,
      "on": 131,
      "▁th": 132,
      "al": 133,
      "▁the": 134,
      "di": 135,
      "en": 136,
      "st": 137,
      "ar": 138,
      "](": 139,
      "▁[": 140,
      "at": 141,
      "▁o": 142,
      "In": 143,
      "re": 144,
      "▁of": 145,
      "Indi": 146,
      "and": 147,
      "▁in": 148,
      "ed": 149,
      "or": 150,
      "▁c": 151,
      "▁Indi": 152,
      "ion": 153,
      "es": 154,
      "ic": 155,
      "▁and": 156,
      "it": 157,
      "▁w": 158,
      "▁s": 159,
      "le": 160,
      "▁t": 161,
      "▁a": 162,
      "▁India": 163,
      "ent": 164,
      "is": 165,
      "▁b": 166,
      "▁p": 167,
      "▁\n": 168,
      "▁m": 169,
      "▁f": 170,
      "ing": 171,
      "as": 172,
      "om": 173,
      "ou": 174,
      "▁l": 175,
      "ri": 176,
      "▁e": 177,
      "am": 178,
      "),": 179,
      "il": 180,
      "▁to": 181,
      "▁T": 182,
      "▁h": 183,
      "ur": 184,
      "▁1": 185,
      "▁d": 186,
      "ig": 187,
      "ol": 188,
      "ra": 189,
      "ation": 190,
      "▁A": 191,
      "ly": 192,
      "ec": 193,
      "▁re": 194,
      "▁g": 195,
      "▁S": 196,
      "em": 197,
      "ver": 198,
      "ist": 199,
      "▁C": 200,
      "he": 201,
      "ge": 202,
      "▁n": 203,
      "ul": 204,
      "ate": 205,
      "ut": 206,
      "▁-": 207,
      "ce": 208,
      "ro": 209,
      "▁st": 210,
      "ang": 211,
      "us": 212,
      "▁|": 213,
      "ad": 214,
      "▁2": 215,
      "ch": 216,
      "im": 217,
      "ast": 218,
      "ct": 219,
      "el": 220,
      "et": 221,
      "▁-\n": 222,
      "un": 223,
      ").": 224,
      "▁by": 225,
      "iv": 226,
      "▁The": 227,
      "▁B": 228,
      "▁P": 229,
      "▁is": 230,
      "id": 231,
      "▁ar": 232,
      "▁M": 233,
      "▁Indian": 234,
      "um": 235,
      "ir": 236,
      "xt": 237,
      "▁N": 238,
      "ith": 239,
      "s,": 240,
      "ow": 241,
      "ign": 242,
      "ak": 243,
      "du": 244,
      "op": 245,
      "▁19": 246,
      "'s": 247,
      "▁F": 248,
      "▁r": 249,
      "▁(": 250,
      "▁E": 251,
      "ern": 252,
      "▁D": 253,
      "▁con": 254,
      "gh": 255,
      "ain": 256,
      "▁G": 257,
      "ical": 258,
      "ab": 259,
      "▁wh": 260,
      "▁with": 261,
      "ies": 262,
      "▁for": 263,
      "▁20": 264,
      "cent": 265,
      "rom": 266,
      "te": 267,
      "oun": 268,
      "▁sty": 269,
      "##": 270,
      ".\n": 271,
      "a](": 272,
      "est": 273,
      "ure": 274,
      "▁In": 275,
      "av": 276,
      "ay": 277,
      "rit": 278,
      "ere": 279,
      "▁R": 280,
      "▁style": 281,
      "age": 282,
      "ile": 283,
      "▁was": 284,
      "angu": 285,
      "si": 286,
      "er;": 287,
      "text": 288,
      "ment": 289,
      "od": 290,
      "▁be": 291,
      "\"text": 292,
      "-al": 293,
      ":cent": 294,
      "=\"text": 295,
      "ong": 296,
      "ign:cent": 297,
      "▁style=\"text": 298,
      "er;\"": 299,
      "-align:cent": 300,
      "▁style=\"text-align:cent": 301,
      "▁style=\"text-align:center;\"": 302,
      "▁style=\"text-align:center;\"|": 303,
      "se": 304,
      "ub": 305,
      "▁H": 306,
      "ag": 307,
      "jp": 308,
      "up": 309,
      "▁as": 310,
      "outh": 311,
      "ile:": 312,
      "ld": 313,
      "li": 314,
      "s.": 315,
      "▁from": 316,
      "ter": 317,
      "▁on": 318,
      "ial": 319,
      "ud": 320,
      "ity": 321,
      "ult": 322,
      "ory": 323,
      "ism": 324,
      "▁an": 325,
      "](C": 326,
      "ish": 327,
      "ill": 328,
      "oc": 329,
      "▁di": 330,
      "eral": 331,
      "jpg": 332,
      "ore": 333,
      "end": 334,
      "▁langu": 335,
      "00": 336,
      "ot": 337,
      "ive": 338,
      "▁v": 339,
      "▁it": 340,
      "▁[C": 341,
      "▁or": 342,
      "ich": 343,
      "mp": 344,
      "ance": 345,
      "▁has": 346,
      "con": 347,
      "ry": 348,
      "ss": 349,
      "▁I": 350,
      "ap": 351,
      "hi": 352,
      "▁File:": 353,
      "har": 354,
      "og": 355,
      "ant": 356,
      "art": 357,
      "over": 358,
      "▁K": 359,
      "ary": 360,
      "▁India's": 361,
      "ction": 362,
      "▁are": 363,
      "▁which": 364,
      "ber": 365,
      ".jpg": 366,
      "ans": 367,
      "ort": 368,
      "ount": 369,
      "Indian": 370,
      "orld": 371,
      "▁Asi": 372,
      "aj": 373,
      "ect": 374,
      "▁un": 375,
      "▁##": 376,
      "](M": 377,
      "▁ex": 378,
      "a)": 379,
      "ates": 380,
      "▁inc": 381,
      "▁cent": 382,
      "▁com": 383,
      "ac": 384,
      "ath": 385,
      "ep": 386,
      "ire": 387,
      "▁W": 388,
      "▁al": 389,
      "▁India)": 390,
      "ass": 391,
      "19": 392,
      "arge": 393,
      "orth": 394,
      "ution": 395,
      "ear": 396,
      "o-": 397,
      "os": 398,
      "▁at": 399,
      "our": 400,
      "overn": 401,
      ".jpg|": 402,
      "dh": 403,
      "s)": 404,
      "stit": 405,
      "ated": 406,
      "▁sp": 407,
      "▁rel": 408,
      "ev": 409,
      "uc": 410,
      "▁were": 411,
      "ational": 412,
      "▁cont": 413,
      "▁its": 414,
      "▁*": 415,
      "indu": 416,
      "](B": 417,
      "▁[B": 418,
      "▁[M": 419,
      "ries": 420,
      "▁language": 421,
      "mpire": 422,
      "overnment": 423,
      "mer": 424,
      "sh": 425,
      "▁J": 426,
      "▁L": 427,
      "ence": 428,
      "▁part": 429,
      "ous": 430,
      "▁ele": 431,
      "ame": 432,
      "uring": 433,
      "ght": 434,
      "fter": 435,
      "ani": 436,
      "](S": 437,
      "▁int": 438,
      "if": 439,
      "▁3": 440,
      "▁U": 441,
      "▁le": 442,
      "ine": 443,
      "▁[S": 444,
      "Ind": 445,
      "▁India\n": 446,
      "▁pl": 447,
      "▁mo": 448,
      "ateg": 449,
      "me": 450,
      "▁per": 451,
      "▁Ch": 452,
      "ory:": 453,
      "conom": 454,
      "ategory:": 455,
      "any": 456,
      "inist": 457,
      "enc": 458,
      "atic": 459,
      "▁pro": 460,
      "amil": 461,
      "▁Empire": 462,
      "s](": 463,
      "we": 464,
      "dit": 465,
      "eneral": 466,
      "▁India,": 467,
      "▁art": 468,
      "ages": 469,
      "▁###": 470,
      "a,": 471,
      "ef": 472,
      "ew": 473,
      "gion": 474,
      "low": 475,
      "ok": 476,
      "ph": 477,
      "pt": 478,
      "all": 479,
      "ress": 480,
      "▁cl": 481,
      "▁202": 482,
      "illion": 483,
      "lic": 484,
      "ric": 485,
      "eng": 486,
      "▁ch": 487,
      "▁sub": 488,
      "▁bec": 489,
      "▁large": 490,
      "ury": 491,
      "stitution": 492,
      "▁election": 493,
      "der": 494,
      "port": 495,
      "ru": 496,
      "▁V": 497,
      "▁co": 498,
      "▁count": 499,
      "▁India),": 500,
      "▁mar": 501,
      "igh": 502,
      "usic": 503,
      "ide": 504,
      "irst": 505,
      "▁into": 506,
      "hm": 507,
      "ik": 508,
      "oth": 509,
      "qu": 510,
      "▁y": 511,
      "erv": 512,
      "](L": 513,
      "▁sy": 514,
      "▁econom": 515,
      "▁during": 516,
      "▁government": 517,
      "▁South": 518,
      "▁201": 519,
      "so": 520,
      "](P": 521,
      "▁[A": 522,
      "▁pop": 523,
      "▁region": 524,
      "▁north": 525,
      "▁form": 526,
      "ulture": 527,
      "pp": 528,
      "ple": 529,
      "ral": 530,
      "rou": 531,
      "▁ri": 532,
      "ally": 533,
      "▁ter": 534,
      "▁ag": 535,
      "▁general": 536,
      "akist": 537,
      "uddh": 538,
      "20": 539,
      "cc": 540,
      "ff": 541,
      "stem": 542,
      "ater": 543,
      "lear": 544,
      "▁ad": 545,
      "ome": 546,
      "▁dance": 547,
      "imal": 548,
      "▁system": 549,
      "ah": 550,
      "▁5": 551,
      "▁k": 552,
      "▁[m": 553,
      "▁[p": 554,
      "es,": 555,
      "▁tra": 556,
      "▁music": 557,
      "▁first": 558,
      "▁Th": 559,
      "▁dec": 560,
      "ations": 561,
      "row": 562,
      ").\n": 563,
      "odern": 564,
      "inister": 565,
      "▁year": 566,
      "▁popul": 567,
      "e,": 568,
      "ian": 569,
      "lud": 570,
      "sl": 571,
      "▁7": 572,
      "▁O": 573,
      "](D": 574,
      "res": 575,
      "reas": 576,
      "India": 577,
      "ions": 578,
      "isation": 579,
      "▁pri": 580,
      "▁pol": 581,
      "ural": 582,
      "ghal": 583,
      "ound": 584,
      "estern": 585,
      "ave": 586,
      "ublic": 587,
      "uclear": 588,
      "a),": 589,
      "lo": 590,
      "sp": 591,
      "uch": 592,
      "ughal": 593,
      "▁4": 594,
      "inent": 595,
      "ers": 596,
      "ens": 597,
      "ard": 598,
      "▁[P": 599,
      "ree": 600,
      "ited": 601,
      "▁world": 602,
      "ember": 603,
      "umber": 604,
      "▁Hindu": 605,
      "▁languages": 606,
      "ajor": 607,
      "▁relig": 608,
      ")\n": 609,
      "1,": 610,
      "lim": 611,
      "mon": 612,
      "odi": 613,
      "▁\"": 614,
      "▁im": 615,
      "▁end": 616,
      "arn": 617,
      "](A": 618,
      "▁[Indian": 619,
      "▁over": 620,
      "▁after": 621,
      "ower": 622,
      "ritish": 623,
      "▁includ": 624,
      "▁century": 625,
      "dition": 626,
      "▁class": 627,
      "engal": 628,
      "akistan": 629,
      "The": 630,
      "ai": 631,
      "ach": 632,
      "gan": 633,
      "anc": 634,
      "arli": 635,
      "▁inf": 636,
      "ord": 637,
      "esh": 638,
      "▁se": 639,
      "▁pe": 640,
      "omin": 641,
      "ament": 642,
      "anges": 643,
      "used": 644,
      "aste": 645,
      "umb": 646,
      "▁cons": 647,
      "▁been": 648,
      "cont": 649,
      "▁also": 650,
      "▁became": 651,
      "aw": 652,
      "ban": 653,
      "krit": 654,
      "late": 655,
      "ron": 656,
      "wo": 657,
      "ange": 658,
      "ther": 659,
      "ond": 660,
      "ari": 661,
      "▁[c": 662,
      "reat": 663,
      "ess": 664,
      "▁south": 665,
      "▁but": 666,
      "omp": 667,
      "▁ext": 668,
      "▁had": 669,
      "▁18": 670,
      "olog": 671,
      "▁Sh": 672,
      "elhi": 673,
      "ongress": 674,
      "▁It": 675,
      "▁comp": 676,
      "](List": 677,
      "continent": 678,
      "))": 679,
      "47": 680,
      "east": 681,
      "ket": 682,
      "nd": 683,
      "ust": 684,
      "vi": 685,
      "ank": 686,
      "](F": 687,
      "](N": 688,
      "](T": 689,
      "](Indian": 690,
      "▁[G": 691,
      "▁off": 692,
      "ork": 693,
      "▁sh": 694,
      "▁more": 695,
      "▁million": 696,
      "ild": 697,
      "▁have": 698,
      "▁dev": 699,
      "rad": 700,
      "▁grow": 701,
      "vers": 702,
      "▁|\n": 703,
      "ivil": 704,
      "anskrit": 705,
      "▁increas": 706,
      "▁territ": 707,
      "ci": 708,
      "ha": 709,
      "mong": 710,
      "ose": 711,
      "ting": 712,
      "▁that": 713,
      "▁[f": 714,
      "▁[s": 715,
      "▁[t": 716,
      "ati": 717,
      "▁sup": 718,
      "▁such": 719,
      "▁two": 720,
      "▁me": 721,
      "▁minister": 722,
      "urban": 723,
      "ement": 724,
      "▁Congress": 725,
      "▁number": 726,
      "etwe": 727,
      "▁195": 728,
      "▁196": 729,
      "▁rate": 730,
      "▁200": 731,
      "▁exp": 732,
      "Indo-": 733,
      "▁years": 734,
      "etween": 735,
      "0,": 736,
      "a\n": 737,
      "lu": 738,
      "lish": 739,
      "nited": 740,
      "tt": 741,
      "y,": 742,
      "indi": 743,
      "ince": 744,
      "▁their": 745,
      "](H": 746,
      "▁[D": 747,
      "▁[N": 748,
      "▁[T": 749,
      "andhi": 750,
      "ite": 751,
      "ition": 752,
      "▁te": 753,
      "▁both": 754,
      "▁long": 755,
      "rib": 756,
      "urop": 757,
      "raph": 758,
      "▁rep": 759,
      "ell": 760,
      "▁Buddh": 761,
      "▁Plate": 762,
      "▁Ind": 763,
      "▁[Category:": 764,
      "▁most": 765,
      "▁subcontinent": 766,
      "▁prime": 767,
      "*,": 768,
      "6,": 769,
      "ace": 770,
      "cul": 771,
      "eh": 772,
      "ft": 773,
      "for": 774,
      "jab": 775,
      "ni": 776,
      "ta": 777,
      "ule": 778,
      "y)": 779,
      "▁6": 780,
      "ered": 781,
      "on-": 782,
      "▁[K": 783,
      "ories": 784,
      "ics": 785,
      "▁between": 786,
      "▁mil": 787,
      "▁modern": 788,
      "▁major": 789,
      "aman": 790,
      "▁Al": 791,
      "▁res": 792,
      "▁St": 793,
      "▁Con": 794,
      "▁not": 795,
      "elop": 796,
      "unjab": 797,
      "duc": 798,
      "ople": 799,
      "▁En": 800,
      "▁Gandhi": 801,
      "▁[Ch": 802,
      "▁under": 803,
      "▁War": 804,
      "▁countries": 805,
      "ikh": 806,
      "▁tradition": 807,
      "▁population": 808,
      "▁classical": 809,
      "versity": 810,
      "urope": 811,
      "DP": 812,
      "act": 813,
      "ble": 814,
      "cri": 815,
      "les": 816,
      "y](": 817,
      "▁j": 818,
      "▁ra": 819,
      "▁up": 820,
      "▁urban": 821,
      "▁this": 822,
      "alth": 823,
      "](G": 824,
      "](W": 825,
      "ature": 826,
      "ative": 827,
      "▁ca": 828,
      "itical": 829,
      "▁soc": 830,
      "▁fore": 831,
      "right": 832,
      "istory": 833,
      "ular": 834,
      "ird": 835,
      "ically": 836,
      "▁began": 837,
      "ially": 838,
      "ultan": 839,
      "](Category:": 840,
      "lowing": 841,
      "arliament": 842,
      "-d": 843,
      "-l": 844,
      "0.": 845,
      "bar": 846,
      "dar": 847,
      "i,": 848,
      "iod": 849,
      "per": 850,
      "uj": 851,
      "thumb": 852,
      "dic": 853,
      "](R": 854,
      "▁[n": 855,
      "red": 856,
      "ese": 857,
      "ice": 858,
      "iter": 859,
      "itary": 860,
      "▁serv": 861,
      "▁since": 862,
      "▁app": 863,
      "▁India.": 864,
      "entral": 865,
      "▁many": 866,
      "▁land": 867,
      "▁later": 868,
      "▁east": 869,
      "▁Tamil": 870,
      "ech": 871,
      "▁gre": 872,
      "▁states": 873,
      "▁rule": 874,
      "ainting": 875,
      "able": 876,
      "ograph": 877,
      "athem": 878,
      ".jpg|A": 879,
      "▁language),": 880,
      "merg": 881,
      "▁period": 882,
      "▁largest": 883,
      "▁economic": 884,
      "▁northern": 885,
      "imalay": 886,
      "▁people": 887,
      "](File:": 888,
      "▁develop": 889,
      ");": 890,
      "au": 891,
      "fe": 892,
      "iz": 893,
      "iver": 894,
      "ov": 895,
      "ool": 896,
      "tic": 897,
      "▁en": 898,
      "▁ro": 899,
      "alle": 900,
      "enni": 901,
      "](p": 902,
      "▁[H": 903,
      "▁[19": 904,
      "▁col": 905,
      "▁caste": 906,
      "▁war": 907,
      "▁western": 908,
      "▁sec": 909,
      "▁tim": 910,
      "ise": 911,
      "▁painting": 912,
      "▁fol": 913,
      "▁famil": 914,
      "▁liter": 915,
      "▁emp": 916,
      "▁hum": 917,
      "rahm": 918,
      "ately": 919,
      "▁state": 920,
      "ade": 921,
      "▁Pakistan": 922,
      "ident": 923,
      "own": 924,
      "dust": 925,
      "▁River": 926,
      "illenni": 927,
      "000": 928,
      "▁Isl": 929,
      "ack": 930,
      "ourt": 931,
      "▁country": 932,
      "rough": 933,
      "▁river": 934,
      "▁influ": 935,
      "ompany": 936,
      "ndaman": 937,
      "▁territories": 938,
      "uropean": 939,
      "thumb|": 940,
      "illennium": 941,
      ")s": 942,
      "11": 943,
      "6%": 944,
      "gin": 945,
      "hat": 946,
      "mar": 947,
      "ost": 948,
      "ood": 949,
      "ram": 950,
      "rans": 951,
      "ty": 952,
      "vent": 953,
      "▁,": 954,
      "▁9": 955,
      "ind": 956,
      "▁there": 957,
      "](V": 958,
      "](c": 959,
      "▁[V": 960,
      "▁culture": 961,
      "esp": 962,
      "ities": 963,
      "▁ab": 964,
      "▁among": 965,
      "ised": 966,
      "▁bas": 967,
      "▁power": 968,
      "▁mid": 969,
      "▁mathem": 970,
      "ashm": 971,
      "omen": 972,
      "ough": 973,
      "▁lif": 974,
      "▁est": 975,
      "▁Tem": 976,
      "▁12": 977,
      "▁After": 978,
      "ly,": 979,
      "emoc": 980,
      "▁new": 981,
      "eld": 982,
      "▁By": 983,
      "▁British": 984,
      "▁Bengal": 985,
      "▁Per": 986,
      "▁Prad": 987,
      "▁National": 988,
      "▁199": 989,
      "▁1947": 990,
      "▁East": 991,
      "▁constitution": 992,
      "▁GDP": 993,
      "a](C": 994,
      "ism)": 995,
      "ountries": 996,
      "epend": 997,
      "argest": 998,
      "▁spec": 999,
      "Indus": 1000,
      "▁mov": 1001,
      "▁right": 1002,
      "▁increased": 1003,
      "cient": 1004,
      "ehru": 1005,
      "cript": 1006,
      "ultanate": 1007,
      "▁Pradesh": 1008,
      "1.": 1009,
      "24": 1010,
      "3,": 1011,
      "7,": 1012,
      "a.": 1013,
      "adi": 1014,
      "bal": 1015,
      "dle": 1016,
      "dom": 1017,
      "ever": 1018,
      "nion": 1019,
      "oh": 1020,
      "rol": 1021,
      "tect": 1022,
      "ering": 1023,
      "▁than": 1024,
      "ale": 1025,
      "ali": 1026,
      "](K": 1027,
      "](19": 1028,
      "](Indo-": 1029,
      "▁[E": 1030,
      "▁[R": 1031,
      "▁[W": 1032,
      "att": 1033,
      "▁occ": 1034,
      "read": 1035,
      "▁cap": 1036,
      "▁court": 1037,
      "es.": 1038,
      "icial": 1039,
      "▁set": 1040,
      "▁billion": 1041,
      "▁member": 1042,
      "▁millennium": 1043,
      "asi": 1044,
      "▁emerg": 1045,
      "▁17": 1046,
      "▁def": 1047,
      "old": 1048,
      "▁Ass": 1049,
      "▁Sanskrit": 1050,
      "verse": 1051,
      "▁CE": 1052,
      "rop": 1053,
      "uslim": 1054,
      "chool": 1055,
      "anguage": 1056,
      "▁Himalay": 1057,
      "▁one": 1058,
      "](Ch": 1059,
      "ock": 1060,
      "ocal": 1061,
      "▁vi": 1062,
      "s)\n": 1063,
      "▁contain": 1064,
      "▁lead": 1065,
      "▁Empire)": 1066,
      "ight": 1067,
      "roup": 1068,
      "▁world's": 1069,
      "▁growth": 1070,
      "▁republic": 1071,
      "form": 1072,
      "▁forest": 1073,
      "▁species": 1074,
      "0%": 1075,
      "3em": 1076,
      "5.": 1077,
      "can": 1078,
      "ex": 1079,
      "eak": 1080,
      "glish": 1081,
      "i-": 1082,
      "ib": 1083,
      "ious": 1084,
      "line": 1085,
      "pur": 1086,
      "ration": 1087,
      "s.\n": 1088,
      "tal": 1089,
      "uk": 1090,
      "ww": 1091,
      "ya": 1092,
      "yan": 1093,
      "the": 1094,
      "ert": 1095,
      "eration": 1096,
      "▁through": 1097,
      "ality": 1098,
      "▁them": 1099,
      "ara": 1100,
      "arat": 1101,
      "arly": 1102,
      "](J": 1103,
      "▁[J": 1104,
      "▁[g": 1105,
      "▁out": 1106,
      "▁indust": 1107,
      "ederal": 1108,
      "▁sur": 1109,
      "▁bel": 1110,
      "▁pre": 1111,
      "▁parliament": 1112,
      "▁main": 1113,
      "ingdom": 1114,
      "amm": 1115,
      "amp": 1116,
      "▁1.": 1117,
      "▁rec": 1118,
      "istor": 1119,
      "▁Company": 1120,
      "▁non-": 1121,
      "cted": 1122,
      ").jpg": 1123,
      "▁Nehru": 1124,
      "aksh": 1125,
      "▁198": 1126,
      "▁Dance": 1127,
      "▁who": 1128,
      "life": 1129,
      "ultural": 1130,
      "▁areas": 1131,
      "▁Asia": 1132,
      "](Mughal": 1133,
      "▁contrib": 1134,
      "▁33em": 1135,
      "▁left": 1136,
      "▁Chin": 1137,
      "▁Valle": 1138,
      "▁agric": 1139,
      "ensus": 1140,
      "limate": 1141,
      "▁including": 1142,
      "ology": 1143,
      "culpt": 1144,
      "▁military": 1145,
      "▁caused": 1146,
      "-largest": 1147,
      "▁Island": 1148,
      "thumb|right": 1149,
      "▁life": 1150,
      "▁Temple": 1151,
      "▁movement": 1152,
      "▁33em\n": 1153,
      "-w": 1154,
      "2,": 1155,
      "4%": 1156,
      "5,": 1157,
      "CE": 1158,
      "European": 1159,
      "S$": 1160,
      "United": 1161,
      "ee": 1162,
      "ied": 1163,
      "land": 1164,
      "min": 1165,
      "oor": 1166,
      "ps": 1167,
      "s),": 1168,
      "ti": 1169,
      "ten": 1170,
      "ted": 1171,
      "uri": 1172,
      "uries": 1173,
      "ved": 1174,
      "yn": 1175,
      "▁8": 1176,
      "▁us": 1177,
      "an,": 1178,
      "ins": 1179,
      "](E": 1180,
      "](s": 1181,
      "▁[d": 1182,
      "rect": 1183,
      "ed,": 1184,
      "orn": 1185,
      "▁wide": 1186,
      "▁work": 1187,
      "▁women": 1188,
      "▁sign": 1189,
      "▁some": 1190,
      "▁tech": 1191,
      "▁acc": 1192,
      "▁India).": 1193,
      "▁far": 1194,
      "▁found": 1195,
      "ing,": 1196,
      "ash": 1197,
      "ommon": 1198,
      "▁led": 1199,
      "rid": 1200,
      "▁high": 1201,
      "▁de": 1202,
      "▁An": 1203,
      "▁Act": 1204,
      "▁gra": 1205,
      "utes": 1206,
      "angl": 1207,
      "adu": 1208,
      "ched": 1209,
      "astri": 1210,
      "und": 1211,
      "▁BCE": 1212,
      "▁Nadu": 1213,
      "owever": 1214,
      "akh": 1215,
      "▁rural": 1216,
      "▁Delhi": 1217,
      "▁Raj": 1218,
      "sian": 1219,
      "ism),": 1220,
      "ism](H": 1221,
      "▁diversity": 1222,
      "harat": 1223,
      ".jpg)\n": 1224,
      "▁Asian": 1225,
      "▁Asia)": 1226,
      "▁export": 1227,
      "▁centuries": 1228,
      "epublic": 1229,
      "▁World": 1230,
      "▁all": 1231,
      "▁relations": 1232,
      "▁plain": 1233,
      "▁play": 1234,
      "ency": 1235,
      "▁election),": 1236,
      "▁cook": 1237,
      "▁economy": 1238,
      "resident": 1239,
      "▁religion": 1240,
      "ording": 1241,
      "ominion": 1242,
      "▁official": 1243,
      "▁Plateau": 1244,
      "▁English": 1245,
      "▁social": 1246,
      "▁served": 1247,
      "▁second": 1248,
      "▁influenc": 1249,
      "▁mathematic": 1250,
      "ashmir": 1251,
      "▁Valley": 1252,
      "owever,": 1253,
      "//": 1254,
      "3.": 1255,
      "4.": 1256,
      "://": 1257,
      "Countries": 1258,
      "JP": 1259,
      "South": 1260,
      "bi": 1261,
      "bian": 1262,
      "ck": 1263,
      "gy": 1264,
      "gen": 1265,
      "ject": 1266,
      "led": 1267,
      "mit": 1268,
      "oin": 1269,
      "ped": 1270,
      "rum": 1271,
      "ual": 1272,
      "ven": 1273,
      "war": 1274,
      "▁ed": 1275,
      "▁ent": 1276,
      "▁used": 1277,
      "▁esp": 1278,
      "ann": 1279,
      "anu": 1280,
      "anat": 1281,
      "eri": 1282,
      "ers,": 1283,
      "onom": 1284,
      "▁third": 1285,
      "als": 1286,
      "▁they": 1287,
      "div": 1288,
      "dian": 1289,
      "ark": 1290,
      "](t": 1291,
      "▁other": 1292,
      "ors": 1293,
      "esi": 1294,
      "▁sm": 1295,
      "▁shar": 1296,
      "▁sultanate": 1297,
      "▁sculpt": 1298,
      "▁India#": 1299,
      "iss": 1300,
      "ising": 1301,
      "▁made": 1302,
      "▁fe": 1303,
      "▁fl": 1304,
      "out": 1305,
      "ould": 1306,
      "▁last": 1307,
      "ility": 1308,
      "▁histor": 1309,
      "rac": 1310,
      "▁Ar": 1311,
      "ecut": 1312,
      "ecially": 1313,
      "eccan": 1314,
      "▁Se": 1315,
      "emb": 1316,
      "very": 1317,
      "istic": 1318,
      "▁Civil": 1319,
      "▁no": 1320,
      "▁national": 1321,
      "▁nuclear": 1322,
      "rotect": 1323,
      "ung": 1324,
      "▁Punjab": 1325,
      "▁Muslim": 1326,
      "▁193": 1327,
      "▁Gree": 1328,
      "▁Guj": 1329,
      "abad": 1330,
      "a](A": 1331,
      "a](K": 1332,
      "aves": 1333,
      "▁Hindi": 1334,
      "▁diff": 1335,
      "▁central": 1336,
      "acy": 1337,
      "▁control": 1338,
      "▁Lank": 1339,
      "▁United": 1340,
      "▁US$": 1341,
      "▁[South": 1342,
      "ricket": 1343,
      "▁coast": 1344,
      "▁marri": 1345,
      "▁political": 1346,
      "loy": 1347,
      "▁religious": 1348,
      "arnatic": 1349,
      "▁include": 1350,
      "▁century,": 1351,
      "ildlife": 1352,
      "▁support": 1353,
      "ttps": 1354,
      "▁Buddhist": 1355,
      "▁majority": 1356,
      "▁Constitution": 1357,
      "duced": 1358,
      "-dram": 1359,
      "▁eastern": 1360,
      "▁following": 1361,
      "▁employ": 1362,
      "▁human": 1363,
      "▁Persian": 1364,
      "ropical": 1365,
      "▁industry": 1366,
      "▁especially": 1367,
      "▁Greek": 1368,
      "ttps://": 1369,
      "%.": 1370,
      "-f": 1371,
      "0s,": 1372,
      "200": 1373,
      "af": 1374,
      "ajp": 1375,
      "ahar": 1376,
      "aury": 1377,
      "day": 1378,
      "eb": 1379,
      "ey": 1380,
      "ez": 1381,
      "ealth": 1382,
      "fer": 1383,
      "gar": 1384,
      "her": 1385,
      "iet": 1386,
      "lar": 1387,
      "ma": 1388,
      "main": 1389,
      "minist": 1390,
      "miss": 1391,
      "na": 1392,
      "o,": 1393,
      "ook": 1394,
      "pl": 1395,
      "rat": 1396,
      "rish": 1397,
      "ratic": 1398,
      "round": 1399,
      "s\n": 1400,
      "sar": 1401,
      "ue": 1402,
      "ually": 1403,
      "vol": 1404,
      "west": 1405,
      "work": 1406,
      "▁.\n": 1407,
      "anag": 1408,
      "er,": 1409,
      "ergy": 1410,
      "onstitution": 1411,
      "al)": 1412,
      "enins": 1413,
      "](f": 1414,
      "](n": 1415,
      "▁[I": 1416,
      "▁[ch": 1417,
      "atak": 1418,
      "▁ori": 1419,
      "reated": 1420,
      "▁ind": 1421,
      "▁inter": 1422,
      "▁car": 1423,
      "▁civil": 1424,
      "▁cities": 1425,
      "▁census": 1426,
      "esert": 1427,
      "itect": 1428,
      "▁so": 1429,
      "▁school": 1430,
      "leg": 1431,
      "▁trans": 1432,
      "▁India](": 1433,
      "▁bu": 1434,
      "▁prom": 1435,
      "▁men": 1436,
      "▁fig": 1437,
      "ingh": 1438,
      "ouse": 1439,
      "ought": 1440,
      "▁lo": 1441,
      "▁local": 1442,
      "river": 1443,
      "▁early": 1444,
      "amic": 1445,
      "▁her": 1446,
      "urn": 1447,
      "▁1,": 1448,
      "▁15": 1449,
      "▁dyn": 1450,
      "ola": 1451,
      "olk": 1452,
      "olence": 1453,
      "olitical": 1454,
      "ravi": 1455,
      "ation,": 1456,
      "▁remain": 1457,
      "▁gar": 1458,
      "▁Singh": 1459,
      "emale": 1460,
      "▁Caves": 1461,
      "uted": 1462,
      "utra": 1463,
      "▁str": 1464,
      "angered": 1465,
      "adesh": 1466,
      "chitect": 1467,
      "etic": 1468,
      "une": 1469,
      "ives": 1470,
      "▁Bi": 1471,
      "▁arm": 1472,
      "▁North": 1473,
      "▁197": 1474,
      "▁rul": 1475,
      "▁rates": 1476,
      "▁Dev": 1477,
      "▁Ghat": 1478,
      "ablish": 1479,
      "ability": 1480,
      "▁where": 1481,
      "▁whose": 1482,
      "avi": 1483,
      "ody": 1484,
      "upta": 1485,
      "▁ass": 1486,
      "liance": 1487,
      "▁animal": 1488,
      "](Climate": 1489,
      "▁disp": 1490,
      "▁direct": 1491,
      "00\n": 1492,
      "▁vill": 1493,
      "aputra": 1494,
      "anta": 1495,
      "▁Keral": 1496,
      "▁union": 1497,
      "osed": 1498,
      "▁speak": 1499,
      "▁[Mughal": 1500,
      "▁language)": 1501,
      "▁Jain": 1502,
      "ific": 1503,
      "▁Union": 1504,
      "▁leg": 1505,
      "▁plate": 1506,
      "wealth": 1507,
      "▁coal": 1508,
      "▁market": 1509,
      "201": 1510,
      "▁There": 1511,
      "▁These": 1512,
      "▁endangered": 1513,
      "ances": 1514,
      "umbai": 1515,
      "ront": 1516,
      "ttar": 1517,
      "▁Indo-": 1518,
      "▁States": 1519,
      "▁grew": 1520,
      "▁development": 1521,
      "rahmaputra": 1522,
      "▁establish": 1523,
      "emocratic": 1524,
      "▁Pradesh\n": 1525,
      "▁occup": 1526,
      "▁capit": 1527,
      "▁emerged": 1528,
      "▁Assemb": 1529,
      "▁Himalayas": 1530,
      ").jpg|": 1531,
      "▁techn": 1532,
      "ommonwealth": 1533,
      "angladesh": 1534,
      "▁educ": 1535,
      "ecutive": 1536,
      "▁origin": 1537,
      "▁figure": 1538,
      "ravidian": 1539,
      "▁Assembly": 1540,
      "-B": 1541,
      "-b": 1542,
      "-m": 1543,
      "-s": 1544,
      "1%": 1545,
      "28": 1546,
      "4,": 1547,
      "57": 1548,
      "60": 1549,
      "8.": 1550,
      "Ar": 1551,
      "Ary": 1552,
      "Member": 1553,
      "ax": 1554,
      "ail": 1555,
      "cut": 1556,
      "equ": 1557,
      "edic": 1558,
      "fore": 1559,
      "gu": 1560,
      "https://": 1561,
      "ians": 1562,
      "jo-": 1563,
      "ked": 1564,
      "la": 1565,
      "lal": 1566,
      "lit": 1567,
      "language": 1568,
      "mb": 1569,
      "man": 1570,
      "ning": 1571,
      "nam": 1572,
      "nown": 1573,
      "obar": 1574,
      "pe": 1575,
      "pic": 1576,
      "pro": 1577,
      "rin": 1578,
      "tom": 1579,
      "tou": 1580,
      "til": 1581,
      "uent": 1582,
      "wn": 1583,
      "wan": 1584,
      "world": 1585,
      "ward": 1586,
      "y\n": 1587,
      "y),": 1588,
      "erent": 1589,
      "onstit": 1590,
      "onesi": 1591,
      "▁three": 1592,
      "dis": 1593,
      "enjo-": 1594,
      "stani": 1595,
      "](I": 1596,
      "](U": 1597,
      "](ch": 1598,
      "](India": 1599,
      "](Indus": 1600,
      "▁[O": 1601,
      "▁[di": 1602,
      "▁[ar": 1603,
      "▁[se": 1604,
      "▁[Indo-": 1605,
      "▁[thumb|right": 1606,
      "ating": 1607,
      "▁ob": 1608,
      "▁old": 1609,
      "▁often": 1610,
      "India)": 1611,
      "andoor": 1612,
      "oro": 1613,
      "oral": 1614,
      "▁cr": 1615,
      "▁cur": 1616,
      "▁created": 1617,
      "icobar": 1618,
      "its": 1619,
      "▁won": 1620,
      "▁well": 1621,
      "▁sit": 1622,
      "▁sing": 1623,
      "▁trib": 1624,
      "▁India.\n": 1625,
      "ents": 1626,
      "▁band": 1627,
      "▁bir": 1628,
      "▁penins": 1629,
      "▁mak": 1630,
      "▁lower": 1631,
      "rial": 1632,
      "▁earli": 1633,
      "am,": 1634,
      "ilg": 1635,
      "▁his": 1636,
      "▁held": 1637,
      "urther": 1638,
      "▁10": 1639,
      "▁dra": 1640,
      "iger": 1641,
      "ract": 1642,
      "▁Ag": 1643,
      "▁Acc": 1644,
      "▁Among": 1645,
      "▁gr": 1646,
      "▁gen": 1647,
      "▁glo": 1648,
      "▁group": 1649,
      "▁ne": 1650,
      "▁near": 1651,
      "▁stat": 1652,
      "angra": 1653,
      "adh": 1654,
      "▁2.": 1655,
      "chi": 1656,
      "elig": 1657,
      "ett": 1658,
      "ived": 1659,
      "▁BJP": 1660,
      "iddle": 1661,
      "▁architect": 1662,
      "▁Mani": 1663,
      "▁Minister": 1664,
      "▁Mughal": 1665,
      "▁Modi": 1666,
      "▁Indians": 1667,
      "ummer": 1668,
      "▁Non-": 1669,
      "▁Nicobar": 1670,
      "operation": 1671,
      "▁Fore": 1672,
      "▁rise": 1673,
      "ernal": 1674,
      "ernational": 1675,
      "▁Dal": 1676,
      "▁During": 1677,
      "▁Ganges": 1678,
      "▁within": 1679,
      "a](G": 1680,
      "a](South": 1681,
      "▁Ram": 1682,
      "ments": 1683,
      "sequ": 1684,
      "▁History": 1685,
      "lief": 1686,
      "▁ancient": 1687,
      "oci": 1688,
      "▁dis": 1689,
      "▁vari": 1690,
      "▁II": 1691,
      "▁File:C": 1692,
      "ants": 1693,
      "▁Kashmir": 1694,
      "▁Asia](South": 1695,
      "▁commer": 1696,
      "▁common": 1697,
      "athak": 1698,
      "▁along": 1699,
      ".jpg|The": 1700,
      "▁spread": 1701,
      "▁[Buddh": 1702,
      "▁Janu": 1703,
      "▁party": 1704,
      "▁parties": 1705,
      "ameez": 1706,
      "Indonesi": 1707,
      "▁prov": 1708,
      "alled": 1709,
      "▁become": 1710,
      "rust": 1711,
      "▁2011": 1712,
      "▁kingdom": 1713,
      "▁music)": 1714,
      "▁popular": 1715,
      "](Delhi": 1716,
      "resent": 1717,
      "▁polic": 1718,
      "ensive": 1719,
      "odiversity": 1720,
      "▁import": 1721,
      "▁sever": 1722,
      "amental": 1723,
      "awahar": 1724,
      "▁southern": 1725,
      "▁Shank": 1726,
      "▁Its": 1727,
      "▁text": 1728,
      "▁longer": 1729,
      "▁Indus": 1730,
      "ics\n": 1731,
      "▁traditional": 1732,
      "](World": 1733,
      "atures": 1734,
      "daro": 1735,
      "▁rock": 1736,
      "▁[Hindu": 1737,
      "▁families": 1738,
      "▁literacy": 1739,
      "▁River),": 1740,
      "vention": 1741,
      "▁based": 1742,
      "▁1947,": 1743,
      "ependence": 1744,
      "ohenjo-": 1745,
      "ibet": 1746,
      "▁surv": 1747,
      "▁parliamentary": 1748,
      "▁agriculture": 1749,
      "▁widely": 1750,
      "undamental": 1751,
      "genous": 1752,
      "anata": 1753,
      "▁sculpture": 1754,
      "▁Civilisation": 1755,
      "▁employed": 1756,
      "garh": 1757,
      "▁dynast": 1758,
      "▁speakers": 1759,
      "ificant": 1760,
      "▁established": 1761,
      "▁technology": 1762,
      "▁education": 1763,
      "Artic": 1764,
      "Aryan": 1765,
      "touch": 1766,
      "onstituent": 1767,
      "▁[thumb|right|": 1768,
      "▁According": 1769,
      "sequent": 1770,
      "▁January": 1771,
      "awaharlal": 1772,
      "▁Shankar": 1773,
      "ohenjo-daro": 1774,
      "\".": 1775,
      ")s,": 1776,
      "05": 1777,
      "17": 1778,
      "1st": 1779,
      "22": 1780,
      "3%": 1781,
      "38": 1782,
      "40": 1783,
      "6.": 1784,
      "67": 1785,
      "7%": 1786,
      "8,": 1787,
      "Hindu": 1788,
      "Pakist": 1789,
      "Yaksh": 1790,
      "Zoro": 1791,
      "aith": 1792,
      "book": 1793,
      "c,": 1794,
      "cro": 1795,
      "cial": 1796,
      "cess": 1797,
      "e.": 1798,
      "ely": 1799,
      "ead": 1800,
      "eign": 1801,
      "eograph": 1802,
      "fric": 1803,
      "han": 1804,
      "ix": 1805,
      "iber": 1806,
      "ield": 1807,
      "jay": 1808,
      "janta": 1809,
      "kh": 1810,
      "kbar": 1811,
      "lass": 1812,
      "les,": 1813,
      "m,": 1814,
      "mary": 1815,
      "mace": 1816,
      "px": 1817,
      "ran": 1818,
      "tain": 1819,
      "tates": 1820,
      "ued": 1821,
      "uis": 1822,
      "udu": 1823,
      "w.": 1824,
      "way": 1825,
      "xim": 1826,
      "ym": 1827,
      "▁0.": 1828,
      "an)": 1829,
      "anor": 1830,
      "anus": 1831,
      "ini": 1832,
      "ines": 1833,
      "th,": 1834,
      "though": 1835,
      "eries": 1836,
      "erry": 1837,
      "onic": 1838,
      "▁though": 1839,
      "▁thought": 1840,
      "ales": 1841,
      "alay": 1842,
      "alore": 1843,
      "alwar": 1844,
      "dish": 1845,
      "enew": 1846,
      "stru": 1847,
      "arend": 1848,
      "araj": 1849,
      "arath": 1850,
      "](m": 1851,
      "▁[L": 1852,
      "▁[U": 1853,
      "▁[st": 1854,
      "▁[re": 1855,
      "▁[Indi": 1856,
      "▁[Indus": 1857,
      "▁[world": 1858,
      "atter": 1859,
      "reme": 1860,
      "▁inst": 1861,
      "▁inequ": 1862,
      "orm": 1863,
      "▁che": 1864,
      "▁char": 1865,
      "ion,": 1866,
      "ict": 1867,
      "▁we": 1868,
      "▁worn": 1869,
      "▁sa": 1870,
      "▁script": 1871,
      "▁test": 1872,
      "▁air": 1873,
      "▁India](C": 1874,
      "isl": 1875,
      "▁back": 1876,
      "▁par": 1877,
      "▁port": 1878,
      "▁fil": 1879,
      "▁fun": 1880,
      "▁fest": 1881,
      "▁five": 1882,
      "▁four": 1883,
      "▁federal": 1884,
      "▁further": 1885,
      "as,": 1886,
      "ase": 1887,
      "▁low": 1888,
      "rig": 1889,
      "rist": 1890,
      "rime": 1891,
      "▁eth": 1892,
      "▁empire": 1893,
      "▁every": 1894,
      "ilt": 1895,
      "▁top": 1896,
      "▁total": 1897,
      "▁Treat": 1898,
      "▁here": 1899,
      "▁hock": 1900,
      "▁however,": 1901,
      "urg": 1902,
      "▁11": 1903,
      "olution": 1904,
      "rav": 1905,
      "rabian": 1906,
      "ations)\n": 1907,
      "▁Andaman": 1908,
      "▁resp": 1909,
      "▁gas": 1910,
      "emograph": 1911,
      "ists": 1912,
      "▁Central": 1913,
      "▁Carnatic": 1914,
      "▁Commonwealth": 1915,
      "get": 1916,
      "▁now": 1917,
      "utical": 1918,
      "roc": 1919,
      "roxim": 1920,
      "anged": 1921,
      "angam": 1922,
      "angalore": 1923,
      "▁25": 1924,
      "cha": 1925,
      "cherry": 1926,
      "elf": 1927,
      "etwork": 1928,
      "ival": 1929,
      "▁Bharat": 1930,
      "▁Part": 1931,
      "▁President": 1932,
      "▁Park": 1933,
      "▁around": 1934,
      "▁Nations": 1935,
      "▁Front": 1936,
      "▁range": 1937,
      "▁(g": 1938,
      "▁(n": 1939,
      "▁(19": 1940,
      "▁condu": 1941,
      "▁when": 1942,
      "▁Ra": 1943,
      "▁Re": 1944,
      "anguages": 1945,
      "ity,": 1946,
      "ism](S": 1947,
      "▁ann": 1948,
      "ishing": 1949,
      "ocial": 1950,
      "▁div": 1951,
      "▁dist": 1952,
      "▁vast": 1953,
      "apon": 1954,
      "▁File:B": 1955,
      "▁File:P": 1956,
      "▁File:S": 1957,
      "harmace": 1958,
      "anted": 1959,
      "overeign": 1960,
      "▁Asia](C": 1961,
      "▁until": 1962,
      "▁centre": 1963,
      "▁comple": 1964,
      "▁contin": 1965,
      "](Bh": 1966,
      "](British": 1967,
      "▁[British": 1968,
      "▁[Bengal": 1969,
      "▁[Mah": 1970,
      "shok": 1971,
      "](South": 1972,
      "▁Uttar": 1973,
      "ineering": 1974,
      "▁[Sikh": 1975,
      "▁Empire](Mughal": 1976,
      "allav": 1977,
      "▁2026": 1978,
      "▁2026,": 1979,
      "ength": 1980,
      "▁changes": 1981,
      "▁subsequent": 1982,
      "▁election](": 1983,
      "▁2011,": 1984,
      "soon": 1985,
      "▁regions": 1986,
      "▁regional": 1987,
      "▁formed": 1988,
      "pped": 1989,
      "▁term": 1990,
      "▁again": 1991,
      "ffect": 1992,
      "▁administ": 1993,
      "▁system,": 1994,
      "▁This": 1995,
      "▁Or": 1996,
      "▁poll": 1997,
      "▁languages,": 1998,
      "▁religions": 1999,
      "▁endem": 2000,
      "arnatak": 2001,
      "▁consid": 2002,
      "▁consum": 2003,
      "ological": 2004,
      "▁composed": 2005,
      "▁increasing": 2006,
      "▁1950,": 2007,
      "▁1965": 2008,
      "▁[Delhi": 2009,
      "▁milk": 2010,
      "▁All": 2011,
      "▁Although": 2012,
      "▁upper": 2013,
      "▁caus": 2014,
      "▁approxim": 2015,
      "▁time": 2016,
      "▁times": 2017,
      "▁basin": 2018,
      "▁middle": 2019,
      "▁estim": 2020,
      "emocrac": 2021,
      "▁constitutional": 2022,
      "](199": 2023,
      "olden": 2024,
      "▁view": 2025,
      "▁containing": 2026,
      "▁leading": 2027,
      "www.": 2028,
      "yanmar": 2029,
      "ammu": 2030,
      "▁record": 2031,
      "▁significant": 2032,
      "▁gradu": 2033,
      "astrian": 2034,
      "▁cooking": 2035,
      "▁influenced": 2036,
      "oint": 2037,
      "▁small": 2038,
      "▁Gujarat": 2039,
      "▁different": 2040,
      "rishna": 2041,
      "▁independence": 2042,
      "▁village": 2043,
      "▁legisl": 2044,
      "▁coalition": 2045,
      "https://www.": 2046,
      "▁oldest": 2047,
      "▁birth": 2048,
      "▁peninsular": 2049,
      "▁earliest": 2050,
      "eligion": 2051,
      "▁architecture": 2052,
      "▁kingdoms": 2053,
      "Articles": 2054,
      "touchability": 2055,
      "Pakistani": 2056,
      "Zoroastrian": 2057,
      "lassical": 2058,
      "uducherry": 2059,
      "anuscript": 2060,
      "arendra": 2061,
      "▁[world's": 2062,
      "▁inequality": 2063,
      "harmaceutical": 2064,
      "▁approximately": 2065,
      "emocracy": 2066,
      "--": 2067,
      "-c": 2068,
      "-g": 2069,
      "-k": 2070,
      "-in": 2071,
      "-re": 2072,
      "15": 2073,
      "2%": 2074,
      "26": 2075,
      "48": 2076,
      "49": 2077,
      "51": 2078,
      "7C": 2079,
      "9%": 2080,
      "9,": 2081,
      "Al": 2082,
      "HO": 2083,
      "List": 2084,
      "PA": 2085,
      "PP": 2086,
      "a*": 2087,
      "aver": 2088,
      "aist": 2089,
      "a).": 2090,
      "bans": 2091,
      "bird": 2092,
      "ces": 2093,
      "de": 2094,
      "ded": 2095,
      "eated": 2096,
      "eget": 2097,
      "g,": 2098,
      "gani": 2099,
      "gadi": 2100,
      "hin": 2101,
      "hol": 2102,
      "i)": 2103,
      "iri": 2104,
      "i),": 2105,
      "ijay": 2106,
      "ken": 2107,
      "kim": 2108,
      "lin": 2109,
      "lac": 2110,
      "lack": 2111,
      "ms": 2112,
      "mun": 2113,
      "mrit": 2114,
      "ncient": 2115,
      "o.": 2116,
      "oat": 2117,
      "och": 2118,
      "osi": 2119,
      "pel": 2120,
      "pli": 2121,
      "rdu": 2122,
      "s).": 2123,
      "serv": 2124,
      "t,": 2125,
      "tember": 2126,
      "tell": 2127,
      "ternational": 2128,
      "ve": 2129,
      "ving": 2130,
      "vara": 2131,
      "yth": 2132,
      "ya](": 2133,
      "zation": 2134,
      "|The": 2135,
      "|thumb|right": 2136,
      "▁.": 2137,
      "▁z": 2138,
      "▁qu": 2139,
      "ana": 2140,
      "andi": 2141,
      "ined": 2142,
      "inct": 2143,
      "ercul": 2144,
      "one": 2145,
      "onk": 2146,
      "onsoon": 2147,
      "alli": 2148,
      "alcut": 2149,
      "▁these": 2150,
      "diction": 2151,
      "diev": 2152,
      "diately": 2153,
      "ened": 2154,
      "arb": 2155,
      "arc": 2156,
      "arg": 2157,
      "aras": 2158,
      "aries": 2159,
      "](In": 2160,
      "▁[a": 2161,
      "▁[20": 2162,
      "▁[United": 2163,
      "▁[bi": 2164,
      "▁[its": 2165,
      "atri": 2166,
      "atical": 2167,
      "atma": 2168,
      "ataraj": 2169,
      "International": 2170,
      "and\n": 2171,
      "anding": 2172,
      "▁ins": 2173,
      "▁indi": 2174,
      "▁invol": 2175,
      "edabad": 2176,
      "orig": 2177,
      "orse": 2178,
      "orter": 2179,
      "order": 2180,
      "▁can": 2181,
      "▁creat": 2182,
      "▁cricket": 2183,
      "▁called": 2184,
      "▁crust": 2185,
      "▁cuis": 2186,
      "▁Indira": 2187,
      "ional": 2188,
      "ions,": 2189,
      "eserv": 2190,
      "ices": 2191,
      "itat": 2192,
      "▁win": 2193,
      "▁west": 2194,
      "▁writ": 2195,
      "▁wear": 2196,
      "▁waist": 2197,
      "▁sim": 2198,
      "▁sect": 2199,
      "▁sari": 2200,
      "▁tem": 2201,
      "▁turn": 2202,
      "▁tax": 2203,
      "isdiction": 2204,
      "▁bre": 2205,
      "▁bro": 2206,
      "▁bot": 2207,
      "▁bron": 2208,
      "▁body": 2209,
      "▁border": 2210,
      "▁pet": 2211,
      "▁public": 2212,
      "▁pred": 2213,
      "▁pract": 2214,
      "▁manuscript": 2215,
      "▁fo": 2216,
      "▁flow": 2217,
      "ings": 2218,
      "asure": 2219,
      "▁lim": 2220,
      "▁lay": 2221,
      "▁equ": 2222,
      "▁elit": 2223,
      "▁epic": 2224,
      "ama": 2225,
      "amb": 2226,
      "ames": 2227,
      "ili": 2228,
      "iland": 2229,
      "iling": 2230,
      "▁took": 2231,
      "▁Thar": 2232,
      "▁Tibet": 2233,
      "▁hig": 2234,
      "▁hot": 2235,
      "▁history": 2236,
      "urch": 2237,
      "urisdiction": 2238,
      "▁13": 2239,
      "▁do": 2240,
      "▁der": 2241,
      "▁depend": 2242,
      "▁dances": 2243,
      "igration": 2244,
      "oll": 2245,
      "olit": 2246,
      "olid": 2247,
      "ations)": 2248,
      "▁As": 2249,
      "▁A7C": 2250,
      "lymp": 2251,
      "▁reg": 2252,
      "▁reach": 2253,
      "▁reform": 2254,
      "▁reduced": 2255,
      "▁relief": 2256,
      "▁Sri": 2257,
      "▁She": 2258,
      "▁Sab": 2259,
      "▁Sub": 2260,
      "▁Sep": 2261,
      "▁Sik": 2262,
      "▁Sikh": 2263,
      "▁Sultanate": 2264,
      "▁School": 2265,
      "emble": 2266,
      "▁Cup": 2267,
      "▁Culture": 2268,
      "hest": 2269,
      "head": 2270,
      "▁num": 2271,
      "▁name": 2272,
      "▁nomin": 2273,
      "uled": 2274,
      "uture": 2275,
      "cept": 2276,
      "▁ste": 2277,
      "usical": 2278,
      "ades": 2279,
      "adwe": 2280,
      "change": 2281,
      "ety": 2282,
      "eter": 2283,
      "etry": 2284,
      "undar": 2285,
      "iva": 2286,
      "iving": 2287,
      "▁Their": 2288,
      "▁Pal": 2289,
      "ided": 2290,
      "▁Me": 2291,
      "▁Mar": 2292,
      "▁Many": 2293,
      "▁Mumbai": 2294,
      "▁Nag": 2295,
      "▁New": 2296,
      "▁Nuclear": 2297,
      "duction": 2298,
      "▁rich": 2299,
      "▁renew": 2300,
      "▁(India)": 2301,
      "▁Econom": 2302,
      "▁Desert": 2303,
      "▁Demograph": 2304,
      "▁Gate": 2305,
      "▁Government": 2306,
      "ably": 2307,
      "abitat": 2308,
      "▁styles": 2309,
      "a](M": 2310,
      "aving": 2311,
      "▁Republic": 2312,
      "▁being": 2313,
      "▁before": 2314,
      "sease": 2315,
      "ubercul": 2316,
      "▁However,": 2317,
      "▁Health": 2318,
      "upt": 2319,
      "ulting": 2320,
      "ulti-": 2321,
      "▁diverse": 2322,
      "▁disease": 2323,
      "ender": 2324,
      "▁vis": 2325,
      "▁vict": 2326,
      "▁veget": 2327,
      "▁[Central": 2328,
      "aps": 2329,
      "hip": 2330,
      "▁File:M": 2331,
      "harkh": 2332,
      "ogam": 2333,
      "artition": 2334,
      "▁Kathak": 2335,
      "ortality": 2336,
      "ountry": 2337,
      "ectanc": 2338,
      "▁exc": 2339,
      "▁executive": 2340,
      "athur": 2341,
      "epal": 2342,
      "▁West": 2343,
      "▁Western": 2344,
      "assin": 2345,
      "osis": 2346,
      "osph": 2347,
      "▁sport": 2348,
      "evolution": 2349,
      "▁**": 2350,
      "](Buddh": 2351,
      "](Bengal": 2352,
      "▁[Bh": 2353,
      "▁Languages": 2354,
      "▁partic": 2355,
      "](Sanskrit": 2356,
      "▁intro": 2357,
      "ified": 2358,
      "▁30": 2359,
      "ine,": 2360,
      "▁[Sanskrit": 2361,
      "▁place": 2362,
      "▁moist": 2363,
      "megadi": 2364,
      "mediately": 2365,
      "▁Chand": 2366,
      "▁produc": 2367,
      "s](A": 2368,
      "▁art,": 2369,
      "▁change": 2370,
      "▁election).": 2371,
      "hmedabad": 2372,
      "other": 2373,
      "▁governments": 2374,
      "▁2018": 2375,
      "](Punjab": 2376,
      "▁[Andaman": 2377,
      "▁ago.": 2378,
      "▁dance-dram": 2379,
      "▁50": 2380,
      "▁known": 2381,
      "▁trade": 2382,
      "▁declar": 2383,
      "▁decades": 2384,
      "ianity": 2385,
      "slam": 2386,
      "▁7.": 2387,
      "▁Oce": 2388,
      "▁Olymp": 2389,
      "](Deccan": 2390,
      "reasing": 2391,
      "spot": 2392,
      "arden": 2393,
      "▁[Pakistan": 2394,
      "▁[Punjab": 2395,
      "▁Hinduism": 2396,
      "▁Hindustani": 2397,
      "▁languages)": 2398,
      "achal": 2399,
      "ganisation": 2400,
      "▁consolid": 2401,
      "ondwan": 2402,
      "▁extant": 2403,
      "▁external": 2404,
      "▁Shastri": 2405,
      "▁[Ganges": 2406,
      "▁show": 2407,
      "▁growing": 2408,
      "▁territory": 2409,
      "hailand": 2410,
      "▁meat": 2411,
      "▁minister.": 2412,
      "0,000": 2413,
      "ellion": 2414,
      "▁[Category:Countries": 2415,
      "▁subcontinent)": 2416,
      "▁Alliance": 2417,
      "▁reserv": 2418,
      "▁resulting": 2419,
      "▁Energy": 2420,
      "▁Gandhi)": 2421,
      "▁[Chin": 2422,
      "▁traditionally": 2423,
      "acted": 2424,
      "▁just": 2425,
      "▁jurisdiction": 2426,
      "▁societ": 2427,
      "arliamentary": 2428,
      "▁[nuclear": 2429,
      "▁appear": 2430,
      "▁greater": 2431,
      "▁rule.": 2432,
      "▁developed": 2433,
      "▁enacted": 2434,
      "▁colon": 2435,
      "▁family": 2436,
      "▁influence": 2437,
      "▁about": 2438,
      "▁mid-": 2439,
      "▁rights": 2440,
      "](Indo-Pakistani": 2441,
      "▁[World": 2442,
      "attle": 2443,
      "▁violence": 2444,
      "▁species,": 2445,
      "▁[Jain": 2446,
      "▁below": 2447,
      "akshadwe": 2448,
      "▁areas.": 2449,
      "▁contribution": 2450,
      "▁China": 2451,
      "▁agricultural": 2452,
      "uridar": 2453,
      "▁use": 2454,
      "cheduled": 2455,
      "ism](Hindu": 2456,
      "ism](History": 2457,
      "▁cooked": 2458,
      "▁share": 2459,
      "▁features": 2460,
      "▁historical": 2461,
      "▁Art": 2462,
      "rotected": 2463,
      "rotection": 2464,
      "▁Lankan": 2465,
      "▁marriage": 2466,
      "-drama": 2467,
      "ajput": 2468,
      "aurya": 2469,
      "mission": 2470,
      "anagara": 2471,
      "▁built": 2472,
      "olkat": 2473,
      "▁garment": 2474,
      "▁Northeast": 2475,
      "avira": 2476,
      "▁Kerala": 2477,
      "](India–": 2478,
      "▁curr": 2479,
      "▁single": 2480,
      "▁makes": 2481,
      "▁gener": 2482,
      "▁global": 2483,
      "▁commercial": 2484,
      "▁commonly": 2485,
      "▁important": 2486,
      "▁[Hinduism](Hindu": 2487,
      "cross": 2488,
      "▁[India](": 2489,
      "▁weapon": 2490,
      "▁festival": 2491,
      "rigonom": 2492,
      "ristianity": 2493,
      "rocodi": 2494,
      "▁conducted": 2495,
      "▁continued": 2496,
      "▁Organi": 2497,
      "▁estimated": 2498,
      "▁recorded": 2499,
      "averi": 2500,
      "ijayanagara": 2501,
      "lackb": 2502,
      "mritsar": 2503,
      "|thumb|right](File:": 2504,
      "dieval": 2505,
      "origin": 2506,
      "▁sector": 2507,
      "▁broad": 2508,
      "▁bottom": 2509,
      "▁bronz": 2510,
      "▁highest": 2511,
      "▁hotspot": 2512,
      "▁September": 2513,
      "▁Sikkim": 2514,
      "undarbans": 2515,
      "uberculosis": 2516,
      "osphere": 2517,
      "▁[Sanskrit](Sanskrit": 2518,
      "megadiverse": 2519,
      "▁dance-dramas": 2520,
      "akshadweep": 2521,
      "▁Organization": 2522,
      "#S": 2523,
      "%,": 2524,
      ")),": 2525,
      ")s.": 2526,
      "-T": 2527,
      "-e": 2528,
      "-sp": 2529,
      ".og": 2530,
      "10": 2531,
      "2\n": 2532,
      "2)": 2533,
      "2.": 2534,
      "23": 2535,
      "25": 2536,
      "3\n": 2537,
      "36": 2538,
      "5\n": 2539,
      "5%": 2540,
      "62": 2541,
      "71": 2542,
      "8%": 2543,
      "80": 2544,
      "81": 2545,
      "84": 2546,
      "9.": 2547,
      "Bharat": 2548,
      "DA": 2549,
      "Female": 2550,
      "Gange": 2551,
      "IN": 2552,
      "Prol": 2553,
      "RI": 2554,
      "Republic": 2555,
      "aid": 2556,
      "after": 2557,
      "a).\n": 2558,
      "a*,": 2559,
      "back": 2560,
      "ced": 2561,
      "cil": 2562,
      "cast": 2563,
      "eg": 2564,
      "eth": 2565,
      "een": 2566,
      "eol": 2567,
      "eath": 2568,
      "gov": 2569,
      "ground": 2570,
      "hā": 2571,
      "hou": 2572,
      "ham": 2573,
      "house": 2574,
      "ia": 2575,
      "ih": 2576,
      "ip": 2577,
      "ief": 2578,
      "ii)": 2579,
      "ji": 2580,
      "ling": 2581,
      "lain": 2582,
      "lay": 2583,
      "lated": 2584,
      "lung": 2585,
      "men": 2586,
      "mend": 2587,
      "ner": 2588,
      "nic": 2589,
      "oo": 2590,
      "ovi": 2591,
      "press": 2592,
      "ren": 2593,
      "ring": 2594,
      "ras": 2595,
      "rative": 2596,
      "rising": 2597,
      "sv": 2598,
      "tle": 2599,
      "ty,": 2600,
      "tropical": 2601,
      "turn": 2602,
      "u,": 2603,
      "ug": 2604,
      "udi": 2605,
      "ues": 2606,
      "uous": 2607,
      "ugu": 2608,
      "vel": 2609,
      "varn": 2610,
      "wh": 2611,
      "wal": 2612,
      "wani": 2613,
      "yp": 2614,
      "yam": 2615,
      "yder": 2616,
      "–India": 2617,
      "–201": 2618,
      "—s": 2619,
      "▁+": 2620,
      "▁0": 2621,
      "▁er": 2622,
      "▁ir": 2623,
      "▁eng": 2624,
      "▁ens": 2625,
      "▁very": 2626,
      "▁Yaksh": 2627,
      "anies": 2628,
      "ana,": 2629,
      "ining": 2630,
      "indh": 2631,
      "th-largest": 2632,
      "eror": 2633,
      "erch": 2634,
      "erous": 2635,
      "ers](": 2636,
      "ercontinent": 2637,
      "ont": 2638,
      "onvi": 2639,
      "▁those": 2640,
      "alf": 2641,
      "alam": 2642,
      "aldiv": 2643,
      "▁then": 2644,
      "▁theory": 2645,
      "dict": 2646,
      "enn": 2647,
      "enhouse": 2648,
      "stan": 2649,
      "sted": 2650,
      "ar,": 2651,
      "arv": 2652,
      "ared": 2653,
      "arian": 2654,
      "arati": 2655,
      "](d": 2656,
      "](g": 2657,
      "](river": 2658,
      "▁[b": 2659,
      "▁[e": 2660,
      "▁[h": 2661,
      "▁[j": 2662,
      "▁[k": 2663,
      "▁[th": 2664,
      "▁[un": 2665,
      "▁[India": 2666,
      "▁[the": 2667,
      "▁[river": 2668,
      "▁[Indonesi": 2669,
      "atal": 2670,
      "aten": 2671,
      "atpur": 2672,
      "▁opp": 2673,
      "redi": 2674,
      "ream": 2675,
      "reement": 2676,
      "ands": 2677,
      "▁inv": 2678,
      "▁init": 2679,
      "▁institution": 2680,
      "ed.": 2681,
      "orb": 2682,
      "ority": 2683,
      "oriz": 2684,
      "▁crit": 2685,
      "▁cli": 2686,
      "▁came": 2687,
      "▁cultural": 2688,
      "▁could": 2689,
      "▁cym": 2690,
      "▁city,": 2691,
      "▁cattle": 2692,
      "es\n": 2693,
      "icken": 2694,
      "ital": 2695,
      "itud": 2696,
      "itated": 2697,
      "itions": 2698,
      "▁went": 2699,
      "▁wet": 2700,
      "▁wild": 2701,
      "▁wind": 2702,
      "▁would": 2703,
      "▁wildlife": 2704,
      "▁som": 2705,
      "▁sav": 2706,
      "▁slow": 2707,
      "▁siz": 2708,
      "▁summer": 2709,
      "▁six": 2710,
      "lege": 2711,
      "lect": 2712,
      "▁ten": 2713,
      "▁tri": 2714,
      "▁tak": 2715,
      "▁tect": 2716,
      "▁tree": 2717,
      "▁tiger": 2718,
      "▁aver": 2719,
      "▁age": 2720,
      "▁adh": 2721,
      "▁aff": 2722,
      "▁across": 2723,
      "▁India).\n": 2724,
      "▁India](South": 2725,
      "is,": 2726,
      "isen": 2727,
      "ises": 2728,
      "isions": 2729,
      "▁bread": 2730,
      "▁po": 2731,
      "▁pover": 2732,
      "▁pilg": 2733,
      "▁pharmaceutical": 2734,
      "▁mal": 2735,
      "▁much": 2736,
      "▁mi,": 2737,
      "▁merch": 2738,
      "▁fin": 2739,
      "▁fast": 2740,
      "▁fac": 2741,
      "▁fall": 2742,
      "▁fact": 2743,
      "▁fash": 2744,
      "asian": 2745,
      "omy": 2746,
      "oman": 2747,
      "oming": 2748,
      "omest": 2749,
      "▁lab": 2750,
      "▁lies": 2751,
      "▁lik": 2752,
      "▁law": 2753,
      "▁lib": 2754,
      "▁latter": 2755,
      "▁effect": 2756,
      "▁eaten": 2757,
      "am)": 2758,
      "ample": 2759,
      "ilk": 2760,
      "ilar": 2761,
      "ilway": 2762,
      "▁today": 2763,
      "▁town": 2764,
      "▁Tel": 2765,
      "▁Taj": 2766,
      "▁Tiger": 2767,
      "▁hub": 2768,
      "▁head": 2769,
      "▁having": 2770,
      "urt": 2771,
      "urred": 2772,
      "urasi": 2773,
      "urasian": 2774,
      "▁16": 2775,
      "▁den": 2776,
      "▁due": 2777,
      "igar": 2778,
      "oli": 2779,
      "olo": 2780,
      "olent": 2781,
      "rab": 2782,
      "rag": 2783,
      "▁Afric": 2784,
      "▁Ashok": 2785,
      "ecular": 2786,
      "econom": 2787,
      "▁ref": 2788,
      "▁real": 2789,
      "▁rest": 2790,
      "▁recent": 2791,
      "▁report": 2792,
      "▁reven": 2793,
      "▁refer": 2794,
      "▁return": 2795,
      "▁gain": 2796,
      "▁god": 2797,
      "▁gave": 2798,
      "▁great": 2799,
      "▁good": 2800,
      "▁gold": 2801,
      "▁garden": 2802,
      "emen": 2803,
      "▁Co": 2804,
      "▁Cap": 2805,
      "▁Census": 2806,
      "▁nation": 2807,
      "ulk": 2808,
      "uls": 2809,
      "ute": 2810,
      "utt": 2811,
      "uting": 2812,
      "▁-2\n": 2813,
      "rog": 2814,
      "room": 2815,
      "roject": 2816,
      "ropped": 2817,
      "ush": 2818,
      "adur": 2819,
      "adra": 2820,
      "adem": 2821,
      "▁26": 2822,
      "▁26,": 2823,
      "▁26%": 2824,
      "imes": 2825,
      "imachal": 2826,
      "elta": 2827,
      "etric": 2828,
      "etah": 2829,
      "etimes": 2830,
      "ivity": 2831,
      "▁Bah": 2832,
      "▁Bangladesh": 2833,
      "▁Bangalore": 2834,
      "▁P.": 2835,
      "▁Prime": 2836,
      "▁Puducherry": 2837,
      "▁Polit": 2838,
      "▁Plain": 2839,
      "▁isol": 2840,
      "iding": 2841,
      "▁Major": 2842,
      "▁Moh": 2843,
      "▁Madh": 2844,
      "▁Nations)\n": 2845,
      "▁Network": 2846,
      "▁Nepal": 2847,
      "ither": 2848,
      "ithic": 2849,
      "igned": 2850,
      "ake": 2851,
      "akti": 2852,
      "▁Fl": 2853,
      "▁For": 2854,
      "▁rup": 2855,
      "▁(N": 2856,
      "▁(in": 2857,
      "▁Emerg": 2858,
      "▁European": 2859,
      "▁Early": 2860,
      "▁Dec": 2861,
      "▁Democratic": 2862,
      "▁Dravidian": 2863,
      "▁conf": 2864,
      "ains": 2865,
      "▁Geograph": 2866,
      "▁Golden": 2867,
      "centage": 2868,
      "romise": 2869,
      "ouncil": 2870,
      "a](H": 2871,
      "a](R": 2872,
      "a](Indonesi": 2873,
      "avel": 2874,
      "▁Reserv": 2875,
      "▁Revolution": 2876,
      "age.": 2877,
      "siatic": 2878,
      "oda": 2879,
      "▁beach": 2880,
      "▁Himachal": 2881,
      "lied": 2882,
      "ism](J": 2883,
      "ism](Buddh": 2884,
      "▁another": 2885,
      "](Co": 2886,
      "illed": 2887,
      "▁dish": 2888,
      "eralisation": 2889,
      "ends": 2890,
      "oti": 2891,
      "oted": 2892,
      "ively": 2893,
      "▁vide": 2894,
      "▁[Constitution": 2895,
      "▁[Constituent": 2896,
      "▁order": 2897,
      "ssam": 2898,
      "▁IN": 2899,
      "hibian": 2900,
      "▁File:G": 2901,
      "▁File:K": 2902,
      "▁File:L": 2903,
      "ogn": 2904,
      "▁Kingdom": 2905,
      "▁Karnatak": 2906,
      "▁Krishna": 2907,
      "ctions": 2908,
      "ountain": 2909,
      "▁Asia,": 2910,
      "▁Asia),": 2911,
      "▁Asia\n": 2912,
      "](Mah": 2913,
      "](Mohenjo-daro": 2914,
      "▁exchange": 2915,
      "▁example": 2916,
      "a)s": 2917,
      "▁income": 2918,
      "acket": 2919,
      "▁WHO": 2920,
      "▁alliance": 2921,
      "assing": 2922,
      "o-operation": 2923,
      "osen": 2924,
      "osition": 2925,
      ".jpg|M": 2926,
      "▁relative": 2927,
      "▁relations)": 2928,
      "uck": 2929,
      "ucial": 2930,
      "▁*p": 2931,
      "▁*The": 2932,
      "▁[Brahm": 2933,
      "▁[Mohenjo-daro": 2934,
      "▁language\"": 2935,
      "▁Jawaharlal": 2936,
      "▁Jammu": 2937,
      "▁L.": 2938,
      "▁Lat": 2939,
      "▁parts": 2940,
      "▁partition": 2941,
      "▁elected": 2942,
      "iferation": 2943,
      "▁3,": 2944,
      "▁level": 2945,
      "▁plant": 2946,
      "▁pers": 2947,
      "▁Champ": 2948,
      "▁Chandi": 2949,
      "encies": 2950,
      "ency,": 2951,
      "▁produ": 2952,
      "▁protect": 2953,
      "▁project": 2954,
      "▁process": 2955,
      "▁Empire),": 2956,
      "▁Empire).": 2957,
      "web": 2958,
      "▁art)": 2959,
      "gional": 2960,
      "▁cloth": 2961,
      "▁2024": 2962,
      "▁2023,": 2963,
      "▁2022,": 2964,
      "▁chosen": 2965,
      "▁becoming": 2966,
      "▁election)": 2967,
      "▁election](199": 2968,
      "▁Ved": 2969,
      "▁Vajp": 2970,
      "▁Vedic": 2971,
      "▁margin": 2972,
      "▁marked": 2973,
      "▁government,": 2974,
      "](Pakistan": 2975,
      "▁regions.": 2976,
      "▁northwest": 2977,
      "▁forms": 2978,
      "▁formal": 2979,
      "rought": 2980,
      "▁ago,": 2981,
      "▁adv": 2982,
      "▁adop": 2983,
      "▁addition": 2984,
      "▁added": 2985,
      "▁dance)": 2986,
      "▁system).": 2987,
      "▁kameez": 2988,
      "▁km,": 2989,
      "▁[modern": 2990,
      "▁decade": 2991,
      "▁populous": 2992,
      "▁70%": 2993,
      "▁primary": 2994,
      "▁polit": 2995,
      "▁42": 2996,
      "▁world](List": 2997,
      "▁\"[": 2998,
      "▁impro": 2999,
      "▁immediately": 3000,
      "arna": 3001,
      "anced": 3002,
      "▁seal": 3003,
      "aste-re": 3004,
      "▁consists": 3005,
      "ronic": 3006,
      "▁south-w": 3007,
      "▁extensive": 3008,
      "▁185": 3009,
      "▁Shiva": 3010,
      "▁comprising": 3011,
      "▁companies": 3012,
      "▁compromise": 3013,
      "ustral": 3014,
      "violence": 3015,
      "](North": 3016,
      "](Nuclear": 3017,
      "](Tamil": 3018,
      "▁[Gupta": 3019,
      "▁office": 3020,
      "rade": 3021,
      "hau": 3022,
      "▁[tropical": 3023,
      "▁suppl": 3024,
      "▁medic": 3025,
      "~": 3026,
      "ం": 3027,
      "ః": 3028,
      "అ": 3029,
      "ఆ": 3030,
      "ఇ": 3031,
      "ఈ": 3032,
      "ఉ": 3033,
      "ఋ": 3034,
      "ఎ": 3035,
      "ఏ": 3036,
      "ఐ": 3037,
      "ఒ": 3038,
      "ఓ": 3039,
      "ఔ": 3040,
      "క": 3041,
      "ఖ": 3042,
      "గ": 3043,
      "ఘ": 3044,
      "చ": 3045,
      "ఛ": 3046,
      "జ": 3047,
      "ఞ": 3048,
      "ట": 3049,
      "ఠ": 3050,
      "డ": 3051,
      "ఢ": 3052,
      "ణ": 3053,
      "త": 3054,
      "థ": 3055,
      "ద": 3056,
      "ధ": 3057,
      "న": 3058,
      "ప": 3059,
      "ఫ": 3060,
      "బ": 3061,
      "భ": 3062,
      "మ": 3063,
      "య": 3064,
      "ర": 3065,
      "ల": 3066,
      "ళ": 3067,
      "వ": 3068,
      "శ": 3069,
      "ష": 3070,
      "స": 3071,
      "హ": 3072,
      "ా": 3073,
      "ి": 3074,
      "ీ": 3075,
      "ు": 3076,
      "ూ": 3077,
      "ృ": 3078,
      "ె": 3079,
      "ే": 3080,
      "ై": 3081,
      "ొ": 3082,
      "ో": 3083,
      "ౌ": 3084,
      "్": 3085,
      "‌": 3086,
      "్ర": 3087,
      "ార": 3088,
      "▁ప": 3089,
      "లు": 3090,
      "స్": 3091,
      "్య": 3092,
      "లో": 3093,
      "భార": 3094,
      "భారత": 3095,
      "▁క": 3096,
      "▁వ": 3097,
      "దే": 3098,
      "న్": 3099,
      "▁స": 3100,
      "దేశ": 3101,
      "ర్": 3102,
      "ది": 3103,
      "ాల": 3104,
      "▁మ": 3105,
      "ిం": 3106,
      "ిక": 3107,
      "▁ర": 3108,
      "ాలు": 3109,
      "▁ప్ర": 3110,
      "న్న": 3111,
      "త్ర": 3112,
      "▁అ": 3113,
      "గా": 3114,
      "ీయ": 3115,
      "▁జ": 3116,
      "▁భారత": 3117,
      "క్": 3118,
      "ాత": 3119,
      "ని": 3120,
      "▁ఉ": 3121,
      "ది.": 3122,
      "ము": 3123,
      "ాయ": 3124,
      "దేశం": 3125,
      "కు": 3126,
      "ాన": 3127,
      "్ట": 3128,
      "ల్": 3129,
      "ండ": 3130,
      "ద్": 3131,
      "▁చ": 3132,
      "తి": 3133,
      "▁న": 3134,
      "త్": 3135,
      "ంగ": 3136,
      "రి": 3137,
      "ిన": 3138,
      "▁ఇ": 3139,
      "స్థ": 3140,
      "ులు": 3141,
      "▁ఆ": 3142,
      "స్త": 3143,
      "ించ": 3144,
      "తం": 3145,
      "▁ద": 3146,
      "ను": 3147,
      "వి": 3148,
      "ాష": 3149,
      "ాజ": 3150,
      "ైన": 3151,
      "రు": 3152,
      "](భారత": 3153,
      "ంట": 3154,
      "▁భారతదేశం": 3155,
      "▁త": 3156,
      "▁వి": 3157,
      "ాయి": 3158,
      "▁భ": 3159,
      "క్ష": 3160,
      "ాం": 3161,
      "ార్": 3162,
      "స్త్ర": 3163,
      "▁సం": 3164,
      "ింది.": 3165,
      "ంది.": 3166,
      "ధిక": 3167,
      "పు": 3168,
      "▁గ": 3169,
      "ంలో": 3170,
      "టి": 3171,
      "ామ": 3172,
      "▁బ": 3173,
      "▁శ": 3174,
      "▁జాత": 3175,
      "ం:": 3176,
      "యా": 3177,
      "ూడ": 3178,
      "▁ఎ": 3179,
      "▁ఉన్న": 3180,
      "ంగా": 3181,
      "ాబ": 3182,
      "్చ": 3183,
      "▁[భారత": 3184,
      "▁జాతీయ": 3185,
      "ద్ర": 3186,
      "ంచ": 3187,
      "ప్ర": 3188,
      "లి": 3189,
      "ిత": 3190,
      "ారు": 3191,
      "ం](": 3192,
      "ట్ట": 3193,
      "్ట్ర": 3194,
      "ల్ల": 3195,
      "ాష్ట్ర": 3196,
      "తో": 3197,
      "ాన్": 3198,
      "ద్ధ": 3199,
      "చ్చ": 3200,
      "్ల": 3201,
      "స్వ": 3202,
      "▁రాజ": 3203,
      "ం)": 3204,
      "దు": 3205,
      "ాక": 3206,
      "నా": 3207,
      "నే": 3208,
      "▁దేశ": 3209,
      "్యవ": 3210,
      "త్వ": 3211,
      "్మ": 3212,
      "▁మత": 3213,
      "ాయి.": 3214,
      "డు": 3215,
      "తర": 3216,
      "సి": 3217,
      "▁లో": 3218,
      "్రీ": 3219,
      "▁కూడ": 3220,
      "ింద": 3221,
      "ండి": 3222,
      "స్త్రం:": 3223,
      "ఖ్య": 3224,
      "ణా": 3225,
      "▁దేశం": 3226,
      ".j": 3227,
      "▁ఈ": 3228,
      "▁ఒ": 3229,
      "▁స్థ": 3230,
      "్యం": 3231,
      ".jp": 3232,
      "తు": 3233,
      "▁ల": 3234,
      "▁[క": 3235,
      "](భారతీయ": 3236,
      "50": 3237,
      "గు": 3238,
      "పాల": 3239,
      "హింద": 3240,
      "▁[స": 3241,
      "▁పే": 3242,
      "ర్వ": 3243,
      "▁రై": 3244,
      "్యవస్థ": 3245,
      "ht": 3246,
      "టు": 3247,
      "డ్": 3248,
      "పంచ": 3249,
      "మైన": 3250,
      "▁కా": 3251,
      "ికి": 3252,
      "▁ప్రాం": 3253,
      "▁ఒక": 3254,
      "ంత్ర": 3255,
      "డి": 3256,
      "ధాన": 3257,
      "పా": 3258,
      "్‌": 3259,
      "▁ని": 3260,
      "ాలు,": 3261,
      "▁అధిక": 3262,
      "ndia": 3263,
      "ంబ": 3264,
      "ధ్య": 3265,
      "మా": 3266,
      "రణ": 3267,
      "ారి": 3268,
      "](క": 3269,
      "దిన": 3270,
      "▁రాష్ట్ర": 3271,
      "ాలు\n": 3272,
      "▁ఉంది.": 3273,
      "▁దస్త్రం:": 3274,
      "భా": 3275,
      "వా": 3276,
      "▁మొ": 3277,
      "▁భారతదేశ": 3278,
      "క్షి": 3279,
      "▁ప్రాంత": 3280,
      ")లో": 3281,
      "ంద్ర": 3282,
      "ష్": 3283,
      "ిల్ల": 3284,
      "ెండ": 3285,
      "▁స్వ": 3286,
      "▁[ప": 3287,
      "▁వ్యవస్థ": 3288,
      "▁ము": 3289,
      "న్ని": 3290,
      "▁ఎన్న": 3291,
      "హిందూ": 3292,
      "గో": 3293,
      "ట్": 3294,
      "ిస్త": 3295,
      "ీ](": 3296,
      "▁ఏ": 3297,
      "ారం": 3298,
      "▁[జ": 3299,
      "స్క": 3300,
      "▁కే": 3301,
      "ాల్": 3302,
      "▁భాష": 3303,
      "▁మతము": 3304,
      "tp": 3305,
      "ర్య": 3306,
      "వే": 3307,
      "ావ": 3308,
      "ిన్న": 3309,
      "్రి": 3310,
      "](జ": 3311,
      "](స": 3312,
      "▁[మ": 3313,
      "▁మార్": 3314,
      "ానికి": 3315,
      "ద్ద": 3316,
      "▁భారతదేశంలో": 3317,
      "▁శా": 3318,
      "▁[భారతీయ": 3319,
      "▁దేశాల": 3320,
      ".jpg\n": 3321,
      "http": 3322,
      "గర": 3323,
      "ప్": 3324,
      "యు": 3325,
      "రా": 3326,
      "ుక": 3327,
      "ార్ట": 3328,
      "](ప": 3329,
      "▁పరి": 3330,
      "▁పార్ట": 3331,
      "▁వచ్చ": 3332,
      "▁మధ్య": 3333,
      "▁ప్రజ": 3334,
      "▁ప్రపంచ": 3335,
      "▁చె": 3336,
      "▁ఇది": 3337,
      "సియా": 3338,
      "▁స్థాన": 3339,
      "▁మార్గ": 3340,
      "http://": 3341,
      "ంక": 3342,
      "ం),": 3343,
      "త్య": 3344,
      "దాయ": 3345,
      "మి": 3346,
      "వు": 3347,
      "▁[బ": 3348,
      "▁పు": 3349,
      "▁కలి": 3350,
      "▁క్రీ": 3351,
      "▁సామ": 3352,
      "క్కు": 3353,
      "▁ఆర్": 3354,
      "ారు.": 3355,
      "నాభా": 3356,
      "▁కూడా": 3357,
      "▁పేరు": 3358,
      "▁పార్టీ": 3359,
      "of": 3360,
      "ఢిల్ల": 3361,
      "పతి": 3362,
      "మే": 3363,
      "రాష్ట్ర": 3364,
      "వర్": 3365,
      "ిమ": 3366,
      "ీన": 3367,
      "ుల": 3368,
      "ెద్ద": 3369,
      "్రమ": 3370,
      "](ద": 3371,
      "లు)": 3372,
      "్యా": 3373,
      "లోని": 3374,
      "▁కో": 3375,
      "▁సంగ": 3376,
      "▁జాబ": 3377,
      "▁చే": 3378,
      "▁ను": 3379,
      "తంత్ర": 3380,
      "▁గల": 3381,
      "▁ఉన్నాయి.": 3382,
      "ాబ్": 3383,
      "ితా": 3384,
      "▁రైలు": 3385,
      "స్కృ": 3386,
      "▁కేంద్ర": 3387,
      "▁క్రీడ": 3388,
      "▁సంగీ": 3389,
      "▁జాబితా": 3390,
      "co": 3391,
      "ం,": 3392,
      "ంధ": 3393,
      "గ్": 3394,
      "టె": 3395,
      "ాధ": 3396,
      "ీర్": 3397,
      "](http://": 3398,
      "▁[చ": 3399,
      "▁పట్ట": 3400,
      "▁కాల": 3401,
      "▁ప్రధాన": 3402,
      "▁అయ": 3403,
      "ముద్ర": 3404,
      "ించింది.": 3405,
      "▁భా": 3406,
      "క్షిణ": 3407,
      "260": 3408,
      "▁చెం": 3409,
      "▁50px": 3410,
      "nt": 3411,
      "గి": 3412,
      "బడ": 3413,
      "భు": 3414,
      "సు": 3415,
      "హద": 3416,
      "ాహ": 3417,
      "ెలు": 3418,
      "్వ": 3419,
      "▁–": 3420,
      "](చ": 3421,
      "](బ": 3422,
      "▁పర": 3423,
      "▁పా": 3424,
      "▁సాం": 3425,
      "▁రహద": 3426,
      "▁ప్రా": 3427,
      "▁ప్రభు": 3428,
      "క్క": 3429,
      "▁ఉప": 3430,
      "▁ఉత్": 3431,
      "ంగ్ల": 3432,
      "▁ఇతర": 3433,
      "స్తు": 3434,
      "ించిన": 3435,
      "ైనా": 3436,
      "▁అధికార": 3437,
      "▁మొద": 3438,
      "క్కువ": 3439,
      "▁ప్రభుత్వ": 3440,
      "కీయ": 3441,
      "గిన": 3442,
      "ట్ల": 3443,
      "ణి": 3444,
      "దర": 3445,
      "లలో": 3446,
      "ీ,": 3447,
      "ుకు": 3448,
      "ెంగ": 3449,
      "్రె": 3450,
      "ారులు": 3451,
      "](మ": 3452,
      "▁[అ": 3453,
      "▁పాల": 3454,
      "▁కొ": 3455,
      "▁కార": 3456,
      "▁వే": 3457,
      "▁వంట": 3458,
      "▁సభ": 3459,
      "ిక్": 3460,
      "▁రెండ": 3461,
      "▁జనాభా": 3462,
      "▁భారతీయ": 3463,
      "ము)": 3464,
      "ండు": 3465,
      "ద్వ": 3466,
      "రిహ": 3467,
      "ాజ్య": 3468,
      "ంటు": 3469,
      "ాయి.\n": 3470,
      "▁బహ": 3471,
      "ద్ధి": 3472,
      "ాకిస్త": 3473,
      "ంత్రి": 3474,
      "వాణా": 3475,
      "▁ముఖ్య": 3476,
      "▁శాస్త్ర": 3477,
      "▁వచ్చింది.": 3478,
      "▁ఆర్ధిక": 3479,
      "▁సంగీతం": 3480,
      "ాకిస్తాన్": 3481,
      "చే": 3482,
      "టిక": 3483,
      "తాబ్": 3484,
      "ధు": 3485,
      "పూ": 3486,
      "మె": 3487,
      "లకు": 3488,
      "లను": 3489,
      "వ,": 3490,
      "వాత": 3491,
      "ష్ట": 3492,
      "ా)": 3493,
      "ూప": 3494,
      "ూర్": 3495,
      "▁గా": 3496,
      "▁హిందూ": 3497,
      "▁ద్వ": 3498,
      "▁పెద్ద": 3499,
      "స్ల": 3500,
      "▁కు": 3501,
      "▁వా": 3502,
      "▁వాత": 3503,
      "▁సి": 3504,
      "▁సరిహ": 3505,
      "ాలలో": 3506,
      "▁మా": 3507,
      "▁అతి": 3508,
      "▁అనే": 3509,
      "▁జరి": 3510,
      "ాతంత్ర": 3511,
      "ద్దు": 3512,
      "▁చి": 3513,
      "▁చరి": 3514,
      "▁నా": 3515,
      "త్స": 3516,
      "ంగ్రె": 3517,
      "విధ": 3518,
      "రువాత": 3519,
      "](భారతదేశ": 3520,
      "▁తరువాత": 3521,
      "▁శతాబ్": 3522,
      "▁ఎక్కువ": 3523,
      "ాబా": 3524,
      "ప్రదాయ": 3525,
      "▁రాజ్య": 3526,
      "▁రాజకీయ": 3527,
      "ండియా": 3528,
      "పాలిత": 3529,
      "డ్డ": 3530,
      "▁కాంగ్రె": 3531,
      "alt": 3532,
      "ావరణ": 3533,
      "ప్ప": 3534,
      "ుకో": 3535,
      "మిళ": 3536,
      "▁అయిన": 3537,
      "▁రహదారులు": 3538,
      "▁ఉత్తర": 3539,
      "▁బహు": 3540,
      "▁వాతావరణ": 3541,
      "▁చరిత్ర": 3542,
      "▁శతాబ్ద": 3543,
      "|alt": 3544,
      "ంత": 3545,
      "ంది": 3546,
      "కాలు": 3547,
      "గం": 3548,
      "ణతంత్ర": 3549,
      "నవ": 3550,
      "నాలు": 3551,
      "మీ": 3552,
      "మ్మ": 3553,
      "మంత్రి": 3554,
      "యో": 3555,
      "లం": 3556,
      "షు": 3557,
      "హా": 3558,
      "ిల్": 3559,
      "ీక": 3560,
      "ెల": 3561,
      "ౌక": 3562,
      "▁డ": 3563,
      "▁యు": 3564,
      "▁[ఇ": 3565,
      "▁[హ": 3566,
      "▁వై": 3567,
      "న్మ": 3568,
      "▁సమ": 3569,
      "▁సాధ": 3570,
      "▁అత్య": 3571,
      "నిమా": 3572,
      "ముంబ": 3573,
      "ించి": 3574,
      "▁దా": 3575,
      "▁దక్షిణ": 3576,
      "▁సంస్కృ": 3577,
      "▁[భారతదేశ": 3578,
      "ారు.\n": 3579,
      "తున్న": 3580,
      "▁ఎన్నో": 3581,
      "▁ఏర్": 3582,
      "▁భాషలు": 3583,
      "▁కలిగి": 3584,
      "▁సామ్ర": 3585,
      "ఢిల్లీ": 3586,
      "▁నుండి": 3587,
      "▁ప్రాచ": 3588,
      "▁గాంధ": 3589,
      "▁సరిహద్దు": 3590,
      "|alt=": 3591,
      "▁అత్యధిక": 3592,
      ".in": 3593,
      ".పూ": 3594,
      "30": 3595,
      "కాల": 3596,
      "క్రమ": 3597,
      "గలు": 3598,
      "గంగా": 3599,
      "జి": 3600,
      "టా": 3601,
      "టీ": 3602,
      "డే": 3603,
      "తా": 3604,
      "తిక": 3605,
      "దా": 3606,
      "ద్య": 3607,
      "ఫ్": 3608,
      "భూ": 3609,
      "రే": 3610,
      "రో": 3611,
      "లతో": 3612,
      "వులు": 3613,
      "శా": 3614,
      "శ్మ": 3615,
      "సింది.": 3616,
      "సత్వ": 3617,
      "ా,": 3618,
      "ీ;": 3619,
      "ీర": 3620,
      "ృద్ధి": 3621,
      "ెబ": 3622,
      "ైగా": 3623,
      "ౌద్ధ": 3624,
      "▁హ": 3625,
      "▁—": 3626,
      "ారసత్వ": 3627,
      "](అ": 3628,
      "▁[త": 3629,
      "▁[వ": 3630,
      "▁[వి": 3631,
      "▁పైగా": 3632,
      "స్య": 3633,
      "▁వారసత్వ": 3634,
      "న్‌": 3635,
      "▁సముద్ర": 3636,
      "దేశ్": 3637,
      "ర్లు": 3638,
      "ాలయ": 3639,
      "ాలను": 3640,
      "ికత": 3641,
      "▁రో": 3642,
      "▁రవాణా": 3643,
      "▁ప్రతి": 3644,
      "▁ప్రస్తు": 3645,
      "గా,": 3646,
      "▁భారత్": 3647,
      "▁చిన్న": 3648,
      "▁నగర": 3649,
      "▁ఆధ": 3650,
      "స్తాన్": 3651,
      "▁విస్త": 3652,
      "▁వివిధ": 3653,
      "ణాసియా": 3654,
      "▁లే": 3655,
      "▁కాశ్మ": 3656,
      "▁ఒకటి": 3657,
      "డిప": 3658,
      "మాఖ్య": 3659,
      "▁ప్రాంతాలు": 3660,
      "▁స్వాతంత్ర": 3661,
      "ాల్లో": 3662,
      "్రిటి": 3663,
      "▁పరిశ": 3664,
      "▁ప్రజా": 3665,
      "](దస్త్రం:": 3666,
      "▁కేంద్రపాలిత": 3667,
      "▁పట్టణ": 3668,
      "▁కాలంలో": 3669,
      "ంటుంది.": 3670,
      "umb|": 3671,
      "▁ఏర్ప": 3672,
      "▁సామ్రాజ్య": 3673,
      ".పూ.": 3674,
      "▁[thumb|": 3675,
      ".n": 3676,
      ".co": 3677,
      "x260": 3678,
      "ం.": 3679,
      "ంతో": 3680,
      "కళ": 3681,
      "కి": 3682,
      "కొ": 3683,
      "కారం": 3684,
      "ఖండ": 3685,
      "గ్ర": 3686,
      "గం:": 3687,
      "టో": 3688,
      "ణంగా": 3689,
      "దీ": 3690,
      "ధి": 3691,
      "పె": 3692,
      "బె": 3693,
      "భి": 3694,
      "మహ": 3695,
      "శ్చ": 3696,
      "సభ": 3697,
      "ాని": 3698,
      "ిస్థ": 3699,
      "ీప": 3700,
      "ూచ": 3701,
      "ోర్": 3702,
      "](ఇ": 3703,
      "](ప్ర": 3704,
      "▁[ఆ": 3705,
      "▁[ప్ర": 3706,
      "▁[రాష్ట్ర": 3707,
      "▁పత": 3708,
      "▁పండు": 3709,
      "▁పాకిస్తాన్": 3710,
      "్యులు": 3711,
      "▁కను": 3712,
      "▁వర్": 3713,
      "▁వ్యా": 3714,
      "▁సిం": 3715,
      "▁సౌక": 3716,
      "▁మూడ": 3717,
      "▁రంగ": 3718,
      "▁ప్రము": 3719,
      "▁ప్రకారం": 3720,
      "▁అభి": 3721,
      "క్‌": 3722,
      "ాతి": 3723,
      "ాత్మ": 3724,
      "▁ఉంట": 3725,
      "ల్వే": 3726,
      "▁నడిప": 3727,
      "త్త": 3728,
      "▁ఇండియా": 3729,
      "ులు,": 3730,
      "▁భూ": 3731,
      "▁సంఘ": 3732,
      "▁సంఖ్య": 3733,
      "▁గు": 3734,
      "ద్ధం": 3735,
      "ాకిస్థ": 3736,
      "▁దేశంలోని": 3737,
      "▁రైల్వే": 3738,
      "htm": 3739,
      "px|": 3740,
      "టుంబ": 3741,
      "ధానమంత్రి": 3742,
      "▁రాష్ట్రపతి": 3743,
      "▁భారతదేశానికి": 3744,
      "ష్ణ": 3745,
      "గోళ": 3746,
      "▁దేశాలలో": 3747,
      "గరికత": 3748,
      "▁ప్రపంచంలో": 3749,
      "▁పుట్ట": 3750,
      "ofi": 3751,
      "వర్గం:": 3752,
      "ిమాలయ": 3753,
      "▁కోర్": 3754,
      "ీర్ణ": 3755,
      "](http://www.": 3756,
      "260x260": 3757,
      "ntr": 3758,
      "ంగ్లా": 3759,
      "▁మొదల": 3760,
      "ెంగాల": 3761,
      "▁రెండు": 3762,
      "▁మాత్ర": 3763,
      "▁అనేక": 3764,
      "▁నాగరికత": 3765,
      "ాబాద్": 3766,
      "▁కాంగ్రెసు": 3767,
      "ప్పటిక": 3768,
      "మ్మూ": 3769,
      "ముంబై": 3770,
      "▁సంస్కృతి": 3771,
      "|alt=](దస్త్రం:": 3772,
      ".in)\n": 3773,
      "ఫ్ఘ": 3774,
      "శ్చిమ": 3775,
      "▁ప్రముఖ": 3776,
      "ాకిస్థాన్": 3777,
      "\",": 3778,
      ".htm": 3779,
      "77": 3780,
      "bo": 3781,
      "m/": 3782,
      "s/": 3783,
      "గే": 3784,
      "టే": 3785,
      "ట్ర": 3786,
      "టాన్": 3787,
      "డమ": 3788,
      "త్యం": 3789,
      "నాల": 3790,
      "బడ్డ": 3791,
      "భర": 3792,
      "మన": 3793,
      "రీ": 3794,
      "లమె": 3795,
      "ళా": 3796,
      "ళ్ల": 3797,
      "వం": 3798,
      "వడ": 3799,
      "వత్స": 3800,
      "వృద్ధి": 3801,
      "శ్ర": 3802,
      "శ్వ": 3803,
      "హ్మ": 3804,
      "ాన్ని": 3805,
      "ిప": 3806,
      "ీ)": 3807,
      "ీ),": 3808,
      "ూరు": 3809,
      "ెహ": 3810,
      "ెన్న": 3811,
      "▁ఖ": 3812,
      "▁ఘ": 3813,
      "▁దిన": 3814,
      "](ఆ": 3815,
      "](త": 3816,
      "](వ": 3817,
      "](శ": 3818,
      "](హ": 3819,
      "▁[ద": 3820,
      "▁[ర": 3821,
      "▁[శ": 3822,
      "▁పార్": 3823,
      "▁పద్ధ": 3824,
      "లు\n": 3825,
      "్యాయ": 3826,
      "భారతదేశం": 3827,
      "▁వెబ": 3828,
      "▁సు": 3829,
      "▁సర్వ": 3830,
      "▁సమాఖ్య": 3831,
      "ర్,": 3832,
      "ర్త": 3833,
      "▁మన": 3834,
      "ిక,": 3835,
      "▁రూప": 3836,
      "ాలు)": 3837,
      "న్నడ": 3838,
      "▁అను": 3839,
      "▁జన్మ": 3840,
      "క్తి": 3841,
      "ాయక": 3842,
      "ాయు": 3843,
      "దేశంలోని": 3844,
      "ల్ప": 3845,
      "ండో": 3846,
      "▁నే": 3847,
      "▁నది": 3848,
      "▁న్యాయ": 3849,
      "త్తం": 3850,
      "ించే": 3851,
      "▁తన": 3852,
      "▁విశ": 3853,
      "క్షరా": 3854,
      "▁సంవత్స": 3855,
      "▁గణతంత్ర": 3856,
      "▁ఉన్నాయి.\n": 3857,
      "ం](క": 3858,
      "స్వామ": 3859,
      "్రీ.పూ.": 3860,
      "▁కూడిన": 3861,
      "▁దేశంలో": 3862,
      "పాల్": 3863,
      "ర్వహ": 3864,
      "▁నిర్వహ": 3865,
      "▁రాష్ట్రాలు,": 3866,
      "▁మొత్తం": 3867,
      "▁భారతదేశపు": 3868,
      "▁స్వతంత్ర": 3869,
      "▁ఎన్నిక": 3870,
      "▁మతము)": 3871,
      "▁మతము),": 3872,
      "▁పరిపాల": 3873,
      "▁స్థానంలో": 3874,
      "▁మార్గాలు": 3875,
      "▁చేయ": 3876,
      "▁జాబితా)\n": 3877,
      "బడిన": 3878,
      "ెలుగు": 3879,
      "▁ఉపఖండ": 3880,
      "▁అధికారిక": 3881,
      "▁మొదటి": 3882,
      "ic.in)\n": 3883,
      "▁కార్య": 3884,
      "▁కారణంగా": 3885,
      "▁వేగంగా": 3886,
      "ిక్కు": 3887,
      "▁ముఖ్యమైన": 3888,
      "ూర్పు": 3889,
      "▁ద్వీప": 3890,
      "స్లామ": 3891,
      "▁జరిగిన": 3892,
      "▁చిత్ర": 3893,
      "▁ఎక్కువగా": 3894,
      "నవరి": 3895,
      "హాస": 3896,
      "ెలవు": 3897,
      "▁దక్షిణాన": 3898,
      "▁ప్రాచీన": 3899,
      "స్యత": 3900,
      "న్‌ఫ": 3901,
      "▁ప్రస్తుతం": 3902,
      "▁పరిశ్రమ": 3903,
      "▁[thumb|260x260": 3904,
      ".nic.in)\n": 3905,
      ".com/": 3906,
      "▁సౌకర్య": 3907,
      "▁అభివృద్ధి": 3908,
      "క్‌సభ": 3909,
      "ాత్మా": 3910,
      "ntry": 3911,
      ".html": 3912,
      "▁పార్లమె": 3913,
      "క్షరాస్యత": 3914,
      "▁[thumb|260x260px|": 3915,
      "%),": 3916,
      ")లు": 3917,
      "**": 3918,
      ",000": 3919,
      "..": 3920,
      "85": 3921,
      "98": 3922,
      "IS": 3923,
      "cia": 3924,
      "go": 3925,
      "ం)\n": 3926,
      "ం](భారత": 3927,
      "ంతు": 3928,
      "ందిన": 3929,
      "ంపె": 3930,
      "కాత": 3931,
      "ఖో": 3932,
      "గణ": 3933,
      "గష్ట": 3934,
      "జ్": 3935,
      "జ్య": 3936,
      "టక": 3937,
      "టై": 3938,
      "టర్": 3939,
      "థ్యం": 3940,
      "దన": 3941,
      "దావ": 3942,
      "నతా": 3943,
      "నగణ": 3944,
      "బంధ": 3945,
      "భాష": 3946,
      "మల": 3947,
      "మై": 3948,
      "మతి": 3949,
      "రిక": 3950,
      "లస": 3951,
      "లంక": 3952,
      "ళి": 3953,
      "ళ్": 3954,
      "వచ్చ": 3955,
      "వలం": 3956,
      "శీ": 3957,
      "షన్": 3958,
      "సై": 3959,
      "హార": 3960,
      "ిలో": 3961,
      "ీఠ": 3962,
      "ీలు": 3963,
      "ెల్ల": 3964,
      "ెట్": 3965,
      "ే,": 3966,
      "ోల్": 3967,
      "ోత్స": 3968,
      "ౌర్య": 3969,
      "‌కాత": 3970,
      "▁ఐ": 3971,
      "▁తి": 3972,
      "▁టె": 3973,
      "▁టై": 3974,
      "ారస్వ": 3975,
      "](ర": 3976,
      "](వి": 3977,
      "](హిందూ": 3978,
      "](రాష్ట్ర": 3979,
      "▁[హిందూ": 3980,
      "▁[గో": 3981,
      "▁పద": 3982,
      "▁పి": 3983,
      "▁పొ": 3984,
      "▁పంచ": 3985,
      "▁పశ్చిమ": 3986,
      "▁పీఠ": 3987,
      "స్](": 3988,
      "్యాల": 3989,
      "▁కింద": 3990,
      "▁కంపె": 3991,
      "▁క్యాల": 3992,
      "▁వహ": 3993,
      "▁వు": 3994,
      "▁సైన": 3995,
      "▁సార్": 3996,
      "▁సూచ": 3997,
      "దేశాల": 3998,
      "ర్మ": 3999,
      "ర్మే": 4000,
      "ర్కొ": 4001,
      "ర్థ్యం": 4002,
      "ాలతో": 4003,
      "▁మహ": 4004,
      "▁మతం": 4005,
      "▁మహాస": 4006,
      "ింప": 4007,
      "ింగ్": 4008,
      "ింధు": 4009,
      "▁రే": 4010,
      "▁రకాల": 4011,
      "ాలు.": 4012,
      "త్రక": 4013,
      "త్రి": 4014,
      "త్రిక": 4015,
      "▁అని": 4016,
      "▁జంతు": 4017,
      "క్టో": 4018,
      "క్నాల": 4019,
      "ాతీయ": 4020,
      "దేశంలో": 4021,
      "కుంట": 4022,
      "ల్లో": 4023,
      "▁చారి": 4024,
      "▁నెహ": 4025,
      "▁ఇవ": 4026,
      "స్థాన": 4027,
      "ులు),": 4028,
      "▁ఆక్రమ": 4029,
      "వి.": 4030,
      "ంటే": 4031,
      "ంటో": 4032,
      "▁విభ": 4033,
      "▁భౌ": 4034,
      "▁సంబంధ": 4035,
      "టిలో": 4036,
      "ామి": 4037,
      "▁శెలవు": 4038,
      "ద్రా": 4039,
      "ంచి": 4040,
      "ప్రిల్": 4041,
      "చ్చే": 4042,
      "▁రాజ్యా": 4043,
      "దుతున్న": 4044,
      "నాథ": 4045,
      "నేపాల్": 4046,
      "▁దేశానికి": 4047,
      "డు)": 4048,
      "సినిమా": 4049,
      "▁లోని": 4050,
      "▁దేశం.": 4051,
      "్యం,": 4052,
      "▁లక్ష": 4053,
      "గువ": 4054,
      "▁రైళ్ల": 4055,
      "టు](http://": 4056,
      "డ్డు": 4057,
      "పంచము": 4058,
      "మైనది.": 4059,
      "▁నిర్మ": 4060,
      "ారిగా": 4061,
      "▁ఉంది.\n": 4062,
      "▁దస్త్రం:India": 4063,
      "వాద": 4064,
      "క్షిణాసియా": 4065,
      "ెండర్": 4066,
      "ట్లు": 4067,
      "ీ](ఢిల్లీ": 4068,
      "▁కేవలం": 4069,
      "ుకొ": 4070,
      "▁వచ్చిన": 4071,
      "▁ప్రజల": 4072,
      "▁మార్గాలు\n": 4073,
      "▁సామర్థ్యం": 4074,
      "▁ఆర్థ": 4075,
      "ఢిల్లీ](ఢిల్లీ": 4076,
      "మేన": 4077,
      "▁కోట్ల": 4078,
      "cou": 4079,
      "▁చెందిన": 4080,
      "▁చెందుతున్న": 4081,
      "▁పరంగా": 4082,
      "▁పాత్ర": 4083,
      "▁పాక్": 4084,
      "▁సాంప్రదాయ": 4085,
      "ణిజ్య": 4086,
      "దరంగ": 4087,
      "▁కొన్ని": 4088,
      "▁వేల": 4089,
      "▁వంటి": 4090,
      "మెరిక": 4091,
      "ూర్తి": 4092,
      "▁కుటుంబ": 4093,
      "▁వాణిజ్య": 4094,
      "▁సినిమా": 4095,
      "▁రాజ్యాలు": 4096,
      "ుకోవడ": 4097,
      "▁బహుళ": 4098,
      "ీకరణ": 4099,
      "▁డాల": 4100,
      "▁యుద్ధం": 4101,
      "▁సమర": 4102,
      "ించి,": 4103,
      "ద్యు": 4104,
      "భూటాన్": 4105,
      "శాఖ": 4106,
      "▁రోడ్డు": 4107,
      "▁ఆధార": 4108,
      "▁స్వాతంత్ర్య": 4109,
      "్రిటిషు": 4110,
      "▁ప్రజాస్వామ": 4111,
      "▁కనుమ": 4112,
      "▁వ్యాప": 4113,
      "▁మూడు": 4114,
      "▁నడిపించ": 4115,
      "▁గుర్త": 4116,
      "ంగ్లాదేశ్": 4117,
      "▁మాత్రం": 4118,
      "ట్రో": 4119,
      "ెన్నై": 4120,
      "▁దినోత్స": 4121,
      "▁సర్వీ": 4122,
      "▁పరిపాలన": 4123,
      "స్లామాబాద్": 4124,
      "న్‌ఫర్మే": 4125,
      "▁పార్లమెంట": 4126,
      "actbook": 4127,
      "గష్టు": 4128,
      "ళ్ళ": 4129,
      "ిలోమీ": 4130,
      "ోల్‌కాత": 4131,
      "▁టెక్నాల": 4132,
      "ారస్వతం": 4133,
      "▁కంపెన": 4134,
      "▁క్యాలెండర్": 4135,
      "▁సైనిక": 4136,
      "▁మహాసముద్ర": 4137,
      "▁జంతువు": 4138,
      "▁చారిత్రక": 4139,
      "▁రాజ్యాంగ": 4140,
      "మెరికా": 4141,
      "న్‌ఫర్మేషన్": 4142,
      "▁టెక్నాలజ": 4143,
      ")న": 4144,
      "*),": 4145,
      ",26": 4146,
      ".7": 4147,
      ".go": 4148,
      "/1": 4149,
      "1-": 4150,
      "42": 4151,
      "46": 4152,
      "65": 4153,
      "90": 4154,
      "91": 4155,
      "BN": 4156,
      "CI": 4157,
      "G\n": 4158,
      "bl": 4159,
      "eo": 4160,
      "hal": 4161,
      "no": 4162,
      "oid": 4163,
      "pu": 4164,
      "rt": 4165,
      "rofi": 4166,
      "ం\n": 4167,
      "ంజ": 4168,
      "ందు": 4169,
      "ం](భారతీయ": 4170,
      "ఎల": 4171,
      "ఒల": 4172,
      "కే": 4173,
      "క్య": 4174,
      "కటి": 4175,
      "ఖాత": 4176,
      "గర్": 4177,
      "గణతంత్ర": 4178,
      "చు": 4179,
      "చ్": 4180,
      "టం": 4181,
      "డిన": 4182,
      "ఢాక": 4183,
      "తూ": 4184,
      "తము": 4185,
      "తులు": 4186,
      "తము)": 4187,
      "తీర": 4188,
      "దటి": 4189,
      "దరణ": 4190,
      "నై": 4191,
      "నలో": 4192,
      "నది": 4193,
      "పై": 4194,
      "పచ్చ": 4195,
      "బా": 4196,
      "బి": 4197,
      "భాత": 4198,
      "మొ": 4199,
      "మాన": 4200,
      "యం": 4201,
      "యన్మ": 4202,
      "రల్": 4203,
      "రామ": 4204,
      "రాజ్య": 4205,
      "లా": 4206,
      "లే": 4207,
      "లాహ": 4208,
      "ళలు": 4209,
      "వె": 4210,
      "వార్": 4211,
      "వ్యవస్థ": 4212,
      "వత్రిక": 4213,
      "శో": 4214,
      "శాల": 4215,
      "సే": 4216,
      "సులు": 4217,
      "హ్": 4218,
      "ాణ": 4219,
      "ాగా": 4220,
      "ాడే": 4221,
      "ియ": 4222,
      "ితి": 4223,
      "ీం": 4224,
      "ీరు": 4225,
      "ీక్ష": 4226,
      "ీషు": 4227,
      "ీటిలో": 4228,
      "ు.": 4229,
      "ుప్ర": 4230,
      "ృష్": 4231,
      "ెర్": 4232,
      "ెట్రో": 4233,
      "ేర": 4234,
      "ైదర": 4235,
      "ొగలు": 4236,
      "ౌర": 4237,
      "‌ల": 4238,
      "▁ఓ": 4239,
      "▁ధ": 4240,
      "▁స్": 4241,
      "▁IS": 4242,
      "్రై": 4243,
      "్రాన్": 4244,
      "ారా": 4245,
      "](గో": 4246,
      "](వర్గం:": 4247,
      "](ముంబై": 4248,
      "▁[కు": 4249,
      "▁[యు": 4250,
      "▁[వర్గం:": 4251,
      "▁[ముంబై": 4252,
      "▁[ఢిల్లీ](ఢిల్లీ": 4253,
      "▁పూ": 4254,
      "▁పో": 4255,
      "▁ప్ల": 4256,
      "▁పర్వ": 4257,
      "▁పర్య": 4258,
      "లుగా": 4259,
      "స్స": 4260,
      "స్),": 4261,
      "స్ట్": 4262,
      "లోయ": 4263,
      "▁కుల": 4264,
      "▁వల": 4265,
      "▁వీటిలో": 4266,
      "▁సహ": 4267,
      "దేశీ": 4268,
      "దేశ్‌": 4269,
      "ర్జ": 4270,
      "ర్ష": 4271,
      "ాలా": 4272,
      "ాలకు": 4273,
      "ాలనే": 4274,
      "▁మై": 4275,
      "▁మంది": 4276,
      "▁రి": 4277,
      "ాలు),": 4278,
      "ాలు)\n": 4279,
      "▁ప్రారం": 4280,
      "న్నది.": 4281,
      "న్నాయి.": 4282,
      "న్నారు.": 4283,
      "▁అవ": 4284,
      "గాన్ని": 4285,
      "▁జల": 4286,
      "▁జరు": 4287,
      "▁జనా": 4288,
      "▁జంబ": 4289,
      "▁జనవరి": 4290,
      "ాతర": 4291,
      "నిస్తాన్": 4292,
      "▁ఉండ": 4293,
      "▁ఉంటుంది.": 4294,
      "ము.": 4295,
      "ములో": 4296,
      "కుపచ్చ": 4297,
      "ానీ": 4298,
      "ాను": 4299,
      "ండమ": 4300,
      "▁చవి": 4301,
      "▁చైన": 4302,
      "▁చాలా": 4303,
      "▁నాలు": 4304,
      "రిస్త": 4305,
      "ినీ": 4306,
      "▁ఇవి": 4307,
      "▁ఇక్క": 4308,
      "ులు](": 4309,
      "▁ఆసియా": 4310,
      "▁ఆకుపచ్చ": 4311,
      "స్తులు": 4312,
      "తంగా": 4313,
      "▁దీ": 4314,
      "నుకటి": 4315,
      "విస్త": 4316,
      "ాజ్‌": 4317,
      "రుష": 4318,
      "రుగు": 4319,
      "](భారతదేశంలోని": 4320,
      "ంటి": 4321,
      "▁భారతదేశం,": 4322,
      "▁తే": 4323,
      "▁తత్వ": 4324,
      "▁తమిళ": 4325,
      "▁తూర్పు": 4326,
      "▁భిన్న": 4327,
      "క్షణాసియా": 4328,
      "ాంబ": 4329,
      "▁సంస్థ": 4330,
      "▁సంస్క": 4331,
      "▁సంప్రదాయ": 4332,
      "ంది.\n": 4333,
      "▁29": 4334,
      "యాళ": 4335,
      "ూడండి": 4336,
      "▁ఉన్నారు.": 4337,
      "ంగాళా": 4338,
      "లిచ": 4339,
      "ం](అ": 4340,
      "ట్టు": 4341,
      "ట్టమొ": 4342,
      "▁రాజ్యం,": 4343,
      "నేసియా": 4344,
      "▁([": 4345,
      "▁(వె": 4346,
      "్యవస": 4347,
      "▁లోయ": 4348,
      "▁లోక్‌సభ": 4349,
      "్రీలంక": 4350,
      "▁కూడుకు": 4351,
      "▁కూడుకొ": 4352,
      "ండిచ్చే": 4353,
      "▁దేశం\n": 4354,
      "▁దేశంగా": 4355,
      "▁పేర్లు": 4356,
      "▁పేర్కొ": 4357,
      "▁ప్రాంతం": 4358,
      "▁ఒకే": 4359,
      "పావ": 4360,
      "పాదన": 4361,
      "్‌సై": 4362,
      "ndia.nic.in)\n": 4363,
      "▁రాష్ట్రాల": 4364,
      "▁రాష్ట్రాలు": 4365,
      "▁దస్త్రం:S": 4366,
      "▁దస్త్రం:V": 4367,
      "భాగం": 4368,
      "వాస": 4369,
      "▁మొట్టమొ": 4370,
      "▁ప్రాంతీయ": 4371,
      "▁వ్యవస్థ)": 4372,
      "ిస్తు": 4373,
      "ాల్దీ": 4374,
      "▁భాషలు)": 4375,
      "▁మతము,": 4376,
      "in.html": 4377,
      "్రిటీ": 4378,
      "▁శాఖ": 4379,
      "▁ప్రజలు": 4380,
      "▁1950": 4381,
      "▁[197": 4382,
      "▁పురుష": 4383,
      "▁కలిసి": 4384,
      "▁కలిగిన": 4385,
      "వర్ష": 4386,
      "ీనంలో": 4387,
      "▁చేసింది.": 4388,
      "▁నుంచి": 4389,
      "స్కృతిక": 4390,
      "టెడ్": 4391,
      "▁[చైనా": 4392,
      "▁కాలే": 4393,
      "▁భాగ": 4394,
      "▁భాగాన్ని": 4395,
      "atoid": 4396,
      "ాహార": 4397,
      "](చైనా": 4398,
      "▁పరీక్ష": 4399,
      "▁సాంస్కృతిక": 4400,
      "ంగ్లీషు": 4401,
      "▁ప్రభుత్వం": 4402,
      "ట్లాడే": 4403,
      "▁పాలించ": 4404,
      "▁శాస్త్రీయ": 4405,
      "▁శాస్త్రం](భారతీయ": 4406,
      "▁సంగీతం)": 4407,
      "▁హిందూదేశం": 4408,
      "▁ద్వారా": 4409,
      "▁మాట్లాడే": 4410,
      "▁చిహ్": 4411,
      "▁తరువాతి": 4412,
      "ాబాదు": 4413,
      "▁రహదారులు),": 4414,
      "▁ఉత్తరాన": 4415,
      "▁వాతావరణం)": 4416,
      "▁శతాబ్దం](క": 4417,
      "▁వైశాల": 4418,
      "▁సాధించ": 4419,
      "▁దాదా": 4420,
      "▁గాంధీ](": 4421,
      "▁గాంధీ)": 4422,
      "▁సరిహద్దుగా": 4423,
      "రేబి": 4424,
      "రోపా": 4425,
      "లతో,": 4426,
      "శాస్త్ర": 4427,
      "▁[తమిళ": 4428,
      "▁సముద్రతీర": 4429,
      "▁ప్రతిపాదన": 4430,
      "▁2003": 4431,
      "▁2004": 4432,
      "▁లేదా": 4433,
      "▁కాశ్మీర్": 4434,
      "▁కాశ్మీరు": 4435,
      "▁స్వాతంత్ర్యం": 4436,
      "్రిటిష్": 4437,
      "▁ప్రజాదరణ": 4438,
      "▁ఏర్పడ్డ": 4439,
      "▁సామ్రాజ్యం)": 4440,
      "arch": 4441,
      "మహల్": 4442,
      "ానిస్తాన్": 4443,
      "](ప్రధానమంత్రి": 4444,
      "▁[ప్రధానమంత్రి": 4445,
      "▁[రాష్ట్రపతి": 4446,
      "▁పతాక": 4447,
      "▁వర్గ": 4448,
      "▁సింధ": 4449,
      "▁రాష్ట్రపతి,": 4450,
      "గోళిక": 4451,
      "ofindia.nic.in)\n": 4452,
      "▁కోర్టు": 4453,
      "▁మొదలైన": 4454,
      "ప్పటికీ,": 4455,
      "ఫ్ఘనిస్తాన్": 4456,
      "ఫ్ఘానిస్తాన్": 4457,
      "డమ్": 4458,
      "బడ్డీ": 4459,
      "భరత": 4460,
      "హ్మద": 4461,
      "▁పద్ధతి": 4462,
      "▁వెబ్‌సై": 4463,
      "ాయుత": 4464,
      "ండోనేసియా": 4465,
      "▁నది),": 4466,
      "▁సంవత్సర": 4467,
      "▁నిర్వహణ": 4468,
      "▁కార్యక్రమ": 4469,
      "▁పరిశ్రమలు": 4470,
      "statoid": 4471,
      "టర్లకు": 4472,
      "దావరి": 4473,
      "▁తిరుగు": 4474,
      "▁పొందిన": 4475,
      "▁పశ్చిమాన": 4476,
      "▁పీఠభూ": 4477,
      "▁వుంటుంది.": 4478,
      "▁సార్వత్రిక": 4479,
      "▁మహి": 4480,
      "క్టోరల్": 4481,
      "▁విభిన్న": 4482,
      "▁భౌగోళిక": 4483,
      "▁శెలవుదిన": 4484,
      "▁రైళ్లను": 4485,
      "▁ఆర్థిక": 4486,
      "country": 4487,
      "▁సాంప్రదాయిక": 4488,
      "▁డాలర్లు": 4489,
      "ద్యుత్": 4490,
      "▁ప్రజాస్వామ్య": 4491,
      "▁కనుమలు": 4492,
      "▁వ్యాపార": 4493,
      "▁దినోత్సవం": 4494,
      "▁సర్వీసులు": 4495,
      "▁పార్లమెంటరీ": 4496,
      "ిలోమీటర్లకు": 4497,
      "ోల్‌కాతా": 4498,
      ".gov": 4499,
      "CIA": 4500,
      "blic": 4501,
      "public": 4502,
      "rofile": 4503,
      "svg,": 4504,
      "ఎలక్టోరల్": 4505,
      "ఒలింప": 4506,
      "కేతిక": 4507,
      "చ్ఛ": 4508,
      "నైటెడ్": 4509,
      "బాటు": 4510,
      "భాతో": 4511,
      "యన్మార్": 4512,
      "లాహోర్": 4513,
      "శోకు": 4514,
      "ుప్రీం": 4515,
      "ృష్ణా": 4516,
      "▁[ముంబై](ముంబై": 4517,
      "▁ప్రారంభ": 4518,
      "▁జరుపు": 4519,
      "▁జనాభాతో": 4520,
      "▁జంబూ": 4521,
      "▁చైనాను": 4522,
      "ాజ్‌మహల్": 4523,
      "▁తూర్పున": 4524,
      "▁సంస్కరణ": 4525,
      "▁సంప్రదాయాలు": 4526,
      "ంగాళాఖాత": 4527,
      "▁(వెనుకటి": 4528,
      "▁కూడుకొని": 4529,
      "ండిచ్చేరి": 4530,
      "▁మొట్టమొదటి": 4531,
      "ాల్దీవులు": 4532,
      "▁[చైనా](చైనా": 4533,
      "▁శతాబ్దం](క్రీ.పూ.": 4534,
      "▁వైశాల్య": 4535,
      "▁దాదాపు": 4536,
      "రేబియా": 4537,
      "](ప్రధానమంత్రి)": 4538,
      "▁[ప్రధానమంత్రి](ప్రధానమంత్రి)": 4539,
      "▁వెబ్‌సైటు](http://": 4540,
      "statoids": 4541,
      "▁తిరుగుబాటు": 4542,
      "(భారత": 4543,
      "):": 4544,
      ")కు": 4545,
      ")తో": 4546,
      ")'s": 4547,
      ",3": 4548,
      ",5": 4549,
      "-0": 4550,
      "-7": 4551,
      "-[": 4552,
      "-|": 4553,
      "-ఆ": 4554,
      "-ద": 4555,
      "-దేశ": 4556,
      "-ఖో": 4557,
      ".J": 4558,
      ".ఇ": 4559,
      ".ఏ": 4560,
      ".|alt=](దస్త్రం:": 4561,
      ".svg,": 4562,
      "/g": 4563,
      "/cia": 4564,
      "/public": 4565,
      "0px": 4566,
      "14": 4567,
      "185": 4568,
      "390": 4569,
      "56": 4570,
      "59": 4571,
      "5-0": 4572,
      "7,26": 4573,
      "87,26": 4574,
      "96": 4575,
      "AL": 4576,
      "BB": 4577,
      "Ch": 4578,
      "Cou": 4579,
      "EE": 4580,
      "Go": 4581,
      "PG\n": 4582,
      "PIN": 4583,
      "PAL": 4584,
      "SI": 4585,
      "Ta": 4586,
      "ahal": 4587,
      "d,": 4588,
      "e.com/": 4589,
      "each": 4590,
      "factbook": 4591,
      "gn": 4592,
      "ho": 4593,
      "iew": 4594,
      "l.jpg\n": 4595,
      "nai": 4596,
      "name": 4597,
      "pre": 4598,
      "su": 4599,
      "ం;": 4600,
      "ంశ": 4601,
      "ంద్": 4602,
      "ంస్కృ": 4603,
      "ందర": 4604,
      "ంప్రదాయ": 4605,
      "ం\",": 4606,
      "ఈస్ట్": 4607,
      "ఉప": 4608,
      "ఉష్ణ": 4609,
      "ఋతు": 4610,
      "ఏప్రిల్": 4611,
      "ఐక్య": 4612,
      "ఐరోపా": 4613,
      "ఒడి": 4614,
      "కం": 4615,
      "కూ": 4616,
      "కో": 4617,
      "క్ర": 4618,
      "కీర్ణ": 4619,
      "కాహార": 4620,
      "గన": 4621,
      "గతి": 4622,
      "గిల్ల": 4623,
      "గిన్న": 4624,
      "గలు)": 4625,
      "చయ": 4626,
      "చె": 4627,
      "చార": 4628,
      "చుకోవడ": 4629,
      "జు": 4630,
      "జ్ర": 4631,
      "జన్": 4632,
      "జాలు": 4633,
      "జెట్": 4634,
      "ఞాన": 4635,
      "టన": 4636,
      "టలు": 4637,
      "ట్య": 4638,
      "టన్": 4639,
      "టులు": 4640,
      "ట్‌": 4641,
      "టన్‌": 4642,
      "డవ": 4643,
      "డైన": 4644,
      "డ్మ": 4645,
      "డారి": 4646,
      "ణు": 4647,
      "ణే": 4648,
      "ణులు": 4649,
      "ణ్వ": 4650,
      "తల": 4651,
      "తాన": 4652,
      "తను": 4653,
      "తమిళ": 4654,
      "తకాలు": 4655,
      "తారు.\n": 4656,
      "థమ": 4657,
      "థక్": 4658,
      "థాన": 4659,
      "థార్": 4660,
      "థకళ": 4661,
      "దగా": 4662,
      "దాయి.": 4663,
      "దక్షిణ": 4664,
      "ధనా": 4665,
      "నక": 4666,
      "నృ": 4667,
      "నె": 4668,
      "నో": 4669,
      "నలు": 4670,
      "న్య": 4671,
      "నిక": 4672,
      "నర్వ": 4673,
      "నంద్": 4674,
      "పం": 4675,
      "పద": 4676,
      "పవ": 4677,
      "పో": 4678,
      "పరి": 4679,
      "పక్ష": 4680,
      "పట్": 4681,
      "పెద్ద": 4682,
      "పకళ": 4683,
      "పడిన": 4684,
      "ఫల": 4685,
      "ఫ్రాన్": 4686,
      "బై": 4687,
      "బెంగాల": 4688,
      "భవ": 4689,
      "భిం": 4690,
      "మ)": 4691,
      "మూ": 4692,
      "మో": 4693,
      "మాలు": 4694,
      "మించ": 4695,
      "మలి": 4696,
      "మిత": 4697,
      "మారు": 4698,
      "మ్‌": 4699,
      "మశీ": 4700,
      "మూర్తి": 4701,
      "మాతర": 4702,
      "యూ": 4703,
      "యము": 4704,
      "యింది.": 4705,
      "యాలు\n": 4706,
      "యమించ": 4707,
      "రవ": 4708,
      "రాలు": 4709,
      "రద్": 4710,
      "రత్": 4711,
      "రాజ": 4712,
      "రారి": 4713,
      "రాలు\n": 4714,
      "రెండ": 4715,
      "ర్రి": 4716,
      "రంత": 4717,
      "లీ": 4718,
      "లక్ష": 4719,
      "లీన": 4720,
      "లస్య": 4721,
      "ల](ఆ": 4722,
      "లయాళ": 4723,
      "లబై": 4724,
      "ళుక": 4725,
      "ళూరు": 4726,
      "వల": 4727,
      "వహ": 4728,
      "వీ": 4729,
      "వార": 4730,
      "వైన": 4731,
      "వల్ల": 4732,
      "వారి": 4733,
      "వరాలు\n": 4734,
      "శాన": 4735,
      "షే": 4736,
      "షకాహార": 4737,
      "షయాలు\n": 4738,
      "సన": 4739,
      "స్ర": 4740,
      "సరా": 4741,
      "సమి": 4742,
      "సింగ్": 4743,
      "హాయ": 4744,
      "హాత్మా": 4745,
      "ాఫ": 4746,
      "ా](": 4747,
      "ాము": 4748,
      "ాటక": 4749,
      "ాళుక": 4750,
      "ిర": 4751,
      "ిరు": 4752,
      "ి](క": 4753,
      "ిళ్ళ": 4754,
      "ిటన్": 4755,
      "ీ\n": 4756,
      "ీ-ద": 4757,
      "ీదగా": 4758,
      "ుల్": 4759,
      "ుపూ": 4760,
      "ుస్తులు": 4761,
      "ుళూరు": 4762,
      "ూనది": 4763,
      "ూణే": 4764,
      "ూరత్": 4765,
      "ృష్ట": 4766,
      "ెస్": 4767,
      "ెక్క": 4768,
      "ే.": 4769,
      "ేక": 4770,
      "ేత": 4771,
      "ేయ": 4772,
      "ేష": 4773,
      "ేంద్ర": 4774,
      "ేష్": 4775,
      "ేచ్ఛ": 4776,
      "ైక": 4777,
      "ొల": 4778,
      "ోర": 4779,
      "ోళ": 4780,
      "ోలో": 4781,
      "ోత్": 4782,
      "ోటి": 4783,
      "ోద్య": 4784,
      "ోత్రి": 4785,
      "ోధనా": 4786,
      "ోవార": 4787,
      "ోషకాహార": 4788,
      "ౌళి": 4789,
      "్వాస": 4790,
      "▁$": 4791,
      "▁=": 4792,
      "▁భార": 4793,
      "▁ది": 4794,
      "▁స్త్ర": 4795,
      "▁యా": 4796,
      "▁40": 4797,
      "▁టా": 4798,
      "▁Go": 4799,
      "్రా": 4800,
      "్రూ": 4801,
      "్రాం": 4802,
      "్రహ్మ": 4803,
      "ారమ్‌": 4804,
      "](కు": 4805,
      "](పా": 4806,
      "](యు": 4807,
      "](నేపాల్": 4808,
      "](సినిమా": 4809,
      "](భూటాన్": 4810,
      "](ఒలింప": 4811,
      "▁[దేశ": 4812,
      "▁[ని": 4813,
      "▁[హింద": 4814,
      "▁[టె": 4815,
      "▁[నేపాల్": 4816,
      "▁[సినిమా": 4817,
      "▁[భూటాన్": 4818,
      "▁[శాస్త్ర": 4819,
      "▁[CIA": 4820,
      "▁[ఎలక్టోరల్": 4821,
      "▁పట": 4822,
      "▁పలు": 4823,
      "▁పవి": 4824,
      "▁పక్షి": 4825,
      "▁పక్క": 4826,
      "▁పాకిస్థాన్": 4827,
      "▁పూర్తి": 4828,
      "లు.": 4829,
      "లు](భారతీయ": 4830,
      "్యారమ్‌": 4831,
      "లోక్‌సభ": 4832,
      "▁కల": 4833,
      "▁కలు": 4834,
      "▁కాయ": 4835,
      "▁కల్": 4836,
      "▁కార్": 4837,
      "▁క్రి": 4838,
      "▁కమీ": 4839,
      "▁కల్ప": 4840,
      "▁కింగ్": 4841,
      "▁కంటే": 4842,
      "▁కళలు": 4843,
      "▁కిలోమీటర్లకు": 4844,
      "▁వర": 4845,
      "▁వ్య": 4846,
      "▁వారం": 4847,
      "▁వాహ": 4848,
      "▁వనాలు": 4849,
      "▁వృద్ధి": 4850,
      "▁వాయు": 4851,
      "▁వారిగా": 4852,
      "▁వంశ": 4853,
      "▁వన్య": 4854,
      "దేమాతర": 4855,
      "▁సారస్వతం": 4856,
      "దేశాలలో": 4857,
      "ర్ద": 4858,
      "ర్ల": 4859,
      "ర్శ": 4860,
      "ర్ధిక": 4861,
      "ర్ణా": 4862,
      "ర్‌ల": 4863,
      "▁మే": 4864,
      "▁మార": 4865,
      "▁మాన": 4866,
      "▁మీర్": 4867,
      "▁మంత్రి": 4868,
      "▁మరో": 4869,
      "▁మెట్రో": 4870,
      "▁మీదగా": 4871,
      "ింది": 4872,
      "ింద్": 4873,
      "ింటన్‌": 4874,
      "ిక\n": 4875,
      "ిక్‌": 4876,
      "ికలు\n": 4877,
      "▁రకాలు": 4878,
      "▁రచయ": 4879,
      "ాలు:": 4880,
      "ాలు](": 4881,
      "ాలు](భారత": 4882,
      "▁ప్రసి": 4883,
      "▁ప్రత్య": 4884,
      "▁ప్రయో": 4885,
      "▁ప్రదేశ్": 4886,
      "▁ప్రదేశాల": 4887,
      "న్నీ": 4888,
      "న్నాయి.\n": 4889,
      "▁అవి": 4890,
      "▁అరు": 4891,
      "▁అన్ని": 4892,
      "▁అప్ప": 4893,
      "▁అంత": 4894,
      "▁అత్యం": 4895,
      "▁అక్షరాస్యత": 4896,
      "▁అమెరికా": 4897,
      "▁అణ్వ": 4898,
      "▁అరవ": 4899,
      "▁జో": 4900,
      "▁జమ్మూ": 4901,
      "▁జనతా": 4902,
      "క్స్": 4903,
      "ాతం": 4904,
      "నిచ్చ": 4905,
      "నిజాలు": 4906,
      "నిమాలు": 4907,
      "▁ఉండి": 4908,
      "ము,": 4909,
      "ము](భారత": 4910,
      "ముఖ్య": 4911,
      "ాయణ": 4912,
      "ాయాలు": 4913,
      "ాయల్": 4914,
      "ాయతి": 4915,
      "కు,": 4916,
      "కుల": 4917,
      "కులు": 4918,
      "కుంత": 4919,
      "ానపద": 4920,
      "ల్లు": 4921,
      "ల్వార్": 4922,
      "ల్తాన": 4923,
      "ండ్": 4924,
      "ండర్": 4925,
      "ండా)": 4926,
      "ండ్యులు": 4927,
      "▁చట్ట": 4928,
      "▁చైనా": 4929,
      "▁చూడండి": 4930,
      "▁చక్ర": 4931,
      "తి)": 4932,
      "తి](": 4933,
      "తి),": 4934,
      "తిశీ": 4935,
      "▁నృ": 4936,
      "▁నెల": 4937,
      "▁నాయక": 4938,
      "ంగారు": 4939,
      "ంగోత్రి": 4940,
      "ినాయక": 4941,
      "ినేత": 4942,
      "▁ఇ-": 4943,
      "▁ఇంక": 4944,
      "▁ఇటీ": 4945,
      "▁ఇస్లామాబాద్": 4946,
      "▁ఇన్‌ఫర్మేషన్": 4947,
      "▁|--": 4948,
      "ులు](జ": 4949,
      "▁ఆదాయ": 4950,
      "▁ఆగష్టు": 4951,
      "▁ఆనంద్": 4952,
      "స్తానీ": 4953,
      "తంలో": 4954,
      "తం),": 4955,
      "▁ద్ర": 4956,
      "▁దగ్": 4957,
      "▁దక్షిణాసియా": 4958,
      "▁దుస్తులు": 4959,
      "విడ": 4960,
      "విధ్య": 4961,
      "విజన్": 4962,
      "ాజిక,": 4963,
      "రు)": 4964,
      "ంటార్": 4965,
      "ంటారు.": 4966,
      "▁భారతదేశం.": 4967,
      "▁తర": 4968,
      "▁తె": 4969,
      "▁తర్వ": 4970,
      "▁తక్కువ": 4971,
      "▁విధ": 4972,
      "▁విలు": 4973,
      "▁విధాన": 4974,
      "▁వివాద": 4975,
      "▁విమాన": 4976,
      "▁విదేశీ": 4977,
      "▁వివరాలు\n": 4978,
      "▁విషయాలు\n": 4979,
      "▁భక్తి": 4980,
      "ాంతర": 4981,
      "ార్థ": 4982,
      "▁సంకీర్ణ": 4983,
      "ింది.\n": 4984,
      "పు,": 4985,
      "పుత్ర": 4986,
      "పులి": 4987,
      "పుతూ": 4988,
      "పుకో": 4989,
      "పుణులు": 4990,
      "▁గత": 4991,
      "▁గెలు": 4992,
      "▁గణి": 4993,
      "▁గమన": 4994,
      "▁గంగోత్రి": 4995,
      "ంలో,": 4996,
      "టియో": 4997,
      "ామిక": 4998,
      "▁2వ,": 4999,
      "▁230": 5000,
      "▁25%": 5001,
      "▁బి": 5002,
      "▁బాం": 5003,
      "▁బడ్": 5004,
      "▁బాబ్": 5005,
      "▁బెంగ": 5006,
      "▁బౌద్ధ": 5007,
      "▁బెంగాల": 5008,
      "▁బ్రిటీ": 5009,
      "▁బ్రిటిష్": 5010,
      "▁శిల్": 5011,
      "▁శక్తి": 5012,
      "▁జాతి": 5013,
      "యాండర్": 5014,
      "▁ఎల్ల": 5015,
      "▁ఎడమ": 5016,
      "▁ఎడారి": 5017,
      "▁ఎక్స్": 5018,
      "▁[భారతదేశంలోని": 5019,
      "▁జాతీయవాద": 5020,
      "ంచిన": 5021,
      "ప్రాణ": 5022,
      "లియ": 5023,
      "లివిజన్": 5024,
      "లియాండర్": 5025,
      "ితే,": 5026,
      "ారులను": 5027,
      "ం](చ": 5028,
      "ం](బ": 5029,
      "ం](మ": 5030,
      "ం](స": 5031,
      "ం](వి": 5032,
      "ం](http://": 5033,
      "ం](తమిళ": 5034,
      "ల్లవులు": 5035,
      "తోంది.": 5036,
      "తోష్ణ": 5037,
      "స్వాతంత్ర": 5038,
      "▁రాజు": 5039,
      "ం).": 5040,
      "ం)లో": 5041,
      "ం).\n": 5042,
      "దుగా": 5043,
      "నేరే": 5044,
      "▁(0.": 5045,
      "▁(గిల్ల": 5046,
      "▁14": 5047,
      "▁దేశపు": 5048,
      "త్వంలో": 5049,
      "డు](": 5050,
      "డుంబ": 5051,
      "డుతున్న": 5052,
      "డుకుంట": 5053,
      "తరాలు\n": 5054,
      "సిల్లు": 5055,
      "్రీరామ": 5056,
      "▁కూడి": 5057,
      "▁ఈశాన": 5058,
      "▁స్థావ": 5059,
      "▁స్థితి": 5060,
      "్యం),": 5061,
      "తులతో": 5062,
      "తుంది.\n": 5063,
      "▁లభ": 5064,
      "▁లా": 5065,
      "▁లకు": 5066,
      "▁లౌక": 5067,
      "▁[కన్నడ": 5068,
      "▁[క్రీ.పూ.": 5069,
      "▁[కబడ్డీ": 5070,
      "▁[కోల్‌కాతా": 5071,
      "గుప్": 5072,
      "పాలిటన్": 5073,
      "▁[సంక": 5074,
      "▁[సిక్కు": 5075,
      "▁[సింధు": 5076,
      "▁[సారస్వతం": 5077,
      "▁[సుప్రీం": 5078,
      "ర్వోత్": 5079,
      "్యవస్థీకరణ": 5080,
      "పంచె": 5081,
      "▁కాపా": 5082,
      "▁ఒకటో": 5083,
      "డివి": 5084,
      "పాటు": 5085,
      "్‌లో": 5086,
      "▁నియమించ": 5087,
      "▁నిపుణులు": 5088,
      "▁నిడివి": 5089,
      "▁అధికారం": 5090,
      "మాండమ": 5091,
      "ారిశ్ర": 5092,
      "](కృష్ణా": 5093,
      "▁దస్త్రం:B": 5094,
      "▁దస్త్రం:Ch": 5095,
      "▁ప్రాంతాల": 5096,
      "▁ప్రాంతాలు\n": 5097,
      "▁ప్రాంతాల్లో": 5098,
      "thno": 5099,
      "ంద్రనాథ": 5100,
      "ిల్లా": 5101,
      "▁స్వీక": 5102,
      "▁స్వేచ్ఛ": 5103,
      "▁[పాకిస్తాన్": 5104,
      "▁[పాకిస్థాన్": 5105,
      "▁వ్యవస్థ\n": 5106,
      "▁వ్యవస్థలో": 5107,
      "▁ముడి": 5108,
      "▁ఎన్నుకు": 5109,
      "▁ఎన్నుకో": 5110,
      "India/": 5111,
      "గోర్": 5112,
      "ట్క": 5113,
      "ీ](హ": 5114,
      "ీ](బెంగాల": 5115,
      "▁ఏక": 5116,
      "▁ఏడు": 5117,
      "▁ఏప్రిల్": 5118,
      "▁[జైన": 5119,
      "▁[జనాభా": 5120,
      "▁[జమ్మూ": 5121,
      "▁[జనగణ": 5122,
      "▁భాషలను": 5123,
      "ర్యన్": 5124,
      "వే.": 5125,
      "వేద": 5126,
      "వేత్త": 5127,
      "](జనాభా": 5128,
      "](జమ్మూ": 5129,
      "](సిక్కు": 5130,
      "](సింధు": 5131,
      "▁[మౌర్య": 5132,
      "▁[మొగలు": 5133,
      "▁[మహాత్మా": 5134,
      "▁భారతదేశంలోని": 5135,
      "▁శాసన": 5136,
      "▁దేశాలతో": 5137,
      "గరలో": 5138,
      "ప్పుకో": 5139,
      "](పాకిస్తాన్": 5140,
      "](పాకిస్థాన్": 5141,
      "▁ప్రపంచదేశాలలో": 5142,
      "▁చెప్పుకో": 5143,
      "▁స్థానం": 5144,
      "▁స్థానిక": 5145,
      "▁స్థానాలను": 5146,
      "ంకెలు": 5147,
      "త్యజి": 5148,
      "దాయంలో": 5149,
      "వుతుంది.\n": 5150,
      "▁*లో": 5151,
      "▁1956": 5152,
      "▁[బౌద్ధ": 5153,
      "▁[బెంగాల": 5154,
      "▁[1947": 5155,
      "▁[1977": 5156,
      "▁పుష్": 5157,
      "▁పునర్వ": 5158,
      "▁సామాజిక,": 5159,
      "▁పేరు,": 5160,
      "▁పార్టీ)": 5161,
      "▁పార్టీ,": 5162,
      "▁పార్టీల": 5163,
      "ెద్దపులి": 5164,
      "్యాడ్మ": 5165,
      "▁చేసే": 5166,
      "ాబ్ది": 5167,
      "▁క్రీడా": 5168,
      "▁క్రీడలు": 5169,
      "▁క్రీడలు)": 5170,
      "▁క్రీడలలో": 5171,
      "▁క్రీడలు\n": 5172,
      "▁జాబితా)": 5173,
      "▁జాబితాలో": 5174,
      "▁జాబితా](భారతదేశంలోని": 5175,
      "గ్గు": 5176,
      "ాధినేత": 5177,
      "▁[చదరంగ": 5178,
      "▁[చెన్నై": 5179,
      "▁ప్రధానమంత్రి": 5180,
      "▁అయితే,": 5181,
      "ించింది.\n": 5182,
      "▁భాగం": 5183,
      "▁భావిస్త": 5184,
      "▁చెంది": 5185,
      "▁చెందాయి.": 5186,
      "ntofindia.nic.in)\n": 5187,
      "oria": 5188,
      "బడింది.": 5189,
      "బడతారు.\n": 5190,
      "సు),": 5191,
      "్వాల్": 5192,
      "](చెన్నై": 5193,
      "](బౌద్ధ": 5194,
      "](బ్రిటిషు": 5195,
      "](బంగ్లాదేశ్": 5196,
      "](197": 5197,
      "](1977": 5198,
      "▁సాంకేతిక": 5199,
      "▁రహదారులను": 5200,
      "▁ఉపయో": 5201,
      "ించినట్లు": 5202,
      "▁ప్రభుత్వాన్ని": 5203,
      "గినది.": 5204,
      "ట్లకు": 5205,
      "ుకుంటో": 5206,
      "ెంగుళూరు": 5207,
      "▁పాలనలో": 5208,
      "▁కొత్త": 5209,
      "▁వంటకాలు": 5210,
      "▁సభ*": 5211,
      "▁సభ్య": 5212,
      "▁సభను": 5213,
      "▁సభ్యులు": 5214,
      "▁రెండవ": 5215,
      "▁రెండో": 5216,
      "▁జనాభాలో": 5217,
      "▁ముఖ్యంగా": 5218,
      "▁శాస్త్రం),": 5219,
      "▁సంగీతం](భారతీయ": 5220,
      "▁7/1": 5221,
      "▁India](http://www.": 5222,
      "▁India.svg,": 5223,
      "స్లిం": 5224,
      "▁వాటి": 5225,
      "▁సినిమాలు": 5226,
      "▁అతిపెద్ద": 5227,
      "▁జరిగే": 5228,
      "విధ్యం": 5229,
      "▁రాజ్యంగా": 5230,
      "ండియాలో": 5231,
      "▁కాంగ్రెస్": 5232,
      "ుకోట్లకు": 5233,
      "▁అయినా,": 5234,
      "▁రహదారులు](జ": 5235,
      "▁బహుభాష": 5236,
      "▁బహుమతి": 5237,
      "▁చరిత్ర\n": 5238,
      "▁చరిత్ర)\n": 5239,
      "▁చరిత్ర](భారతదేశ": 5240,
      "▁శతాబ్దం": 5241,
      "▁శతాబ్దం)": 5242,
      "ందిరా": 5243,
      "నవమి": 5244,
      "లంప": 5245,
      "హాభారత": 5246,
      "ిల్లు.": 5247,
      "▁\"T": 5248,
      "▁[హిమాలయ": 5249,
      "▁వైవిధ్య": 5250,
      "▁వైవిధ్యం": 5251,
      "▁సమాజ": 5252,
      "▁సాధించిన": 5253,
      "ముంబాయి": 5254,
      "▁దాటే": 5255,
      "▁భాషలు,": 5256,
      "▁కలిగి,": 5257,
      "▁నుండి,": 5258,
      "▁ప్రాచ్య": 5259,
      "▁గాంధీ": 5260,
      "▁సరిహద్దులను": 5261,
      "403": 5262,
      "టాక్": 5263,
      "ెబియ": 5264,
      "▁హక్కు": 5265,
      "](అహ్మద": 5266,
      "▁[తెలుగు": 5267,
      "▁[విశ్వ": 5268,
      "▁[విద్యుత్": 5269,
      "▁రోజు": 5270,
      "▁ప్రతిపక్ష": 5271,
      "▁భారత్,": 5272,
      "▁నగరాలు,": 5273,
      "▁ఆధీనంలో": 5274,
      "▁విస్తర": 5275,
      "▁విస్తీర్ణ": 5276,
      "▁లేని": 5277,
      "▁ఒకటిగా": 5278,
      "▁ఒకటిగా,": 5279,
      "▁పరిశోధనా": 5280,
      "▁పట్టణాలు": 5281,
      "▁పట్టణాలు,": 5282,
      "▁కాలంలో,": 5283,
      "ం.|alt=](దస్త్రం:": 5284,
      "గ్రహ": 5285,
      "గ్రామ": 5286,
      "బెల్": 5287,
      "బెట్క": 5288,
      "మహాత్మా": 5289,
      "ానియా": 5290,
      "ూచిప": 5291,
      "ోర్చు": 5292,
      "▁March": 5293,
      "▁Mahal": 5294,
      "](ప్రపంచము": 5295,
      "▁[ప్రపంచము": 5296,
      "▁[రాష్ట్రాల": 5297,
      "▁పతకాలు": 5298,
      "▁పండుగలు": 5299,
      "▁కనుక": 5300,
      "▁వ్యాస": 5301,
      "▁సింధు": 5302,
      "▁రంగం": 5303,
      "▁ఉంటాయి.": 5304,
      "▁ఉంటాయి.\n": 5305,
      "▁ఇండియా*": 5306,
      "▁భూపతి": 5307,
      "▁భూభాగం": 5308,
      "▁సంఘము.": 5309,
      "▁రైల్వేశాఖ": 5310,
      "▁ప్రపంచంలోని": 5311,
      "▁ప్రపంచంలోనే": 5312,
      "▁పుట్టుపూ": 5313,
      "▁పుట్టిల్లు.": 5314,
      "](http://www.statoids": 5315,
      "ంగ్లాదేశ్‌": 5316,
      "▁మాత్రమే": 5317,
      "▁నాగరికత](సింధు": 5318,
      "ప్పటికినీ": 5319,
      "▁సంస్కృతి\n": 5320,
      "▁ప్రముఖమైన": 5321,
      "s/in.html": 5322,
      "s/factbook": 5323,
      "భరతు": 5324,
      "▁Profile": 5325,
      "▁ఖగోళ": 5326,
      "▁ఖనిజాలు": 5327,
      "▁ఘట్ట": 5328,
      "](తెలుగు": 5329,
      "](హిమాలయ": 5330,
      "▁వెబ్": 5331,
      "▁సుల్తాన": 5332,
      "▁సమాఖ్య.": 5333,
      "▁మనదేశం": 5334,
      "▁రూపాంతర": 5335,
      "▁జన్మనిచ్చ": 5336,
      "ండో-ఆ": 5337,
      "▁న్యాయవ్యవస్థ": 5338,
      "▁విశేష": 5339,
      "▁విశ్వాస": 5340,
      "▁నిర్వహించింది.": 5341,
      "▁ఎన్నికల్లో": 5342,
      "▁స్థానంలో,": 5343,
      "▁2023": 5344,
      "▁2021,": 5345,
      "▁కారణంగా,": 5346,
      "▁ద్వీప-దేశ": 5347,
      "▁చిత్రకళ": 5348,
      "▁సౌకర్యాలలో": 5349,
      ".html)\n": 5350,
      "...": 5351,
      "2004": 5352,
      "<": 5353,
      ">": 5354,
      "X": 5355,
      "ँ": 5356,
      "ं": 5357,
      "ः": 5358,
      "अ": 5359,
      "आ": 5360,
      "इ": 5361,
      "ई": 5362,
      "उ": 5363,
      "ऊ": 5364,
      "ऋ": 5365,
      "ए": 5366,
      "ऐ": 5367,
      "ऑ": 5368,
      "ओ": 5369,
      "औ": 5370,
      "क": 5371,
      "ख": 5372,
      "ग": 5373,
      "घ": 5374,
      "च": 5375,
      "छ": 5376,
      "झ": 5377,
      "ञ": 5378,
      "ट": 5379,
      "ठ": 5380,
      "ड": 5381,
      "ढ": 5382,
      "ण": 5383,
      "थ": 5384,
      "द": 5385,
      "ध": 5386,
      "न": 5387,
      "प": 5388,
      "फ": 5389,
      "ब": 5390,
      "भ": 5391,
      "र": 5392,
      "ऱ": 5393,
      "ल": 5394,
      "ळ": 5395,
      "श": 5396,
      "ष": 5397,
      "ह": 5398,
      "़": 5399,
      "ा": 5400,
      "ि": 5401,
      "ी": 5402,
      "ु": 5403,
      "ू": 5404,
      "ृ": 5405,
      "ॅ": 5406,
      "ै": 5407,
      "ॉ": 5408,
      "ो": 5409,
      "ौ": 5410,
      "ॠ": 5411,
      "।": 5412,
      "०": 5413,
      "१": 5414,
      "२": 5415,
      "३": 5416,
      "४": 5417,
      "५": 5418,
      "६": 5419,
      "७": 5420,
      "८": 5421,
      "९": 5422,
      "॰": 5423,
      "ॲ": 5424,
      "‍": 5425,
      "‘": 5426,
      "’": 5427,
      "“": 5428,
      "”": 5429,
      "†": 5430,
      "▁क": 5431,
      "्य": 5432,
      "्र": 5433,
      "ार": 5434,
      "▁स": 5435,
      "▁प": 5436,
      "▁म": 5437,
      "▁ह": 5438,
      "▁भ": 5439,
      "्या": 5440,
      "▁व": 5441,
      "ारत": 5442,
      "र्": 5443,
      "▁आ": 5444,
      "▁अ": 5445,
      "ात": 5446,
      "▁भारत": 5447,
      "▁के": 5448,
      "ान": 5449,
      "▁न": 5450,
      "या": 5451,
      "िक": 5452,
      "ें": 5453,
      "रा": 5454,
      "▁ज": 5455,
      "▁द": 5456,
      "▁प्र": 5457,
      "्त": 5458,
      "ाल": 5459,
      "▁ब": 5460,
      "▁में": 5461,
      "▁त": 5462,
      "▁है": 5463,
      "ीय": 5464,
      "ां": 5465,
      "्ष": 5466,
      "ित": 5467,
      "हे": 5468,
      "▁का": 5469,
      "ों": 5470,
      "▁ग": 5471,
      "▁आहे": 5472,
      "ाच": 5473,
      "स्": 5474,
      "ला": 5475,
      "▁रा": 5476,
      "▁श": 5477,
      "ंग": 5478,
      "ेश": 5479,
      "ास": 5480,
      "▁औ": 5481,
      "ना": 5482,
      "ष्": 5483,
      "ले": 5484,
      "▁और": 5485,
      "▁उ": 5486,
      "ाम": 5487,
      "िया": 5488,
      "▁इ": 5489,
      "ील": 5490,
      "्व": 5491,
      "▁सं": 5492,
      "▁की": 5493,
      "ंत": 5494,
      "क्ष": 5495,
      "ने": 5496,
      "▁वि": 5497,
      "था": 5498,
      "ली": 5499,
      "▁से": 5500,
      "र्व": 5501,
      "▁य": 5502,
      "दी": 5503,
      "▁ए": 5504,
      "▁राज": 5505,
      "न्": 5506,
      "▁है।": 5507,
      "▁र": 5508,
      "ष्ट": 5509,
      "ृत": 5510,
      "▁आहे.": 5511,
      "▁ल": 5512,
      "ता": 5513,
      "▁पर": 5514,
      "▁१": 5515,
      "▁या": 5516,
      "▁च": 5517,
      "से": 5518,
      "ून": 5519,
      "ाज": 5520,
      "▁हो": 5521,
      "चे": 5522,
      "ेत": 5523,
      "▁कर": 5524,
      "वि": 5525,
      "र्म": 5526,
      "▁भारतीय": 5527,
      "री": 5528,
      "ची": 5529,
      "द्": 5530,
      "ाव": 5531,
      "▁को": 5532,
      "िय": 5533,
      "स्त": 5534,
      "कार": 5535,
      "च्या": 5536,
      "द्र": 5537,
      "भारत": 5538,
      "वा": 5539,
      "ध्य": 5540,
      "िम": 5541,
      "िल": 5542,
      "ष्ट्र": 5543,
      "▁एक": 5544,
      "ति": 5545,
      "ती": 5546,
      "▁सम": 5547,
      "ाग": 5548,
      "▁ध": 5549,
      "ही": 5550,
      "ते": 5551,
      "▁स्": 5552,
      "▁हैं": 5553,
      "द्ध": 5554,
      "ाण": 5555,
      "▁देश": 5556,
      "ड़": 5557,
      "ुर": 5558,
      "देश": 5559,
      "त्त": 5560,
      "▁सा": 5561,
      "िं": 5562,
      "्रे": 5563,
      "▁अस": 5564,
      "ाष": 5565,
      "ीन": 5566,
      "▁ने": 5567,
      "नी": 5568,
      "मु": 5569,
      "▁साम": 5570,
      "ंड": 5571,
      "▁जात": 5572,
      "धिक": 5573,
      "हा": 5574,
      "िण": 5575,
      "▁वर्": 5576,
      "चा": 5577,
      "िन्": 5578,
      "्यां": 5579,
      "▁आहेत": 5580,
      "▁[स": 5581,
      "](स": 5582,
      "के": 5583,
      "ित्र": 5584,
      "ंत्र": 5585,
      "▁झ": 5586,
      "▁नि": 5587,
      "ोक": 5588,
      "्म": 5589,
      "क्षिण": 5590,
      "ाच्या": 5591,
      "का": 5592,
      "पा": 5593,
      "ूर्व": 5594,
      "धान": 5595,
      "▁घ": 5596,
      "▁मु": 5597,
      "्च": 5598,
      "▁हे": 5599,
      "▁क्ष": 5600,
      "ातील": 5601,
      "▁राज्य": 5602,
      "िस": 5603,
      "कृत": 5604,
      "▁राष्ट्र": 5605,
      "▁धर्म": 5606,
      "प्र": 5607,
      "▁झाल": 5608,
      "▁अन": 5609,
      "कि": 5610,
      "सा": 5611,
      "ेत्र": 5612,
      "▁भाष": 5613,
      "स्कृत": 5614,
      "▁आहेत.": 5615,
      "▁क्षेत्र": 5616,
      "हार": 5617,
      "▁हैं।": 5618,
      "](म": 5619,
      "▁[म": 5620,
      "▁१९": 5621,
      "ध्ये": 5622,
      "▁वा": 5623,
      "▁२": 5624,
      "्यात": 5625,
      "▁तथा": 5626,
      "ाने": 5627,
      "▁ट": 5628,
      "▁इस": 5629,
      "हु": 5630,
      "िश": 5631,
      "▁ख": 5632,
      "ार्": 5633,
      "▁भारतात": 5634,
      "ल्या": 5635,
      "भारतीय": 5636,
      "िल्": 5637,
      "वी": 5638,
      "ोल": 5639,
      "▁हु": 5640,
      "▁वर्ष": 5641,
      "ोग": 5642,
      "्राज": 5643,
      "र्थ": 5644,
      "▁साम्राज": 5645,
      "ी](": 5646,
      "▁सर": 5647,
      "▁प्रदेश": 5648,
      "रे": 5649,
      "▁मो": 5650,
      "ात.": 5651,
      "राज": 5652,
      "की": 5653,
      "▁भाषा": 5654,
      "▁मान": 5655,
      "▁भी": 5656,
      "▁[ब": 5657,
      "▁बा": 5658,
      "त्": 5659,
      "मी": 5660,
      "▁स्व": 5661,
      "▁संस्कृत": 5662,
      "ी)": 5663,
      "▁[अ": 5664,
      "▁साम्राज्य": 5665,
      "कर": 5666,
      "▁सर्व": 5667,
      "थान": 5668,
      "ळे": 5669,
      "िन": 5670,
      "िळ": 5671,
      "स्तान": 5672,
      "](ब": 5673,
      "शिया": 5674,
      "▁[क": 5675,
      "ांत": 5676,
      "पट": 5677,
      "प्त": 5678,
      "▁अधिक": 5679,
      "▁दक्षिण": 5680,
      "त्तर": 5681,
      "दा": 5682,
      "हर": 5683,
      "ाली": 5684,
      "▁पूर्व": 5685,
      "ाला": 5686,
      "ंब": 5687,
      "ूप": 5688,
      "▁बहु": 5689,
      "ते.": 5690,
      "▁सरकार": 5691,
      "त्य": 5692,
      "वर": 5693,
      "](क": 5694,
      "ंग्रे": 5695,
      "पु": 5696,
      "ाचे": 5697,
      "▁किया": 5698,
      "▁तक": 5699,
      "िव": 5700,
      "▁पु": 5701,
      "▁उप": 5702,
      "नेक": 5703,
      "ंद": 5704,
      "तात.": 5705,
      "ीत": 5706,
      "▁[ग": 5707,
      "▁जन": 5708,
      "ंध": 5709,
      "जी": 5710,
      "णि": 5711,
      "णी": 5712,
      "हास": 5713,
      "▁अनेक": 5714,
      "थाप": 5715,
      "ंद्र": 5716,
      "किस्तान": 5717,
      "जा": 5718,
      "जात": 5719,
      "तम": 5720,
      "वे": 5721,
      "्ह": 5722,
      "▁ही": 5723,
      "िका": 5724,
      "ख्य": 5725,
      "ीप": 5726,
      "ुस": 5727,
      "ूर": 5728,
      "ैन": 5729,
      "▁फ": 5730,
      "▁हा": 5731,
      "त्र": 5732,
      "▁[इ": 5733,
      "▁भू": 5734,
      "▁ते": 5735,
      "ास्त": 5736,
      "▁राष्ट्रीय": 5737,
      "ठी": 5738,
      "श्च": 5739,
      "▁भारताच्या": 5740,
      "▁नदी": 5741,
      "▁यु": 5742,
      "ंप": 5743,
      "क्त": 5744,
      "द्य": 5745,
      "](ग": 5746,
      "▁दो": 5747,
      "ालय": 5748,
      "क्": 5749,
      "भा": 5750,
      "माण": 5751,
      "](अ": 5752,
      "▁काळ": 5753,
      "ाची": 5754,
      "ाचीन": 5755,
      "▁चित्र": 5756,
      "ल्": 5757,
      "ैद": 5758,
      "▁लोक": 5759,
      "मध्ये": 5760,
      "शी": 5761,
      "००": 5762,
      "▁सब": 5763,
      "▁शिक": 5764,
      "विध": 5765,
      "श्चिम": 5766,
      "णा": 5767,
      "वर्": 5768,
      "ृत्य": 5769,
      "म्": 5770,
      "ाट": 5771,
      "▁पा": 5772,
      "▁गया": 5773,
      "▁साथ": 5774,
      "िन्दी": 5775,
      "राज्य": 5776,
      "▁सबसे": 5777,
      "हित": 5778,
      "्यव": 5779,
      "▁वे": 5780,
      "ाचा": 5781,
      "▁स्थाप": 5782,
      "▁चित्रपट": 5783,
      "पर": 5784,
      "।\n": 5785,
      "▁जिस": 5786,
      "▁है।\n": 5787,
      "वं": 5788,
      "्रि": 5789,
      "▁भाग": 5790,
      "ंतर": 5791,
      "ओं": 5792,
      "चित्र": 5793,
      "बंध": 5794,
      "▁थ": 5795,
      "▁गे": 5796,
      "ष्ठ": 5797,
      "ख्या": 5798,
      "दल": 5799,
      "▁ओ": 5800,
      "▁प्राचीन": 5801,
      "▁विश": 5802,
      "▁विविध": 5803,
      "ढ़": 5804,
      "दू": 5805,
      "दार": 5806,
      "मान": 5807,
      "ेक": 5808,
      "▁था": 5809,
      "▁[ह": 5810,
      "्वीप": 5811,
      "▁यह": 5812,
      "सद": 5813,
      "▁होता": 5814,
      "िल्ली": 5815,
      "ज़": 5816,
      "त्या": 5817,
      "र)": 5818,
      "सं": 5819,
      "▁बन": 5820,
      "ंगा": 5821,
      "िमालय": 5822,
      "▁शिक्ष": 5823,
      "ीम": 5824,
      "▁कार": 5825,
      "](ह": 5826,
      "▁गण": 5827,
      "तिहास": 5828,
      "्रिट": 5829,
      "काल": 5830,
      "यु": 5831,
      "▁ये": 5832,
      "▁बाद": 5833,
      "क्र": 5834,
      "न)": 5835,
      "ौद्ध": 5836,
      "ंडिया": 5837,
      "पाकिस्तान": 5838,
      "▁प्रकार": 5839,
      "▁मुख्य": 5840,
      "्यवस्": 5841,
      "टी": 5842,
      "ठा": 5843,
      "णे": 5844,
      "▁ड": 5845,
      "▁[द": 5846,
      "▁आणि": 5847,
      "▁नाम": 5848,
      "ंगाल": 5849,
      "▁आहे.\n": 5850,
      "▁साहित": 5851,
      "ृष्ट": 5852,
      "▁त्या": 5853,
      "▁है,": 5854,
      "▁लि": 5855,
      "्रिटिश": 5856,
      "ाष्ट्र": 5857,
      "धार": 5858,
      "पूर्व": 5859,
      "ेख": 5860,
      "▁ला": 5861,
      "▁अप": 5862,
      "▁असे": 5863,
      "▁नाव": 5864,
      "▁नृत्य": 5865,
      "▁उत्तर": 5866,
      "▁स्थान": 5867,
      "िंध": 5868,
      "ुसार": 5869,
      "ूर्": 5870,
      "ेव": 5871,
      "ारा": 5872,
      "](इ": 5873,
      "](भारतीय": 5874,
      "ांध": 5875,
      "स्ट": 5876,
      "ासन": 5877,
      "तर": 5878,
      "▁अर्थ": 5879,
      "विधान": 5880,
      "ियों": 5881,
      "ब्": 5882,
      "मार": 5883,
      "ाय": 5884,
      "▁पद": 5885,
      "▁पुर": 5886,
      "](द": 5887,
      "▁केंद्र": 5888,
      "ांग": 5889,
      "ली.": 5890,
      "▁निर्म": 5891,
      "▁झाले": 5892,
      "▁शिक्षण": 5893,
      "िर": 5894,
      "▁तर": 5895,
      "्यवस्था": 5896,
      "ोब": 5897,
      "▁ई": 5898,
      "ारी": 5899,
      "▁सु": 5900,
      "▁संग": 5901,
      "▁पह": 5902,
      "▁रूप": 5903,
      "ुरू": 5904,
      "हाराष्ट्र": 5905,
      "File": 5906,
      "धील": 5907,
      "ऱ्या": 5908,
      "▁म्ह": 5909,
      "▁[प": 5910,
      "▁जो": 5911,
      "▁काही": 5912,
      "File:": 5913,
      "▁म्हण": 5914,
      "्ञ": 5915,
      "बी": 5916,
      "में": 5917,
      "वाम": 5918,
      "▁ऑ": 5919,
      "▁क्र": 5920,
      "ार्थ": 5921,
      "▁युद्ध": 5922,
      "▁विश्व": 5923,
      "पास": 5924,
      "ाप्त": 5925,
      "▁ले": 5926,
      "▁कि": 5927,
      "▁दिल्ली": 5928,
      "ामु": 5929,
      "▁इतिहास": 5930,
      "क्षा": 5931,
      "▁होती": 5932,
      "▁संस्कृती": 5933,
      "ोह": 5934,
      "ोड़": 5935,
      "](भारत": 5936,
      "▁[श": 5937,
      "▁[भारतीय": 5938,
      "▁हिन्दी": 5939,
      "▁ब्रिटिश": 5940,
      "▁संविधान": 5941,
      "चित्र:": 5942,
      "लग": 5943,
      "्न": 5944,
      "▁अभ": 5945,
      "मुख": 5946,
      "तंत्र": 5947,
      "पती": 5948,
      "रिक": 5949,
      "ोर": 5950,
      "▁कु": 5951,
      "▁मिळ": 5952,
      "](प": 5953,
      "▁[न": 5954,
      "▁हवाम": 5955,
      "▁प्राण": 5956,
      "▁प्रजात": 5957,
      "ड़ा": 5958,
      "मुळे": 5959,
      "▁जाता": 5960,
      "▁टक्": 5961,
      "▁खास": 5962,
      "▁बहुत": 5963,
      "द्योग": 5964,
      "▁येथ": 5965,
      "▁हवामान": 5966,
      "▁प्रजाती": 5967,
      "फ्र": 5968,
      "▁मध्य": 5969,
      "](चित्र:": 5970,
      "▁व्या": 5971,
      "▁आज": 5972,
      "▁प्रमुख": 5973,
      "▁उत्": 5974,
      "तिश": 5975,
      "ंत्री": 5976,
      "▁अर्थव": 5977,
      "ंजा": 5978,
      "सम": 5979,
      "ौर": 5980,
      "▁छ": 5981,
      "▁पठ": 5982,
      "▁शासन": 5983,
      "क्षण": 5984,
      "ास्त्र": 5985,
      "ैदिक": 5986,
      "ूर्ण": 5987,
      "ण्यात": 5988,
      "पे": 5989,
      "वळ": 5990,
      "ो.": 5991,
      "▁५": 5992,
      "](श": 5993,
      "▁विक": 5994,
      "▁तसे": 5995,
      "▁यां": 5996,
      "▁तसेच": 5997,
      "तु": 5998,
      "रत": 5999,
      "▁पश्चिम": 6000,
      "](ज": 6001,
      "▁[ज": 6002,
      "स्ला": 6003,
      "▁एशिया": 6004,
      "▁चु": 6005,
      "▁हुआ": 6006,
      "▁हुई": 6007,
      "डे": 6008,
      "भू": 6009,
      "िला": 6010,
      "ारे": 6011,
      "नाड": 6012,
      "▁संसद": 6013,
      "र्थिक": 6014,
      "च्च": 6015,
      "द्वीप": 6016,
      "सभा": 6017,
      "ुप्त": 6018,
      "ृष्ठ": 6019,
      "ोष": 6020,
      "▁पृष्ठ": 6021,
      "ाता": 6022,
      "▁केले": 6023,
      "▁संघ": 6024,
      "▁विभ": 6025,
      "▁होते.": 6026,
      "ावर": 6027,
      "▁अन्य": 6028,
      "▁साहित्य": 6029,
      "▁टक्के": 6030,
      "वन": 6031,
      "▁पर्व": 6032,
      "▁मह": 6033,
      "स्व": 6034,
      "नाव": 6035,
      "▁नदी)": 6036,
      "---|": 6037,
      "डी": 6038,
      "थित": 6039,
      "भाष": 6040,
      "सी": 6041,
      "ुज": 6042,
      "▁४": 6043,
      "ारिक": 6044,
      "▁सैन": 6045,
      "](आ": 6046,
      "](न": 6047,
      "▁हिं": 6048,
      "▁नद": 6049,
      "▁जग": 6050,
      "▁दिया": 6051,
      "▁इंडिया": 6052,
      "हीं": 6053,
      "▁जाते": 6054,
      "▁थी": 6055,
      "▁पठार": 6056,
      "मधील": 6057,
      "श्म": 6058,
      "ुन": 6059,
      "ेट": 6060,
      "▁देख": 6061,
      "▁प्रत्य": 6062,
      "ांच्या": 6063,
      "ांचा": 6064,
      "स्थान": 6065,
      "▁झाला": 6066,
      "िंधू": 6067,
      "▁अर्थव्यवस्था": 6068,
      "रु": 6069,
      "रात": 6070,
      "लोक": 6071,
      "ुव": 6072,
      "्छ": 6073,
      "▁न्या": 6074,
      "▁द्व": 6075,
      "ाले": 6076,
      "▁बढ़": 6077,
      "▁राज्यों": 6078,
      "ंग्रेज़": 6079,
      "▁दोन": 6080,
      "ंजाब": 6081,
      "▁ऊ": 6082,
      "▁पक्ष": 6083,
      "▁प्रमाण": 6084,
      "▁निव": 6085,
      "▁गणराज्य": 6086,
      "पूर्वी": 6087,
      "▁प्रत्येक": 6088,
      "गर": 6089,
      "ण्": 6090,
      "ण्या": 6091,
      "पूर्ण": 6092,
      "मे": 6093,
      "म्म": 6094,
      "योग": 6095,
      "लय": 6096,
      "ाद": 6097,
      "ाधिक": 6098,
      "▁कम": 6099,
      "▁किल्": 6100,
      "्यंत": 6101,
      "▁मध्ये": 6102,
      "र्ज": 6103,
      "▁आहार": 6104,
      "ले.": 6105,
      "▁इतर": 6106,
      "िये": 6107,
      "वाद": 6108,
      "▁समय": 6109,
      "▁समु": 6110,
      "▁हैं,": 6111,
      "्रेणी": 6112,
      "▁असते.": 6113,
      "▁धर्म)": 6114,
      "साठी": 6115,
      "▁मोठ": 6116,
      "तमिळ": 6117,
      "▁लिए": 6118,
      "्ञान": 6119,
      "पासून": 6120,
      "*)": 6121,
      "च्छ": 6122,
      "शास": 6123,
      "हरी": 6124,
      "ीस": 6125,
      "्ल": 6126,
      "▁आप": 6127,
      "▁आर्थिक": 6128,
      "▁बदल": 6129,
      "नाट": 6130,
      "ष्ण": 6131,
      "▁उदा": 6132,
      "न्न": 6133,
      "कालीन": 6134,
      "मंत्री": 6135,
      "ीच": 6136,
      "ूल": 6137,
      "ूह": 6138,
      "ेड": 6139,
      "१९": 6140,
      "▁मा": 6141,
      "▁बना": 6142,
      "ित्त": 6143,
      "▁ग्र": 6144,
      "ियाँ": 6145,
      "▁सेना": 6146,
      "▁लग": 6147,
      "▁स्थित": 6148,
      "▁देशों": 6149,
      "ड़ी": 6150,
      "▁हैं।\n": 6151,
      "▁इसके": 6152,
      "▁हुए": 6153,
      "▁न्याया": 6154,
      "ंच": 6155,
      "गोल": 6156,
      "टा": 6157,
      "ैकी": 6158,
      "▁काल": 6159,
      "▁सण": 6160,
      "▁मैद": 6161,
      "र्श": 6162,
      "▁जल": 6163,
      "▁दश": 6164,
      "▁प्रांत": 6165,
      "ांची": 6166,
      "ांमध्ये": 6167,
      "▁विस्त": 6168,
      "चीन": 6169,
      "▁झाली": 6170,
      "▁साम्राज्य)": 6171,
      "▁संगीत": 6172,
      "▁येथील": 6173,
      "नाडू": 6174,
      "श्मी": 6175,
      "▁समुद्र": 6176,
      "▁मैदान": 6177,
      "डा": 6178,
      "मन": 6179,
      "रब": 6180,
      "४७": 6181,
      "५०": 6182,
      "▁किन": 6183,
      "▁सह": 6184,
      "▁स्त": 6185,
      "▁पार्": 6186,
      "](उ": 6187,
      "▁हिमालय": 6188,
      "▁वै": 6189,
      "▁नहीं": 6190,
      "▁जय": 6191,
      "▁रहा": 6192,
      "▁करने": 6193,
      "▁भाषाओं": 6194,
      "▁सर्वाधिक": 6195,
      "जाति": 6196,
      "माणु": 6197,
      "▁लाग": 6198,
      "▁ऑफ": 6199,
      "▁द्वारा": 6200,
      "ण्ड": 6201,
      "्रेणी:": 6202,
      "शासित": 6203,
      "धि": 6204,
      "धर्म": 6205,
      "लाल": 6206,
      "ॉल": 6207,
      "▁३": 6208,
      "▁सुर": 6209,
      "▁[भारत": 6210,
      "▁वन": 6211,
      "ाती": 6212,
      "राण": 6213,
      "▁प्राप्त": 6214,
      "▁१२": 6215,
      "ीमा": 6216,
      "दु": 6217,
      "धी": 6218,
      "ेष": 6219,
      "ोच्च": 6220,
      "▁कई": 6221,
      "▁सभ": 6222,
      "▁पड": 6223,
      "▁महा": 6224,
      "▁वैदिक": 6225,
      "▁अग": 6226,
      "▁अज": 6227,
      "ातंत्र": 6228,
      "▁जी": 6229,
      "▁काम": 6230,
      "▁शता": 6231,
      "ंग्र": 6232,
      "▁येत": 6233,
      "सेना": 6234,
      "ाजिक": 6235,
      "▁होत": 6236,
      "▁करोड़": 6237,
      "▁असले": 6238,
      "▁असून": 6239,
      "▁सामाजिक": 6240,
      "▁जाती": 6241,
      "्यांची": 6242,
      "▁अनुसार": 6243,
      "साय": 6244,
      "▁काळात": 6245,
      "▁जिसमें": 6246,
      "▁होता.": 6247,
      "▁कारण": 6248,
      "ब्दी": 6249,
      "▁निर्माण": 6250,
      "▁चुनाव": 6251,
      "ंग्रेज़ी": 6252,
      "तमिळनाडू": 6253,
      "▁शताब्दी": 6254,
      "खन": 6255,
      "तिक": 6256,
      "पाल": 6257,
      "िख": 6258,
      "्ट": 6259,
      "▁मस": 6260,
      "▁[उ": 6261,
      "्यान": 6262,
      "र्ष": 6263,
      "▁प्रस": 6264,
      "▁शै": 6265,
      "▁उत्त": 6266,
      "▁संबंध": 6267,
      "▁विद्य": 6268,
      "▁१९९": 6269,
      "ंबई": 6270,
      "▁भूम": 6271,
      "▁पर्वत": 6272,
      "▁उदाहर": 6273,
      "एँ": 6274,
      "देव": 6275,
      "बर": 6276,
      "ीया": 6277,
      "ोन": 6278,
      "ोप": 6279,
      "▁ठ": 6280,
      "▁सद": 6281,
      "▁मिल": 6282,
      "](पाकिस्तान": 6283,
      "▁[पाकिस्तान": 6284,
      "▁अव": 6285,
      "▁नाग": 6286,
      "राष्ट्र": 6287,
      "▁जा": 6288,
      "▁द्वीप": 6289,
      "▁बीच": 6290,
      "ांस": 6291,
      "▁इन": 6292,
      "ंतु": 6293,
      "न्द": 6294,
      "▁परंतु": 6295,
      "िंह": 6296,
      "▁घे": 6297,
      "▁घोष": 6298,
      "प्रधान": 6299,
      "▁अन्त": 6300,
      "▁स्वतंत्र": 6301,
      "ंदि": 6302,
      "क्ति": 6303,
      "वंट": 6304,
      "▁था।": 6305,
      "0px|": 6306,
      "▁नृत्य)": 6307,
      "ुजरात": 6308,
      "▁दशक": 6309,
      "right|": 6310,
      "गत": 6311,
      "चना": 6312,
      "जे": 6313,
      "दि": 6314,
      "पैकी": 6315,
      "भाव": 6316,
      "मत": 6317,
      "वले": 6318,
      "स्य": 6319,
      "ोड": 6320,
      "▁६": 6321,
      "्राट": 6322,
      "▁पार": 6323,
      "▁आध": 6324,
      "▁आधार": 6325,
      "▁अतिश": 6326,
      "▁भारताची": 6327,
      "▁नेत": 6328,
      "ांशी": 6329,
      "से|": 6330,
      "्यांच्या": 6331,
      "्यांमध्ये": 6332,
      "▁स्वातंत्र": 6333,
      "ंग्रेस": 6334,
      "वंश": 6335,
      "क्रम": 6336,
      "▁स्थानिक": 6337,
      "▁सैन्य": 6338,
      "▁किल्ला": 6339,
      "▁मोठ्या": 6340,
      "▁विद्यार्थ": 6341,
      "वलेसे|": 6342,
      "▁नेतृत": 6343,
      "fic": 6344,
      "टि": 6345,
      "िद्ध": 6346,
      "ीं": 6347,
      "▁मे": 6348,
      "▁[आ": 6349,
      "▁अंग्रेज़ी": 6350,
      "ात्म": 6351,
      "▁प्रश": 6352,
      "▁प्रधान": 6353,
      "▁गांध": 6354,
      "▁घाट": 6355,
      "▁क्षेत्रीय": 6356,
      "वीं": 6357,
      "▁संस्कृति": 6358,
      "▁पूर्वी": 6359,
      "▁चुनावों": 6360,
      "ोनेश": 6361,
      "▁[पाकिस्तान](पाकिस्तान": 6362,
      ";\n": 6363,
      "चल": 6364,
      "जय": 6365,
      "ी),": 6366,
      "▁ऋ": 6367,
      "▁कॉ": 6368,
      "▁महाराष्ट्र": 6369,
      "र्नाट": 6370,
      "▁आक": 6371,
      "▁आक्रम": 6372,
      "▁अथ": 6373,
      "ाना": 6374,
      "▁बंगाल": 6375,
      "काश": 6376,
      "िवस": 6377,
      "ल्प": 6378,
      "वर्ग": 6379,
      "म्ब": 6380,
      "युक्त": 6381,
      "द्योगिक": 6382,
      "ौर्य": 6383,
      "स्लामी": 6384,
      "---|---|": 6385,
      "ुनिक": 6386,
      "▁जयंत": 6387,
      "र्नाटक": 6388,
      "-20": 6389,
      "ख्": 6390,
      "गी": 6391,
      "ग्र": 6392,
      "घल": 6393,
      "जन": 6394,
      "तील": 6395,
      "द्या": 6396,
      "पूर": 6397,
      "फ़": 6398,
      "मारत": 6399,
      "यार": 6400,
      "रूप": 6401,
      "ळख": 6402,
      "ळवंट": 6403,
      "साग": 6404,
      "ूळ": 6405,
      "ूस": 6406,
      "्यता": 6407,
      "▁सो": 6408,
      "▁मत": 6409,
      "▁[वि": 6410,
      "ानंतर": 6411,
      "▁नी": 6412,
      "यास": 6413,
      "▁दृष्ट": 6414,
      "▁बांध": 6415,
      "ला.": 6416,
      "ंग्ल": 6417,
      "▁उन": 6418,
      "▁इमारत": 6419,
      "▁राजवंश": 6420,
      "न्द्र": 6421,
      "▁(*": 6422,
      "▁परंप": 6423,
      "▁करून": 6424,
      "▁जातो.": 6425,
      "धिकारिक": 6426,
      "▁वर्षां": 6427,
      "▁सर्वांत": 6428,
      "पुरी": 6429,
      "▁उपसाग": 6430,
      "▁[इवलेसे|": 6431,
      "▁वेग": 6432,
      "▁गेट": 6433,
      "▁ओर": 6434,
      "▁ओळख": 6435,
      "▁बहुतांशी": 6436,
      "भाषा": 6437,
      "▁जगातील": 6438,
      "▁निवड": 6439,
      "▁न्यायालय": 6440,
      "▁झाली.": 6441,
      "▁सदस्य": 6442,
      "▁अतिशय": 6443,
      "▁प्रधानमंत्री": 6444,
      "▁[पाकिस्तान](पाकिस्तान)": 6445,
      "▁परंपरा": 6446,
      ".s": 6447,
      "टे": 6448,
      "न्त": 6449,
      "प्": 6450,
      "मा": 6451,
      "िष्ट": 6452,
      "ीका": 6453,
      "ुष": 6454,
      "्ले": 6455,
      "▁९": 6456,
      "्यु": 6457,
      "▁पू": 6458,
      "▁वृ": 6459,
      "▁अश": 6460,
      "राव": 6461,
      "▁बौद्ध": 6462,
      "▁शा": 6463,
      "▁शहरी": 6464,
      "ासा": 6465,
      "▁उद्योग": 6466,
      "▁रो": 6467,
      "वादी": 6468,
      "▁समाज": 6469,
      "मुंबई": 6470,
      "▁[सं": 6471,
      "्मिक": 6472,
      "▁१९७": 6473,
      "▁युग": 6474,
      "▁पाकिस्तान": 6475,
      "▁[दक्षिण": 6476,
      "▁उदाहरण": 6477,
      "▁आधुनिक": 6478,
      "▁नेतृत्व": 6479,
      ".sv": 6480,
      "ई।": 6481,
      "ओड": 6482,
      "रो": 6483,
      "सून": 6484,
      "ुट": 6485,
      "ुष्": 6486,
      "०१": 6487,
      "▁सक": 6488,
      "▁सीमा": 6489,
      "▁सिंह": 6490,
      "▁महास": 6491,
      "](भ": 6492,
      "](वि": 6493,
      "▁वर": 6494,
      "▁वार": 6495,
      "▁आधिकारिक": 6496,
      "▁ज्या": 6497,
      "▁प्रभाव": 6498,
      "▁में,": 6499,
      "▁ति": 6500,
      "▁तो": 6501,
      "्वे": 6502,
      "▁लिये": 6503,
      "▁१८": 6504,
      "स्त्र": 6505,
      "▁किया।": 6506,
      "▁जनजाति": 6507,
      "संख्या": 6508,
      "▁व्याप": 6509,
      "▁विकास": 6510,
      "▁थी।": 6511,
      "श्मीर": 6512,
      "▁वैश": 6513,
      "▁कॉंग्रेस": 6514,
      "▁अथवा": 6515,
      "ुष्क": 6516,
      "▁महासाग": 6517,
      ".स": 6518,
      "ंनी": 6519,
      "ध्या": 6520,
      "वृत": 6521,
      "वरी": 6522,
      "सभ": 6523,
      "सित": 6524,
      "हें": 6525,
      "ाप": 6526,
      "ुल": 6527,
      "ोद": 6528,
      "▁सल": 6529,
      "▁साल": 6530,
      "▁सध्या": 6531,
      "▁[भ": 6532,
      "▁आढ": 6533,
      "▁आले": 6534,
      "▁आशिया": 6535,
      "▁अमे": 6536,
      "▁भारताचे": 6537,
      "▁केली": 6538,
      "▁जै": 6539,
      "▁जाने": 6540,
      "▁प्रामु": 6541,
      "▁तरी": 6542,
      "▁तयार": 6543,
      "िती": 6544,
      "▁गंगा": 6545,
      "▁राज्यात": 6546,
      "▁रंग": 6547,
      "▁यादी": 6548,
      "ेतील": 6549,
      "](सं": 6550,
      "▁राष्ट्रपती": 6551,
      "▁आहेत.\n": 6552,
      "▁वाघ": 6553,
      "▁मोठा": 6554,
      "▁[बौद्ध": 6555,
      "](बौद्ध": 6556,
      "वर्ष": 6557,
      "▁भागात": 6558,
      "ख्याने": 6559,
      "](दक्षिण": 6560,
      "ामुळे": 6561,
      "▁प्राणी": 6562,
      "▁खासदार": 6563,
      "▁सुरुव": 6564,
      "▁अजून": 6565,
      "▁भूमिका": 6566,
      "वर्ग:": 6567,
      ".स.": 6568,
      "▁प्रामुख्याने": 6569,
      ".0": 6570,
      "चोल": 6571,
      "बाद": 6572,
      "भग": 6573,
      "मर": 6574,
      "मह": 6575,
      "लों": 6576,
      "वार": 6577,
      "िने": 6578,
      "िष्ठ": 6579,
      "२६": 6580,
      "▁'": 6581,
      "▁मन": 6582,
      "▁हिम": 6583,
      "▁आय": 6584,
      "▁नौ": 6585,
      "िक्": 6586,
      "▁जब": 6587,
      "▁तम": 6588,
      "ांड": 6589,
      "ांचे": 6590,
      "्षिक": 6591,
      "ोंड": 6592,
      "ंगे": 6593,
      "नाथ": 6594,
      "▁राजनी": 6595,
      "▁रक्षा": 6596,
      "▁लोग": 6597,
      "ियार": 6598,
      "▁स्मार": 6599,
      "त्ता": 6600,
      "ंडोनेश": 6601,
      "हाँ": 6602,
      "ोलन": 6603,
      "▁वर्षों": 6604,
      "ी](अ": 6605,
      "▁मानसून": 6606,
      "▁अधिकार": 6607,
      "▁बहुमत": 6608,
      "तमिल": 6609,
      "▁कार्य": 6610,
      "▁ईसा": 6611,
      "▁पहले": 6612,
      "फ्रीका": 6613,
      "▁हुआ।": 6614,
      "म्मू": 6615,
      "ोपीय": 6616,
      "▁स्वतंत्रता": 6617,
      "टिबंध": 6618,
      "▁स्मारक": 6619,
      "ंडोनेशिया": 6620,
      "तो": 6621,
      "पी": 6622,
      "यी": 6623,
      "शन": 6624,
      "षभ": 6625,
      "हू": 6626,
      "ैस": 6627,
      "०,": 6628,
      "▁%": 6629,
      "ार्मिक": 6630,
      "▁हर": 6631,
      "र्त": 6632,
      "▁आग": 6633,
      "ान](": 6634,
      "▁प्रद": 6635,
      "स्ल": 6636,
      "▁इत्या": 6637,
      "▁११": 6638,
      "▁चार": 6639,
      "ियन": 6640,
      "▁धार्मिक": 6641,
      "▁नेहर": 6642,
      "▁अनु": 6643,
      "▁[बंगाल": 6644,
      "करण": 6645,
      "▁सर्वोच्च": 6646,
      "िवाज": 6647,
      "पेक्ष": 6648,
      "▁विकसित": 6649,
      "स्लाम": 6650,
      "▁पारंप": 6651,
      "प्पा": 6652,
      "e_": 6653,
      "ँच": 6654,
      "ंका": 6655,
      "एं": 6656,
      "कल्प": 6657,
      "ज्ञान": 6658,
      "डील": 6659,
      "थियार": 6660,
      "नत": 6661,
      "नुसार": 6662,
      "रस्व": 6663,
      "ळ)": 6664,
      "ळी": 6665,
      "ळवळ": 6666,
      "साम": 6667,
      "िध": 6668,
      "ूण": 6669,
      "ूची": 6670,
      "ौद्योगिक": 6671,
      "्ला": 6672,
      "▁कमी": 6673,
      "्रील": 6674,
      "▁सुरू": 6675,
      "▁सिंधू": 6676,
      "▁पंत": 6677,
      "▁पाव": 6678,
      "▁प्ले": 6679,
      "▁मरा": 6680,
      "▁हथियार": 6681,
      "्याच्या": 6682,
      "्याद्र": 6683,
      "र्जा": 6684,
      "▁आण": 6685,
      "▁आम": 6686,
      "▁आन्द": 6687,
      "▁अप्र": 6688,
      "▁अशी": 6689,
      "▁अरब": 6690,
      "▁भारताने": 6691,
      "▁नाट": 6692,
      "िकाण": 6693,
      "ेंद्र": 6694,
      "▁जिन": 6695,
      "▁जास्त": 6696,
      "▁प्रौद्योगिक": 6697,
      "्तु": 6698,
      "्तनत": 6699,
      "▁बने": 6700,
      "▁तिस": 6701,
      "ांनी": 6702,
      "▁गठ": 6703,
      "▁आहे,": 6704,
      "▁शक": 6705,
      "▁शत": 6706,
      "▁शास्त्र": 6707,
      "ामध्ये": 6708,
      "▁इंग्र": 6709,
      "▁विष": 6710,
      "▁विदेश": 6711,
      "▁एवं": 6712,
      "▁लिया": 6713,
      "▁(पूर्वी": 6714,
      "▁चळवळ": 6715,
      "▁करतात.": 6716,
      "▁करण्यात": 6717,
      "स्तन": 6718,
      "द्रा": 6719,
      "ड़े": 6720,
      "त्त्व": 6721,
      "िन्दू": 6722,
      "्यांना": 6723,
      "्यांचा": 6724,
      "▁घड": 6725,
      "▁मुघल": 6726,
      "▁राज्ये": 6727,
      "▁वापर": 6728,
      "▁वाळवंट": 6729,
      "▁२००": 6730,
      "▁२०१": 6731,
      "▁खो": 6732,
      "▁वर्षा": 6733,
      "राजस्थान": 6734,
      "▁मानवी": 6735,
      "▁जनसंख्या": 6736,
      "वेर": 6737,
      "▁भूगोल": 6738,
      "म्भ": 6739,
      "▁गया।\n": 6740,
      "▁स्थापना": 6741,
      "बंधन": 6742,
      "▁थे": 6743,
      "ांग्ला": 6744,
      "ोबत": 6745,
      "▁म्हणून": 6746,
      "▁म्हणजे": 6747,
      "▁होती.": 6748,
      "▁कुछ": 6749,
      "पेक्षा": 6750,
      "**\n": 6751,
      "▁विभाग": 6752,
      "▁जाते.": 6753,
      "▁दोनों": 6754,
      "ण्यास": 6755,
      "▁लगभग": 6756,
      "पालिका": 6757,
      "▁प्रसिद्ध": 6758,
      "▁शैली": 6759,
      "▁ठिकाण": 6760,
      "▁स्वातंत्र्य": 6761,
      "ficial": 6762,
      "ख्खन": 6763,
      "िष्ट्य": 6764,
      "▁वैशिष्ट्य": 6765,
      "▁सल्तनत": 6766,
      "▁आढळ": 6767,
      "रस्वती": 6768,
      "्रीलंका": 6769,
      "▁पंतप्रधान": 6770,
      "▁प्लेट": 6771,
      "चि": 6772,
      "पात": 6773,
      "पश्चिम": 6774,
      "मरी": 6775,
      "महा": 6776,
      "रबी": 6777,
      "रक्षण": 6778,
      "ल)": 6779,
      "लि": 6780,
      "वसाय": 6781,
      "सर": 6782,
      "ा)": 6783,
      "ाइ": 6784,
      "ुक": 6785,
      "ेस": 6786,
      "▁७": 6787,
      "▁कंप": 6788,
      "्रिक": 6789,
      "ारो": 6790,
      "▁पहा": 6791,
      "▁मंत्र": 6792,
      "▁मार्": 6793,
      "](ची": 6794,
      "▁[चीन": 6795,
      "▁भवन": 6796,
      "▁अस्त": 6797,
      "▁भारत\n": 6798,
      "▁प्रति": 6799,
      "▁शहर": 6800,
      "▁शुष्क": 6801,
      "ेशन": 6802,
      "▁रि": 6803,
      "▁लाल": 6804,
      "▁१०": 6805,
      "▁१५": 6806,
      "ावे": 6807,
      "▁१९८": 6808,
      "िश्च": 6809,
      "▁प्रदेश)": 6810,
      "](बंगाल": 6811,
      "पुत्र": 6812,
      "▁स्थापत्य": 6813,
      "संख्य": 6814,
      "▁ड्र": 6815,
      "धारण": 6816,
      "▁ईस्ट": 6817,
      "▁क्रम": 6818,
      "भूष": 6819,
      "वसायिक": 6820,
      "▁[चीन](ची": 6821,
      ".६": 6822,
      "_S": 6823,
      "ँकि": 6824,
      "ंक": 6825,
      "ंथ": 6826,
      "ंश": 6827,
      "खंड": 6828,
      "ट्ट": 6829,
      "तन": 6830,
      "थक": 6831,
      "दक्षिण": 6832,
      "नगर": 6833,
      "फे": 6834,
      "यक": 6835,
      "र-": 6836,
      "वल": 6837,
      "वैदिक": 6838,
      "सत": 6839,
      "ाँ": 6840,
      "ीण": 6841,
      "ोध": 6842,
      "२०": 6843,
      "ारम्भ": 6844,
      "▁सार": 6845,
      "▁पास": 6846,
      "▁पड़": 6847,
      "▁मौ": 6848,
      "](य": 6849,
      "▁[ड": 6850,
      "▁[य": 6851,
      "▁[लोक": 6852,
      "▁[१९": 6853,
      "▁हाला": 6854,
      "र्दू": 6855,
      "▁अलग": 6856,
      "▁केन्द्र": 6857,
      "ान्य": 6858,
      "▁निम": 6859,
      "▁ज़": 6860,
      "▁जंग": 6861,
      "▁दर": 6862,
      "▁दिवस": 6863,
      "▁प्रारम्भ": 6864,
      "▁बै": 6865,
      "▁बनी": 6866,
      "▁बड़ा": 6867,
      "▁बड़ी": 6868,
      "ांति": 6869,
      "▁गए": 6870,
      "▁सेवा": 6871,
      "▁रहे": 6872,
      "▁परमाणु": 6873,
      "▁१६": 6874,
      "ाजपा": 6875,
      "▁करना": 6876,
      "▁करता": 6877,
      "वायु": 6878,
      "ध्यम": 6879,
      "▁सम्राट": 6880,
      "▁धी": 6881,
      "ुरु": 6882,
      "िन्दु": 6883,
      "▁निभा": 6884,
      "▁१९५०": 6885,
      "▁२६": 6886,
      "▁इसी": 6887,
      "▁मोदी": 6888,
      "त्न": 6889,
      "▁स्वरूप": 6890,
      "ंबेड": 6891,
      "ंग्रेजी": 6892,
      "परमाणु": 6893,
      "▁था,": 6894,
      "](हिमालय": 6895,
      "▁अपने": 6896,
      "▁अपनी": 6897,
      "▁केंद्रशासित": 6898,
      "▁[श्रेणी:": 6899,
      "](श्रेणी:": 6900,
      "▁ऊँ": 6901,
      "▁माध्यम": 6902,
      "▁विस्तार": 6903,
      "▁किन्तु": 6904,
      "▁सहयोग": 6905,
      "▁पार्टी": 6906,
      "▁घोषणा": 6907,
      "▁आधारित": 6908,
      "▁अशोक": 6909,
      "षभदेव": 6910,
      "▁गठबंधन": 6911,
      "▁हालाँकि": 6912,
      "ंबेडकर": 6913,
      "%;\n": 6914,
      "जिं": 6915,
      "णात": 6916,
      "तः": 6917,
      "निर": 6918,
      "भर": 6919,
      "भाग": 6920,
      "रण": 6921,
      "रिका": 6922,
      "लु": 6923,
      "ळू": 6924,
      "वै": 6925,
      "व्या": 6926,
      "व्ह": 6927,
      "हान": 6928,
      "ाळ": 6929,
      "िले": 6930,
      "ूड": 6931,
      "ृष": 6932,
      "ोळ": 6933,
      "ोसी": 6934,
      "्स": 6935,
      "१८": 6936,
      "▁ढ": 6937,
      "▁कला": 6938,
      "्रम": 6939,
      "ारचे": 6940,
      "▁साली": 6941,
      "▁मंदि": 6942,
      "▁मौर्य": 6943,
      "](तमिळनाडू": 6944,
      "▁[त": 6945,
      "▁ह्या": 6946,
      "▁हाल": 6947,
      "▁भरत": 6948,
      "्याचे": 6949,
      "▁आली": 6950,
      "▁आदि": 6951,
      "▁अधि": 6952,
      "ातून": 6953,
      "▁भारताला": 6954,
      "▁केली.": 6955,
      "▁ना": 6956,
      "▁जेव": 6957,
      "▁प्रग": 6958,
      "▁बज": 6959,
      "▁बार": 6960,
      "▁बंद": 6961,
      "▁तीन": 6962,
      "▁त्यात": 6963,
      "▁ताप": 6964,
      "ांना": 6965,
      "ांवर": 6966,
      "स्थ": 6967,
      "स्कार": 6968,
      "स्पती": 6969,
      "▁इ.": 6970,
      "▁इस्लामी": 6971,
      "▁संख्या": 6972,
      "क्षर": 6973,
      "▁यात": 6974,
      "▁राजधान": 6975,
      "▁(इ": 6976,
      "▁परि": 6977,
      "▁पर्यंत": 6978,
      "▁१७": 6979,
      "▁करते": 6980,
      "द्दल": 6981,
      "ियर": 6982,
      "वाहर": 6983,
      "मुद्र": 6984,
      "▁निर्": 6985,
      "](महाराष्ट्र": 6986,
      "▁टिळ": 6987,
      "▁वर्षात": 6988,
      "▁प्रदेशात": 6989,
      "िवूड": 6990,
      "▁नदी),": 6991,
      "](गंगा": 6992,
      "णाऱ्या": 6993,
      "▁गेल्या": 6994,
      "▁गेली.": 6995,
      "ेकडील": 6996,
      "▁प्रकारच्या": 6997,
      "▁त्यामुळे": 6998,
      "िंधु": 6999,
      "▁पदव": 7000,
      "▁पदवी": 7001,
      "▁पुरस्कार": 7002,
      "▁निर्मिती": 7003,
      "ोबर": 7004,
      "हाराष्ट्र](महाराष्ट्र": 7005,
      "▁लेणी": 7006,
      "](पंजाब": 7007,
      "▁व्यावसायिक": 7008,
      "▁झाला.": 7009,
      "ंजाब](पंजाब": 7010,
      "ित्त्व": 7011,
      "ॉलिवूड": 7012,
      "▁वनस्पती": 7013,
      "तमिळनाडू](तमिळनाडू": 7014,
      "्यानमार": 7015,
      "▁गांधी": 7016,
      "▁वर्षांपूर्वी": 7017,
      "▁वेगळे": 7018,
      "▁व्यापार": 7019,
      "वृतीय": 7020,
      "▁अजूनही": 7021,
      "▁इत्यादी": 7022,
      "▁नाटके": 7023,
      "▁शतक": 7024,
      "वेरूळ": 7025,
      "▁अस्तित्त्व": 7026,
      "▁[चीन](चीन)": 7027,
      "जिंठा": 7028,
      "निरपेक्ष": 7029,
      "वाहरलाल": 7030,
      "▁टिळक": 7031,
      "*[": 7032,
      "-पश्चिम": 7033,
      ".३": 7034,
      ".५": 7035,
      "/w": 7036,
      "gr": 7037,
      "ंभ": 7038,
      "ंची": 7039,
      "इट": 7040,
      "ई)": 7041,
      "कृष्ट": 7042,
      "खा": 7043,
      "गध": 7044,
      "पति": 7045,
      "म)": 7046,
      "यत": 7047,
      "ये": 7048,
      "शेष": 7049,
      "हते": 7050,
      "हात्म": 7051,
      "ुप": 7052,
      "ूचना": 7053,
      "५७": 7054,
      "▁कड": 7055,
      "▁कर्ज": 7056,
      "्यट": 7057,
      "्यों": 7058,
      "▁सां": 7059,
      "▁पै": 7060,
      "](लोक": 7061,
      "▁हिल्": 7062,
      "▁वास्त": 7063,
      "▁व्यवस्था": 7064,
      "र्द्र": 7065,
      "▁आर्द्र": 7066,
      "▁नम": 7067,
      "▁जिन्": 7068,
      "▁दे": 7069,
      "▁प्रतिश": 7070,
      "▁बड़े": 7071,
      "▁तट": 7072,
      "▁तीस": 7073,
      "▁गो": 7074,
      "ाचल": 7075,
      "स्थाप": 7076,
      "लावा": 7077,
      "▁शुरू": 7078,
      "नाग": 7079,
      "▁उस": 7080,
      "▁यूर": 7081,
      "▁राजा": 7082,
      "▁(क": 7083,
      "▁पर्यट": 7084,
      "ेती": 7085,
      "वाह": 7086,
      "▁सम्": 7087,
      "्रेल": 7088,
      "नी)": 7089,
      "िन्न": 7090,
      "▁निर": 7091,
      "पाद": 7092,
      "▁धर्म](बौद्ध": 7093,
      "प्रिय": 7094,
      "▁क्षेत्रों": 7095,
      "](मोह": 7096,
      "▁[मध्य": 7097,
      "▁[मोह": 7098,
      "िशा": 7099,
      "▁194": 7100,
      "▁अधिकृत": 7101,
      "ंग्रेज": 7102,
      "▁उपयोग": 7103,
      "▁उपमहा": 7104,
      "▁जनवरी": 7105,
      "▁फै": 7106,
      "०००": 7107,
      "परेशन": 7108,
      "▁जिसके": 7109,
      "▁डॉल": 7110,
      "स्ट्रेल": 7111,
      "▁पुरुष": 7112,
      "▁कुल": 7113,
      "▁उत्पाद": 7114,
      "▁एशिया)": 7115,
      "▁संसदीय": 7116,
      "▁विभिन्न": 7117,
      "▁जलवायु": 7118,
      "▁विस्तृत": 7119,
      "▁स्तर": 7120,
      "▁वन्य": 7121,
      "जयनगर": 7122,
      "▁राजवंश)": 7123,
      "▁वार्षिक": 7124,
      "▁नौसेना": 7125,
      "▁जबकि": 7126,
      "▁तमिल": 7127,
      "टिबंधीय": 7128,
      "▁आन्दोलन": 7129,
      "▁विदेशी": 7130,
      "▁धीरे": 7131,
      "िन्दुस्तान": 7132,
      "हात्मा": 7133,
      "▁हिल्स": 7134,
      "▁प्रतिशत": 7135,
      "▁उपमहाद्वीप": 7136,
      "▁डॉलर": 7137,
      ":/": 7138,
      "ई](": 7139,
      "चाल": 7140,
      "द्व": 7141,
      "निष्ठ": 7142,
      "ोज": 7143,
      "ोस": 7144,
      "१५": 7145,
      "▁पस": 7146,
      "▁मंत्री": 7147,
      "](ड": 7148,
      "](धर्म": 7149,
      "▁[ल": 7150,
      "▁[धर्म": 7151,
      "▁हि": 7152,
      "▁हस्त": 7153,
      "ेंज": 7154,
      "▁जून": 7155,
      "▁दल": 7156,
      "▁प्रण": 7157,
      "▁प्रचल": 7158,
      "▁तत्": 7159,
      "▁तुल": 7160,
      "▁उद": 7161,
      "▁उभ": 7162,
      "ियां": 7163,
      "▁संयुक्त": 7164,
      "▁रचना": 7165,
      "्रेस": 7166,
      "मुना": 7167,
      "▁१९४७": 7168,
      "left": 7169,
      "▁[गण": 7170,
      "जीव": 7171,
      "वर्ण": 7172,
      "दारी": 7173,
      "▁[हिमालय": 7174,
      "▁संविधान)": 7175,
      "▁अभिय": 7176,
      "▁सैनिक": 7177,
      "▁प्रशासन": 7178,
      "▁आकर्ष": 7179,
      "स्लिम": 7180,
      "लुग": 7181,
      "▁तापमान": 7182,
      "▁तत्कालीन": 7183,
      ")ात": 7184,
      "-पूर्व": 7185,
      "F)": 7186,
      "_India": 7187,
      "ंदी": 7188,
      "ई,": 7189,
      "एशिया": 7190,
      "ऑपरेशन": 7191,
      "ऑस्ट्रेल": 7192,
      "क,": 7193,
      "कू": 7194,
      "खी": 7195,
      "गड": 7196,
      "गण": 7197,
      "गातील": 7198,
      "गढ़": 7199,
      "गस्ट": 7200,
      "घात": 7201,
      "चर": 7202,
      "जास": 7203,
      "ज्ञ": 7204,
      "टना": 7205,
      "डो": 7206,
      "ण,": 7207,
      "णु": 7208,
      "णारे": 7209,
      "तात": 7210,
      "तांत": 7211,
      "थे": 7212,
      "पणे": 7213,
      "फल": 7214,
      "बट": 7215,
      "बद्दल": 7216,
      "मंच": 7217,
      "यर": 7218,
      "र्य": 7219,
      "रवि": 7220,
      "ळा": 7221,
      "ळ](": 7222,
      "ळूह": 7223,
      "वट": 7224,
      "वन)": 7225,
      "वारी": 7226,
      "शत": 7227,
      "श्य": 7228,
      "षुव": 7229,
      "षभूष": 7230,
      "समी": 7231,
      "सृष्ट": 7232,
      "हज": 7233,
      "हिं": 7234,
      "ह्याद्र": 7235,
      "हशत": 7236,
      "ीक्षण": 7237,
      "ूक": 7238,
      "ूद्वीप": 7239,
      "ैल": 7240,
      "ोर्": 7241,
      "ोली": 7242,
      "ोढ़": 7243,
      "२००": 7244,
      "▁ऐ": 7245,
      "▁ॲ": 7246,
      "▁कश्मीर": 7247,
      "▁स.": 7248,
      "▁सस्तन": 7249,
      "▁पी": 7250,
      "▁मार": 7251,
      "▁महार": 7252,
      "▁मिला": 7253,
      "](वर्ग:": 7254,
      "▁[तमिळनाडू](तमिळनाडू": 7255,
      "▁हळूह": 7256,
      "▁भाव": 7257,
      "▁भाजपा": 7258,
      "▁वाला": 7259,
      "▁वारे": 7260,
      "▁अब": 7261,
      "▁अशिया": 7262,
      "ातन": 7263,
      "ात्र": 7264,
      "▁भारतीया": 7265,
      "▁केवळ": 7266,
      "▁केवल": 7267,
      "▁नव": 7268,
      "▁निय": 7269,
      "▁नगर": 7270,
      "▁नकाश": 7271,
      "राम": 7272,
      "राठा": 7273,
      "▁जवळ": 7274,
      "▁जाना": 7275,
      "▁जहाँ": 7276,
      "▁दिस": 7277,
      "▁दख्खन": 7278,
      "▁प्रव": 7279,
      "▁प्रयास": 7280,
      "▁प्रजास": 7281,
      "ांपैकी": 7282,
      "▁गई": 7283,
      "▁गुजरात": 7284,
      "लाव": 7285,
      "लादेश": 7286,
      "▁शह": 7287,
      "▁शास": 7288,
      "▁शाले": 7289,
      "▁शेती": 7290,
      "▁औसत": 7291,
      "नाइट": 7292,
      "लेली": 7293,
      "लेल्या": 7294,
      "▁उन्": 7295,
      "▁उर्दू": 7296,
      "▁की।": 7297,
      "▁विवाद": 7298,
      "▁राजक": 7299,
      "▁राजवट": 7300,
      "▁परीक्षण": 7301,
      "▁होते": 7302,
      "▁होत्या": 7303,
      "▁करणे": 7304,
      "विध्य": 7305,
      "र्मदा": 7306,
      "ावेश": 7307,
      "▁कोटी": 7308,
      "वाळ": 7309,
      "िलों": 7310,
      "▁एकूण": 7311,
      "▁समर्थ": 7312,
      "▁समाप्त": 7313,
      "▁समावेश": 7314,
      "द्धती": 7315,
      "200px|": 7316,
      "िंदू": 7317,
      "▁असत": 7318,
      "▁असल्या": 7319,
      "▁जातात.": 7320,
      "▁वर्ग": 7321,
      "▁वर्ण": 7322,
      "▁वर्तम": 7323,
      "्यांचे": 7324,
      "्यांनी": 7325,
      "▁[सिंधू": 7326,
      "केर": 7327,
      "▁घेत": 7328,
      "प्रकार": 7329,
      "हारी": 7330,
      "](मध्य": 7331,
      "▁[महाराष्ट्र](महाराष्ट्र": 7332,
      "▁१९६": 7333,
      "▁वाढ": 7334,
      "▁वायु": 7335,
      "▁वाटा": 7336,
      "▁२८": 7337,
      "▁इसकी": 7338,
      "िश्र": 7339,
      "▁मोसमी": 7340,
      "▁भाषाएँ": 7341,
      "▁भाषाएं": 7342,
      "▁माना": 7343,
      "▁मानचित्र": 7344,
      "वरून": 7345,
      "▁पुत्र": 7346,
      "जी:": 7347,
      "णिपुरी": 7348,
      "onso": 7349,
      "त्रि": 7350,
      "▁भूमी": 7351,
      "▁काळातील": 7352,
      "▁लोकसभा": 7353,
      "▁गया।": 7354,
      "▁वेषभूष": 7355,
      "▁चित्रपटसृष्ट": 7356,
      "पर्यंत": 7357,
      "▁बनाने": 7358,
      "▁गणला": 7359,
      "▁लाख": 7360,
      "▁नावाने": 7361,
      "▁नावाचा": 7362,
      "▁पदार्थ": 7363,
      "▁पुरातन": 7364,
      "ांगलादेश": 7365,
      "▁झाले.": 7366,
      "▁[पंजाब](पंजाब": 7367,
      "▁म्हणतात.": 7368,
      "▁लेख": 7369,
      "▁अभी": 7370,
      "▁मिळतात.": 7371,
      "▁[नवी": 7372,
      "▁येथे": 7373,
      "फ्रांस": 7374,
      "▁उत्प": 7375,
      "समूह": 7376,
      "क्षणिक": 7377,
      "▁यांच्या": 7378,
      "ावरून": 7379,
      "▁टक्के,": 7380,
      "▁महत्त्व": 7381,
      "भाषी": 7382,
      "▁हिंदी": 7383,
      "▁हिंदू": 7384,
      "▁नद्या": 7385,
      "ेटवे": 7386,
      "▁देखा": 7387,
      "रुण": 7388,
      "▁प्रमाणात": 7389,
      "ण्याची": 7390,
      "▁ग्राम": 7391,
      "▁जलोढ़": 7392,
      "▁लागले.": 7393,
      "▁सभ्यता": 7394,
      "▁पडले": 7395,
      "ंग्रजी:": 7396,
      "▁येते": 7397,
      "▁येतात.": 7398,
      "▁असलेली": 7399,
      "्यानंतर": 7400,
      "▁उत्तरे": 7401,
      "बरोबर": 7402,
      "▁द्वीपकल्प": 7403,
      "▁द्वीपसमूह": 7404,
      "▁घोषित": 7405,
      "ात्मक": 7406,
      "-201": 7407,
      "▁सोयी": 7408,
      "▁दृष्ट्या": 7409,
      "ंग्लिश": 7410,
      "▁उपसागरा": 7411,
      "▁ओळखले": 7412,
      "्युत्तर": 7413,
      "▁वृक्ष": 7414,
      "ासाठी": 7415,
      "ओडिशा": 7416,
      "▁अमेरिका": 7417,
      "▁जानेवारी": 7418,
      "▁रंगमंच": 7419,
      "▁सुरुवाती": 7420,
      "महाल": 7421,
      "िक्की": 7422,
      "▁राजनीतिक": 7423,
      "पीठ": 7424,
      "र्तग": 7425,
      "िवाजी": 7426,
      "▁पारंपारिक": 7427,
      "▁मराठी": 7428,
      "▁अप्रैल": 7429,
      "▁इंग्रज": 7430,
      "▁विषय": 7431,
      "▁(पूर्वीचे": 7432,
      "▁ठिकाणी": 7433,
      "▁आढळतात.": 7434,
      "▁पड़ोसी": 7435,
      "▁मंदिरे": 7436,
      "▁जेवणात": 7437,
      "▁(इंग्रजी:": 7438,
      "▁पदव्युत्तर": 7439,
      "तांत्रिक": 7440,
      "▁महाराज": 7441,
      "▁[तमिळनाडू](तमिळनाडू)": 7442,
      "▁हळूहळू": 7443,
      "▁प्रजासत्ता": 7444,
      "▁शालेय": 7445,
      "▁समर्थन": 7446,
      "▁वर्तमान": 7447,
      "-अ": 7448,
      "-ग": 7449,
      ":\n": 7450,
      "india": 7451,
      "इंडिया": 7452,
      "कों": 7453,
      "धन": 7454,
      "मृत": 7455,
      "म्राट": 7456,
      "लया": 7457,
      "वत": 7458,
      "वान": 7459,
      "शा": 7460,
      "शस्": 7461,
      "िनी": 7462,
      "ूद": 7463,
      "ौगोल": 7464,
      "्‍": 7465,
      "▁कल": 7466,
      "▁कृष": 7467,
      "▁सभा": 7468,
      "▁सूची": 7469,
      "▁पत्": 7470,
      "](छ": 7471,
      "](त": 7472,
      "](ल": 7473,
      "▁भौगोल": 7474,
      "र्ग": 7475,
      "▁आद": 7476,
      "▁निक": 7477,
      "▁ज्य": 7478,
      "▁दी": 7479,
      "▁दिन": 7480,
      "▁दिला": 7481,
      "हेब": 7482,
      "▁उठ": 7483,
      "न्स": 7484,
      "▁रह": 7485,
      "ंत्रण": 7486,
      "▁मुस्लिम": 7487,
      "िसी": 7488,
      "▁धर्मीय": 7489,
      "स्कृतिक": 7490,
      "▁सरपट": 7491,
      "▁बाब": 7492,
      "▁साम्राज्य](म": 7493,
      "▁[कला": 7494,
      "▁पुराण": 7495,
      "ंदिर": 7496,
      "▁[गंगा": 7497,
      "▁भूभाग": 7498,
      "क्ट": 7499,
      "▁लोकप्रिय": 7500,
      "▁मुख्यत": 7501,
      "▁उत्कृष्ट": 7502,
      "](जैन": 7503,
      "▁[जैन": 7504,
      "---|\n": 7505,
      "str": 7506,
      "▁मैदानी": 7507,
      "▁अग्न": 7508,
      "▁नागरिक": 7509,
      "enter": 7510,
      "▁प्रश्न": 7511,
      "▁परंपरागत": 7512,
      "ासाहेब": 7513,
      "▁नेहरू": 7514,
      "▁शास्त्रीय": 7515,
      "▁राजधानी": 7516,
      "▁भौगोलिक": 7517,
      "-भाषी": 7518,
      "_M": 7519,
      "_b": 7520,
      "_of": 7521,
      "hic": 7522,
      "van": 7523,
      "°F)": 7524,
      "ंट": 7525,
      "इन": 7526,
      "ओण": 7527,
      "कट": 7528,
      "काता": 7529,
      "गढ": 7530,
      "घू": 7531,
      "चंद्र": 7532,
      "थम": 7533,
      "थि": 7534,
      "द)": 7535,
      "द](": 7536,
      "नै": 7537,
      "पि": 7538,
      "बेट": 7539,
      "भु": 7540,
      "मूल": 7541,
      "रम": 7542,
      "रल": 7543,
      "रेंद्र": 7544,
      "व्य": 7545,
      "शील": 7546,
      "श्व": 7547,
      "शास्त्र": 7548,
      "हम": 7549,
      "ी](स": 7550,
      "ुद्ध": 7551,
      "ृष्": 7552,
      "ेन": 7553,
      "ेम": 7554,
      "ैंड": 7555,
      "ोटे": 7556,
      "४.": 7557,
      "५.": 7558,
      "▁८": 7559,
      "▁°F)": 7560,
      "▁किये": 7561,
      "▁कहते": 7562,
      "▁स्र": 7563,
      "▁सात": 7564,
      "▁सिने": 7565,
      "▁पहु": 7566,
      "▁पूर्ण": 7567,
      "▁मि": 7568,
      "▁मूल": 7569,
      "](१९": 7570,
      "](चोल": 7571,
      "](तमिल": 7572,
      "▁[ई": 7573,
      "▁[वे": 7574,
      "▁[राष्ट्र": 7575,
      "▁[चोल": 7576,
      "▁वीं": 7577,
      "▁वंश": 7578,
      "▁आंबेडकर": 7579,
      "▁अमरी": 7580,
      "▁अलावा": 7581,
      "▁भारत-": 7582,
      "▁जीत": 7583,
      "▁जैन": 7584,
      "▁दृ": 7585,
      "▁देत": 7586,
      "▁दौर": 7587,
      "▁दूस": 7588,
      "ालर": 7589,
      "▁बांग्ला": 7590,
      "▁का*[": 7591,
      "▁गुप्त": 7592,
      "▁गई।": 7593,
      "▁गारो": 7594,
      "स्वर": 7595,
      "▁शांति": 7596,
      "▁शुरु": 7597,
      "ंगीत": 7598,
      "▁संब": 7599,
      "▁विरो": 7600,
      "थाई": 7601,
      "▁से,": 7602,
      "र्वर": 7603,
      "▁राजनै": 7604,
      "▁रही": 7605,
      "▁लड़ा": 7606,
      "ताज": 7607,
      "▁चला": 7608,
      "चेन्न": 7609,
      "वियत": 7610,
      "री)": 7611,
      "री,": 7612,
      "▁कोई": 7613,
      "▁कोर": 7614,
      "वाँ": 7615,
      "▁समान": 7616,
      "▁समूह": 7617,
      "▁देश)\n": 7618,
      "िन्द": 7619,
      "▁धर्म](ह": 7620,
      "प्रदेश": 7621,
      "प्राचीन": 7622,
      "ोलकाता": 7623,
      "ी](ब": 7624,
      "▁1971": 7625,
      "▁बाहरी": 7626,
      "मी.": 7627,
      "▁सरकारें": 7628,
      "▁किया,": 7629,
      "▁जनता": 7630,
      "जी-": 7631,
      "ैनिक": 7632,
      "▁[इंडोनेशिया": 7633,
      "राज्य)": 7634,
      "▁स्थापित": 7635,
      "▁जिसका": 7636,
      "▁[हिन्दी": 7637,
      "ीमबेट": 7638,
      "▁अपना": 7639,
      "](इंडोनेशिया": 7640,
      "](दिल्ली": 7641,
      "▁सुधार": 7642,
      "▁लेकर": 7643,
      "▁किए": 7644,
      "▁इतिहास\n": 7645,
      "](पश्चिम": 7646,
      "▁छोड़": 7647,
      "रतनाट": 7648,
      "▁हुई।": 7649,
      "▁संघीय": 7650,
      "▁संघर्ष": 7651,
      "▁विभाज": 7652,
      "](File:S": 7653,
      "▁नदियाँ": 7654,
      "▁दिया।": 7655,
      "▁अर्थव्यवस्था\n": 7656,
      "▁बढ़कर": 7657,
      "*);\n": 7658,
      "▁ग्री": 7659,
      "र्शन": 7660,
      "▁संगीत)": 7661,
      "▁पार्ट": 7662,
      "▁अगस्त": 7663,
      "▁उत्तरी": 7664,
      "ंदिरा": 7665,
      "▁घाटी": 7666,
      "▁ऋतु": 7667,
      "▁आक्रमण": 7668,
      "▁दृष्टि": 7669,
      "ोदाव": 7670,
      "▁लोगों": 7671,
      "▁आगमन": 7672,
      "▁प्रदान": 7673,
      "▁जिनमें": 7674,
      "लिंग": 7675,
      "▁कंपनी": 7676,
      "▁मौसम": 7677,
      "▁निभाई": 7678,
      "](हिमालय)": 7679,
      "▁बजट": 7680,
      "▁उसके": 7681,
      "▁यूरोपीय": 7682,
      "://w": 7683,
      "▁हिस्": 7684,
      "▁अभियान": 7685,
      "▁आकर्षित": 7686,
      "▁वायुसेना": 7687,
      "रुणाचल": 7688,
      "मूल्य": 7689,
      "ृष्णा": 7690,
      "▁सिनेमा": 7691,
      "▁शुरुआ": 7692,
      "▁राजनैतिक": 7693,
      "▁[इंडोनेशिया](इंडोनेशिया": 7694,
      "ीमबेटका": 7695,
      "रतनाट्य": 7696,
      "▁[इंडोनेशिया](इंडोनेशिया)": 7697,
      ")ातील": 7698,
      ")मधील": 7699,
      "-वेरूळ": 7700,
      ".](चित्र:": 7701,
      "/india": 7702,
      "300": 7703,
      "=\"": 7704,
      "to": 7705,
      "ँग": 7706,
      "ंच्या": 7707,
      "ंवर": 7708,
      "उज": 7709,
      "ऊन": 7710,
      "ऋत्य": 7711,
      "कड": 7712,
      "कूल": 7713,
      "खाली": 7714,
      "गल": 7715,
      "जार": 7716,
      "झर्व": 7717,
      "डप्पा": 7718,
      "ण)": 7719,
      "णूक": 7720,
      "तच्या": 7721,
      "थारचे": 7722,
      "दृष्ट": 7723,
      "दिवस": 7724,
      "न्या": 7725,
      "नात्मक": 7726,
      "पड": 7727,
      "पू": 7728,
      "पुर": 7729,
      "पद्धती": 7730,
      "भार": 7731,
      "रजे": 7732,
      "ळ,": 7733,
      "ळून": 7734,
      "वतात.": 7735,
      "ववै": 7736,
      "शान्य": 7737,
      "सरी": 7738,
      "ह्य": 7739,
      "हती": 7740,
      "ाड": 7741,
      "ाशी": 7742,
      "ृह": 7743,
      "ॅक": 7744,
      "ेला": 7745,
      "ेचे": 7746,
      "ैऋत्य": 7747,
      "ोस्": 7748,
      "ो.\n": 7749,
      "्ज": 7750,
      "्ने": 7751,
      "१३": 7752,
      "४०": 7753,
      "‍नी": 7754,
      "▁किं": 7755,
      "▁कमान": 7756,
      "▁कर्नाटक": 7757,
      "्रिश्च": 7758,
      "▁साज": 7759,
      "▁साग": 7760,
      "▁पाच": 7761,
      "▁मध": 7762,
      "▁मी": 7763,
      "▁मिश्र": 7764,
      "▁मंदिर": 7765,
      "](वा": 7766,
      "](मुंबई": 7767,
      "](राजस्थान": 7768,
      "▁[छ": 7769,
      "▁[ने": 7770,
      "▁[वा": 7771,
      "▁[मु": 7772,
      "▁[मुंबई": 7773,
      "▁[वर्ग:": 7774,
      "▁भा": 7775,
      "्याने": 7776,
      "▁व्यव": 7777,
      "▁आव": 7778,
      "▁आंतर": 7779,
      "▁आरक्षण": 7780,
      "▁अल": 7781,
      "▁अहिं": 7782,
      "ातर": 7783,
      "▁भारताचा": 7784,
      "▁केला": 7785,
      "ान)": 7786,
      "ान्त": 7787,
      "▁नमु": 7788,
      "ेंच": 7789,
      "रावर": 7790,
      "▁दु": 7791,
      "▁द्र": 7792,
      "▁दर्श": 7793,
      "▁दर्जा": 7794,
      "▁दगड": 7795,
      "ालामु": 7796,
      "▁बॉलिवूड": 7797,
      "▁तिर": 7798,
      "ांक": 7799,
      "ांद": 7800,
      "ांमुळे": 7801,
      "▁काँग": 7802,
      "▁|---|\n": 7803,
      "▁गोड": 7804,
      "▁गरजे": 7805,
      "नाऱ्या": 7806,
      "ष्म": 7807,
      "लेला": 7808,
      "िया)": 7809,
      "्वालामु": 7810,
      "▁संलग": 7811,
      "▁संपूर्ण": 7812,
      "ंती": 7813,
      "▁विद्या": 7814,
      "▁सेव": 7815,
      "▁युर": 7816,
      "▁राज्या": 7817,
      "▁(अ": 7818,
      "▁परदेश": 7819,
      "▁यामुळे": 7820,
      "▁च्या": 7821,
      "▁चतु": 7822,
      "▁करत": 7823,
      "विले": 7824,
      "विद्या": 7825,
      "द्दा": 7826,
      "▁धोर": 7827,
      "▁देशांची": 7828,
      "▁देश](वर्ग:": 7829,
      "▁साद": 7830,
      "▁साधारण": 7831,
      "▁असली": 7832,
      "▁असतात.": 7833,
      "ीनंतर": 7834,
      "▁[सरस्वती": 7835,
      "](संत": 7836,
      "](सिंधू": 7837,
      "](सरस्वती": 7838,
      "काळ": 7839,
      "▁राज्यसभा": 7840,
      "▁राज्यसभ": 7841,
      "▁वाह": 7842,
      "▁टाग": 7843,
      "ल्या.": 7844,
      "ी](प": 7845,
      "ी](ह": 7846,
      "▁मोठी": 7847,
      "▁भाषा)": 7848,
      "▁मान्यता": 7849,
      "▁[बि": 7850,
      "▁संस्कृती)": 7851,
      "▁साम्राज्य),": 7852,
      "▁*A": 7853,
      "▁सर्वात": 7854,
      "](बि": 7855,
      "▁[कच्छ": 7856,
      "▁दक्षिणेकडील": 7857,
      "ाली,": 7858,
      "](कला": 7859,
      "](कच्छ": 7860,
      "▁पुढ": 7861,
      "▁पुत": 7862,
      "▁पुन": 7863,
      "ंदमान": 7864,
      "▁[गुप्त": 7865,
      "▁[गंगे": 7866,
      "ंद्रनाथ": 7867,
      "वे|": 7868,
      "िका)": 7869,
      "▁तेलुग": 7870,
      "](गुप्त": 7871,
      "▁काळाच्या": 7872,
      "ल्ली": 7873,
      "▁लोकसभ": 7874,
      "शीख": 7875,
      "▁स्थापन": 7876,
      "▁स्थापत्या": 7877,
      "▁गेले.": 7878,
      "▁ओघात": 7879,
      "ेकडे": 7880,
      "संघ": 7881,
      "▁बनविले": 7882,
      "▁प्रकारचे": 7883,
      "▁साहित्यात": 7884,
      "▁त्याला": 7885,
      "▁त्याचे": 7886,
      "▁लाभ": 7887,
      "▁झालेले": 7888,
      "ोबार": 7889,
      "▁ईशान्य": 7890,
      "▁सुवर्ण": 7891,
      "ुरूकूल": 7892,
      "▁ऑगस्ट": 7893,
      "▁युद्ध)": 7894,
      "▁युद्धात": 7895,
      "▁किंग": 7896,
      "▁दिल्ली](न": 7897,
      "▁[शास्त्र": 7898,
      "▁मिळते.": 7899,
      "▁मिळाले": 7900,
      "फ्रेंच": 7901,
      "▁मध्यम": 7902,
      "▁([आ": 7903,
      "](शास्त्र": 7904,
      "▁यांना": 7905,
      "▁यांनी": 7906,
      "▁यांचा": 7907,
      "▁2013": 7908,
      "▁पृष्ठीय": 7909,
      "ावरील": 7910,
      "▁**भारत": 7911,
      "](आसाम": 7912,
      "▁देखील": 7913,
      "▁झाला.\n": 7914,
      "▁पक्षास": 7915,
      "▁निवास": 7916,
      "▁गणराज्य,": 7917,
      "▁किल्ल्या": 7918,
      "▁आहारात": 7919,
      "▁मोठे": 7920,
      "▁आपले": 7921,
      "▁प्रांतात": 7922,
      "emple": 7923,
      "▁स्तरावर": 7924,
      "](उत्तर": 7925,
      "](उष्ण": 7926,
      "धीश": 7927,
      "▁महाविद्या": 7928,
      "▁होतो.": 7929,
      "▁मसाल": 7930,
      "▁मसाला": 7931,
      "▁मसाले": 7932,
      "▁[उष्ण": 7933,
      "▁प्रसार": 7934,
      "▁शैक्षणिक": 7935,
      "▁१९९१": 7936,
      "▁घेण्यास": 7937,
      "▁विद्यार्थी": 7938,
      "▁पूर्वीच्या": 7939,
      "▁ऋषभदेव": 7940,
      "▁आक्रमणे": 7941,
      "म्बे": 7942,
      "ंग्लंड": 7943,
      "▁उपसागर)": 7944,
      "▁[इवलेसे|उज": 7945,
      "भाषा](": 7946,
      "▁निवडणूक": 7947,
      "▁वृद्ध": 7948,
      "रावली": 7949,
      "▁शाहज": 7950,
      "▁रोजी": 7951,
      "▁वरील": 7952,
      "▁ज्याचा": 7953,
      "▁महासागर": 7954,
      "ोदडो": 7955,
      "▁आलेल्या": 7956,
      "▁अमेरिक": 7957,
      "▁जैववै": 7958,
      "▁राज्यातील": 7959,
      "▁सुरुवात": 7960,
      "▁[बंगालच्या": 7961,
      "साम](आसाम": 7962,
      "िध्र": 7963,
      "िधाड": 7964,
      "▁आमदार": 7965,
      "▁तिसऱ्या": 7966,
      "▁चळवळी": 7967,
      "▁खोरे": 7968,
      "राजस्थान](राजस्थान": 7969,
      "ाइव्ह": 7970,
      "▁रिझर्व": 7971,
      "▁१९८४": 7972,
      "](बंगालचा": 7973,
      "संख्ये": 7974,
      "▁ड्राइव्ह": 7975,
      "▁सारख्या": 7976,
      "▁जंगले": 7977,
      "▁प्रगती": 7978,
      "▁बंदर)": 7979,
      "▁शतकात": 7980,
      "▁अस्तित्त्वात": 7981,
      "जिंठा-वेरूळ": 7982,
      "▁सांस्कृतिक": 7983,
      "ेंजोदडो": 7984,
      "▁प्रचलित": 7985,
      "रविंद्रनाथ": 7986,
      "हशतवाद": 7987,
      "▁भारतीयांनी": 7988,
      "▁नकाशा": 7989,
      "▁दख्खनच्या": 7990,
      "▁शहरे": 7991,
      "▁राजकीय": 7992,
      "▁वेषभूषा": 7993,
      "▁चित्रपटसृष्टी": 7994,
      "▁लेखक": 7995,
      "▁ग्रामीण": 7996,
      "▁सुरुवातीला": 7997,
      "शस्वी": 7998,
      "▁पत्‍नी": 7999,
      "▁निकोबार": 8000,
      "▁उठाव": 8001,
      "▁[कला](कला": 8002,
      "▁मुख्यत्वे": 8003,
      "▁अग्निध्र": 8004,
      "दृष्ट्या": 8005,
      "▁किंवा": 8006,
      "्रिश्चन": 8007,
      "](मुंबई)": 8008,
      "▁[मुंबई](मुंबई)": 8009,
      "▁व्यवसाय": 8010,
      "▁नमुने": 8011,
      "▁काँग्रेस": 8012,
      "▁गरजेचे": 8013,
      "▁संलग्न": 8014,
      "▁साधारणपणे": 8015,
      "▁दिल्ली](नवी": 8016,
      "▁[इवलेसे|उजवे|": 8017,
      "▁शाहजहान": 8018,
      "जिंठा-वेरूळची": 8019,
      ",२६": 8020,
      "-आ": 8021,
      ".5": 8022,
      "/20": 8023,
      "12": 8024,
      "27": 8025,
      "72": 8026,
      "_A": 8027,
      "_D": 8028,
      "_N": 8029,
      "ng": 8030,
      "ogr": 8031,
      "s://w": 8032,
      "°C": 8033,
      "ं।": 8034,
      "एस": 8035,
      "क),": 8036,
      "कटिबंधीय": 8037,
      "खण्ड": 8038,
      "घा": 8039,
      "चक्र": 8040,
      "ज्य": 8041,
      "जरा": 8042,
      "ण),": 8043,
      "णी)": 8044,
      "तपु": 8045,
      "थल": 8046,
      "धु": 8047,
      "नप": 8048,
      "बू": 8049,
      "म),": 8050,
      "मोह": 8051,
      "यपालिका": 8052,
      "रक्ष": 8053,
      "रूस": 8054,
      "ल-": 8055,
      "लत": 8056,
      "लम": 8057,
      "लू": 8058,
      "लंग": 8059,
      "शाली": 8060,
      "सार": 8061,
      "हों": 8062,
      "ह्म": 8063,
      "हिन्दी": 8064,
      "ाऊ": 8065,
      "ा।": 8066,
      "ाहित": 8067,
      "िए": 8068,
      "िप": 8069,
      "िर्": 8070,
      "ी,": 8071,
      "ुचि": 8072,
      "ृद्ध": 8073,
      "ेल": 8074,
      "ेली": 8075,
      "ेक्षा": 8076,
      "ॉकी": 8077,
      "ो-": 8078,
      "ोत": 8079,
      "ोला": 8080,
      "ोने": 8081,
      "ौहार": 8082,
      "्द": 8083,
      "२,": 8084,
      "▁किसी": 8085,
      "्रह्म": 8086,
      "▁सश": 8087,
      "▁सहा": 8088,
      "▁सक्र": 8089,
      "▁सिद्ध": 8090,
      "▁सफल": 8091,
      "▁पतन": 8092,
      "](पु": 8093,
      "](परमाणु": 8094,
      "▁[पु": 8095,
      "▁[स्व": 8096,
      "▁[तमिल": 8097,
      "▁[परमाणु": 8098,
      "▁हरी": 8099,
      "▁हॉकी": 8100,
      "▁भील": 8101,
      "▁वाली": 8102,
      "▁वाले": 8103,
      "र्भ": 8104,
      "▁आई": 8105,
      "▁आस": 8106,
      "▁आकार": 8107,
      "▁अर्": 8108,
      "▁अति": 8109,
      "▁केरल": 8110,
      "▁नई": 8111,
      "या।": 8112,
      "िक,": 8113,
      "▁जे": 8114,
      "▁जंब": 8115,
      "▁जमा": 8116,
      "▁प्रकाश": 8117,
      "▁प्रथम": 8118,
      "ालदी": 8119,
      "▁बल": 8120,
      "▁बडी": 8121,
      "▁में।": 8122,
      "▁ताज": 8123,
      "▁तनाव": 8124,
      "ांश": 8125,
      "▁गति": 8126,
      "▁ग्ल": 8127,
      "ाचार": 8128,
      "▁शक्त": 8129,
      "▁शक्ति": 8130,
      "नाभ": 8131,
      "▁उम": 8132,
      "▁उसे": 8133,
      "▁उच्च": 8134,
      "▁उष्ण": 8135,
      "ामस्वर": 8136,
      "िया,": 8137,
      "▁इसे": 8138,
      "▁संरक्षण": 8139,
      "▁विधान": 8140,
      "▁विमान": 8141,
      "▁विजय": 8142,
      "▁विज्ञान": 8143,
      "र्वोच्च": 8144,
      "▁यहाँ": 8145,
      "▁एड": 8146,
      "▁एव": 8147,
      "▁राजस्थान": 8148,
      "▁रत्न": 8149,
      "▁लू": 8150,
      "▁लंब": 8151,
      "▁(स": 8152,
      "ता)": 8153,
      "▁परिण": 8154,
      "▁१३": 8155,
      "▁चल": 8156,
      "▁ची": 8157,
      "▁चाल": 8158,
      "▁चीन": 8159,
      "▁होना": 8160,
      "▁करती": 8161,
      "द्देश": 8162,
      "ावा": 8163,
      "िमण्ड": 8164,
      "▁समझ": 8165,
      "▁समृद्ध": 8166,
      "ड़िया": 8167,
      "त्ति": 8168,
      "त्तीस": 8169,
      "▁असम": 8170,
      "▁सामरिक": 8171,
      "ंडो-": 8172,
      "िन्धु": 8173,
      "▁[सात": 8174,
      "▁झार": 8175,
      "▁धर्म](": 8176,
      "▁धर्म),": 8177,
      "प्राप्त": 8178,
      "प्रभु": 8179,
      "▁अनुस": 8180,
      "किन": 8181,
      "▁२२": 8182,
      "▁२४": 8183,
      "▁टेली": 8184,
      "▁इसका": 8185,
      "▁इसमें": 8186,
      "हुमूल्य": 8187,
      "ार्कट": 8188,
      "▁मोर": 8189,
      "▁भाषा)\n": 8190,
      "▁[अफ्रीका": 8191,
      "▁[कर्नाटक": 8192,
      "▁अधिकांश": 8193,
      "ंबर": 8194,
      "](कर्नाटक": 8195,
      "पुरा": 8196,
      "▁पुर्तग": 8197,
      "▁[गुजरात": 8198,
      "▁[गोंड": 8199,
      "ंध्र": 8200,
      "जाप": 8201,
      "](गण": 8202,
      "](गोंड": 8203,
      "](अफ्रीका": 8204,
      "ल्पा": 8205,
      "वर्तन": 8206,
      "▁पाया": 8207,
      "▁पाँच": 8208,
      "राज्यसभा": 8209,
      "▁भागी": 8210,
      "▁विशेष": 8211,
      "▁शिक्षा": 8212,
      "](हिन्दी": 8213,
      "्यवस्थ": 8214,
      "▁[दिल्ली": 8215,
      "▁लिख": 8216,
      "▁उत्तर-पश्चिम": 8217,
      "▁स्थानीय": 8218,
      "ब्ब": 8219,
      "▁तरह": 8220,
      "▁2,": 8221,
      "▁22": 8222,
      "▁संगठ": 8223,
      "▁India.jpg)\n": 8224,
      "▁Man": 8225,
      "▁क्रय": 8226,
      "▁खासी": 8227,
      "▁अर्थव्यवस्थ": 8228,
      "ंजाबी": 8229,
      "▁छोटे": 8230,
      "▁पश्चिमी": 8231,
      "▁एशिया](दक्षिण": 8232,
      "नाडु": 8233,
      "▁हिंस": 8234,
      "▁पठार)": 8235,
      "रुद्ध": 8236,
      "▁बढ़ती": 8237,
      "▁ऊपर": 8238,
      "▁रहा।": 8239,
      "▁लागू": 8240,
      "▁जीवन": 8241,
      "▁संबंधों": 8242,
      "▁2007": 8243,
      "▁भूमि": 8244,
      "▁अवशेष": 8245,
      "▁मेघ": 8246,
      "---|---|---|---|": 8247,
      "▁उनके": 8248,
      "▁उनकी": 8249,
      "▁सदस्यों": 8250,
      "aphic": 8251,
      "▁पूरा": 8252,
      "▁पूरे": 8253,
      "▁शाका": 8254,
      "रोमन": 8255,
      "▁सकल": 8256,
      "▁विकासशील": 8257,
      "▁जैसे": 8258,
      "▁आयात": 8259,
      "ांडर": 8260,
      "▁राजनीति": 8261,
      "▁कार्यकाल": 8262,
      "हूदी": 8263,
      "▁नेहरु": 8264,
      "▁[बंगाल](बंगाल": 8265,
      "प्पा](ह": 8266,
      "▁भूगोल\n": 8267,
      "पातकाल": 8268,
      "▁मार्ग": 8269,
      "▁निम्न": 8270,
      "▁ज़िलों": 8271,
      "▁ऊँची": 8272,
      "▁अधिराज्य": 8273,
      "▁परिष": 8274,
      "▁वास्तव": 8275,
      "▁जिन्हें": 8276,
      "▁पर्यटन": 8277,
      "▁फैली": 8278,
      "▁वन्यजीव": 8279,
      "िन्दुस्तानी": 8280,
      "https://w": 8281,
      "▁प्रवेश": 8282,
      "▁उन्हें": 8283,
      "-गंगा": 8284,
      "मृतसर": 8285,
      "लयालम": 8286,
      "शाही": 8287,
      "](जैन)": 8288,
      "▁[जैन](जैन)": 8289,
      "घूमर": 8290,
      "▁अमरीकी": 8291,
      "▁दृश्य": 8292,
      "▁[हिन्दी](हिन्दी": 8293,
      "▁ऋतु**": 8294,
      "ोदावरी": 8295,
      "▁शुरुआत": 8296,
      "270px|": 8297,
      "ographic": 8298,
      "जराय": 8299,
      "तपुड़ा": 8300,
      "मोहन": 8301,
      "ाहित्य": 8302,
      "्रह्मपुत्र": 8303,
      "▁सहायक": 8304,
      "▁सक्रिय": 8305,
      "▁जंबूद्वीप": 8306,
      "ालदीव": 8307,
      "ामस्वरूप": 8308,
      "▁लंबे": 8309,
      "▁परिणामस्वरूप": 8310,
      "िमण्डल": 8311,
      "िन्धु-गंगा": 8312,
      "▁टेलीवि": 8313,
      "▁[अफ्रीका](अफ्रीका": 8314,
      "▁[अफ्रीका](अफ्रीका)": 8315,
      ".२": 8316,
      "ll": 8317,
      "mand": 8318,
      "ंज": 8319,
      "ग्वे": 8320,
      "जु": 8321,
      "ज्ज": 8322,
      "न्य": 8323,
      "पण": 8324,
      "फ्ट": 8325,
      "ब्र": 8326,
      "बिने": 8327,
      "मेव": 8328,
      "रिवाज": 8329,
      "व्र": 8330,
      "वाने": 8331,
      "हिमालय": 8332,
      "ेज": 8333,
      "ेद": 8334,
      "ेगी": 8335,
      "ैव": 8336,
      "ोत्": 8337,
      "ोत्तर": 8338,
      "१,": 8339,
      "▁सूर": 8340,
      "▁पाष": 8341,
      "▁मज": 8342,
      "▁मृत्य": 8343,
      "](वैदिक": 8344,
      "▁[ख": 8345,
      "▁[राज": 8346,
      "▁[भू": 8347,
      "▁[वैदिक": 8348,
      "▁हल्": 8349,
      "▁भर": 8350,
      "▁वस्त": 8351,
      "▁आठ": 8352,
      "▁अंग": 8353,
      "▁भारतवर्ष": 8354,
      "ान),": 8355,
      "रा),": 8356,
      "▁जि": 8357,
      "▁जु": 8358,
      "▁दुस": 8359,
      "▁दाद": 8360,
      "▁बंग": 8361,
      "▁बेस": 8362,
      "▁शब्": 8363,
      "▁ए.": 8364,
      "▁रुप": 8365,
      "▁(आ": 8366,
      "रीबी": 8367,
      "ावली": 8368,
      "ियन)": 8369,
      "िमान": 8370,
      "▁सामान्य": 8371,
      "](सिंधु": 8372,
      "साद": 8373,
      "](महात्मा": 8374,
      "▁[मगध": 8375,
      "▁[महात्मा": 8376,
      "▁खा": 8377,
      "▁खु": 8378,
      "▁[ब्रिटिश": 8379,
      "▁साम्राज्य](वि": 8380,
      "▁अधिकारी": 8381,
      "त्यमेव": 8382,
      "▁फाय": 8383,
      "▁[इस्लाम": 8384,
      "ल्ट": 8385,
      "ल्स": 8386,
      "दलीय": 8387,
      "ठाया": 8388,
      "▁डि": 8389,
      "](इस्लाम": 8390,
      "▁[पश्चिम": 8391,
      "▁[श्रीलंका": 8392,
      "▁संविधान](भारत": 8393,
      "▁खासकर": 8394,
      "▁मध्यप्रदेश": 8395,
      "▁५४": 8396,
      "](श्रीलंका": 8397,
      "▁४०": 8398,
      "▁ग्रंथ": 8399,
      "श्मीर)": 8400,
      "▁किनारे": 8401,
      "▁जयते": 8402,
      "▁उत्तरा": 8403,
      "▁१९९०": 8404,
      "▁१९९८": 8405,
      "▁गांधी)": 8406,
      "▁घाट)": 8407,
      "▁[विजयनगर": 8408,
      "▁[संसद": 8409,
      "ओडिस": 8410,
      "▁वरिष्ठ": 8411,
      "▁प्रभावित": 8412,
      "▁महासागर)": 8413,
      "](संसद": 8414,
      "▁[thumb|right|300": 8415,
      "▁पारंपरिक": 8416,
      "▁२००९": 8417,
      "▁[धर्म](धर्म": 8418,
      "left|": 8419,
      "align": 8420,
      "▁[गंगा](गंगा": 8421,
      "▁संबोध": 8422,
      "ection": 8423,
      "▁**भारत**": 8424,
      "▁महासागर](ह": 8425,
      "बिनेट": 8426,
      "▁पाषाण": 8427,
      "▁शब्द": 8428,
      "▁साम्राज्य](विजयनगर": 8429,
      "▁फायदा": 8430,
      "▁[इस्लाम](इस्लाम": 8431,
      "▁[श्रीलंका](श्रीलंका": 8432,
      "▁[thumb|right|300px|": 8433,
      "▁[श्रीलंका](श्रीलंका)": 8434,
      "%)": 8435,
      "(प": 8436,
      ")ने": 8437,
      ")च्या": 8438,
      ")ाने": 8439,
      ")पासून": 8440,
      ")तील": 8441,
      "-स": 8442,
      "-धी": 8443,
      ".c": 8444,
      ".मी.": 8445,
      "02": 8446,
      "64": 8447,
      "<c": 8448,
      "Hind": 8449,
      "_O": 8450,
      "_P": 8451,
      "_R": 8452,
      "_at": 8453,
      "ce_": 8454,
      "eas": 8455,
      "hatt": 8456,
      "i_M": 8457,
      "monsoon": 8458,
      "mother": 8459,
      "pos": 8460,
      "rd": 8461,
      "ukh": 8462,
      "ww.": 8463,
      "yes": 8464,
      "ंचे": 8465,
      "ंचा": 8466,
      "ंमध्ये": 8467,
      "ंजन": 8468,
      "अर": 8469,
      "अट्ट": 8470,
      "आश": 8471,
      "आर्": 8472,
      "उन": 8473,
      "ए)": 8474,
      "एयर": 8475,
      "ओस": 8476,
      "कल": 8477,
      "कले": 8478,
      "कथा": 8479,
      "काज": 8480,
      "कडे": 8481,
      "कांच्या": 8482,
      "खट": 8483,
      "खून": 8484,
      "खिल": 8485,
      "ख्न": 8486,
      "गळे": 8487,
      "गुप्त": 8488,
      "गळी": 8489,
      "गेटवे": 8490,
      "ग्ने": 8491,
      "घ्र": 8492,
      "चार": 8493,
      "चित": 8494,
      "चिव": 8495,
      "चस्व": 8496,
      "चंदी": 8497,
      "झे": 8498,
      "झिक,": 8499,
      "झांडर": 8500,
      "टल": 8501,
      "टने": 8502,
      "ठक": 8503,
      "ठित": 8504,
      "ठाण": 8505,
      "डॅ": 8506,
      "डॉ": 8507,
      "डी](": 8508,
      "डी)": 8509,
      "ढऱ्या": 8510,
      "णारा": 8511,
      "तू": 8512,
      "त्व": 8513,
      "तून": 8514,
      "तका": 8515,
      "तज्ञ": 8516,
      "थी": 8517,
      "थ्": 8518,
      "दाम": 8519,
      "दली": 8520,
      "दूर": 8521,
      "दांना": 8522,
      "दर्भ": 8523,
      "धर": 8524,
      "ध्यात": 8525,
      "धम्म": 8526,
      "नि": 8527,
      "नदी": 8528,
      "नचे": 8529,
      "निय": 8530,
      "नृत्य": 8531,
      "नंतर": 8532,
      "नियों": 8533,
      "पोल": 8534,
      "पाली": 8535,
      "पंथ": 8536,
      "फळ": 8537,
      "बन्": 8538,
      "बद्ध": 8539,
      "बाळ": 8540,
      "भय": 8541,
      "भुज": 8542,
      "भद्रा": 8543,
      "मल": 8544,
      "मि": 8545,
      "मवि": 8546,
      "मते": 8547,
      "म](स": 8548,
      "मूर": 8549,
      "ममाण": 8550,
      "मराव": 8551,
      "मडॉ": 8552,
      "यें": 8553,
      "रणा": 8554,
      "ऱ्यात": 8555,
      "ल्य": 8556,
      "लिस": 8557,
      "लंब": 8558,
      "लब्": 8559,
      "लवाद": 8560,
      "ळकार": 8561,
      "ळुरू": 8562,
      "ळपुरी": 8563,
      "वंग": 8564,
      "वली": 8565,
      "वली.": 8566,
      "शोक": 8567,
      "शक्ति": 8568,
      "शोध": 8569,
      "षवृतीय": 8570,
      "संप": 8571,
      "सीम": 8572,
      "संगीत": 8573,
      "सैनिक": 8574,
      "ाख": 8575,
      "ाभू": 8576,
      "ाक्षर": 8577,
      "ाबद्दल": 8578,
      "ापर्यंत": 8579,
      "ीकार": 8580,
      "ीकरण": 8581,
      "ुकार": 8582,
      "ुमार": 8583,
      "ुर्ग": 8584,
      "ूला": 8585,
      "ूजा": 8586,
      "ूबर": 8587,
      "ूनाइट": 8588,
      "ॅशन": 8589,
      "ॅडॅ": 8590,
      "ेप": 8591,
      "ेची": 8592,
      "ैद्रा": 8593,
      "ैर-": 8594,
      "ैथि": 8595,
      "ैमूर": 8596,
      "ॉक": 8597,
      "ॉर्ज": 8598,
      "ोले": 8599,
      "ोती": 8600,
      "ोटा": 8601,
      "ोचीन": 8602,
      "्हा": 8603,
      "३८": 8604,
      "४८": 8605,
      "६५": 8606,
      "८,": 8607,
      "९.": 8608,
      "‍ॅक": 8609,
      "▁ॠ": 8610,
      "▁०": 8611,
      "▁‘": 8612,
      "▁yes": 8613,
      "▁कप": 8614,
      "▁कले": 8615,
      "▁कटिबंध": 8616,
      "▁कटिबंधीय": 8617,
      "्ये": 8618,
      "्राम": 8619,
      "ारु": 8620,
      "ारंग": 8621,
      "ारीत": 8622,
      "ारसी": 8623,
      "▁सव": 8624,
      "▁सी": 8625,
      "▁सदी": 8626,
      "▁सारी": 8627,
      "▁सोबत": 8628,
      "▁सौहार": 8629,
      "▁पान": 8630,
      "▁परा": 8631,
      "▁पड़ा": 8632,
      "▁पंजाब": 8633,
      "▁पर्ज": 8634,
      "▁पंजाबी": 8635,
      "▁मना": 8636,
      "▁माम": 8637,
      "▁मील": 8638,
      "▁माग": 8639,
      "▁मही": 8640,
      "▁मिस": 8641,
      "▁मधील": 8642,
      "▁मूळ": 8643,
      "▁म्यु": 8644,
      "](१८": 8645,
      "](२००": 8646,
      "](त्रि": 8647,
      "](फ्रांस": 8648,
      "](ओडिशा": 8649,
      "▁[ऋ": 8650,
      "▁[त्रि": 8651,
      "▁[फ्रांस": 8652,
      "▁[थारचे": 8653,
      "▁[राजस्थान](राजस्थान": 8654,
      "▁हरा": 8655,
      "▁हत्या": 8656,
      "▁हाता": 8657,
      "▁हिन्दू": 8658,
      "▁भरा": 8659,
      "▁भित्त": 8660,
      "▁भवन)": 8661,
      "्याची": 8662,
      "्याचल": 8663,
      "▁व्य": 8664,
      "▁वाल": 8665,
      "▁वने": 8666,
      "▁व्ह": 8667,
      "र्फ": 8668,
      "र्ज़": 8669,
      "र्बट": 8670,
      "▁आत": 8671,
      "▁आर": 8672,
      "▁आला": 8673,
      "▁आद्र": 8674,
      "▁आते": 8675,
      "▁आंद": 8676,
      "▁आली.": 8677,
      "▁आला.": 8678,
      "▁आघा": 8679,
      "▁अत्य": 8680,
      "▁अच्छ": 8681,
      "▁अंग्रेजी": 8682,
      "▁अणु": 8683,
      "▁अक्ट": 8684,
      "▁अरावली": 8685,
      "▁अ‍ॅक": 8686,
      "ातार": 8687,
      "ात्यांचे": 8688,
      "▁भारतभर": 8689,
      "▁भारत)ात": 8690,
      "▁केला.": 8691,
      "ानी": 8692,
      "ानुसार": 8693,
      "ानपूर": 8694,
      "ान्स": 8695,
      "ानिप": 8696,
      "▁नष्ट": 8697,
      "▁नंतर": 8698,
      "ेंट": 8699,
      "राथ": 8700,
      "राणे": 8701,
      "▁जम": 8702,
      "▁जन्": 8703,
      "▁जवा": 8704,
      "▁जाग": 8705,
      "▁जुन": 8706,
      "▁ज्ञान": 8707,
      "▁जम्मू": 8708,
      "▁जवान": 8709,
      "▁जॉर्ज": 8710,
      "▁दिले": 8711,
      "▁दर्ज़": 8712,
      "▁प्रेम": 8713,
      "▁प्रवर्तन": 8714,
      "्तीय": 8715,
      "्त्व": 8716,
      "ालया": 8717,
      "ालचि": 8718,
      "▁बद": 8719,
      "▁बि": 8720,
      "▁बरी": 8721,
      "▁ब्रे": 8722,
      "▁बोल": 8723,
      "▁बिन": 8724,
      "▁तब": 8725,
      "▁ती": 8726,
      "▁त्यांची": 8727,
      "▁त्यांचा": 8728,
      "▁है:": 8729,
      "ांवि": 8730,
      "ांद्र": 8731,
      "ांदू": 8732,
      "ांसाठी": 8733,
      "ांपासून": 8734,
      "ांढऱ्या": 8735,
      "ित्रे": 8736,
      "▁काय": 8737,
      "▁काबी": 8738,
      "▁काश्म": 8739,
      "▁कासीम": 8740,
      "ोंद": 8741,
      "ों](": 8742,
      "ों](भारत": 8743,
      "▁गा": 8744,
      "▁ग्रे": 8745,
      "▁गोल": 8746,
      "▁गंगे": 8747,
      "▁गाँ": 8748,
      "▁गिधाड": 8749,
      "▁गैर-": 8750,
      "स्कर": 8751,
      "स्थित": 8752,
      "▁शाम": 8753,
      "▁शिर": 8754,
      "▁शेष": 8755,
      "▁शिख": 8756,
      "▁शिवाजी": 8757,
      "ंगल": 8758,
      "ंगभद्रा": 8759,
      "ंगळुरू": 8760,
      "ेश्व": 8761,
      "ेशियर": 8762,
      "ासदांना": 8763,
      "लेले": 8764,
      "लेक्": 8765,
      "▁उड़ी": 8766,
      "▁उर्वर": 8767,
      "ामित्र": 8768,
      "ामधील": 8769,
      "ियाचीन": 8770,
      "▁इन्": 8771,
      "▁इंद्र": 8772,
      "▁इण्ड": 8773,
      "▁इ.स.": 8774,
      "▁इंग्लिश": 8775,
      "▁इंदिरा": 8776,
      "▁इतका": 8777,
      "्वार": 8778,
      "▁संदर्भ": 8779,
      "▁संशोध": 8780,
      "क्षद्वीप": 8781,
      "क्षलवाद": 8782,
      "▁विद्र": 8783,
      "लीन": 8784,
      "▁यातील": 8785,
      "▁यद्य": 8786,
      "▁यानंतर": 8787,
      "▁यशस्वी": 8788,
      "▁एन": 8789,
      "▁राज्यांच्या": 8790,
      "▁राज्यांमध्ये": 8791,
      "न्ट": 8792,
      "न्ही": 8793,
      "न्हा": 8794,
      "▁है।,": 8795,
      "▁रख": 8796,
      "▁री": 8797,
      "▁रु": 8798,
      "▁रूस": 8799,
      "▁रखा": 8800,
      "▁रममाण": 8801,
      "▁लुप्त": 8802,
      "▁लुट": 8803,
      "▁(2": 8804,
      "▁(चित्र": 8805,
      "▁(०,": 8806,
      "▁(हिन्दी": 8807,
      "▁याच": 8808,
      "▁याचा": 8809,
      "▁यासाठी": 8810,
      "▁चा": 8811,
      "▁चे": 8812,
      "▁चौ": 8813,
      "▁चली": 8814,
      "▁चांग": 8815,
      "सेतू": 8816,
      "ाज्या": 8817,
      "▁होय": 8818,
      "▁होने": 8819,
      "ेतही": 8820,
      "विन": 8821,
      "र्मण": 8822,
      "▁भारतीयों": 8823,
      "रीन": 8824,
      "द्दु": 8825,
      "ाव्या": 8826,
      "ियस": 8827,
      "ियातील": 8828,
      "कारी": 8829,
      "िमा": 8830,
      "िल्म": 8831,
      "▁एकच": 8832,
      "▁एका": 8833,
      "▁एकनाथ": 8834,
      "तिखट": 8835,
      "तीत": 8836,
      "तीसरी": 8837,
      "▁समज": 8838,
      "▁सम्म": 8839,
      "ागृह": 8840,
      "▁धड": 8841,
      "▁धरत": 8842,
      "ही.": 8843,
      "▁स्टा": 8844,
      "▁हैं:\n": 8845,
      "द्धा": 8846,
      "▁देशात": 8847,
      "▁देशाचे": 8848,
      "▁देशांमध्ये": 8849,
      "ड़ियाँ": 8850,
      "ुरत": 8851,
      "ुरंग": 8852,
      "ुरोप": 8853,
      "त्तरा": 8854,
      "▁साडी": 8855,
      "▁साक्षर": 8856,
      "िंदी": 8857,
      "▁असा": 8858,
      "▁असणे": 8859,
      "ंडळ": 8860,
      "▁जातो.\n": 8861,
      "धिकार": 8862,
      "हा:": 8863,
      "हाभारत": 8864,
      "▁वर्तु": 8865,
      "▁वर्गी": 8866,
      "▁वर्चस्व": 8867,
      "चाई": 8868,
      "्यांपैकी": 8869,
      "्यांपेक्षा": 8870,
      "▁आहेत,": 8871,
      "▁[समुद्र": 8872,
      "▁[सूचना": 8873,
      "▁[सह्याद्र": 8874,
      "▁[सिक्की": 8875,
      "](सात": 8876,
      "](समुद्र": 8877,
      "](सम्राट": 8878,
      "पाट": 8879,
      "पाठ": 8880,
      "धानिक": 8881,
      "धान्ये": 8882,
      "▁घरे": 8883,
      "▁मुख": 8884,
      "▁मुलग": 8885,
      "▁मुंबई": 8886,
      "▁राज्यक": 8887,
      "▁राष्ट्रपति": 8888,
      "▁धर्मों": 8889,
      "प्रमाण": 8890,
      "प्रकल्प": 8891,
      "▁झाल्यानंतर": 8892,
      "साई": 8893,
      "▁क्षेत्रात": 8894,
      "▁क्षेत्र)\n": 8895,
      "▁क्षेत्रामध्ये": 8896,
      "▁क्षेत्र](श्रेणी:": 8897,
      "](म्यानमार": 8898,
      "▁[म्यानमार": 8899,
      "▁[मराठा": 8900,
      "▁१९२०": 8901,
      "▁१९१३": 8902,
      "▁वाट": 8903,
      "▁२.": 8904,
      "▁इसवी": 8905,
      "ार्ध": 8906,
      "ार्जार": 8907,
      "▁वर्षे": 8908,
      "ोगल": 8909,
      "▁साम्राज्यांची": 8910,
      "▁साम्राज्याच्या": 8911,
      "ी](ज": 8912,
      "▁प्रदेशों": 8913,
      "▁प्रदेशांत": 8914,
      "▁प्रदेश)),": 8915,
      "▁प्रदेश](उत्तर": 8916,
      "▁मोर्": 8917,
      "▁मानव": 8918,
      "▁मान्य": 8919,
      "▁मानला": 8920,
      "▁मानले": 8921,
      "▁[बांगलादेश": 8922,
      "▁बाह्य": 8923,
      "▁2020": 8924,
      "▁स्वाय": 8925,
      "▁स्वीकार": 8926,
      "▁[अरबी": 8927,
      "▁[अंग्रेज": 8928,
      "▁साम्राज्ये": 8929,
      "▁साम्राज्यों": 8930,
      "▁साम्राज्य](चोल": 8931,
      "करसं": 8932,
      "▁*ज": 8933,
      "▁*आर्": 8934,
      "](बांगलादेश": 8935,
      "ांतर": 8936,
      "पट))": 8937,
      "▁दक्षिणेतील": 8938,
      "▁दक्षिण-पश्चिम": 8939,
      "दाय": 8940,
      "दाबाद": 8941,
      "ाला.": 8942,
      "ंबळपुरी": 8943,
      "▁बहुसंख्य": 8944,
      "▁सरकार\n": 8945,
      "▁सरकारों": 8946,
      "वरात्र": 8947,
      "uman": 8948,
      "पुडा": 8949,
      "▁पुराव": 8950,
      "▁पुलिस": 8951,
      "▁पुन्हा": 8952,
      "▁उपप्रकार": 8953,
      "▁उपलब्": 8954,
      "ीतील": 8955,
      "▁जनगण": 8956,
      "ंध्याचल": 8957,
      "णिज्य": 8958,
      "वेयर": 8959,
      "वेगळे": 8960,
      "्हैस": 8961,
      "्हपुत्र": 8962,
      "▁फळ": 8963,
      "▁फ़": 8964,
      "▁फुट": 8965,
      "▁फाळ": 8966,
      "त्रपती": 8967,
      "त्रीया": 8968,
      "▁[इतिहास": 8969,
      "▁[इंडिया": 8970,
      "▁[इराण": 8971,
      "▁[इ.स.": 8972,
      "▁तेथे": 8973,
      "▁नदी](सरस्वती": 8974,
      "ंपी)": 8975,
      "ंपी](ह": 8976,
      "](गुजरात": 8977,
      "▁दोन्ही": 8978,
      "](अरबी": 8979,
      "ल्ल": 8980,
      "▁लोकसंख्ये": 8981,
      "▁लोकशाही": 8982,
      "▁शिकारी": 8983,
      "▁पाठी": 8984,
      "▁गया,": 8985,
      "▁साथ,": 8986,
      "राज्य](": 8987,
      "▁वेढ": 8988,
      "▁वेद": 8989,
      "▁वेळा": 8990,
      "▁चित्रपटाला": 8991,
      "▁चित्रपटांची": 8992,
      "▁जिसने": 8993,
      "▁जिसकी": 8994,
      "▁थंड": 8995,
      "▁थारचे": 8996,
      "▁प्राचीनतम": 8997,
      "▁विशाल": 8998,
      "मान्य": 8999,
      "▁[हिन्दू": 9000,
      "▁[हिंदू": 9001,
      "▁[हंपी](ह": 9002,
      "ज़ी": 9003,
      "त्याने": 9004,
      "संस्कृत": 9005,
      "▁बनला": 9006,
      "▁बनने": 9007,
      "▁बनली": 9008,
      "ीमंडळ": 9009,
      "▁कारभार": 9010,
      "▁येणारे": 9011,
      "क्रांत": 9012,
      "▁प्रकारात": 9013,
      "▁प्रकारची": 9014,
      "▁डालर": 9015,
      "▁डान्स": 9016,
      "▁नामशेष": 9017,
      "▁त्याची": 9018,
      "▁त्यासाठी": 9019,
      "▁लिह": 9020,
      "ाष्ट्रीय": 9021,
      "isgar": 9022,
      "▁अपेक्षा": 9023,
      "▁असेही": 9024,
      "▁नावाची": 9025,
      "▁नृत्यप्रकार": 9026,
      "▁उत्तर-पूर्व": 9027,
      "ारा)": 9028,
      "](इतिहास": 9029,
      "](इंडिया": 9030,
      "](इराण": 9031,
      "](इ.स.": 9032,
      "ांधी": 9033,
      "▁[thumb|270px|": 9034,
      "मारास": 9035,
      "ायली": 9036,
      "ायोस्": 9037,
      "▁केंद्रीय": 9038,
      "▁केंद्रित": 9039,
      "ांगडा": 9040,
      "▁झालेली": 9041,
      "▁शिक्षणाच्या": 9042,
      "▁शिक्षणपद्धती": 9043,
      "▁21": 9044,
      "▁24": 9045,
      "▁सुधारण": 9046,
      "▁सुलत": 9047,
      "▁सुद्धा": 9048,
      "▁सुमारास": 9049,
      "▁संग्राम": 9050,
      "▁पहली": 9051,
      "▁पहिला": 9052,
      "▁पहाता": 9053,
      "▁ऑस्कर": 9054,
      "▁युद्ध),": 9055,
      "▁लेण": 9056,
      "▁किनाऱ्या": 9057,
      "▁कि.मी.": 9058,
      "▁दिल्ली)": 9059,
      "▁दिल्लीतील": 9060,
      "▁इतिहासातील": 9061,
      "▁संस्कृती,": 9062,
      "▁संस्कृतीची": 9063,
      "▁संस्कृती](सिंधू": 9064,
      "](भारताच्या": 9065,
      "▁[शिख": 9066,
      "▁ब्रिटिशकालीन": 9067,
      "▁ब्रिटिशांवि": 9068,
      "ोरोनेश": 9069,
      "▁मिळाला.": 9070,
      "▁प्राणी)": 9071,
      "▁प्राण्यांच्या": 9072,
      "▁प्राण्यांमध्ये": 9073,
      "▁हवामान)": 9074,
      "▁हवामान),": 9075,
      "▁हवामान](वि": 9076,
      "](चित्र:R": 9077,
      "](चित्र:India": 9078,
      "▁आजही": 9079,
      "तिशील": 9080,
      "▁छह": 9081,
      "▁छत्तीस": 9082,
      "▁([म": 9083,
      "▁([ओडिशा": 9084,
      "पेन": 9085,
      "▁५०": 9086,
      "▁2012": 9087,
      "▁2014": 9088,
      "तुगी": 9089,
      "तुंगभद्रा": 9090,
      "▁पश्चिमेकडे": 9091,
      "](ज्ञान": 9092,
      "](जम्मू": 9093,
      "](जगातील": 9094,
      "▁[ज्ञान": 9095,
      "▁[जम्मू": 9096,
      "▁चुकी": 9097,
      "▁हुआ,": 9098,
      "डे,": 9099,
      "भूमी": 9100,
      "▁केले.": 9101,
      "▁केलेल्या": 9102,
      "▁संघ)": 9103,
      "▁होते.\n": 9104,
      "वन](गोंड": 9105,
      "▁महिन": 9106,
      "▁मह्त्व": 9107,
      "ुजराथ": 9108,
      "](आशिया": 9109,
      "▁हिंदु": 9110,
      "▁नदियों": 9111,
      "▁जगात": 9112,
      "▁जाते.\n": 9113,
      "▁थी,": 9114,
      "▁पठार](द": 9115,
      "▁पठारावरील": 9116,
      "andmother": 9117,
      "urpos": 9118,
      "▁बढ़ने": 9119,
      "▁ऊर्जा": 9120,
      "▁पक्षी": 9121,
      "म्मद": 9122,
      "▁कमाली": 9123,
      "▁धर्म)ाचा": 9124,
      "▁आपल्या": 9125,
      "▁बदलांमुळे": 9126,
      "न्नड": 9127,
      "ीचित्रे": 9128,
      "▁माश": 9129,
      "▁बनाया": 9130,
      "▁सेनाओं": 9131,
      "▁लगातार": 9132,
      "▁स्थिति": 9133,
      "▁हुए,": 9134,
      "▁न्यायाधीश": 9135,
      "ंचल": 9136,
      "▁कालीन": 9137,
      "▁प्रांताचे": 9138,
      "▁साम्राज्य)ाची": 9139,
      "▁समुद्र](अरबी": 9140,
      "▁किनार": 9141,
      "▁सह्याद्र": 9142,
      "▁पार्क": 9143,
      "▁वैविध्य": 9144,
      "▁लागते.": 9145,
      "▁map": 9146,
      "▁१२.६": 9147,
      "▁सभी": 9148,
      "▁सभासदांना": 9149,
      "▁सभागृह": 9150,
      "▁पडतो": 9151,
      "▁महाखंड": 9152,
      "▁अजनाभ": 9153,
      "▁कामकाज": 9154,
      "▁असलेला": 9155,
      "▁असलेल्या": 9156,
      "▁1960": 9157,
      "▁1962": 9158,
      "▁1965,": 9159,
      "▁काळातच": 9160,
      "▁[उत्तर": 9161,
      "▁2008": 9162,
      "▁उदाहरणे": 9163,
      "ीयांचे": 9164,
      "▁purpos": 9165,
      "▁मिलियन": 9166,
      "▁अवधि": 9167,
      "▁अवलंब": 9168,
      "▁नागपूर": 9169,
      "राष्ट्रपति": 9170,
      "▁जाऊ": 9171,
      "ांसोबत": 9172,
      "▁घेऊ": 9173,
      "▁घेण्यात": 9174,
      "▁अन्तर्": 9175,
      "▁अन्ततः": 9176,
      "दिवाळ": 9177,
      "▁\"स": 9178,
      "▁स्थानिक्": 9179,
      "▁विद्यार्थ्यांची": 9180,
      "टिपू": 9181,
      "▁महाराष्ट्रातील": 9182,
      "▁आकर्मण": 9183,
      "▁बंगालच्या": 9184,
      "▁बंगाल](पश्चिम": 9185,
      "▁जयंती](": 9186,
      "▁जयंती)": 9187,
      "ख्ख्न": 9188,
      "ग्री": 9189,
      "द्याने": 9190,
      "▁सोवियत": 9191,
      "▁नीले": 9192,
      "▁नीचे": 9193,
      "▁बांधले": 9194,
      "▁बांधली": 9195,
      "▁बांधून": 9196,
      "▁उनका": 9197,
      "▁इमारती": 9198,
      "पुरी,": 9199,
      "▁वेगवेगळे": 9200,
      "▁गेट)": 9201,
      "▁गेट](इंडिया": 9202,
      "▁ओळखला": 9203,
      "▁निवडले": 9204,
      "▁रोखून": 9205,
      "▁रोवली": 9206,
      "▁[संस्कृत": 9207,
      "▁[संयुक्त": 9208,
      "▁सकता": 9209,
      "▁सकते": 9210,
      "▁वरळी": 9211,
      "▁वारसा": 9212,
      "▁प्रभावशाली": 9213,
      "▁महासागरात": 9214,
      "वृत्तीय": 9215,
      "ापूजा": 9216,
      "▁आशियाई": 9217,
      "▁गंगाधर": 9218,
      "▁यादी)": 9219,
      "](संस्कृत": 9220,
      "](संयुक्त": 9221,
      "▁वाघ,": 9222,
      ".0–": 9223,
      "वार्षिक": 9224,
      "▁$2": 9225,
      "▁हिमनदी": 9226,
      "▁हिमालया": 9227,
      "▁तमिळ": 9228,
      "▁कार्यपालिका": 9229,
      "▁स्मारकावरून": 9230,
      "ैसुरू": 9231,
      "▁हरिश्च": 9232,
      "▁आगे": 9233,
      "▁प्रदर्शन": 9234,
      "स्लमडॉ": 9235,
      "▁पावली": 9236,
      "▁आणली.": 9237,
      "ेंद्रशासित": 9238,
      "▁प्रौद्योगिकी)": 9239,
      "▁तिसरे": 9240,
      "▁इंग्रजी": 9241,
      "▁करतात.\n": 9242,
      "त्त्वज्ञान": 9243,
      "▁घडल्या": 9244,
      "▁वाळवंट)": 9245,
      "▁२००४": 9246,
      "▁२०११": 9247,
      "▁२०१४": 9248,
      "▁थे।": 9249,
      "▁स्वातंत्र्यदिवस": 9250,
      "▁स्वातंत्र्यप्राप्त": 9251,
      "ख्खनचे": 9252,
      "▁वैशिष्ट्ये": 9253,
      "▁पहाड़ी": 9254,
      "▁मंत्रिमण्डल": 9255,
      "▁मंत्रीमंडळ": 9256,
      "▁शहरों": 9257,
      "ावेरी": 9258,
      "▁ड्राम": 9259,
      "▁क्रमांक": 9260,
      "थकल्ली": 9261,
      "फेअर": 9262,
      "▁पासून": 9263,
      "▁केन्द्रशासित": 9264,
      "▁ज़्या": 9265,
      "▁प्रारम्भिक": 9266,
      "▁बैंक": 9267,
      "▁बैठक": 9268,
      "▁सेवाओं": 9269,
      "▁१६३८": 9270,
      "▁१६४८": 9271,
      "▁निभाई।": 9272,
      "▁1980": 9273,
      "▁स्वरूपात": 9274,
      "▁ऊँचाई": 9275,
      "वैधानिक": 9276,
      "व्याघ्र": 9277,
      "हानदी": 9278,
      "िलेला": 9279,
      "्रम्हपुत्र": 9280,
      "▁नाही.": 9281,
      "▁बंदर": 9282,
      "▁निर्भर": 9283,
      "grandmother": 9284,
      "येन्स": 9285,
      "▁hist": 9286,
      "▁कडधान्ये": 9287,
      "▁नमूद": 9288,
      "▁तीसरी": 9289,
      "▁गोवा": 9290,
      "स्थापत्य": 9291,
      "नागपूर": 9292,
      "वाहन": 9293,
      "▁सम्पूर्ण": 9294,
      "▁निर्यात": 9295,
      "](मोहेंजोदडो": 9296,
      "▁फैला": 9297,
      "▁पुरुषों": 9298,
      "▁वन्यसंप": 9299,
      "▁धीरे-धी": 9300,
      "▁हिल्स,": 9301,
      "द्वारे": 9302,
      "ोजपुरी,": 9303,
      "▁Eng": 9304,
      "▁पसंती": 9305,
      "▁हस्ताक्षर": 9306,
      "▁दलदली": 9307,
      "▁प्रणाली": 9308,
      "▁तुलना": 9309,
      "▁उदयास": 9310,
      "▁उभरा": 9311,
      "_Indian": 9312,
      "बट्या": 9313,
      "ळ](केर": 9314,
      "षुववृतीय": 9315,
      "षुववृत्तीय": 9316,
      "ोर्तुगी": 9317,
      "▁ॲण्ड": 9318,
      "▁भावार्थ": 9319,
      "▁अशियाई": 9320,
      "▁नियु": 9321,
      "रामाय": 9322,
      "▁जवळपास": 9323,
      "▁होत्या.": 9324,
      "▁असतो.": 9325,
      "▁असल्याने": 9326,
      "▁असल्याची": 9327,
      "▁वर्णन": 9328,
      "केरळ](केर": 9329,
      "▁[महाराष्ट्र](महाराष्ट्र),": 9330,
      "▁भाषाएँ\n": 9331,
      "▁पदार्थांचा": 9332,
      "▁महत्त्वाच्या": 9333,
      "▁येते.": 9334,
      "▁उपसागराला": 9335,
      "▁उपसागरा](बंगालचा": 9336,
      "िक्कीम)": 9337,
      "▁इंग्रजांनी": 9338,
      "▁प्रजासत्ताक": 9339,
      "▁प्रजासत्ताक,": 9340,
      "िनीअट्ट": 9341,
      "▁Fort": 9342,
      "▁कृषि": 9343,
      "▁आदर्श": 9344,
      "▁ज्योती": 9345,
      "▁बाबतीत": 9346,
      "▁साम्राज्य](मराठा": 9347,
      "enter>": 9348,
      "चंद्रगुप्त": 9349,
      "श्वामित्र": 9350,
      "शास्त्रातील": 9351,
      "हमदाबाद": 9352,
      "ी](सह्याद्र": 9353,
      "ेनका": 9354,
      "५.८": 9355,
      "▁पहुँच": 9356,
      "▁भारत-पाकिस्तान": 9357,
      "▁दौरान": 9358,
      "▁विरोध": 9359,
      "▁लड़ाकू": 9360
    },
    "merges": [
      [
        "a",
        "n"
      ],
      [
        "i",
        "n"
      ],
      [
        "t",
        "h"
      ],
      [
        "e",
        "r"
      ],
      [
        "o",
        "n"
      ],
      [
        "▁",
        "th"
      ],
      [
        "a",
        "l"
      ],
      [
        "▁th",
        "e"
      ],
      [
        "d",
        "i"
      ],
      [
        "e",
        "n"
      ],
      [
        "s",
        "t"
      ],
      [
        "a",
        "r"
      ],
      [
        "]",
        "("
      ],
      [
        "▁",
        "["
      ],
      [
        "a",
        "t"
      ],
      [
        "▁",
        "o"
      ],
      [
        "I",
        "n"
      ],
      [
        "r",
        "e"
      ],
      [
        "▁o",
        "f"
      ],
      [
        "In",
        "di"
      ],
      [
        "an",
        "d"
      ],
      [
        "▁",
        "in"
      ],
      [
        "e",
        "d"
      ],
      [
        "o",
        "r"
      ],
      [
        "▁",
        "c"
      ],
      [
        "▁",
        "Indi"
      ],
      [
        "i",
        "on"
      ],
      [
        "e",
        "s"
      ],
      [
        "i",
        "c"
      ],
      [
        "▁",
        "and"
      ],
      [
        "i",
        "t"
      ],
      [
        "▁",
        "w"
      ],
      [
        "▁",
        "s"
      ],
      [
        "l",
        "e"
      ],
      [
        "▁",
        "t"
      ],
      [
        "▁",
        "a"
      ],
      [
        "▁Indi",
        "a"
      ],
      [
        "en",
        "t"
      ],
      [
        "i",
        "s"
      ],
      [
        "▁",
        "b"
      ],
      [
        "▁",
        "p"
      ],
      [
        "▁",
        "\n"
      ],
      [
        "▁",
        "m"
      ],
      [
        "▁",
        "f"
      ],
      [
        "in",
        "g"
      ],
      [
        "a",
        "s"
      ],
      [
        "o",
        "m"
      ],
      [
        "o",
        "u"
      ],
      [
        "▁",
        "l"
      ],
      [
        "r",
        "i"
      ],
      [
        "▁",
        "e"
      ],
      [
        "a",
        "m"
      ],
      [
        ")",
        ","
      ],
      [
        "i",
        "l"
      ],
      [
        "▁t",
        "o"
      ],
      [
        "▁",
        "T"
      ],
      [
        "▁",
        "h"
      ],
      [
        "u",
        "r"
      ],
      [
        "▁",
        "1"
      ],
      [
        "▁",
        "d"
      ],
      [
        "i",
        "g"
      ],
      [
        "o",
        "l"
      ],
      [
        "r",
        "a"
      ],
      [
        "at",
        "ion"
      ],
      [
        "▁",
        "A"
      ],
      [
        "l",
        "y"
      ],
      [
        "e",
        "c"
      ],
      [
        "▁",
        "re"
      ],
      [
        "▁",
        "g"
      ],
      [
        "▁",
        "S"
      ],
      [
        "e",
        "m"
      ],
      [
        "v",
        "er"
      ],
      [
        "i",
        "st"
      ],
      [
        "▁",
        "C"
      ],
      [
        "h",
        "e"
      ],
      [
        "g",
        "e"
      ],
      [
        "▁",
        "n"
      ],
      [
        "u",
        "l"
      ],
      [
        "at",
        "e"
      ],
      [
        "u",
        "t"
      ],
      [
        "▁",
        "-"
      ],
      [
        "c",
        "e"
      ],
      [
        "r",
        "o"
      ],
      [
        "▁",
        "st"
      ],
      [
        "an",
        "g"
      ],
      [
        "u",
        "s"
      ],
      [
        "▁",
        "|"
      ],
      [
        "a",
        "d"
      ],
      [
        "▁",
        "2"
      ],
      [
        "c",
        "h"
      ],
      [
        "i",
        "m"
      ],
      [
        "a",
        "st"
      ],
      [
        "c",
        "t"
      ],
      [
        "e",
        "l"
      ],
      [
        "e",
        "t"
      ],
      [
        "▁-",
        "\n"
      ],
      [
        "u",
        "n"
      ],
      [
        ")",
        "."
      ],
      [
        "▁b",
        "y"
      ],
      [
        "i",
        "v"
      ],
      [
        "▁T",
        "he"
      ],
      [
        "▁",
        "B"
      ],
      [
        "▁",
        "P"
      ],
      [
        "▁",
        "is"
      ],
      [
        "i",
        "d"
      ],
      [
        "▁",
        "ar"
      ],
      [
        "▁",
        "M"
      ],
      [
        "▁Indi",
        "an"
      ],
      [
        "u",
        "m"
      ],
      [
        "i",
        "r"
      ],
      [
        "x",
        "t"
      ],
      [
        "▁",
        "N"
      ],
      [
        "i",
        "th"
      ],
      [
        "s",
        ","
      ],
      [
        "o",
        "w"
      ],
      [
        "ig",
        "n"
      ],
      [
        "a",
        "k"
      ],
      [
        "d",
        "u"
      ],
      [
        "o",
        "p"
      ],
      [
        "▁1",
        "9"
      ],
      [
        "'",
[...]
