{
  "version": "1.0",
  "truncation": null,
  "padding": null,
  "added_tokens": [],
  "normalizer": {
    "type": "NFKC"
  },
  "pre_tokenizer": {
    "type": "Metaspace",
    "replacement": "▁",
    "prepend_scheme": "always",
    "split": true
  },
  "post_processor": null,
  "decoder": {
    "type": "Metaspace",
    "replacement": "▁",
    "prepend_scheme": "always",
    "split": true
  },
  "model": {
    "type": "BPE",
    "dropout": null,
    "unk_token": "[UNK]",
    "continuing_subword_prefix": null,
    "end_of_word_suffix": null,
    "fuse_unk": false,
    "byte_fallback": false,
    "ignore_merges": false,
    "vocab": {
      "[UNK]": 0,
      "\n": 1,
      "!": 2,
      "\"": 3,
      "#": 4,
      "$": 5,
      "%": 6,
      "&": 7,
      "'": 8,
      "(": 9,
      ")": 10,
      "*": 11,
      "+": 12,
      ",": 13,
      "-": 14,
      ".": 15,
      "/": 16,
      "0": 17,
      "1": 18,
      "2": 19,
      "3": 20,
      "4": 21,
      "5": 22,
      "6": 23,
      "7": 24,
      "8": 25,
      "9": 26,
      ":": 27,
      ";": 28,
      "<": 29,
      "=": 30,
      "?": 31,
      "A": 32,
      "B": 33,
      "C": 34,
      "D": 35,
      "E": 36,
      "F": 37,
      "G": 38,
      "H": 39,
      "I": 40,
      "J": 41,
      "K": 42,
      "L": 43,
      "M": 44,
      "N": 45,
      "O": 46,
      "P": 47,
      "Q": 48,
      "R": 49,
      "S": 50,
      "T": 51,
      "U": 52,
      "V": 53,
      "W": 54,
      "X": 55,
      "Y": 56,
      "Z": 57,
      "[": 58,
      "\\": 59,
      "]": 60,
      "_": 61,
      "`": 62,
      "a": 63,
      "b": 64,
      "c": 65,
      "d": 66,
      "e": 67,
      "f": 68,
      "g": 69,
      "h": 70,
      "i": 71,
      "j": 72,
      "k": 73,
      "l": 74,
      "m": 75,
      "n": 76,
      "o": 77,
      "p": 78,
      "q": 79,
      "r": 80,
      "s": 81,
      "t": 82,
      "u": 83,
      "v": 84,
      "w": 85,
      "x": 86,
      "y": 87,
      "z": 88,
      "{": 89,
      "|": 90,
      "}": 91,
      "~": 92,
      "°": 93,
      "Ö": 94,
      "á": 95,
      "â": 96,
      "æ": 97,
      "ç": 98,
      "é": 99,
      "í": 100,
      "ö": 101,
      "ü": 102,
      "ā": 103,
      "ī": 104,
      "İ": 105,
      "Ś": 106,
      "ś": 107,
      "ū": 108,
      "ș": 109,
      "ə": 110,
      "ɦ": 111,
      "ɪ": 112,
      "ɾ": 113,
      "ʊ": 114,
      "ʼ": 115,
      "ˈ": 116,
      "ː": 117,
      "ί": 118,
      "α": 119,
      "δ": 120,
      "θ": 121,
      "ν": 122,
      "π": 123,
      "ς": 124,
      "ό": 125,
      "ṅ": 126,
      "ṇ": 127,
      "Ṛ": 128,
      "ṣ": 129,
      "ṭ": 130,
      "Ἰ": 131,
      "‎": 132,
      "–": 133,
      "—": 134,
      "•": 135,
      "′": 136,
      "⁡": 137,
      "₹": 138,
      "↑": 139,
      "−": 140,
      "▁": 141,
      "﻿": 142,
      "ia": 143,
      "wi": 144,
      "ki": 145,
      "wiki": 146,
      "dia": 147,
      "en": 148,
      "or": 149,
      "pe": 150,
      "tt": 151,
      "](": 152,
      "ps": 153,
      "htt": 154,
      ":/": 155,
      "://": 156,
      "https": 157,
      "https://": 158,
      "](https://": 159,
      "in": 160,
      "an": 161,
      "g/": 162,
      ".or": 163,
      ".org/": 164,
      "▁[": 165,
      "pedia": 166,
      "In": 167,
      ".wiki": 168,
      ".org/wiki": 169,
      ".org/wiki/": 170,
      "](https://en": 171,
      "](https://en.wiki": 172,
      "](https://en.wikipedia": 173,
      "](https://en.wikipedia.org/wiki/": 174,
      "te": 175,
      "on": 176,
      "India": 177,
      "th": 178,
      "er": 179,
      "▁\"": 180,
      "ti": 181,
      "\")": 182,
      "al": 183,
      "ar": 184,
      "es": 185,
      "20": 186,
      "of": 187,
      "is": 188,
      "the": 189,
      "re": 190,
      "▁the": 191,
      "and": 192,
      "▁of": 193,
      "om": 194,
      "](https://en.wikipedia.org/wiki/India": 195,
      "ou": 196,
      "as": 197,
      "ci": 198,
      "](https://en.wikipedia.org/wiki/India#": 199,
      "ri": 200,
      "▁-": 201,
      "ed": 202,
      "tion": 203,
      "▁India": 204,
      "▁in": 205,
      "te_": 206,
      "ic": 207,
      "le": 208,
      "cite_": 209,
      "](https://en.wikipedia.org/wiki/India#cite_": 210,
      "oo": 211,
      "ra": 212,
      "OT": 213,
      "ch": 214,
      "▁s": 215,
      "201": 216,
      "▁and": 217,
      "ent": 218,
      "▁p": 219,
      "it": 220,
      "id": 221,
      "▁(": 222,
      "19": 223,
      "am": 224,
      "▁A": 225,
      "▁c": 226,
      "-0": 227,
      "▁f": 228,
      "ing": 229,
      "et": 230,
      "▁|": 231,
      "ation": 232,
      "us": 233,
      "ook": 234,
      "iv": 235,
      "ol": 236,
      "at": 237,
      "ate": 238,
      "▁S": 239,
      "▁b": 240,
      ").": 241,
      "no": 242,
      "▁t": 243,
      "▁C": 244,
      "▁m": 245,
      "200": 246,
      "ist": 247,
      "ad": 248,
      "ag": 249,
      "ur": 250,
      "ang": 251,
      "il": 252,
      "78": 253,
      "ref": 254,
      "ce": 255,
      "▁w": 256,
      "te-": 257,
      "▁P": 258,
      "[[": 259,
      "]](https://en.wikipedia.org/wiki/India#cite_": 260,
      "](https://en.wikipedia.org/wiki/India#cite_ref": 261,
      "note-": 262,
      "]](https://en.wikipedia.org/wiki/India#cite_note-": 263,
      "](https://en.wikipedia.org/wiki/India#cite_ref-": 264,
      "ial": 265,
      "_India": 266,
      "_of": 267,
      "el": 268,
      "Sou": 269,
      "ig": 270,
      "-1": 271,
      "ul": 272,
      "▁1": 273,
      "um": 274,
      "▁d": 275,
      "IS": 276,
      "Th": 277,
      "FO": 278,
      "ro": 279,
      "978": 280,
      "NOT": 281,
      "ion": 282,
      "OTNOT": 283,
      "FOOTNOT": 284,
      "FOOTNOTE": 285,
      "ter": 286,
      "▁l": 287,
      "BN": 288,
      "ISBN": 289,
      "em": 290,
      "▁a": 291,
      "▁R": 292,
      "fi": 293,
      "▁M": 294,
      "ers": 295,
      "enti": 296,
      "un": 297,
      "▁to": 298,
      ".\n": 299,
      "cial": 300,
      "st": 301,
      "com": 302,
      "▁India\")": 303,
      "er)": 304,
      "ces": 305,
      "identi": 306,
      "identifi": 307,
      "identifier)": 308,
      "▁h": 309,
      "▁B": 310,
      "res": 311,
      "The": 312,
      "tic": 313,
      "ov": 314,
      "↑](https://en.wikipedia.org/wiki/India#cite_ref-": 315,
      "▁[↑](https://en.wikipedia.org/wiki/India#cite_ref-": 316,
      "Spe": 317,
      "sia": 318,
      "book": 319,
      "ev": 320,
      "10": 321,
      "ory": 322,
      "s.": 323,
      "Special": 324,
      "ir": 325,
      "Special:": 326,
      "ec": 327,
      "▁201": 328,
      "202": 329,
      "we": 330,
      "-0)": 331,
      "ment": 332,
      "ww": 333,
      "rces": 334,
      "▁2": 335,
      "ity": 336,
      "/978": 337,
      "_in": 338,
      "Book": 339,
      "ay": 340,
      "Sources": 341,
      "Special:Book": 342,
      "Special:BookSources": 343,
      "Un": 344,
      "▁D": 345,
      "Special:BookSources/978": 346,
      "▁E": 347,
      "_(": 348,
      "_of_": 349,
      "ly": 350,
      "▁\n": 351,
      "-2": 352,
      "lo": 353,
      "rom": 354,
      "tu": 355,
      "sh": 356,
      "im": 357,
      "\").": 358,
      "ons": 359,
      "IT": 360,
      "op": 361,
      "uag": 362,
      "anguag": 363,
      "▁N": 364,
      "RE": 365,
      "▁G": 366,
      "CIT": 367,
      "▁g": 368,
      "ind": 369,
      "ERE": 370,
      "\"),": 371,
      "](https://en.wikipedia.org/wiki/India#CIT": 372,
      "](https://en.wikipedia.org/wiki/India#CITERE": 373,
      "](https://en.wikipedia.org/wiki/India#CITEREF": 374,
      "ber": 375,
      "-4": 376,
      "▁e": 377,
      ".com": 378,
      "og": 379,
      "▁*": 380,
      "),": 381,
      "-3": 382,
      "cal": 383,
      "▁H": 384,
      "▁re": 385,
      "199": 386,
      "▁on": 387,
      "ts": 388,
      "▁th": 389,
      "_A": 390,
      "ak": 391,
      "for": 392,
      "ry": 393,
      "oun": 394,
      ".com/": 395,
      "ast": 396,
      "chiv": 397,
      "ld": 398,
      "ern": 399,
      "]](https://en.wikipedia.org/wiki/India#cite_note-FOOTNOTE": 400,
      "web": 401,
      "ab": 402,
      "▁from": 403,
      "av": 404,
      "ain": 405,
      "▁n": 406,
      "pg": 407,
      "al_": 408,
      "ub": 409,
      "ep": 410,
      "calf": 411,
      "00": 412,
      "od": 413,
      ".[[": 414,
      "up": 415,
      "etcalf": 416,
      "▁T": 417,
      "onom": 418,
      "ct": 419,
      "ted": 420,
      "ish": 421,
      "11": 422,
      "▁or": 423,
      "ivers": 424,
      "▁J": 425,
      "ary": 426,
      "ress": 427,
      "ud": 428,
      "_of_India": 429,
      "▁\"C": 430,
      "est": 431,
      "▁In": 432,
      "os": 433,
      "-0-": 434,
      "▁(identifier)": 435,
      "_(identifier)": 436,
      "▁(identifier)\")": 437,
      "me": 438,
      "▁3": 439,
      "▁ar": 440,
      "rit": 441,
      "▁for": 442,
      "ust": 443,
      "ap": 444,
      "▁F": 445,
      "▁[A": 446,
      "▁by": 447,
      "ge": 448,
      "50": 449,
      "▁is": 450,
      "List": 451,
      "gh": 452,
      "iversity": 453,
      "AA": 454,
      "12": 455,
      "orld": 456,
      "▁[M": 457,
      "_in_India": 458,
      "_S": 459,
      "ew": 460,
      "▁The": 461,
      "▁Indian": 462,
      "South": 463,
      "anguage": 464,
      "'s": 465,
      "](https://en.wikipedia.org/wiki/C": 466,
      "india": 467,
      "▁Asia": 468,
      "▁[C": 469,
      "-8": 470,
      "▁[S": 471,
      "▁K": 472,
      "▁p.": 473,
      "hi": 474,
      "uc": 475,
      "books": 476,
      "▁\"M": 477,
      ".j": 478,
      "goo": 479,
      "n_": 480,
      "▁wi": 481,
      "▁202": 482,
      "gle": 483,
      "\\_": 484,
      "16": 485,
      "▁[↑](https://en.wikipedia.org/wiki/India#cite_ref-FOOTNOTE": 486,
      "har": 487,
      "%2": 488,
      "University": 489,
      "▁O": 490,
      "▁19": 491,
      "▁\"S": 492,
      "www": 493,
      "24": 494,
      "▁200": 495,
      "](https://en.wikipedia.org/wiki/M": 496,
      "google": 497,
      "ng": 498,
      "ont": 499,
      "id=": 500,
      "?id=": 501,
      "Metcalf": 502,
      "_C": 503,
      "ism": 504,
      "o-": 505,
      "▁W": 506,
      "our": 507,
      "](https://en.wikipedia.org/wiki/S": 508,
      "www.": 509,
      "30": 510,
      "ve": 511,
      "end": 512,
      "-9": 513,
      "books.": 514,
      ".com/books": 515,
      "google.com/books": 516,
      "books.google.com/books": 517,
      "books.google.com/books?id=": 518,
      "aj": 519,
      "▁[ISBN": 520,
      "](https://en.wikipedia.org/wiki/ISBN": 521,
      "▁\"ISBN": 522,
      "umm": 523,
      "▁[ISBN](https://en.wikipedia.org/wiki/ISBN": 524,
      "▁[ISBN](https://en.wikipedia.org/wiki/ISBN_(identifier)": 525,
      "li": 526,
      "ut": 527,
      "](Special:BookSources/978": 528,
      "▁[978": 529,
      "▁\"Special:BookSources/978": 530,
      "ount": 531,
      "rad": 532,
      "▁wh": 533,
      "ow": 534,
      "_P": 535,
      "](https://books.google.com/books?id=": 536,
      "17": 537,
      "ma": 538,
      "ere": 539,
      "40": 540,
      "▁be": 541,
      "▁[B": 542,
      "ear": 543,
      "ance": 544,
      "etri": 545,
      "*.": 546,
      "18": 547,
      "ck": 548,
      "ence": 549,
      "per": 550,
      "▁I": 551,
      "inal": 552,
      "ies": 553,
      "▁L": 554,
      "cy": 555,
      "▁\"A": 556,
      "▁\"B": 557,
      "eved": 558,
      "ong": 559,
      "ational": 560,
      ")\n": 561,
      "▁Retri": 562,
      "▁Retrieved": 563,
      "52": 564,
      "_and": 565,
      "a\")": 566,
      "▁\"P": 567,
      "Ind": 568,
      "ture": 569,
      "ys": 570,
      "](https://en.wikipedia.org/wiki/B": 571,
      "▁as": 572,
      "▁with": 573,
      "gory": 574,
      "all": 575,
      "ategory": 576,
      "p.": 577,
      "ummit": 578,
      "▁st": 579,
      "ine": 580,
      "](https://en.wikipedia.org/wiki/P": 581,
      "a_": 582,
      "ans": 583,
      "▁[\"": 584,
      "ategory:": 585,
      "▁[*": 586,
      "archiv": 587,
      "▁pp.": 588,
      "ore": 589,
      "umb": 590,
      "▁orig": 591,
      "archive": 592,
      "conom": 593,
      "land": 594,
      "ens": 595,
      "istory": 596,
      "tern": 597,
      "_and_": 598,
      "ha": 599,
      "art": 600,
      "ates": 601,
      "Indian": 602,
      "la": 603,
      "ian": 604,
      "archive.org/": 605,
      "15": 606,
      "ph": 607,
      "▁[P": 608,
      "38": 609,
      "▁original": 610,
      "ot": 611,
      "26": 612,
      "▁was": 613,
      "ire": 614,
      "ass": 615,
      "overn": 616,
      "por": 617,
      "ard": 618,
      "14": 619,
      "28": 620,
      "late": 621,
      "ru": 622,
      "als": 623,
      "web.": 624,
      "](https://web.": 625,
      "esh": 626,
      "rchiv": 627,
      "web/": 628,
      "archive.org/web/": 629,
      "](https://web.archive.org/web/": 630,
      "rchived": 631,
      "PA": 632,
      "ff": 633,
      "omm": 634,
      "ical": 635,
      "▁University": 636,
      "](https://en.wikipedia.org/wiki/A": 637,
      "tem": 638,
      "▁\"E": 639,
      "1.": 640,
      "35": 641,
      "oi": 642,
      "ord": 643,
      "-5": 644,
      "70": 645,
      "](https://en.wikipedia.org/wiki/E": 646,
      "emp": 647,
      "outh": 648,
      "ich": 649,
      "▁ex": 650,
      "ank": 651,
      "eral": 652,
      "▁\"T": 653,
      "ik": 654,
      "_Asia": 655,
      "39": 656,
      "olog": 657,
      "ill": 658,
      "&pg": 659,
      "▁an": 660,
      "&pg=": 661,
      "ile": 662,
      "titu": 663,
      "2010": 664,
      "und": 665,
      ".jpg": 666,
      "32": 667,
      "hm": 668,
      "▁4": 669,
      "ani": 670,
      "2018": 671,
      "overnment": 672,
      "ction": 673,
      "s,": 674,
      "ite": 675,
      "\")\n": 676,
      "2006": 677,
      "indu": 678,
      ")[[": 679,
      "36": 680,
      "▁\"D": 681,
      "](https://en.wikipedia.org/wiki/D": 682,
      "▁&": 683,
      "mp": 684,
      "ss": 685,
      "▁it": 686,
      "▁v": 687,
      "ations": 688,
      "ries": 689,
      "ford": 690,
      "&pg=PA": 691,
      "9.": 692,
      "les": 693,
      "oc": 694,
      "\").\n": 695,
      "omp": 696,
      "ubl": 697,
      "media": 698,
      "25": 699,
      "](https://en.wikipedia.org/wiki/T": 700,
      "▁\"G": 701,
      "oli": 702,
      "▁are": 703,
      "aki": 704,
      "ath": 705,
      "ll": 706,
      "xford": 707,
      "age": 708,
      "anguages": 709,
      "*](https://books.google.com/books?id=": 710,
      "▁V": 711,
      "tive": 712,
      "ous": 713,
      "/https://": 714,
      "eng": 715,
      "](https://en.wikipedia.org/wiki/List": 716,
      "▁\"N": 717,
      "▁\"R": 718,
      "▁\"List": 719,
      "comm": 720,
      "udd": 721,
      "-7": 722,
      "IC": 723,
      "ach": 724,
      "px": 725,
      "](https://en.wikipedia.org/wiki/R": 726,
      "amb": 727,
      "▁Press": 728,
      "stan": 729,
      "tics": 730,
      "37": 731,
      "](https://en.wikipedia.org/wiki/G": 732,
      "_s": 733,
      "▁[G": 734,
      "rid": 735,
      "▁Ch": 736,
      "▁language": 737,
      "▁*[": 738,
      "_M": 739,
      "ef": 740,
      "s/": 741,
      "](https://en.wikipedia.org/wiki/N": 742,
      "tein": 743,
      "opul": 744,
      "27": 745,
      "ines": 746,
      "▁[D": 747,
      "▁India's": 748,
      "▁which": 749,
      ".in": 750,
      "ope": 751,
      "AJ": 752,
      "oth": 753,
      "ral": 754,
      "](https://www.": 755,
      "▁[N": 756,
      "▁[R": 757,
      "sher": 758,
      "onstitu": 759,
      "](https://en.wikipedia.org/wiki/List_of_": 760,
      "BAJ": 761,
      "QBAJ": 762,
      "RIC": 763,
      "_R": 764,
      "gion": 765,
      "orth": 766,
      "_T": 767,
      "riti": 768,
      "load": 769,
      "upload": 770,
      "67": 771,
      "_B": 772,
      "▁|\n": 773,
      ".wikimedia": 774,
      "▁South": 775,
      "igh": 776,
      "ountries": 777,
      "![": 778,
      "ited": 779,
      "nd": 780,
      "rou": 781,
      "▁\"H": 782,
      "out": 783,
      ").\n": 784,
      "▁has": 785,
      "▁that": 786,
      "-0-19": 787,
      "_G": 788,
      "▁ch": 789,
      "▁[E": 790,
      "pedia/": 791,
      ".org/wikipedia/": 792,
      "thumb": 793,
      "ark": 794,
      "AAQBAJ": 795,
      "MetcalfMetcalf": 796,
      "commons": 797,
      "upload.wikimedia": 798,
      "upload.wikimedia.org/wikipedia/": 799,
      "..": 800,
      "/thumb": 801,
      "60": 802,
      "ac": 803,
      "ition": 804,
      "▁r": 805,
      "](https://upload.wikimedia.org/wikipedia/": 806,
      "territ": 807,
      "ile:": 808,
      "/thumb/": 809,
      "##": 810,
      "34": 811,
      "File:": 812,
      "ah": 813,
      "ology": 814,
      "RICS": 815,
      "ex": 816,
      "language": 817,
      "](https://en.wikipedia.org/wiki/H": 818,
      "px-": 819,
      "-6": 820,
      "5.": 821,
      "gen": 822,
      "gov": 823,
      "sland": 824,
      "ond": 825,
      "amil": 826,
      "ult": 827,
      "%2C": 828,
      "commons/thumb/": 829,
      "2.": 830,
      "ib": 831,
      "ost": 832,
      "](https://upload.wikimedia.org/wikipedia/commons/thumb/": 833,
      "](File:": 834,
      "▁[H": 835,
      "▁[T": 836,
      "ration": 837,
      "▁pro": 838,
      "ange": 839,
      "ign": 840,
      "▁[Archived": 841,
      "mpire": 842,
      "▁[Archived](https://web.archive.org/web/": 843,
      "▁[![": 844,
      "2011": 845,
      ")](File:": 846,
      ".gov": 847,
      "29": 848,
      "3.": 849,
      "_D": 850,
      "to": 851,
      "rav": 852,
      "](https://en.wikipedia.org/wiki/India#cite_ref-FOOTNOTE": 853,
      "opulation": 854,
      "4.": 855,
      "47": 856,
      "_N": 857,
      "qu": 858,
      "erv": 859,
      "iss": 860,
      "ree": 861,
      "South_Asia": 862,
      "-p": 863,
      "ob": 864,
      "ta": 865,
      "ty": 866,
      "tal": 867,
      "any": 868,
      "▁[2": 869,
      "ame": 870,
      "▁cent": 871,
      "over": 872,
      "ensus": 873,
      "\"\n": 874,
      "6.": 875,
      "_b": 876,
      "cont": 877,
      "duc": 878,
      "nic": 879,
      "s\")": 880,
      "inist": 881,
      "ties": 882,
      "ric": 883,
      "usic": 884,
      "ritish": 885,
      "ai": 886,
      "cl": 887,
      "▁te": 888,
      "▁no": 889,
      "ana": 890,
      "▁\"K": 891,
      "▁\"Indian": 892,
      "arg": 893,
      "aste": 894,
      "conomy": 895,
      "isation": 896,
      "▁18": 897,
      "econom": 898,
      "United": 899,
      "/C": 900,
      "7.": 901,
      "_4": 902,
      "bot": 903,
      "▁pe": 904,
      "▁199": 905,
      "▁[1": 906,
      "albot": 907,
      "10.": 908,
      "31": 909,
      "au": 910,
      "▁[K": 911,
      "RC": 912,
      "▁5": 913,
      "](https://en.wikipedia.org/wiki/K": 914,
      "▁--": 915,
      "lection": 916,
      "ury": 917,
      "row": 918,
      "onstitution": 919,
      "Asher": 920,
      "Oxford": 921,
      "_E": 922,
      "alth": 923,
      "raph": 924,
      "ulture": 925,
      "evel": 926,
      "▁its": 927,
      "ublic": 928,
      "▁---": 929,
      "led": 930,
      "▁ri": 931,
      "ames": 932,
      "ater": 933,
      "2007": 934,
      "▁2011": 935,
      "MetcalfMetcalf2006": 936,
      "3)": 937,
      "48": 938,
      "Stein": 939,
      "ail": 940,
      "pg/": 941,
      "▁\"The": 942,
      "AARC": 943,
      "Stein2010": 944,
      "22": 945,
      "eb": 946,
      "ey": 947,
      "if": 948,
      "ue": 949,
      "inent": 950,
      "red": 951,
      "▁were": 952,
      "AAQBAJ&pg=PA": 953,
      "_p": 954,
      "▁at": 955,
      "ata": 956,
      "ated": 957,
      "tical": 958,
      "odern": 959,
      "Indo-": 960,
      "ridge": 961,
      "ati": 962,
      "old": 963,
      "uring": 964,
      "-1)": 965,
      "ograph": 966,
      "radesh": 967,
      "80": 968,
      "90": 969,
      "World": 970,
      "_language": 971,
      "doi": 972,
      "mer": 973,
      "na": 974,
      "oh": 975,
      "▁Th": 976,
      "ork": 977,
      "▁[L": 978,
      "igion": 979,
      "indi": 980,
      "▁rel": 981,
      "ound": 982,
      ".jpg/": 983,
      ".jpg)](File:": 984,
      "akistan": 985,
      "man": 986,
      "▁le": 987,
      "India)": 988,
      "tim": 989,
      "ome": 990,
      "ashm": 991,
      "▁cont": 992,
      "urope": 993,
      "▁languages": 994,
      "\").[[": 995,
      "epend": 996,
      "emplate": 997,
      ".in/": 998,
      "gan": 999,
      "hand": 1000,
      "▁un": 1001,
      "▁\"L": 1002,
      "▁Asian": 1003,
      "sv": 1004,
      "uch": 1005,
      "ya": 1006,
      "▁ad": 1007,
      "alay": 1008,
      "ational_": 1009,
      "2008": 1010,
      "elhi": 1011,
      "ovem": 1012,
      "yson": 1013,
      "ystem": 1014,
      "engal": 1015,
      "ambridge": 1016,
      "evelop": 1017,
      "aw": 1018,
      "ina": 1019,
      "](https://en.wikipedia.org/wiki/L": 1020,
      "arl": 1021,
      "ision": 1022,
      "▁sub": 1023,
      "▁(P": 1024,
      "ell": 1025,
      "▁Hindu": 1026,
      ",_": 1027,
      "-s": 1028,
      ".p": 1029,
      "33": 1030,
      "69": 1031,
      "lass": 1032,
      "](https://en.wikipedia.org/wiki/Indian_": 1033,
      "rate": 1034,
      "-10": 1035,
      "irst": 1036,
      "ansk": 1037,
      "continent": 1038,
      "1)": 1039,
      "_c": 1040,
      "_d": 1041,
      "_the": 1042,
      "fter": 1043,
      "lim": 1044,
      "world": 1045,
      "year": 1046,
      "▁\"F": 1047,
      "artic": 1048,
      "ics": 1049,
      "2014": 1050,
      "Union": 1051,
      "ustry": 1052,
      "ht": 1053,
      "s-": 1054,
      "tates": 1055,
      "ister": 1056,
      "port": 1057,
      "/https://www.": 1058,
      "anskrit": 1059,
      "-l": 1060,
      ".;": 1061,
      "49": 1062,
      "57": 1063,
      "8.": 1064,
      "Dw": 1065,
      "ip": 1066,
      "ran": 1067,
      "ug": 1068,
      "ories": 1069,
      "er,": 1070,
      "ood": 1071,
      "emb": 1072,
      "▁2010": 1073,
      "ght": 1074,
      "56": 1075,
      "iki": 1076,
      "ugh": 1077,
      "▁.": 1078,
      "▁U": 1079,
      "arch": 1080,
      "other": 1081,
      "evelopment": 1082,
      "_F": 1083,
      "df": 1084,
      "eg": 1085,
      "▁ag": 1086,
      "▁territ": 1087,
      "](https://en.wikipedia.org/wiki/F": 1088,
      "▁ind": 1089,
      "uly": 1090,
      "▁region": 1091,
      "ave": 1092,
      "](Special:BookSources/978-1": 1093,
      "▁[978-1": 1094,
      "▁\"Special:BookSources/978-1": 1095,
      "▁Island": 1096,
      "conomic": 1097,
      "DF": 1098,
      "▁[F": 1099,
      "▁Category:": 1100,
      "une": 1101,
      "▁Asia\")": 1102,
      "harma": 1103,
      "ower": 1104,
      "earch": 1105,
      "/Category:": 1106,
      "▁./Category:": 1107,
      "\"](https://www.": 1108,
      "on-": 1109,
      "ise": 1110,
      "▁India,": 1111,
      "ice": 1112,
      "aman": 1113,
      "▁Empire": 1114,
      "illion": 1115,
      "ission": 1116,
      "emplate:": 1117,
      "-b": 1118,
      "-m": 1119,
      ".\"\n": 1120,
      "Talbot": 1121,
      "dom": 1122,
      "lish": 1123,
      "new": 1124,
      "▁20": 1125,
      "king": 1126,
      "eneral": 1127,
      "▁\"South": 1128,
      "rib": 1129,
      "lear": 1130,
      "oll": 1131,
      "ummit\")": 1132,
      "AsherTalbot": 1133,
      "▁(PDF": 1134,
      "df)": 1135,
      "**": 1136,
      "-india": 1137,
      "44": 1138,
      "46": 1139,
      "pr": 1140,
      "▁7": 1141,
      "▁[J": 1142,
      "▁[the": 1143,
      "▁\"J": 1144,
      "rab": 1145,
      "▁An": 1146,
      "anges": 1147,
      "ely": 1148,
      "s.[[": 1149,
      "ect": 1150,
      "aint": 1151,
      "ountry": 1152,
      "uddh": 1153,
      "gy": 1154,
      "pu": 1155,
      "▁##": 1156,
      "▁year": 1157,
      "](https://en.wikipedia.org/wiki/J": 1158,
      "cies": 1159,
      "▁into": 1160,
      "▁system": 1161,
      "rov": 1162,
      "▁New": 1163,
      "▁July": 1164,
      "▁Ind": 1165,
      "uclear": 1166,
      "_Press": 1167,
      "▁language\")": 1168,
      "ledge": 1169,
      "uropean": 1170,
      "-d": 1171,
      "250": 1172,
      "51": 1173,
      "58": 1174,
      "59": 1175,
      "aper": 1176,
      "ober": 1177,
      "se": 1178,
      "uj": 1179,
      "yn": 1180,
      "ril": 1181,
      "▁Ap": 1182,
      "ats": 1183,
      "▁17": 1184,
      "▁during": 1185,
      "_summit": 1186,
      "inistry": 1187,
      "times": 1188,
      "htm": 1189,
      "4)": 1190,
      "62": 1191,
      "68": 1192,
      "_1": 1193,
      "fic": 1194,
      "ni": 1195,
      "rin": 1196,
      "ure": 1197,
      "▁9": 1198,
      "ed.": 1199,
      "▁Archived": 1200,
      "▁first": 1201,
      "usines": 1202,
      "▁Pres": 1203,
      "iron": 1204,
      "▁form": 1205,
      "matics": 1206,
      "also": 1207,
      "▁Press\").": 1208,
      "outledge": 1209,
      "ashmir": 1210,
      "65": 1211,
      "uk": 1212,
      "▁econom": 1213,
      "ined": 1214,
      "inister": 1215,
      "▁their": 1216,
      "ley": 1217,
      "idd": 1218,
      "▁(201": 1219,
      "▁cons": 1220,
      "▁comp": 1221,
      "▁10": 1222,
      "▁have": 1223,
      "▁History": 1224,
      "1994": 1225,
      "▁north": 1226,
      "eptem": 1227,
      "▁\"Ch": 1228,
      "](Special:BookSources/978-0-": 1229,
      "▁[978-0-": 1230,
      "▁\"Special:BookSources/978-0-": 1231,
      "radition": 1232,
      "eptember": 1233,
      "8/": 1234,
      "_I": 1235,
      "att": 1236,
      "athe": 1237,
      "e,": 1238,
      "fl": 1239,
      "iff": 1240,
      "viron": 1241,
      "yan": 1242,
      "ant": 1243,
      "▁[W": 1244,
      "▁so": 1245,
      "▁class": 1246,
      "▁Sh": 1247,
      "▁government": 1248,
      "_by": 1249,
      "argest": 1250,
      "vironment": 1251,
      "13": 1252,
      "_K": 1253,
      "_m": 1254,
      "ution": 1255,
      "▁us": 1256,
      "▁also": 1257,
      "▁[I": 1258,
      "\")*.": 1259,
      "ali": 1260,
      "ari": 1261,
      "entral": 1262,
      "ural": 1263,
      "▁Pradesh": 1264,
      "ople": 1265,
      "ctober": 1266,
      "▁October": 1267,
      "▁World": 1268,
      "Dyson": 1269,
      "jab": 1270,
      "pt": 1271,
      "wing": 1272,
      "Intern": 1273,
      "estern": 1274,
      "cience": 1275,
      "chn": 1276,
      "▁pl": 1277,
      "iver": 1278,
      "▁September": 1279,
      "_Indian_": 1280,
      "ayan": 1281,
      "isher": 1282,
      "ishing": 1283,
      "](https://en.wikipedia.org/wiki/Ch": 1284,
      "University_Press": 1285,
      "ongress": 1286,
      "8](https://en.wikipedia.org/wiki/India#CITEREF": 1287,
      "_L": 1288,
      "ban": 1289,
      "ee": 1290,
      "nvironment": 1291,
      "ote": 1292,
      "rans": 1293,
      "ort": 1294,
      "omb": 1295,
      "omen": 1296,
      "ash": 1297,
      "edic": 1298,
      "▁(200": 1299,
      "etwe": 1300,
      "ive": 1301,
      "▁Comm": 1302,
      "▁world": 1303,
      "▁[Ch": 1304,
      "gency": 1305,
      "raven": 1306,
      "▁not": 1307,
      "etween": 1308,
      "DP": 1309,
      "_University_Press": 1310,
      "iz": 1311,
      "mi": 1312,
      "ock": 1313,
      "▁\"W": 1314,
      "arle": 1315,
      "eser": 1316,
      "istan": 1317,
      "uman": 1318,
      "100": 1319,
      "-81": 1320,
      "▁[Archived](https://web.archive.org/web/202": 1321,
      "▁April": 1322,
      "-c": 1323,
      "6](https://en.wikipedia.org/wiki/India#CITEREF": 1324,
      "_H": 1325,
      "_re": 1326,
      "fric": 1327,
      "ne": 1328,
      "rd": 1329,
      "sl": 1330,
      "▁res": 1331,
      "▁[Indian": 1332,
      "▁\"O": 1333,
      "▁more": 1334,
      "unjab": 1335,
      "▁India\"),": 1336,
      "ird": 1337,
      "▁this": 1338,
      "ikh": 1339,
      "DwAAQBAJ&pg=PA": 1340,
      "iddle": 1341,
      "Dyson2018": 1342,
      "chnology": 1343,
      "5–": 1344,
      "6)": 1345,
      "air": 1346,
      "▁8": 1347,
      "▁im": 1348,
      "ones": 1349,
      "ally": 1350,
      "reas": 1351,
      "andhi": 1352,
      "ool": 1353,
      "racy": 1354,
      "▁part": 1355,
      "▁Aug": 1356,
      "▁music": 1357,
      "▁dis": 1358,
      "berg": 1359,
      "able": 1360,
      "▁century": 1361,
      "▁August": 1362,
      "23": 1363,
      "72": 1364,
      "Template:": 1365,
      "cri": 1366,
      "fe": 1367,
      "lad": 1368,
      "pa": 1369,
      "▁Y": 1370,
      "▁al": 1371,
      "iament": 1372,
      "ering": 1373,
      "ese": 1374,
      "ram": 1375,
      "▁between": 1376,
      "adu": 1377,
      "urr": 1378,
      "▁dance": 1379,
      "▁after": 1380,
      "form": 1381,
      "521": 1382,
      "ompany": 1383,
      "clud": 1384,
      "arliament": 1385,
      "▁subcontinent": 1386,
      "-in": 1387,
      "88": 1388,
      "a,": 1389,
      "cul": 1390,
      "eh": 1391,
      "ok": 1392,
      "p://": 1393,
      "vi": 1394,
      "wart": 1395,
      "zberg": 1396,
      "▁per": 1397,
      "▁ru": 1398,
      "http://": 1399,
      "anu": 1400,
      "▁\"I": 1401,
      "cient": 1402,
      "chwart": 1403,
      "▁but": 1404,
      "ures": 1405,
      "ild": 1406,
      "▁15": 1407,
      "rop": 1408,
      "-40": 1409,
      "▁**": 1410,
      "%2F": 1411,
      "rade": 1412,
      "▁years": 1413,
      "▁Press.": 1414,
      "chwartzberg": 1415,
      "\"](https://": 1416,
      "%7": 1417,
      "-19": 1418,
      ".sv": 1419,
      "3_": 1420,
      "330": 1421,
      ":[": 1422,
      "IN": 1423,
      "ece": 1424,
      "eograph": 1425,
      "mb": 1426,
      "▁over": 1427,
      "ia\")": 1428,
      "annic": 1429,
      ".org/10.": 1430,
      "ered": 1431,
      "ess": 1432,
      "rime": 1433,
      "▁sh": 1434,
      "▁tw": 1435,
      "▁most": 1436,
      "anglad": 1437,
      "▁ab": 1438,
      "▁(identifier)\"):[": 1439,
      "ritannic": 1440,
      "▁For": 1441,
      "india.gov": 1442,
      "nglish": 1443,
      "ajor": 1444,
      "▁been": 1445,
      "olitical": 1446,
      "doi.org/10.": 1447,
      "250px-": 1448,
      "angladesh": 1449,
      ")\")": 1450,
      "/artic": 1451,
      "3-0)": 1452,
      "77": 1453,
      "Wiki": 1454,
      "creas": 1455,
      "eat": 1456,
      "mu": 1457,
      "son": 1458,
      "▁6": 1459,
      "ttar": 1460,
      "▁[South": 1461,
      "rahm": 1462,
      "▁Ar": 1463,
      "▁con": 1464,
      "▁bec": 1465,
      "igi": 1466,
      "▁India\")\n": 1467,
      "2024": 1468,
      "▁East": 1469,
      "shit": 1470,
      "▁election": 1471,
      "irect": 1472,
      "ikshit": 1473,
      "▁[2](https://en.wikipedia.org/wiki/India#cite_ref-FOOTNOTE": 1474,
      "▁[1](https://en.wikipedia.org/wiki/India#cite_ref-FOOTNOTE": 1475,
      "ganisation": 1476,
      ".pdf)": 1477,
      "▁###": 1478,
      "ombined": 1479,
      "\".": 1480,
      "\"](https://web.archive.org/web/": 1481,
      "86": 1482,
      "CE": 1483,
      "C&pg=PA": 1484,
      "ID": 1485,
      "cent": 1486,
      "ft": 1487,
      "ham": 1488,
      "ton": 1489,
      "ven": 1490,
      "▁k": 1491,
      "▁all": 1492,
      "iation": 1493,
      "peration": 1494,
      "▁[s": 1495,
      "](https://en.wikipedia.org/wiki/W": 1496,
      "time": 1497,
      "ala": 1498,
      "arn": 1499,
      "rick": 1500,
      "icy": 1501,
      "ide": 1502,
      "▁comm": 1503,
      "▁de": 1504,
      "▁Metcalf": 1505,
      "_in_": 1506,
      "low": 1507,
      "▁Oxford": 1508,
      "▁2006](https://en.wikipedia.org/wiki/India#CITEREF": 1509,
      "life": 1510,
      "ndaman": 1511,
      "roup": 1512,
      "...": 1513,
      "▁2011.\n": 1514,
      "ovement": 1515,
      "news/": 1516,
      "ujar": 1517,
      "html": 1518,
      "/0": 1519,
      "1–": 1520,
      "1.\n": 1521,
      "4](https://en.wikipedia.org/wiki/India#CITEREF": 1522,
      "5)": 1523,
      "54": 1524,
      "ack": 1525,
      "countries": 1526,
      "ealth": 1527,
      "mar": 1528,
      "oin": 1529,
      "oast": 1530,
      "rish": 1531,
      "ver": 1532,
      "▁end": 1533,
      "with": 1534,
      "onwe": 1535,
      "ther": 1536,
      "arb": 1537,
      "read": 1538,
      "ched": 1539,
      "2005": 1540,
      "▁16": 1541,
      "emoc": 1542,
      "union": 1543,
      "▁BCE": 1544,
      "2023": 1545,
      "avid": 1546,
      "▁states": 1547,
      "ports": 1548,
      "obb": 1549,
      "▁[2](https://en.wikipedia.org/wiki/India#cite_ref-": 1550,
      "▁[1](https://en.wikipedia.org/wiki/India#cite_ref-": 1551,
      "▁2010](https://en.wikipedia.org/wiki/India#CITEREF": 1552,
      "ughal": 1553,
      "ed.).": 1554,
      "onwealth": 1555,
      "/p": 1556,
      "Combined": 1557,
      "_territ": 1558,
      "min": 1559,
      "oor": 1560,
      "war": 1561,
      "ortal": 1562,
      "](https://en.wikipedia.org/wiki/V": 1563,
      "▁\"V": 1564,
      "reat": 1565,
      "ough": 1566,
      "asia": 1567,
      "riod": 1568,
      "change": 1569,
      "▁spe": 1570,
      "2016": 1571,
      "ident": 1572,
      "▁(India)": 1573,
      "▁Ass": 1574,
      "▁countries": 1575,
      "▁Congress": 1576,
      "▁May": 1577,
      "▁had": 1578,
      "▁26": 1579,
      "aksh": 1580,
      "▁June": 1581,
      "▁[Metcalf": 1582,
      "▁It": 1583,
      "▁state": 1584,
      "olitics": 1585,
      "udden": 1586,
      "▁[Archived](https://web.archive.org/web/201": 1587,
      "▁two": 1588,
      "6).": 1589,
      "Harle": 1590,
      "_at": 1591,
      "_%2": 1592,
      "ced": 1593,
      "clo": 1594,
      "i,": 1595,
      "ms": 1596,
      "ron": 1597,
      "val": 1598,
      "▁ev": 1599,
      "▁up": 1600,
      "▁[O": 1601,
      "▁[p": 1602,
      "](https://en.wikipedia.org/wiki/The": 1603,
      "ale": 1604,
      "alley": 1605,
      "arti": 1606,
      "theast": 1607,
      "omin": 1608,
      "▁includ": 1609,
      "▁summit\")": 1610,
      "▁population": 1611,
      "ussia": 1612,
      "ivil": 1613,
      "olicy": 1614,
      "▁tradition": 1615,
      "istor": 1616,
      "▁war": 1617,
      "ulk": 1618,
      "umber": 1619,
      "▁dec": 1620,
      "ember": 1621,
      "ers,": 1622,
      "ecu": 1623,
      "▁24": 1624,
      "imes": 1625,
      "▁general": 1626,
      "1997": 1627,
      "ake": 1628,
      "akh": 1629,
      "000": 1630,
      "▁30": 1631,
      "▁artic": 1632,
      "ustral": 1633,
      "](Special:BookSources/978-0-19": 1634,
      "▁[978-0-19": 1635,
      "▁\"Special:BookSources/978-0-19": 1636,
      "Indus": 1637,
      "▁\"Economy": 1638,
      "](https://en.wikipedia.org/wiki/Economy": 1639,
      ".jpg/250px-": 1640,
      "▁territories": 1641,
      "ector": 1642,
      "▁became": 1643,
      "-g": 1644,
      "-t": 1645,
      "/india": 1646,
      "21": 1647,
      "3](https://en.wikipedia.org/wiki/India#CITEREF": 1648,
      "81": 1649,
      "Asia": 1650,
      "CN": 1651,
      "Uttar": 1652,
      "_2": 1653,
      "_f": 1654,
      "act": 1655,
      "ner": 1656,
      "ria": 1657,
      "rganisation": 1658,
      "y\")": 1659,
      "▁j": 1660,
      "▁en": 1661,
      "▁am": 1662,
      "▁Union": 1663,
      "oram": 1664,
      "](https://doi.org/10.": 1665,
      "▁[m": 1666,
      "▁[India": 1667,
      "▁[doi": 1668,
      "](https://en.wikipedia.org/wiki/O": 1669,
      "eral_": 1670,
      "ised": 1671,
      "leg": 1672,
      "ooperation": 1673,
      "chool": 1674,
      "entre": 1675,
      "itary": 1676,
      "▁caste": 1677,
      "atar": 1678,
      "-17": 1679,
      "rote": 1680,
      "term": 1681,
      "▁ac": 1682,
      "▁BRICS": 1683,
      "_(India)": 1684,
      "imalay": 1685,
      "indust": 1686,
      "abad": 1687,
      "apit": 1688,
      "▁2007": 1689,
      "oi_(identifier)": 1690,
      "▁\"Doi": 1691,
      "](https://en.wikipedia.org/wiki/Doi_(identifier)": 1692,
      "roups": 1693,
      "▁(identifier)\"):[10.": 1694,
      "▁[doi](https://en.wikipedia.org/wiki/Doi_(identifier)": 1695,
      "55": 1696,
      "5).": 1697,
      "Ar": 1698,
      "Craven": 1699,
      "Fisher": 1700,
      "be": 1701,
      "cture": 1702,
      "cord": 1703,
      "ea": 1704,
      "go": 1705,
      "han": 1706,
      "uis": 1707,
      "yayan": 1708,
      "▁es": 1709,
      "▁ref": 1710,
      "▁und": 1711,
      "▁rate": 1712,
      "ince": 1713,
      "ann": 1714,
      "tell": 1715,
      "\")*": 1716,
      "ara": 1717,
      "rac": 1718,
      "▁sup": 1719,
      "▁Act": 1720,
      "▁mil": 1721,
      "▁modern": 1722,
      "▁million": 1723,
      "▁Plate": 1724,
      "eld": 1725,
      "▁March": 1726,
      "str": 1727,
      "▁National": 1728,
      "al_P": 1729,
      "epublic": 1730,
      "ose": 1731,
      "harat": 1732,
      "cyclo": 1733,
      "itecture": 1734,
      "induism": 1735,
      "ultan": 1736,
      "▁period": 1737,
      "ovember": 1738,
      "AsherTalbot2008": 1739,
      "ainting": 1740,
      "atsyayan": 1741,
      "_Island": 1742,
      "slam": 1743,
      "anuary": 1744,
      "ritannica": 1745,
      "Harle1994": 1746,
      "Craven1997": 1747,
      "Fisher2018": 1748,
      ",[[": 1749,
      "-B": 1750,
      "-f": 1751,
      "3.\n": 1752,
      "71": 1753,
      "9).": 1754,
      "9-0)": 1755,
      "CO": 1756,
      "_W": 1757,
      "ahar": 1758,
      "bi": 1759,
      "cod": 1760,
      "eal": 1761,
      "ele": 1762,
      "ities": 1763,
      "mber": 1764,
      "rg": 1765,
      "vatsyayan": 1766,
      "▁ra": 1767,
      "ped": 1768,
      "▁[V": 1769,
      "](https://en.wikipedia.org/wiki/I": 1770,
      "](https://en.wikipedia.org/wiki/South_Asia": 1771,
      "arh": 1772,
      "▁such": 1773,
      "▁(19": 1774,
      "▁St": 1775,
      "▁Sanskrit": 1776,
      "now": 1777,
      "▁Constitution": 1778,
      "adh": 1779,
      "▁14": 1780,
      "▁later": 1781,
      "▁ap": 1782,
      "▁Main": 1783,
      "ung": 1784,
      "▁Bengal": 1785,
      "Spear": 1786,
      "_of_the": 1787,
      "▁*The": 1788,
      "▁one": 1789,
      "▁there": 1790,
      ".[[2": 1791,
      "118": 1792,
      "▁January": 1793,
      "▁art": 1794,
      "_Sh": 1795,
      "%29": 1796,
      "▁War": 1797,
      "ruary": 1798,
      "ublishing": 1799,
      "athak": 1800,
      "age/": 1801,
      "_BRICS": 1802,
      "ebruary": 1803,
      "-lord": 1804,
      "embly": 1805,
      "▁classical": 1806,
      "ehru": 1807,
      "ecember": 1808,
      "igious": 1809,
      "_%28": 1810,
      "vatsyayan-lord": 1811,
      "/http://": 1812,
      "3).": 1813,
      "3]](https://en.wikipedia.org/wiki/India#cite_note-FOOTNOTE": 1814,
      "4-0)": 1815,
      "5-0)": 1816,
      "87": 1817,
      "C).": 1818,
      "_3": 1819,
      "_h": 1820,
      "_t": 1821,
      "egion": 1822,
      "her": 1823,
      "iev": 1824,
      "minist": 1825,
      "ncyclo": 1826,
      "pl": 1827,
      "ple": 1828,
      "rar": 1829,
      "ras": 1830,
      "▁ci": 1831,
      "▁em": 1832,
      "ins": 1833,
      "▁[t": 1834,
      "ald": 1835,
      "arly": 1836,
      "arna": 1837,
      "andard": 1838,
      "astern": 1839,
      "rits": 1840,
      "right": 1841,
      "eds.": 1842,
      "▁south": 1843,
      "atak": 1844,
      "▁mathe": 1845,
      "2004": 1846,
      "come": 1847,
      "econd": 1848,
      "▁2019.": 1849,
      "▁2018](https://en.wikipedia.org/wiki/India#CITEREF": 1850,
      "▁25": 1851,
      "▁28": 1852,
      "1990": 1853,
      "▁than": 1854,
      "▁national": 1855,
      "▁who": 1856,
      "owland": 1857,
      "▁[*The": 1858,
      "](https://en.wikipedia.org/wiki/List_of_countries": 1859,
      "duction": 1860,
      "rowth": 1861,
      "▁(PDF).": 1862,
      "uddhism": 1863,
      "ficial": 1864,
      "▁northern": 1865,
      "\"](https://web.archive.org/web/201": 1866,
      "](https://en.wikipedia.org/wiki/Economy_of_": 1867,
      "%20": 1868,
      "1-0)": 1869,
      "1]](https://en.wikipedia.org/wiki/India#cite_note-FOOTNOTE": 1870,
      "2)": 1871,
      "2-0)": 1872,
      "6-2": 1873,
      "79": 1874,
      "84": 1875,
      "Dikshit": 1876,
      "Empire": 1877,
      "European": 1878,
      "Schwartzberg": 1879,
      "can": 1880,
      "dit": 1881,
      "eth": 1882,
      "ij": 1883,
      "oy": 1884,
      "tro": 1885,
      "vers": 1886,
      "▁ro": 1887,
      "▁emp": 1888,
      "Ins": 1889,
      "teen": 1890,
      "esearch": 1891,
      "ould": 1892,
      "ase": 1893,
      "▁India:": 1894,
      "▁increas": 1895,
      "ical_": 1896,
      "rative": 1897,
      "2012": 1898,
      "▁(eds.": 1899,
      "ammu": 1900,
      "ingdom": 1901,
      "ives": 1902,
      "olk": 1903,
      "▁many": 1904,
      "2000": 1905,
      "ade": 1906,
      "urk": 1907,
      "urn": 1908,
      "eligion": 1909,
      "▁13": 1910,
      "ross": 1911,
      "▁long": 1912,
      "▁English": 1913,
      "ast_Asia": 1914,
      "osed": 1915,
      "▁February": 1916,
      "utra": 1917,
      "Indones": 1918,
      "ffair": 1919,
      "▁Press](https://en.wikipedia.org/wiki/": 1920,
      "▁people": 1921,
      "▁religion": 1922,
      "▁industry": 1923,
      "▁(PDF)": 1924,
      "usiness": 1925,
      "▁rule": 1926,
      "330px-": 1927,
      "-to-": 1928,
      "▁among": 1929,
      "DikshitSchwartzberg": 1930,
      "▁(eds.).": 1931,
      ",000": 1932,
      "-20": 1933,
      "-re": 1934,
      "/S": 1935,
      "/d": 1936,
      "6]](https://en.wikipedia.org/wiki/India#cite_note-": 1937,
      "98": 1938,
      "Al": 1939,
      "Hindi": 1940,
      "_19": 1941,
      "_for": 1942,
      "bal": 1943,
      "hy": 1944,
      "iri": 1945,
      "jan": 1946,
      "mund": 1947,
      "nam": 1948,
      "rol": 1949,
      "utt": 1950,
      "pee": 1951,
      "](https://en.wikipedia.org/wiki/Indo-": 1952,
      "▁\"India": 1953,
      "▁\"Indo-": 1954,
      "tig": 1955,
      "ests": 1956,
      "le:": 1957,
      "2017": 1958,
      "2019": 1959,
      "▁Arab": 1960,
      "▁Afric": 1961,
      "▁States": 1962,
      "2009": 1963,
      "ages": 1964,
      "ilg": 1965,
      "-14": 1966,
      "ument": 1967,
      "▁22": 1968,
      "▁29": 1969,
      "loy": 1970,
      "_Summit": 1971,
      "ineering": 1972,
      "umbai": 1973,
      "ankar": 1974,
      "arket": 1975,
      "rown": 1976,
      "ependent": 1977,
      "ependence": 1978,
      "othermund": 1979,
      "▁Islands": 1980,
      "ynast": 1981,
      "▁economic": 1982,
      "ricket": 1983,
      "_in_South_Asia": 1984,
      "ujarat": 1985,
      "▁under": 1986,
      "ast_Asia_Summit": 1987,
      "\"](https://books.google.com/books?id=": 1988,
      "/f": 1989,
      "2).": 1990,
      "6_": 1991,
      "Edit": 1992,
      "Page/": 1993,
      "_V": 1994,
      "az": 1995,
      "ate_": 1996,
      "cted": 1997,
      "census": 1998,
      "fgh": 1999,
      "k:": 2000,
      "line": 2001,
      "nal": 2002,
      "pic": 2003,
      "rist": 2004,
      "way": 2005,
      "▁'": 2006,
      "▁out": 2007,
      "▁other": 2008,
      "dian": 2009,
      "encies": 2010,
      "pect": 2011,
      "inance": 2012,
      "one": 2013,
      "eration": 2014,
      "▁\"Oxford": 2015,
      "alli": 2016,
      "ar,": 2017,
      "arv": 2018,
      "omas": 2019,
      "▁India.": 2020,
      "oot": 2021,
      "▁Ac": 2022,
      "-00": 2023,
      "ety": 2024,
      "ivision": 2025,
      "ola": 2026,
      "olution": 2027,
      "▁minister": 2028,
      "▁major": 2029,
      "urton": 2030,
      "iles": 2031,
      "ility": 2032,
      "igence": 2033,
      "ement": 2034,
      "▁high": 2035,
      "▁Bank": 2036,
      "▁British": 2037,
      "overe": 2038,
      "Special:Edit": 2039,
      "▁27": 2040,
      "_ind": 2041,
      "▁Nadu": 2042,
      "-317": 2043,
      "▁rep": 2044,
      "fore": 2045,
      "ains": 2046,
      "ainism": 2047,
      "▁Talbot": 2048,
      "apan": 2049,
      "▁[Stein": 2050,
      "▁K.": 2051,
      "▁2021.": 2052,
      "▁2021.\n": 2053,
      "own": 2054,
      "▁[\"India": 2055,
      "▁original](https://www.": 2056,
      "▁exp": 2057,
      "▁ext": 2058,
      "inese": 2059,
      "ervation": 2060,
      "rovision": 2061,
      "▁social": 2062,
      "International": 2063,
      "arnatak": 2064,
      "telligence": 2065,
      "Spear1990": 2066,
      "Page/Template:": 2067,
      "fghan": 2068,
      "Special:EditPage/Template:": 2069,
      ".nic": 2070,
      "1,": 2071,
      "1/": 2072,
      "4).": 2073,
      "6.\n": 2074,
      "6-0)": 2075,
      "7)": 2076,
      "Ch": 2077,
      "UCN": 2078,
      "_O": 2079,
      "aus": 2080,
      "election": 2081,
      "get": 2082,
      "ix": 2083,
      "lor": 2084,
      "pur": 2085,
      "rm": 2086,
      "ris": 2087,
      "▁–": 2088,
      "▁oc": 2089,
      "▁time": 2090,
      "▁[3": 2091,
      "▁[United": 2092,
      "](https://en.wikipedia.org/wiki/South": 2093,
      "tes": 2094,
      "arge": 2095,
      "cil": 2096,
      "lect": 2097,
      "rain": 2098,
      "▁se": 2099,
      "▁some": 2100,
      "▁([": 2101,
      "-0-2": 2102,
      "▁found": 2103,
      "etail": 2104,
      "uslim": 2105,
      "▁SAARC": 2106,
      "▁both": 2107,
      "▁trans": 2108,
      "▁CE": 2109,
      "▁Cons": 2110,
      "▁Census": 2111,
      "istrar": 2112,
      "ada": 2113,
      "urban": 2114,
      "▁Pakistan": 2115,
      "▁1.": 2116,
      "▁def": 2117,
      "▁largest": 2118,
      "▁December": 2119,
      "tud": 2120,
      "▁Hindi": 2121,
      "odi": 2122,
      "emple": 2123,
      "▁China": 2124,
      "▁\"History": 2125,
      "](https://en.wikipedia.org/wiki/History": 2126,
      "reek": 2127,
      "riculture": 2128,
      "MetcalfMetcalf2006),": 2129,
      "ife": 2130,
      ".jpg/330px-": 2131,
      "▁union": 2132,
      "egistrar": 2133,
      "▁territory": 2134,
      "▁Empire\")": 2135,
      "▁2020": 2136,
      "▁play": 2137,
      "▁Commission": 2138,
      "▁world's": 2139,
      "arliamentary": 2140,
      ".svg": 2141,
      "india.gov.in/": 2142,
      "▁2006](https://en.wikipedia.org/wiki/India#CITEREFMetcalfMetcalf2006),": 2143,
      "▁article:": 2144,
      "ffairs": 2145,
      "fghanistan": 2146,
      ".nic.in/": 2147,
      "▁occ": 2148,
      "6]](https://en.wikipedia.org/wiki/India#cite_note-FOOTNOTE": 2149,
      "7).": 2150,
      "7-0)": 2151,
      "Ary": 2152,
      "Robb": 2153,
      "Sharma": 2154,
      "_n": 2155,
      "data": 2156,
      "ek": 2157,
      "itt": 2158,
      "jec": 2159,
      "ott": 2160,
      "oci": 2161,
      "ocial": 2162,
      "ura": 2163,
      "west": 2164,
      "▁term": 2165,
      "oral": 2166,
      "ances": 2167,
      "▁[Oxford": 2168,
      "ery": 2169,
      "rel": 2170,
      "▁they": 2171,
      "ict": 2172,
      "▁Al": 2173,
      "▁Summit\")": 2174,
      "▁Cambridge": 2175,
      "▁Company": 2176,
      "2003": 2177,
      "agar": 2178,
      "▁Pro": 2179,
      "▁Pers": 2180,
      "▁12": 2181,
      "road": 2182,
      "ters": 2183,
      "emale": 2184,
      "states": 2185,
      "▁history": 2186,
      "▁Delhi": 2187,
      "▁Environment": 2188,
      "▁Gandhi": 2189,
      "avi": 2190,
      "▁number": 2191,
      "epal": 2192,
      "upta": 2193,
      "▁[Asher": 2194,
      "▁Kashmir": 2195,
      "ournal": 2196,
      "▁began": 2197,
      "lack": 2198,
      "▁original](https://": 2199,
      "aniz": 2200,
      "▁*[The": 2201,
      "rough": 2202,
      "ultural": 2203,
      "ibet": 2204,
      "ducation": 2205,
      "Oxford_University_Press": 2206,
      "Stein2010),": 2207,
      "meric": 2208,
      "limate": 2209,
      "inistry_of_": 2210,
      "yanmar": 2211,
      "esert": 2212,
      "union_territ": 2213,
      "▁2010](https://en.wikipedia.org/wiki/India#CITEREFStein2010),": 2214,
      "ulke": 2215,
      "ultanate": 2216,
      "rganiz": 2217,
      "ministrative": 2218,
      "▁Press](https://en.wikipedia.org/wiki/Oxford_University_Press": 2219,
      "Spear199024": 2220,
      "*,": 2221,
      "/P": 2222,
      "2](https://en.wikipedia.org/wiki/India#CITEREF": 2223,
      "5]](https://en.wikipedia.org/wiki/India#cite_note-FOOTNOTE": 2224,
      "500": 2225,
      "61": 2226,
      "7-1": 2227,
      "8-0)": 2228,
      "Category:": 2229,
      "Ludden": 2230,
      "Qu": 2231,
      "_g": 2232,
      "a.": 2233,
      "ball": 2234,
      "bank": 2235,
      "ez": 2236,
      "ho": 2237,
      "lin": 2238,
      "languages": 2239,
      "oon": 2240,
      "ocal": 2241,
      "ots": 2242,
      "s_of_India": 2243,
      "wal": 2244,
      "–2": 2245,
      "iam": 2246,
      "kim": 2247,
      "ors": 2248,
      "](Category:": 2249,
      "ancy": 2250,
      "anoram": 2251,
      "thor": 2252,
      "errit": 2253,
      "eries": 2254,
      "tice": 2255,
      "alore": 2256,
      "cid": 2257,
      "rim": 2258,
      "tionary": 2259,
      "▁ins": 2260,
      "▁sp": 2261,
      "▁since": 2262,
      "▁par": 2263,
      "▁prime": 2264,
      "1970": 2265,
      "amp": 2266,
      "ament": 2267,
      "inger": 2268,
      "olper": 2269,
      "adi": 2270,
      "angalore": 2271,
      "cean": 2272,
      "▁11": 2273,
      "▁land": 2274,
      "▁R.": 2275,
      "▁Raj": 2276,
      "▁India\").": 2277,
      "ments": 2278,
      "▁Development": 2279,
      "lowing": 2280,
      "▁groups": 2281,
      "▁non-": 2282,
      "▁Times": 2283,
      "▁\"Category:": 2284,
      "aputra": 2285,
      "otals": 2286,
      "ommonwealth": 2287,
      "erala": 2288,
      "undament": 2289,
      "_East_Asia_Summit": 2290,
      "AARC_summit": 2291,
      "▁relations": 2292,
      "▁lead": 2293,
      ".png": 2294,
      "uddhist": 2295,
      "flu": 2296,
      "▁used": 2297,
      "rdu": 2298,
      "▁York": 2299,
      "formation": 2300,
      "rahmaputra": 2301,
      "emocracy": 2302,
      "▁(India)\")": 2303,
      "artition": 2304,
      "▁app": 2305,
      "aldives": 2306,
      "](https://en.wikipedia.org/wiki/List_of_countries_by": 2307,
      "Aryan": 2308,
      "rganization": 2309,
      "erritory": 2310,
      "olpert": 2311,
      "-le": 2312,
      "/c": 2313,
      "/India": 2314,
      "1).": 2315,
      "110": 2316,
      "2–": 2317,
      "2.\n": 2318,
      "3–": 2319,
      "53": 2320,
      "7/": 2321,
      "76": 2322,
      "99": 2323,
      "Coll": 2324,
      "MF": 2325,
      "Rowland": 2326,
      "TR": 2327,
      "_J": 2328,
      "ao": 2329,
      "aury": 2330,
      "cis": 2331,
      "gra": 2332,
      "ns": 2333,
      "ved": 2334,
      "y,": 2335,
      "yle": 2336,
      "▁ed.).": 2337,
      "▁[19": 2338,
      "thnic": 2339,
      "aran": 2340,
      "▁official": 2341,
      "city": 2342,
      "rig": 2343,
      "ediev": 2344,
      "icial": 2345,
      "rature": 2346,
      "cha": 2347,
      "chitecture": 2348,
      "▁power": 2349,
      "▁All": 2350,
      "▁col": 2351,
      "-0-4": 2352,
      "▁famil": 2353,
      "atus": 2354,
      "▁C.": 2355,
      "▁mar": 2356,
      "▁movement": 2357,
      "▁made": 2358,
      "]](https://en.wikipedia.org/wiki/India#cite_note-4": 2359,
      "▁large": 2360,
      "emic": 2361,
      "▁River": 2362,
      "▁his": 2363,
      "▁[↑](https://en.wikipedia.org/wiki/India#cite_ref-4": 2364,
      "109": 2365,
      "▁2011.": 2366,
      "aylor": 2367,
      "-2)": 2368,
      "lobal": 2369,
      "ship": 2370,
      "force": 2371,
      "asting": 2372,
      "abh": 2373,
      ".[[4": 2374,
      "udi": 2375,
      "-80": 2376,
      "▁1950": 2377,
      "o-ope": 2378,
      "▁[*A": 2379,
      "_and_D": 2380,
      "illen": 2381,
      "iteracy": 2382,
      "onstituent": 2383,
      "ight": 2384,
      "overty": 2385,
      "▁tex": 2386,
      "ohn": 2387,
      "nergy": 2388,
      "teenth": 2389,
      "Indonesia": 2390,
      "Rowland1970": 2391,
      "edieval": 2392,
      ".n": 2393,
      "1_": 2394,
      "4/": 2395,
      "4–": 2396,
      "4-3": 2397,
      "BC": 2398,
      "_0": 2399,
      "a-": 2400,
      "af": 2401,
      "der": 2402,
      "e/": 2403,
      "iew": 2404,
      "ks": 2405,
      "lurton": 2406,
      "national": 2407,
      "rary": 2408,
      "sub": 2409,
      "ua": 2410,
      "ual": 2411,
      "work": 2412,
      "▁...": 2413,
      "▁urban": 2414,
      "ency": 2415,
      "an,": 2416,
      "▁[c": 2417,
      "▁[d": 2418,
      "▁[Indo-": 2419,
      "](https://en.wikipedia.org/wiki/United": 2420,
      "erry": 2421,
      "▁\"United": 2422,
      "tiv": 2423,
      "\");": 2424,
      "are": 2425,
      "▁them": 2426,
      "asi": 2427,
      "▁influ": 2428,
      "icob": 2429,
      "rat": 2430,
      "▁summit": 2431,
      "▁pre": 2432,
      "▁painting": 2433,
      "▁country": 2434,
      "▁S.": 2435,
      "▁Science": 2436,
      "▁bas": 2437,
      "▁western": 2438,
      "▁Pl": 2439,
      "▁Publishing": 2440,
      "eli": 2441,
      "ulti": 2442,
      "▁Bi": 2443,
      "resent": 2444,
      "ove": 2445,
      "▁2019": 2446,
      "▁21": 2447,
      "▁Ex": 2448,
      "imach": 2449,
      "▁November": 2450,
      "▁General": 2451,
      "▁GDP": 2452,
      "▁eastern": 2453,
      "▁Himalay": 2454,
      "akhand": 2455,
      "formatics": 2456,
      "ouncil": 2457,
      ".com/news/": 2458,
      "▁new": 2459,
      ".[[3": 2460,
      "▁Tamil": 2461,
      "uduch": 2462,
      "▁Kingdom": 2463,
      "160": 2464,
      "▁[↑](https://en.wikipedia.org/wiki/India#cite_ref-FOOTNOTEMetcalfMetcalf2006": 2465,
      "▁Lank": 2466,
      "ikkim": 2467,
      "▁Valley": 2468,
      "general_": 2469,
      "▁prov": 2470,
      "ravi": 2471,
      "▁left": 2472,
      "▁contrib": 2473,
      "-largest": 2474,
      "nium": 2475,
      "iffer": 2476,
      "_Indian_general_": 2477,
      "%7C": 2478,
      "%7c": 2479,
      "html).": 2480,
      "_at_the": 2481,
      "ustralia": 2482,
      "/http://www.": 2483,
      "▁employ": 2484,
      "illennium": 2485,
      "uducherry": 2486,
      "_Indian_general_election": 2487,
      "-h": 2488,
      "3/": 2489,
      "5.\n": 2490,
      "73": 2491,
      "IMF": 2492,
      "Provision": 2493,
      "Rothermund": 2494,
      "SAARC_summit": 2495,
      "_18": 2496,
      "hil": 2497,
      "ling": 2498,
      "lag": 2499,
      "lood": 2500,
      "oal": 2501,
      "oard": 2502,
      "pdf)": 2503,
      "rial": 2504,
      "ward": 2505,
      "▁•": 2506,
      "▁el": 2507,
      "▁40": 2508,
      "pecial": 2509,
      "anag": 2510,
      "tex": 2511,
      "on,": 2512,
      "▁\"Th": 2513,
      "\"))": 2514,
      "alit": 2515,
      "isc": 2516,
      "ret": 2517,
      "as,": 2518,
      "cip": 2519,
      "▁India*](https://books.google.com/books?id=": 2520,
      "▁India](https://en.wikipedia.org/wiki/G": 2521,
      "raz": 2522,
      "▁serv": 2523,
      "▁second": 2524,
      "▁(199": 2525,
      "ams": 2526,
      "▁far": 2527,
      "ingh": 2528,
      "etary": 2529,
      "▁me": 2530,
      "urch": 2531,
      "urve": 2532,
      "▁women": 2533,
      "▁P.": 2534,
      "ular": 2535,
      "uled": 2536,
      "emograph": 2537,
      "▁Mon": 2538,
      "▁Modern": 2539,
      "state": 2540,
      "cess": 2541,
      "▁By": 2542,
      "resident": 2543,
      "▁D.": 2544,
      "logo": 2545,
      "▁Nehru": 2546,
      "▁Gu": 2547,
      "▁gre": 2548,
      "aves": 2549,
      "▁J.": 2550,
      "oss": 2551,
      "_Ch": 2552,
      "ourt": 2553,
      "endra": 2554,
      "a\")\n": 2555,
      "oreign": 2556,
      "arty": 2557,
      "fficial": 2558,
      "order": 2559,
      "ological": 2560,
      "iley": 2561,
      "les\\_": 2562,
      "athura": 2563,
      "▁\"National": 2564,
      "▁[Government": 2565,
      "](https://en.wikipedia.org/wiki/National_": 2566,
      "](https://en.wikipedia.org/wiki/List_of_SAARC_summit": 2567,
      "ibrary": 2568,
      "▁technology": 2569,
      "▁This": 2570,
      "ashmiri": 2571,
      "awahar": 2572,
      "▁Hinduism": 2573,
      "worldbank": 2574,
      "rancis": 2575,
      "kingdom": 2576,
      "pringer": 2577,
      "▁economy": 2578,
      "ockey": 2579,
      "eserve": 2580,
      "vention": 2581,
      "▁Assembly": 2582,
      "istorical": 2583,
      "industani": 2584,
      "_Islands": 2585,
      "_BRICS_summit": 2586,
      "DikshitSchwartzberg2023": 2587,
      "pectancy": 2588,
      "omason": 2589,
      "ootball": 2590,
      "overeign": 2591,
      "_industry": 2592,
      "▁Persian": 2593,
      "icobar": 2594,
      "▁summits\")": 2595,
      "](https://en.wikipedia.org/wiki/List_of_SAARC_summits": 2596,
      "awaharl": 2597,
      ".india": 2598,
      "2]](https://en.wikipedia.org/wiki/India#cite_note-": 2599,
      "3-8": 2600,
      "318": 2601,
      "4.\n": 2602,
      "4]](https://en.wikipedia.org/wiki/India#cite_note-FOOTNOTE": 2603,
      "511": 2604,
      "7_": 2605,
      "7]](https://en.wikipedia.org/wiki/India#cite_note-FOOTNOTE": 2606,
      "85": 2607,
      "EO": 2608,
      "Kulke": 2609,
      "MC": 2610,
      "MID": 2611,
      "National_": 2612,
      "WEO": 2613,
      "_on": 2614,
      "casting": 2615,
      "dish": 2616,
      "eor": 2617,
      "ead": 2618,
      "eology": 2619,
      "iber": 2620,
      "kar": 2621,
      "ning": 2622,
      "press": 2623,
      "pture": 2624,
      "vel": 2625,
      "yam": 2626,
      "ymb": 2627,
      "–24": 2628,
      "▁50": 2629,
      "iary": 2630,
      "en,": 2631,
      "anc": 2632,
      "ants": 2633,
      "▁[f": 2634,
      "▁[v": 2635,
      "](https://en.wikipedia.org/wiki/Th": 2636,
      "than": 2637,
      "th_BRICS_summit": 2638,
      "eri": 2639,
      "▁\"In": 2640,
      "ars": 2641,
      "aria": 2642,
      "arlo": 2643,
      "araj": 2644,
      "arath": 2645,
      "esc": 2646,
      "reme": 2647,
      "educ": 2648,
      "icon": 2649,
      "ches": 2650,
      "entr": 2651,
      "▁popul": 2652,
      "▁culture": 2653,
      "▁caus": 2654,
      "iving": 2655,
      "olence": 2656,
      "▁billion": 2657,
      "▁tree": 2658,
      "▁Civil": 2659,
      "2001": 2660,
      "2002": 2661,
      "▁Punjab": 2662,
      "iger": 2663,
      "▁development": 2664,
      "ema": 2665,
      "▁Rev": 2666,
      "▁Republic": 2667,
      "▁Research": 2668,
      "▁hum": 2669,
      "2022": 2670,
      "▁23": 2671,
      "▁Economic": 2672,
      "_of_2011": 2673,
      "-25": 2674,
      "onsoon": 2675,
      "oples": 2676,
      "▁rem": 2677,
      "▁these": 2678,
      "_Ass": 2679,
      "ained": 2680,
      "aining": 2681,
      "odiversity": 2682,
      "hief": 2683,
      "▁wid": 2684,
      "▁[↑](https://en.wikipedia.org/wiki/India#cite_ref-FOOTNOTEB": 2685,
      "▁1947": 2686,
      "ource": 2687,
      "▁when": 2688,
      "_Paper": 2689,
      "umbers": 2690,
      "phere": 2691,
      "overnment_of_India": 2692,
      "ociation": 2693,
      "ouse": 2694,
      "▁Press](https://en.wikipedia.org/wiki/C": 2695,
      "▁language\"),": 2696,
      "▁[Dyson": 2697,
      "▁[National": 2698,
      "_Totals": 2699,
      "ighth": 2700,
      "MetcalfMetcalf2012": 2701,
      "ibcod": 2702,
      "▁[![A": 2703,
      "opulation_Totals": 2704,
      "qual": 2705,
      "issing": 2706,
      "▁control": 2707,
      "▁languages\")": 2708,
      "▁add": 2709,
      "ipp": 2710,
      "▁Islands\")": 2711,
      "gypt": 2712,
      "▁Indus": 2713,
      "_1_of_2011": 2714,
      "_rel": 2715,
      "ikhism": 2716,
      "urrent": 2717,
      "ildlife": 2718,
      "oint": 2719,
      "cording": 2720,
      "uisine": 2721,
      "struc": 2722,
      "al_Population_Totals": 2723,
      "nown": 2724,
      "arnatic": 2725,
      "▁mathema": 2726,
      "ynasty": 2727,
      "](https://en.wikipedia.org/wiki/History_of_": 2728,
      "roadcasting": 2729,
      "o-operation": 2730,
      "Provisional_Population_Totals": 2731,
      "emographics": 2732,
      "education": 2733,
      "_Paper_1_of_2011": 2734,
      "ibcode": 2735,
      "Provisional_Population_Totals_Paper_1_of_2011": 2736,
      "Provisional_Population_Totals_Paper_1_of_2011_India": 2737,
      "-D": 2738,
      "-R": 2739,
      "-S": 2740,
      "-50": 2741,
      ".as": 2742,
      ".\")\n": 2743,
      ".](https://upload.wikimedia.org/wikipedia/commons/thumb/": 2744,
      ".IN": 2745,
      "/A": 2746,
      "2]](https://en.wikipedia.org/wiki/India#cite_note-FOOTNOTE": 2747,
      "3TR": 2748,
      "4]](https://en.wikipedia.org/wiki/India#cite_note-": 2749,
      "6–": 2750,
      "7C": 2751,
      "7]](https://en.wikipedia.org/wiki/India#cite_note-": 2752,
      "89": 2753,
      "AS": 2754,
      "For": 2755,
      "IF": 2756,
      "IUCN": 2757,
      "PP": 2758,
      "UN": 2759,
      "_pe": 2760,
      "_with": 2761,
      "_languages": 2762,
      "ax": 2763,
      "ative": 2764,
      "dr": 2765,
      "ges": 2766,
      "hang": 2767,
      "jpg": 2768,
      "ject": 2769,
      "most": 2770,
      "ncient": 2771,
      "o.": 2772,
      "ption": 2773,
      "ute": 2774,
      "uct": 2775,
      "ually": 2776,
      "vil": 2777,
      "▁z": 2778,
      "▁Qu": 2779,
      "orn": 2780,
      "ortheast": 2781,
      "](Template:": 2782,
      "▁[e": 2783,
      "ofk": 2784,
      "anda": 2785,
      "▁off": 2786,
      "ources": 2787,
      "ed,": 2788,
      "ediff": 2789,
      "▁India](https://en.wikipedia.org/wiki/C": 2790,
      "▁sign": 2791,
      "▁sector": 2792,
      "▁capit": 2793,
      "olon": 2794,
      "ature": 2795,
      "atyam": 2796,
      "ately": 2797,
      "▁Soci": 2798,
      "▁Con": 2799,
      "▁Cooperation": 2800,
      "▁Centre": 2801,
      "adra": 2802,
      "adras": 2803,
      "▁Pe": 2804,
      "▁Park": 2805,
      "▁Population": 2806,
      "]](https://en.wikipedia.org/wiki/India#cite_note-Combined": 2807,
      "ign_": 2808,
      "igarh": 2809,
      "ions": 2810,
      "▁life": 2811,
      "▁att": 2812,
      "▁M.": 2813,
      "▁total": 2814,
      "▁her": 2815,
      "▁human": 2816,
      "▁Buddhist": 2817,
      "irth": 2818,
      "eck": 2819,
      "eccan": 2820,
      "▁2.": 2821,
      "loth": 2822,
      "▁Games": 2823,
      "▁growth": 2824,
      "▁ear": 2825,
      "▁through": 2826,
      "akes": 2827,
      "ability": 2828,
      "▁name": 2829,
      ".[[40": 2830,
      "osphere": 2831,
      "▁35": 2832,
      "rity": 2833,
      "AAJ": 2834,
      "▁[Ministry": 2835,
      "▁\"Mughal": 2836,
      "](https://en.wikipedia.org/wiki/Mugh": 2837,
      "-90": 2838,
      "ummer": 2839,
      "▁\"British": 2840,
      "](https://en.wikipedia.org/wiki/British": 2841,
      "▁ass": 2842,
      "▁within": 2843,
      "a_Empire": 2844,
      "ternal": 2845,
      "late_": 2846,
      "ffice": 2847,
      "▁\"Template:": 2848,
      "hmed": 2849,
      "anipur": 2850,
      "▁Chand": 2851,
      "▁produc": 2852,
      "handigarh": 2853,
      "embers": 2854,
      "pura": 2855,
      "times.com/": 2856,
      "ote:": 2857,
      "mitt": 2858,
      "Dyson2018),": 2859,
      "culpture": 2860,
      "view": 2861,
      "eography": 2862,
      "/article": 2863,
      "irector": 2864,
      "rishn": 2865,
      "rishna": 2866,
      "ortal:": 2867,
      "Uttarakhand": 2868,
      "▁2007](https://en.wikipedia.org/wiki/India#CITEREF": 2869,
      "Artic": 2870,
      "▁especial": 2871,
      "▁Plateau": 2872,
      "](https://en.wikipedia.org/wiki/South_Asian_": 2873,
      "▁emer": 2874,
      "▁2018](https://en.wikipedia.org/wiki/India#CITEREFDyson2018),": 2875,
      "▁increased": 2876,
      "IMFWEO": 2877,
      "urvey": 2878,
      ".aspx": 2879,
      "3TRt": 2880,
      "▁Quote:": 2881,
      "](https://en.wikipedia.org/wiki/Mughal_": 2882,
      "▁especially": 2883,
      "IMFWEO.IN": 2884,
      "*](https://web.archive.org/web/": 2885,
      "-k": 2886,
      "-v": 2887,
      "-India": 2888,
      "-and": 2889,
      "0.": 2890,
      "1-2": 2891,
      "2_": 2892,
      "43": 2893,
      "5]](https://en.wikipedia.org/wiki/India#cite_note-": 2894,
      "5](https://en.wikipedia.org/wiki/India#CITEREF": 2895,
      "7](https://en.wikipedia.org/wiki/India#CITEREF": 2896,
      "8)": 2897,
      "8]](https://en.wikipedia.org/wiki/India#cite_note-": 2898,
      "8.\n": 2899,
      "9]](https://en.wikipedia.org/wiki/India#cite_note-": 2900,
      "Ex": 2901,
      "Paki": 2902,
      "_&": 2903,
      "_38": 2904,
      "_2024": 2905,
      "baki": 2906,
      "country": 2907,
      "day": 2908,
      "ees": 2909,
      "hut": 2910,
      "iet": 2911,
      "khand": 2912,
      "men": 2913,
      "nc": 2914,
      "rang": 2915,
      "rust": 2916,
      "ront": 2917,
      "▁eng": 2918,
      "▁old": 2919,
      "ences": 2920,
      "orship": 2921,
      "ini": 2922,
      "▁[World": 2923,
      "](https://en.wikipedia.org/wiki/World": 2924,
      "▁\"World": 2925,
      "aro": 2926,
      "arendra": 2927,
      "ison": 2928,
      "ederal": 2929,
      "ictionary": 2930,
      "lege": 2931,
      "chi": 2932,
      "▁sim": 2933,
      "▁prom": 2934,
      "▁political": 2935,
      "itz": 2936,
      "itation": 2937,
      "▁(ed.).": 2938,
      "ama": 2939,
      "▁Am": 2940,
      "▁After": 2941,
      "▁Affairs": 2942,
      "-06": 2943,
      "ingham": 2944,
      "oln": 2945,
      "atna": 2946,
      "▁Sub": 2947,
      "▁bu": 2948,
      "▁Comp": 2949,
      "▁Central": 2950,
      "ango": 2951,
      "angam": 2952,
      "ilk": 2953,
      "ceu": 2954,
      "▁work": 2955,
      "ull": 2956,
      "umar": 2957,
      "stani": 2958,
      "ever,": 2959,
      "103": 2960,
      "ecret": 2961,
      "▁David": 2962,
      "▁gen": 2963,
      "-432": 2964,
      "-30": 2965,
      "▁only": 2966,
      "astr": 2967,
      "▁near": 2968,
      "epart": 2969,
      "00–": 2970,
      "▁Territory": 2971,
      "▁\"Cambridge": 2972,
      "ghts": 2973,
      "▁[Cambridge": 2974,
      "hib": 2975,
      "▁[↑](https://en.wikipedia.org/wiki/India#cite_ref-FOOTNOTEStein2010": 2976,
      "harkhand": 2977,
      "▁2001": 2978,
      "_Comm": 2979,
      "_Centre": 2980,
      "ourbaki": 2981,
      "](Special:BookSources/978-81": 2982,
      "▁[978-81": 2983,
      "▁\"Special:BookSources/978-81": 2984,
      "owever,": 2985,
      "▁[British": 2986,
      "▁[\"C": 2987,
      "▁[*India": 2988,
      "hai": 2989,
      "arden": 2990,
      "ichell": 2991,
      "▁vill": 2992,
      "ocument": 2993,
      "▁\"Government": 2994,
      "aking": 2995,
      "677": 2996,
      "▁range": 2997,
      "ext": 2998,
      "ondon": 2999,
      "amil_N": 3000,
      "▁[![](https://upload.wikimedia.org/wikipedia/commons/thumb/": 3001,
      ".gov/": 3002,
      "class": 3003,
      "_432": 3004,
      "▁1994](https://en.wikipedia.org/wiki/India#CITEREF": 3005,
      "▁right": 3006,
      "ific": 3007,
      "_pro": 3008,
      "olden": 3009,
      "ambridge_University_Press": 3010,
      "-107": 3011,
      "▁ago": 3012,
      "▁regions": 3013,
      "harmaceu": 3014,
      "-india-": 3015,
      "▁composed": 3016,
      "▁use": 3017,
      "International_": 3018,
      "▁dispu": 3019,
      "▁along": 3020,
      ".svg/": 3021,
      "india.gov.in": 3022,
      "oastal": 3023,
      "cheduled": 3024,
      "ominion": 3025,
      "▁including": 3026,
      "ecurity": 3027,
      "▁[India](https://en.wikipedia.org/wiki/India": 3028,
      "rotection": 3029,
      "vatsyayan-lord-432": 3030,
      "vatsyayan-lord_432": 3031,
      "ritsch": 3032,
      "6]](https://en.wikipedia.org/wiki/India#cite_note-vatsyayan-lord-432": 3033,
      "ristian": 3034,
      "▁Commissioner": 3035,
      ".svg.png": 3036,
      "undamental": 3037,
      "subcontinent": 3038,
      "ifferent": 3039,
      "KulkeRothermund": 3040,
      "▁Press](https://en.wikipedia.org/wiki/Cambridge_University_Press": 3041,
      "quality": 3042,
      "Pakistani": 3043,
      "hutan": 3044,
      "epartment": 3045,
      "amil_Nadu": 3046,
      "-n": 3047,
      ".htm": 3048,
      ".ni": 3049,
      "/s": 3050,
      "1-1": 3051,
      "230": 3052,
      "3-7": 3053,
      "45": 3054,
      "4-0": 3055,
      "5-4": 3056,
      "812": 3057,
      "9]](https://en.wikipedia.org/wiki/India#cite_note-FOOTNOTE": 3058,
      ";[[": 3059,
      "AG": 3060,
      "Bharat": 3061,
      "II": 3062,
      "JP": 3063,
      "Kashmir": 3064,
      "Pakistan": 3065,
      "S$": 3066,
      "Tarlo": 3067,
      "Wolpert": 3068,
      "_-": 3069,
      "_24": 3070,
      "_26": 3071,
      "aos": 3072,
      "back": 3073,
      "britannica": 3074,
      "edia": 3075,
      "fr": 3076,
      "gl": 3077,
      "ged": 3078,
      "gram": 3079,
      "hra": 3080,
      "hind": 3081,
      "ihar": 3082,
      "i_language": 3083,
      "lar": 3084,
      "lesh": 3085,
      "mill": 3086,
      "nim": 3087,
      "oa": 3088,
      "odia": 3089,
      "pen": 3090,
      "rune": 3091,
      "ues": 3092,
      "ule": 3093,
      "wh": 3094,
      "well": 3095,
      "yth": 3096,
      "yer": 3097,
      "▁Un": 3098,
      "▁kingdom": 3099,
      "iated": 3100,
      "ino-": 3101,
      "inema": 3102,
      "▁[Y": 3103,
      "er-": 3104,
      "tis": 3105,
      "tile": 3106,
      "alam": 3107,
      "arc": 3108,
      "aries": 3109,
      "20-2": 3110,
      "ofindia": 3111,
      "omo": 3112,
      "omes": 3113,
      "ominal": 3114,
      "](https://en.wikipedia.org/wiki/Indian": 3115,
      "riya": 3116,
      "leav": 3117,
      "ratic": 3118,
      "▁school": 3119,
      "its": 3120,
      "▁As": 3121,
      "▁At": 3122,
      "▁cre": 3123,
      "-0-3": 3124,
      "-0\").\n": 3125,
      "▁fol": 3126,
      "▁four": 3127,
      "ingap": 3128,
      "ets": 3129,
      "etry": 3130,
      "ation,": 3131,
      "ived": 3132,
      "ator": 3133,
      "atal": 3134,
      "ating": 3135,
      "ata_": 3136,
      "▁See": 3137,
      "▁main": 3138,
      "ists": 3139,
      "angered": 3140,
      "▁would": 3141,
      "▁Public": 3142,
      "elang": 3143,
      "eligious": 3144,
      "Southeast": 3145,
      "igration": 3146,
      "ults": 3147,
      "▁direct": 3148,
      "▁led": 3149,
      "▁lik": 3150,
      "▁Routledge": 3151,
      "fir": 3152,
      "▁B.": 3153,
      "1017": 3154,
      "s.\"\n": 3155,
      "▁2012.": 3156,
      "▁Dev": 3157,
      "▁Dance": 3158,
      "ly,": 3159,
      "▁N.": 3160,
      "▁Nicobar": 3161,
      "▁Government": 3162,
      "▁Greek": 3163,
      "indus": 3164,
      "indhi": 3165,
      "\"),[[": 3166,
      "ogri": 3167,
      "ogam": 3168,
      "ogue": 3169,
      "▁*India": 3170,
      "-39": 3171,
      "▁rec": 3172,
      "▁reg": 3173,
      "▁third": 3174,
      "_Act": 3175,
      "_A7C": 3176,
      "abha": 3177,
      "upt": 3178,
      "▁Temple": 3179,
      "▁36": 3180,
      "▁37": 3181,
      "▁38": 3182,
      "ustrial": 3183,
      "aph": 3184,
      "▁Fund": 3185,
      "▁[Central": 3186,
      "▁2024": 3187,
      "▁2025.": 3188,
      "▁[↑](https://en.wikipedia.org/wiki/India#cite_ref-FOOTNOTEM": 3189,
      "▁Organization": 3190,
      "ngineering": 3191,
      "o-d": 3192,
      "ountain": 3193,
      "ow/": 3194,
      "_Pradesh": 3195,
      "](https://books.google.com/books?id=3TRt": 3196,
      "lative": 3197,
      "otal": 3198,
      "-53": 3199,
      "iterature": 3200,
      "▁areas": 3201,
      "▁Ved": 3202,
      "uddha": 3203,
      "ambodia": 3204,
      "_River": 3205,
      "ndhra": 3206,
      "▁change": 3207,
      "acmill": 3208,
      "%2C5": 3209,
      "▁[![The": 3210,
      "erves": 3211,
      "ameez": 3212,
      "aith": 3213,
      "economic": 3214,
      "ailand": 3215,
      "▁religious": 3216,
      "ependencies": 3217,
      "alaysia": 3218,
      "rates": 3219,
      "DwAAQBAJ": 3220,
      "▁agriculture": 3221,
      "▁./Category:Artic": 3222,
      "ureau": 3223,
      "usiness/": 3224,
      "ukesh": 3225,
      "](Special:BookSources/978-0-521": 3226,
      "▁[978-0-521": 3227,
      "▁\"Special:BookSources/978-0-521": 3228,
      "athematics": 3229,
      "▁Pradesh\")": 3230,
      "cript": 3231,
      "▁subcontinent\")": 3232,
      "-in-": 3233,
      "eographical": 3234,
      "▁Force": 3235,
      "html)": 3236,
      "chedule": 3237,
      "emocratic": 3238,
      "▁species": 3239,
      "ataraj": 3240,
      "industan": 3241,
      "▁estim": 3242,
      "adhya": 3243,
      "troduction": 3244,
      "▁rock": 3245,
      "Insur": 3246,
      "janta": 3247,
      "censusindia.gov.in/": 3248,
      "▁majority": 3249,
      "arnataka": 3250,
      "tudies": 3251,
      "▁occup": 3252,
      "Sharma2007": 3253,
      "data.": 3254,
      "merican": 3255,
      "Collingham": 3256,
      "-0-415": 3257,
      "lurton199": 3258,
      "ravidian": 3259,
      "▁employed": 3260,
      "razil": 3261,
      "worldbank.org/": 3262,
      "_industry_in_India": 3263,
      "ymbol": 3264,
      "IFT": 3265,
      "ofker": 3266,
      "▁Society": 3267,
      "olnar": 3268,
      "_Commission": 3269,
      "harmaceutical": 3270,
      "Tarlo199": 3271,
      "britannica.com/": 3272,
      "gramme": 3273,
      "leshow/": 3274,
      "runei": 3275,
      "ingapore": 3276,
      "](https://books.google.com/books?id=3TRtDwAAQBAJ&pg=PA": 3277,
      "acmillan": 3278,
      "▁./Category:Articles\\_": 3279,
      "censusindia.gov.in/2011": 3280,
      "-of": 3281,
      "-ex": 3282,
      "-world": 3283,
      "-on-": 3284,
      "/b": 3285,
      "/t": 3286,
      "/news/": 3287,
      "119": 3288,
      "139": 3289,
      "2nd": 3290,
      "3]](https://en.wikipedia.org/wiki/India#cite_note-": 3291,
      "338": 3292,
      "5-3": 3293,
      "7.\n": 3294,
      "8).": 3295,
      "Ag": 3296,
      "Countries": 3297,
      "Congress": 3298,
      "OV": 3299,
      "QAAQBAJ&pg=PA": 3300,
      "SE": 3301,
      "Urdu": 3302,
      "Wright": 3303,
      "\\_in": 3304,
      "_17": 3305,
      "_Union": 3306,
      "bn": 3307,
      "cise": 3308,
      "cms": 3309,
      "detail": 3310,
      "dynasty": 3311,
      "eag": 3312,
      "hol": 3313,
      "i)": 3314,
      "ield": 3315,
      "lm": 3316,
      "ls": 3317,
      "mall": 3318,
      "ren": 3319,
      "rian": 3320,
      "round": 3321,
      "rban": 3322,
      "tou": 3323,
      "tate": 3324,
      "tandard": 3325,
      "u,": 3326,
      "ui": 3327,
      "uries": 3328,
      "uthor": 3329,
      "va": 3330,
      "wan": 3331,
      "enj": 3332,
      "enous": 3333,
      "orpor": 3334,
      "](Special:EditPage/Template:": 3335,
      "in-": 3336,
      "ina\")": 3337,
      "▁[n": 3338,
      "▁[Th": 3339,
      "Intelligence": 3340,
      "tered": 3341,
      "▁\"Special:EditPage/Template:": 3342,
      "tival": 3343,
      "alk:": 3344,
      "reen": 3345,
      "andoor": 3346,
      "aste-": 3347,
      "asthan": 3348,
      "rior": 3349,
      "▁inv": 3350,
      "▁inte": 3351,
      "icha": 3352,
      "raman": 3353,
      "chin": 3354,
      "▁sev": 3355,
      "▁prac": 3356,
      "itar": 3357,
      "id-": 3358,
      "▁(2007": 3359,
      "▁Ad": 3360,
      "▁Agency": 3361,
      "^": 3362,
      "·": 3363,
      "è": 3364,
      "ñ": 3365,
      "ం": 3366,
      "ః": 3367,
      "అ": 3368,
      "ఆ": 3369,
      "ఇ": 3370,
      "ఈ": 3371,
      "ఉ": 3372,
      "ఋ": 3373,
      "ఎ": 3374,
      "ఏ": 3375,
      "ఐ": 3376,
      "ఒ": 3377,
      "ఓ": 3378,
      "ఔ": 3379,
      "క": 3380,
      "ఖ": 3381,
      "గ": 3382,
      "ఘ": 3383,
      "చ": 3384,
      "ఛ": 3385,
      "జ": 3386,
      "ఞ": 3387,
      "ట": 3388,
      "ఠ": 3389,
      "డ": 3390,
      "ఢ": 3391,
      "ణ": 3392,
      "త": 3393,
      "థ": 3394,
      "ద": 3395,
      "ధ": 3396,
      "న": 3397,
      "ప": 3398,
      "ఫ": 3399,
      "బ": 3400,
      "భ": 3401,
      "మ": 3402,
      "య": 3403,
      "ర": 3404,
      "ల": 3405,
      "ళ": 3406,
      "వ": 3407,
      "శ": 3408,
      "ష": 3409,
      "స": 3410,
      "హ": 3411,
      "ా": 3412,
      "ి": 3413,
      "ీ": 3414,
      "ు": 3415,
      "ూ": 3416,
      "ృ": 3417,
      "ె": 3418,
      "ే": 3419,
      "ై": 3420,
      "ొ": 3421,
      "ో": 3422,
      "ౌ": 3423,
      "్": 3424,
      "‌": 3425,
      "‹": 3426,
      "›": 3427,
      "tp": 3428,
      "http": 3429,
      "](http": 3430,
      "ia.": 3431,
      "s://": 3432,
      "్ర": 3433,
      "org/": 3434,
      "ia.org/": 3435,
      "ia.org/wiki": 3436,
      "te.wiki": 3437,
      "](https://te.wiki": 3438,
      "pedia.org/wiki": 3439,
      "](https://te.wikipedia.org/wiki": 3440,
      "](https://te.wikipedia.org/wiki/": 3441,
      "ార": 3442,
      "ాల": 3443,
      "్య": 3444,
      "భార": 3445,
      "భారత": 3446,
      "దే": 3447,
      "దేశ": 3448,
      "స్": 3449,
      "▁ప": 3450,
      "సా": 3451,
      "ర్": 3452,
      "న్": 3453,
      "లు": 3454,
      "రా": 3455,
      "భారతదేశ": 3456,
      ".శ": 3457,
      ".శ.": 3458,
      "లో": 3459,
      "సా.శ.": 3460,
      "▁క": 3461,
      "త్ర": 3462,
      "ాలు": 3463,
      "రి": 3464,
      "క్": 3465,
      "ంద": 3466,
      "▁వ": 3467,
      "ని": 3468,
      "ల్": 3469,
      "భారతదేశం": 3470,
      "ంగ": 3471,
      "▁స": 3472,
      "▁మ": 3473,
      "▁ప్ర": 3474,
      "ీయ": 3475,
      "ండ": 3476,
      "జ్య": 3477,
      "▁చ": 3478,
      "=1": 3479,
      "ి.": 3480,
      "link": 3481,
      "?ac": 3482,
      "tion=": 3483,
      "?action=": 3484,
      "&red": 3485,
      "edit": 3486,
      "link=1": 3487,
      "?action=edit": 3488,
      "&redlink=1": 3489,
      "?action=edit&redlink=1": 3490,
      "తా": 3491,
      "ము": 3492,
      "నా": 3493,
      "్ట": 3494,
      "తి": 3495,
      "సి": 3496,
      "త్": 3497,
      "▁(సా.శ.": 3498,
      "యా": 3499,
      "ులు": 3500,
      "▁రా": 3501,
      "–సా.శ.": 3502,
      "్రా": 3503,
      "▁అ": 3504,
      "ిక": 3505,
      "తం": 3506,
      "ిన": 3507,
      "జ్యం": 3508,
      "జా": 3509,
      "ంచ": 3510,
      "కు": 3511,
      "](https://te.wikipedia.org/wiki/భారతదేశం": 3512,
      "ను": 3513,
      "పూ": 3514,
      "·**": 3515,
      "▁**·**": 3516,
      "భా": 3517,
      "co": 3518,
      "ద్": 3519,
      "ింద": 3520,
      "▁ఉ": 3521,
      "ం:": 3522,
      "▁ఆ": 3523,
      "ప్ర": 3524,
      "▁ర": 3525,
      "మా": 3526,
      "▁సా": 3527,
      "భారతీయ": 3528,
      "వా": 3529,
      "రు": 3530,
      "ష్ట": 3531,
      "ార్": 3532,
      "పూ.": 3533,
      "వి": 3534,
      "క్ష": 3535,
      "స్థ": 3536,
      "రిత్ర": 3537,
      "](https://te.wikipedia.org/wiki/భారతదేశం#": 3538,
      "న్న": 3539,
      "ాం": 3540,
      "jp": 3541,
      "](https://te.wikipedia.org/wiki/భారతదేశం#cite_": 3542,
      "కి": 3543,
      ".jp": 3544,
      "ంట": 3545,
      "మ్రా": 3546,
      "ష్ట్ర": 3547,
      "పు": 3548,
      "▁న": 3549,
      "▁త": 3550,
      "మి": 3551,
      "ాన": 3552,
      "ాయ": 3553,
      "▁ఇ": 3554,
      "భాష": 3555,
      "▁దేశ": 3556,
      "tr": 3557,
      "పాల": 3558,
      "లీ": 3559,
      "స్తా": 3560,
      "వర్": 3561,
      "పా": 3562,
      "–సా.శ.1": 3563,
      "మ్రాజ్యం": 3564,
      "▁గ": 3565,
      "దేశ్": 3566,
      "ం](https://te.wikipedia.org/wiki/": 3567,
      "ం\")": 3568,
      "టి": 3569,
      "తీయ": 3570,
      "ంలో": 3571,
      "స్తాన్": 3572,
      "డు": 3573,
      "నే": 3574,
      "్చ": 3575,
      "▁(సా.శ.1": 3576,
      "గా": 3577,
      "మూ": 3578,
      "▁జ": 3579,
      "్రీ": 3580,
      "ంబ": 3581,
      "ంగా": 3582,
      "డ్": 3583,
      "ిల్": 3584,
      "gu": 3585,
      "లి": 3586,
      "స్త్ర": 3587,
      "▁వి": 3588,
      "కా": 3589,
      "ణా": 3590,
      "దక్ష": 3591,
      "ధిక": 3592,
      "▁భారతదేశం": 3593,
      "సియా": 3594,
      "జాతీయ": 3595,
      "ింది.": 3596,
      "గు": 3597,
      "▁సం": 3598,
      "▁చరిత్ర": 3599,
      "డి": 3600,
      "తర": 3601,
      "లా": 3602,
      "వం": 3603,
      "▁రాజ్యం": 3604,
      "▁సామ్రాజ్యం": 3605,
      "వర్గ": 3606,
      "దక్షి": 3607,
      "దీ": 3608,
      "▁బ": 3609,
      "స్త": 3610,
      "ండి": 3611,
      "వర్గం:": 3612,
      "b/": 3613,
      "ట్": 3614,
      "ిత": 3615,
      "▁[మ": 3616,
      "_చ": 3617,
      "ది": 3618,
      "▁\"మ": 3619,
      "ంది.": 3620,
      "▁ఎ": 3621,
      "▁(సా.శ.పూ.": 3622,
      "--": 3623,
      "ధ్య": 3624,
      "▁శ": 3625,
      "ంద్ర": 3626,
      "f-": 3627,
      "ైన": 3628,
      "](https://te.wikipedia.org/wiki/మ": 3629,
      "▁పే": 3630,
      "note": 3631,
      "ట్ట": 3632,
      "హింద": 3633,
      "ంగ్": 3634,
      "ద్ధ": 3635,
      "ించ": 3636,
      "▁ఒ": 3637,
      "▁భాష": 3638,
      "▁[క": 3639,
      "ాల్": 3640,
      "]](https://te.wikipedia.org/wiki/భారతదేశం#cite_": 3641,
      "చ్చ": 3642,
      "జీ": 3643,
      "ేంద్ర": 3644,
      "▁\"క": 3645,
      "ref-": 3646,
      "](https://te.wikipedia.org/wiki/భారతదేశం#cite_ref-": 3647,
      "]](https://te.wikipedia.org/wiki/భారతదేశం#cite_note-": 3648,
      "/వర్గం:": 3649,
      "ంత": 3650,
      "త్య": 3651,
      "బ్": 3652,
      "మీ": 3653,
      "](https://te.wikipedia.org/wiki/ద": 3654,
      "్యా": 3655,
      "రాష్ట్ర": 3656,
      "▁ప్రాం": 3657,
      "▁Category": 3658,
      "▁./వర్గం:": 3659,
      "lan": 3660,
      "ంక": 3661,
      "ప్": 3662,
      "యు": 3663,
      "తంత్ర": 3664,
      "untr": 3665,
      "దక్షిణ": 3666,
      "_స": 3667,
      "తము": 3668,
      "ష్": 3669,
      "ాన్": 3670,
      "](http://": 3671,
      "స్క": 3672,
      "ాలు,": 3673,
      "ిల్లీ": 3674,
      "0)": 3675,
      "జి": 3676,
      "ధాన": 3677,
      "బె": 3678,
      "వే": 3679,
      "ారు": 3680,
      "▁రాజ": 3681,
      "De": 3682,
      "దు": 3683,
      "మ్": 3684,
      "శ్": 3685,
      "](https://te.wikipedia.org/wiki/క": 3686,
      "▁కా": 3687,
      "_చరిత్ర": 3688,
      "_క": 3689,
      "mon": 3690,
      "ంధ": 3691,
      "ఢిల్లీ": 3692,
      "పంచ": 3693,
      "ారి": 3694,
      "్యవ": 3695,
      "countr": 3696,
      "మూస": 3697,
      "med": 3698,
      "వు": 3699,
      "▁\"భారతీయ": 3700,
      "de": 3701,
      "w.": 3702,
      "జన": 3703,
      "టు": 3704,
      "టె": 3705,
      "▁చె": 3706,
      "నాయ": 3707,
      "–సా.శ.పూ.": 3708,
      "▁ఆర్": 3709,
      "పాలిత": 3710,
      "స్త్రం:": 3711,
      "india.": 3712,
      "ేంద్రపాలిత": 3713,
      "](https://te.wikipedia.org/wiki/దస్త్రం:": 3714,
      "langu": 3715,
      "_ప": 3716,
      "mpl": 3717,
      "ఖ్య": 3718,
      "గో": 3719,
      "తో": 3720,
      "బి": 3721,
      "హి": 3722,
      "స్కృ": 3723,
      "/com": 3724,
      "హా": 3725,
      "▁ను": 3726,
      "▁జాతీయ": 3727,
      "](https://up": 3728,
      ".wikimed": 3729,
      "ia.org/wikipedia": 3730,
      "▁చరిత్ర\")": 3731,
      "%20%20": 3732,
      "mons/": 3733,
      "్యవస్థ": 3734,
      "/commons/": 3735,
      "](https://upload": 3736,
      ".wikimedia.org/wikipedia": 3737,
      "](https://upload.wikimedia.org/wikipedia": 3738,
      "](https://upload.wikimedia.org/wikipedia/commons/": 3739,
      ")](https://te.wikipedia.org/wiki/దస్త్రం:": 3740,
      "mes": 3741,
      "s_": 3742,
      "డా": 3743,
      "దా": 3744,
      "బడ": 3745,
      "మే": 3746,
      "▁భారత": 3747,
      "▁లో": 3748,
      "▁కూ": 3749,
      "thum": 3750,
      "▁రాష్ట్ర": 3751,
      "కిస్తాన్": 3752,
      "](https://upload.wikimedia.org/wikipedia/commons/thum": 3753,
      "by": 3754,
      "రణ": 3755,
      "▁ఈ": 3756,
      "▁[అ": 3757,
      "త్రి": 3758,
      "ాలు](https://te.wikipedia.org/wiki/": 3759,
      "ాలు\")": 3760,
      "▁ప్రాంత": 3761,
      "తు": 3762,
      "పతి": 3763,
      "↑](https://te.wikipedia.org/wiki/భారతదేశం#cite_ref-": 3764,
      "▁స్": 3765,
      "▁ని": 3766,
      "▁స్థ": 3767,
      "్రి": 3768,
      "▁[ప": 3769,
      "▁[↑](https://te.wikipedia.org/wiki/భారతదేశం#cite_ref-": 3770,
      "▁\"భారతదేశం": 3771,
      "ర్వ": 3772,
      "న్ని": 3773,
      "మిళ": 3774,
      "వంశ": 3775,
      "gov.in": 3776,
      "_మ": 3777,
      "_భాష": 3778,
      "ఫ్": 3779,
      "ర్య": 3780,
      "▁ల": 3781,
      "▁[బ": 3782,
      "▁[స": 3783,
      "▁\"అ": 3784,
      "న్నాయ": 3785,
      "▁కాల": 3786,
      "ులు](https://te.wikipedia.org/wiki/": 3787,
      "err": 3788,
      "▁రై": 3789,
      "హిందూ": 3790,
      "ఆసియా": 3791,
      "ద్ర": 3792,
      "భూ": 3793,
      "మె": 3794,
      "య్య": 3795,
      "▁\"ప": 3796,
      "▁\"బ": 3797,
      "▁\"స": 3798,
      "▁ప్రదేశ్": 3799,
      "త్త": 3800,
      "▁అధిక": 3801,
      "ప్రదేశ్": 3802,
      ".jpg)\n": 3803,
      ".jpg)](https://te.wikipedia.org/wiki/దస్త్రం:": 3804,
      "▁నుండి": 3805,
      "న్నాయి.": 3806,
      "120": 3807,
      "National": 3808,
      "ణి": 3809,
      "తమిళ": 3810,
      "ధీ": 3811,
      "మైన": 3812,
      "హార": 3813,
      "ోర్": 3814,
      "](https://te.wikipedia.org/wiki/బ": 3815,
      "▁\"ఇ": 3816,
      "▁\"భారత": 3817,
      "▁మొ": 3818,
      "నాగ": 3819,
      "త్తర": 3820,
      "ులు\")": 3821,
      "శ్మీ": 3822,
      "మూస:": 3823,
      "e_": 3824,
      "శా": 3825,
      "ైనా": 3826,
      "](https://te.wikipedia.org/wiki/ఇ": 3827,
      "](https://te.wikipedia.org/wiki/స": 3828,
      "▁[ఇ": 3829,
      "▁\"జ": 3830,
      "భారత_": 3831,
      "రాజ": 3832,
      "లో](https://te.wikipedia.org/wiki/": 3833,
      "రిజ": 3834,
      "క్కు": 3835,
      "ండ్": 3836,
      "స్కృతి": 3837,
      "error": 3838,
      "GDP": 3839,
      "Re": 3840,
      "_సా": 3841,
      "ం?action=edit&redlink=1": 3842,
      "చే": 3843,
      "▁[జ": 3844,
      "▁పా": 3845,
      "▁వా": 3846,
      "ండు": 3847,
      "▁చూ": 3848,
      "త్వ": 3849,
      "▁తే": 3850,
      "120px-": 3851,
      "01": 3852,
      "ంప": 3853,
      "కో": 3854,
      "గణ": 3855,
      "దిన": 3856,
      "నై": 3857,
      "రీ": 3858,
      "](https://te.wikipedia.org/wiki/జ": 3859,
      "▁[చ": 3860,
      "▁[భారతీయ": 3861,
      "▁\"చ": 3862,
      "ారం": 3863,
      "▁క్రీ": 3864,
      "క్‌": 3865,
      "నికి": 3866,
      "ల్ల": 3867,
      "ంగీ": 3868,
      "▁సి": 3869,
      "నాభా": 3870,
      "జాబి": 3871,
      "▁శా": 3872,
      "▁భాష\")": 3873,
      "బెంగ": 3874,
      "mplate": 3875,
      "జాబితా": 3876,
      "0%": 3877,
      "fn": 3878,
      "చల్": 3879,
      "యన్": 3880,
      "షు": 3881,
      "ూర్": 3882,
      "](https://te.wikipedia.org/wiki/ప": 3883,
      "](https://te.wikipedia.org/wiki/భారతీయ": 3884,
      "▁[భారత": 3885,
      "ార్ట": 3886,
      "ాలయ": 3887,
      "క్క": 3888,
      "▁వ్యవస్థ": 3889,
      "▁ము": 3890,
      "ండో": 3891,
      "ముంబ": 3892,
      "సిన": 3893,
      "ినల్": 3894,
      "ద్ద": 3895,
      "▁ఉన్న": 3896,
      "▁ఉంది.": 3897,
      "పాకిస్తాన్": 3898,
      "ticles": 3899,
      "▁ఒక": 3900,
      "▁ఒరిజ": 3901,
      "ulation": 3902,
      "వంశం": 3903,
      "▁తేదీ": 3904,
      "ార్టీ": 3905,
      "▁ఒరిజినల్": 3906,
      "con": 3907,
      "జ్": 3908,
      "బా": 3909,
      "వరి": 3910,
      "శ్చ": 3911,
      "ిన్న": 3912,
      "ెల": 3913,
      "్రె": 3914,
      "▁\"భారతదేశ": 3915,
      "\"):": 3916,
      "ాలు\n": 3917,
      "నిస్తాన్": 3918,
      "▁మధ్య": 3919,
      "▁ప్రధాన": 3920,
      "es/": 3921,
      "](https://te.wikipedia.org/wiki/భారతదేశంలో": 3922,
      "▁ఉన్నాయి.": 3923,
      "స్థాన్": 3924,
      "India_": 3925,
      "▁పేజీ": 3926,
      "మ్మూ": 3927,
      "▁\"భారతదేశంలో": 3928,
      "▁చూసిన": 3929,
      "▁తేదీ:": 3930,
      "శ్చి": 3931,
      "▁పేజీని": 3932,
      ".archive": 3933,
      "/http": 3934,
      "షన్": 3935,
      "హ్": 3936,
      "ెలు": 3937,
      "▁భారతదేశ": 3938,
      "▁De": 3939,
      "](https://te.wikipedia.org/wiki/అ": 3940,
      "▁పరి": 3941,
      "రియా": 3942,
      "▁మార్": 3943,
      "\\_with": 3944,
      "ాయి": 3945,
      "▁సంస్కృతి": 3946,
      "దీవ": 3947,
      "బడింది.": 3948,
      ".org/web/": 3949,
      ".jpg/120px-": 3950,
      "errors": 3951,
      "web.archive": 3952,
      "\\_with\\_": 3953,
      "web.archive.org/web/": 3954,
      "Harv": 3955,
      "_వ": 3956,
      "ం\"),": 3957,
      "ంత్రి": 3958,
      "ఆఫ్": 3959,
      "కై": 3960,
      "క్య": 3961,
      "దాయ": 3962,
      "రే": 3963,
      "లంక": 3964,
      "వీ": 3965,
      "శ్రీ": 3966,
      "షి": 3967,
      "సు": 3968,
      "▁ఏ": 3969,
      "](https://te.wikipedia.org/wiki/చ": 3970,
      "▁[సి": 3971,
      "▁\"ప్ర": 3972,
      "స్సా": 3973,
      "▁పార్టీ": 3974,
      "న్‌": 3975,
      "▁కు": 3976,
      "▁వచ్చ": 3977,
      "ముద్ర": 3978,
      "ాంధీ": 3979,
      "నేపాల": 3980,
      "▁పేరు": 3981,
      "హిందీ": 3982,
      "▁చెయ్య": 3983,
      "▁కూడా": 3984,
      "ంగీతం": 3985,
      "ముంబై": 3986,
      "శ్చిమ": 3987,
      "▁మార్గ": 3988,
      "300": 3989,
      "Ti": 3990,
      "do": 3991,
      "uth": 3992,
      "గర": 3993,
      "టక": 3994,
      "టా": 3995,
      "దార": 3996,
      "నీ": 3997,
      "రో": 3998,
      "సభ": 3999,
      "ెద్ద": 4000,
      "](https://te.wikipedia.org/wiki/భారత_": 4001,
      "▁\"సి": 4002,
      "▁పు": 4003,
      "లు\")": 4004,
      "రాజ్య": 4005,
      "▁కొ": 4006,
      "▁కేంద్రపాలిత": 4007,
      "▁మా": 4008,
      "▁ప్రా": 4009,
      "▁చే": 4010,
      "thno": 4011,
      "ము\")": 4012,
      "త్స": 4013,
      "▁రాజ్య": 4014,
      "వాతంత్ర": 4015,
      "▁దేశాల": 4016,
      "లాదేశ్": 4017,
      "▁సామ్రాజ్యం](https://te.wikipedia.org/wiki/": 4018,
      "స్తు": 4019,
      "ంగ్లాదేశ్": 4020,
      "iginal": 4021,
      "](http://www.": 4022,
      "ారు.": 4023,
      "_ప్రా": 4024,
      "్రిటి": 4025,
      "▁అధికార": 4026,
      "ూర్పు": 4027,
      "కైవు": 4028,
      "▁చెయ్యబడింది.": 4029,
      "Te": 4030,
      "ం,": 4031,
      "ంజా": 4032,
      "గి": 4033,
      "టీ": 4034,
      "టాన్": 4035,
      "ది.": 4036,
      "మంత్రి": 4037,
      "లను": 4038,
      "వె": 4039,
      "వరణ": 4040,
      "హదార": 4041,
      "ూచ": 4042,
      "ూప": 4043,
      "▁హ": 4044,
      "▁Re": 4045,
      "్రమ": 4046,
      "▁\"19": 4047,
      "భారతదేశ_": 4048,
      "రిక": 4049,
      "▁వ్యా": 4050,
      "▁మత": 4051,
      "▁మతము": 4052,
      "▁ప్రపంచ": 4053,
      "తావరణ": 4054,
      "arget": 4055,
      "నాడు": 4056,
      "▁ఇతర": 4057,
      "ణాసియా": 4058,
      "▁భారతదేశంలో": 4059,
      "and_": 4060,
      "టెడ్": 4061,
      "▁ఆర్కైవు": 4062,
      "▁రైలు": 4063,
      "భూటాన్": 4064,
      "_సామ్రాజ్యం": 4065,
      "వాతంత్ర్య": 4066,
      "-language": 4067,
      "9)": 4068,
      "_In": 4069,
      "dia.": 4070,
      "lig": 4071,
      "ఆర్": 4072,
      "ఉత్తర": 4073,
      "ఒడి": 4074,
      "కీయ": 4075,
      "చు": 4076,
      "జరా": 4077,
      "తూర్పు": 4078,
      "భు": 4079,
      "మన్": 4080,
      "లస": 4081,
      "ేక": 4082,
      "▁డ": 4083,
      "▁జాబితా": 4084,
      "template": 4085,
      "▁[భారతదేశ": 4086,
      "▁పట్ట": 4087,
      "నిక": 4088,
      "ంగ్రె": 4089,
      "▁సభ": 4090,
      "▁ప్రభు": 4091,
      "తాబ్": 4092,
      "articles": 4093,
      "▁**జాతీయ": 4094,
      "▁అయ": 4095,
      "00)": 4096,
      "▁ఆసియా": 4097,
      "మ్రాజ్య": 4098,
      "logu": 4099,
      "▁జనాభా": 4100,
      "గుజరా": 4101,
      "▁సామ్రాజ్యం\")": 4102,
      "త్యేక": 4103,
      "రాష్ట్రపతి": 4104,
      "ప్ప": 4105,
      "ధానమంత్రి": 4106,
      "▁రాజవంశం": 4107,
      "▁కాశ్మీ": 4108,
      "▁చెంద": 4109,
      "▁ఆర్ధిక": 4110,
      "%20%20%20%20": 4111,
      "▁స్థాన": 4112,
      "తమిళనాడు": 4113,
      "గణతంత్ర": 4114,
      "▁క్రీడ": 4115,
      "ఆఫ్ఘ": 4116,
      "శ్రీలంక": 4117,
      "షియా": 4118,
      "న్‌ఫ": 4119,
      "నేపాల్": 4120,
      "thnologu": 4121,
      "తాబ్ద": 4122,
      "St": 4123,
      "San": 4124,
      "_ప్రదేశ్": 4125,
      "par": 4126,
      "pment": 4127,
      "population": 4128,
      "sti": 4129,
      "ఉప": 4130,
      "జె": 4131,
      "ఢ్": 4132,
      "నాల": 4133,
      "లే": 4134,
      "ళు": 4135,
      "ౌద్ధ": 4136,
      "▁భా": 4137,
      "](https://te.wikipedia.org/wiki/ప్ర": 4138,
      "▁[వి": 4139,
      "ాలీ": 4140,
      "ర్చ": 4141,
      "ర్\")": 4142,
      "ాలు?action=edit&redlink=1": 4143,
      "–సా.శ.19": 4144,
      "▁అత్య": 4145,
      "▁రె": 4146,
      "మాఖ్య": 4147,
      "వాణా": 4148,
      "istr": 4149,
      "ాయి.": 4150,
      "▁దేశం": 4151,
      "▁దేశంలో": 4152,
      "lopment": 4153,
      "–సా.శ.18": 4154,
      "▁గల": 4155,
      "డ్డ": 4156,
      "దక్షిణాసియా": 4157,
      "ంగ్లీ": 4158,
      "▁భాషలు": 4159,
      "velopment": 4160,
      "యునై": 4161,
      "ష్ణ": 4162,
      "_చరిత్ర?action=edit&redlink=1": 4163,
      "▁రాష్ట్రాలు,": 4164,
      "_మతము": 4165,
      "ing\\_": 4166,
      "▁మొద": 4167,
      "0%B": 4168,
      "ibr": 4169,
      "thnologue": 4170,
      "stitu": 4171,
      "యునైటెడ్": 4172,
      ".html": 4173,
      "/a": 4174,
      "/మూస:": 4175,
      ":E": 4176,
      "Con": 4177,
      "EF": 4178,
      "ER": 4179,
      "Hind": 4180,
      "Nation": 4181,
      "Page": 4182,
      "Sfn": 4183,
      "_న": 4184,
      "bo": 4185,
      "gr": 4186,
      "కొ": 4187,
      "ఖండ": 4188,
      "గం": 4189,
      "గలు": 4190,
      "టిక": 4191,
      "డే": 4192,
      "ద్య": 4193,
      "మార్": 4194,
      "మాలయ": 4195,
      "లలో": 4196,
      "లకు": 4197,
      "ళ్": 4198,
      "వ](https://te.wikipedia.org/wiki/": 4199,
      "ానికి": 4200,
      "ాళు": 4201,
      "ీర్": 4202,
      "▁భ": 4203,
      "▁యు": 4204,
      "▁\"వి": 4205,
      "ాలో": 4206,
      "▁పాల": 4207,
      "న్\")": 4208,
      "▁కార": 4209,
      "▁కలి": 4210,
      "రిగ": 4211,
      "రిహ": 4212,
      "క్నాల": 4213,
      "▁వం": 4214,
      "▁వంట": 4215,
      "నిమా": 4216,
      "▁సంగీతం": 4217,
      "▁చి": 4218,
      "ులు\"),": 4219,
      "ద్వీ": 4220,
      "▁ఉప": 4221,
      "ప్రదాయ": 4222,
      "న్నడ": 4223,
      "ంటు": 4224,
      "▁ఇది": 4225,
      "కాశ్మీ": 4226,
      "వర్గం:Harv": 4227,
      "ద్ధం": 4228,
      "ద్ధి": 4229,
      "ాల్దీవ": 4230,
      "చ్చే": 4231,
      "▁2014": 4232,
      "▁./వర్గం:W": 4233,
      "_of_countries": 4234,
      "దక్షిణ_": 4235,
      "▁కాంగ్రె": 4236,
      "ంధు": 4237,
      "టెక్నాల": 4238,
      "ేంద్రపాలిత_ప్రా": 4239,
      "హిమాలయ": 4240,
      "s_C": 4241,
      "▁లే": 4242,
      "త్తరా": 4243,
      "నాగరిక": 4244,
      "క్కువ": 4245,
      "List_of_countries": 4246,
      "క్‌సభ": 4247,
      "▁శాస్త్ర": 4248,
      "ెలుగు": 4249,
      "▁వచ్చింది.": 4250,
      "త్యేక:E": 4251,
      "ర్చ:": 4252,
      "EREF": 4253,
      "ITEREF": 4254,
      "Page/మూస:": 4255,
      "_by_": 4256,
      "ditPage/మూస:": 4257,
      "ాళుక్య": 4258,
      "టెక్నాలజీ": 4259,
      "నాగరికత": 4260,
      "త్యేక:EditPage/మూస:": 4261,
      ".పూ.": 4262,
      "74": 4263,
      "IB": 4264,
      "Library": 4265,
      "NGDP": 4266,
      "fo": 4267,
      "gn": 4268,
      "lic": 4269,
      "mis": 4270,
      "sion": 4271,
      "ఆగ": 4272,
      "కళ": 4273,
      "ఖండ్": 4274,
      "గ్": 4275,
      "గఢ్": 4276,
      "జో": 4277,
      "ట్ర": 4278,
      "తెలుగు": 4279,
      "ద్రా": 4280,
      "పద": 4281,
      "భి": 4282,
      "యో": 4283,
      "లక్ష": 4284,
      "వర": 4285,
      "శో": 4286,
      "హు": 4287,
      "హార్": 4288,
      "హాయ": 4289,
      "ాష్ట్ర": 4290,
      "ీక": 4291,
      "ీహార్": 4292,
      "ుల": 4293,
      "ుల్": 4294,
      "ోల్": 4295,
      "ోత్స": 4296,
      "ౌర్య": 4297,
      "్రూ": 4298,
      "](https://te.wikipedia.org/wiki/సి": 4299,
      "▁[హ": 4300,
      "▁\"హ": 4301,
      "▁\"ఢిల్లీ": 4302,
      "ాలా": 4303,
      "ాలలో": 4304,
      "్యం": 4305,
      "స్వ": 4306,
      "ర్ణా": 4307,
      "ర్మే": 4308,
      "లోక్‌సభ": 4309,
      "▁వే": 4310,
      "ండర్": 4311,
      "త్మా": 4312,
      "▁అతి": 4313,
      "ికి": 4314,
      "ద్దు": 4315,
      "▁రహదార": 4316,
      "మాచల్": 4317,
      "▁సామ్రాజ్య": 4318,
      "రువా": 4319,
      "రుణా": 4320,
      "న్నో": 4321,
      "▁తరువా": 4322,
      "మిజో": 4323,
      "▁జరిగ": 4324,
      "▁శతాబ్ద": 4325,
      "ట్టు": 4326,
      "రాష్ట్రాలు,": 4327,
      "వేద": 4328,
      "▁రాజకీయ": 4329,
      "హిమాచల్": 4330,
      "హాత్మా": 4331,
      "▁ప్రాంతాలు": 4332,
      "▁ప్రదేశ్\")": 4333,
      "forma": 4334,
      "హారాష్ట్ర": 4335,
      "శాస్త్ర": 4336,
      "రాజస్థాన్": 4337,
      "▁వాతావరణ": 4338,
      "దినోత్స": 4339,
      "బెంగాలీ": 4340,
      "యన్మార్": 4341,
      "▁ముఖ్య": 4342,
      "pril": 4343,
      "ourc": 4344,
      "imf": 4345,
      "ంజాబ్": 4346,
      "▁వ్యాస": 4347,
      "గుజరాత్": 4348,
      "ఆఫ్ఘనిస్తాన్": 4349,
      "న్‌ఫర్మే": 4350,
      "వ](https://te.wikipedia.org/wiki/List_of_countries": 4351,
      "రిహద్దు": 4352,
      "▁వంశ": 4353,
      "చ్చేరి": 4354,
      "ర్ణాటక": 4355,
      "రుణాచల్": 4356,
      "formatic": 4357,
      "న్‌ఫర్మేషన్": 4358,
      ",NGDP": 4359,
      "1200": 4360,
      "Co": 4361,
      "E0%B": 4362,
      "New": 4363,
      "Ta": 4364,
      "ca": 4365,
      "den": 4366,
      "krit": 4367,
      "minal": 4368,
      "public": 4369,
      "sy": 4370,
      "skrit": 4371,
      "t/": 4372,
      "target": 4373,
      "ంతి": 4374,
      "కాల": 4375,
      "కారం": 4376,
      "ఖ్": 4377,
      "గర్": 4378,
      "గంగా": 4379,
      "టో": 4380,
      "డిన": 4381,
      "తీ": 4382,
      "ధి": 4383,
      "ధించ": 4384,
      "నల్": 4385,
      "మన": 4386,
      "మర": 4387,
      "ర్యా": 4388,
      "లం": 4389,
      "లతో": 4390,
      "లమె": 4391,
      "ీస్": 4392,
      "ూరు": 4393,
      "ెనీ": 4394,
      "ౌక": 4395,
      "▁ద": 4396,
      "▁ఫ": 4397,
      "▁దక్షిణ": 4398,
      "▁హిందూ": 4399,
      "▁[భారతదేశం": 4400,
      "▁[ప్ర": 4401,
      "▁[ఢిల్లీ": 4402,
      "ారస": 4403,
      "ాలను": 4404,
      "స్](https://te.wikipedia.org/wiki/": 4405,
      "స్\")": 4406,
      "▁పెద్ద": 4407,
      "ర్లు": 4408,
      "▁ప్రజ": 4409,
      "\\_articles": 4410,
      "\\_identi": 4411,
      "త్తం": 4412,
      "▁అనే": 4413,
      "తం\")": 4414,
      "ంచి": 4415,
      "▁ఆఫ్": 4416,
      "▁సాం": 4417,
      "ార్లమె": 4418,
      "కిస్థాన్": 4419,
      "▁నే": 4420,
      "▁నగర": 4421,
      "▁గాంధీ": 4422,
      "టిబె": 4423,
      "్రీ.పూ.": 4424,
      "▁విస్త": 4425,
      "ండియా": 4426,
      "▁ఎక్కువ": 4427,
      "▁ఎన్నో": 4428,
      "pedia\\_articles": 4429,
      "_సం": 4430,
      "ారు.\n": 4431,
      "47)": 4432,
      "టుంబ": 4433,
      "▁భారత్": 4434,
      "▁మొత్తం": 4435,
      "లో](https://te.wikipedia.org/wiki/19": 4436,
      "ంపెనీ": 4437,
      "ayback": 4438,
      "బాద్": 4439,
      "హ్మ": 4440,
      "▁ఏర్": 4441,
      "Times": 4442,
      "్రిటిషు": 4443,
      "ligion": 4444,
      "Sanskrit": 4445,
      "▁అత్యధిక": 4446,
      "fiers": 4447,
      "ీర్ణ": 4448,
      "▁./వర్గం:Wiki": 4449,
      "దక్షిణ_ఆసియా": 4450,
      "ేంద్రపాలిత_ప్రాంత": 4451,
      "entre2005": 4452,
      "imf2": 4453,
      "dencies": 4454,
      "pendencies": 4455,
      "\\_identifiers": 4456,
      "pedia\\_articles\\_with\\_": 4457,
      "▁./వర్గం:Wikipedia\\_articles\\_with\\_": 4458,
      "%E0%B": 4459,
      "-15": 4460,
      "3,": 4461,
      "IA": 4462,
      "PDF": 4463,
      "_జాబితా": 4464,
      "aul": 4465,
      "c/c": 4466,
      "ఆంధ": 4467,
      "కీ": 4468,
      "కాలు": 4469,
      "క్రమ": 4470,
      "గాంధీ": 4471,
      "డో": 4472,
      "థి": 4473,
      "నె": 4474,
      "నాలు": 4475,
      "పించ": 4476,
      "బడ్డ": 4477,
      "భర": 4478,
      "మహ": 4479,
      "మై": 4480,
      "యన": 4481,
      "యి": 4482,
      "రంగ": 4483,
      "లయా": 4484,
      "వార": 4485,
      "శీ": 4486,
      "షా": 4487,
      "షనల్": 4488,
      "స్య": 4489,
      "ృద్ధి": 4490,
      "ెంగ": 4491,
      "ేర": 4492,
      "▁—": 4493,
      "▁భారతీయ": 4494,
      "▁దా": 4495,
      "▁Nation": 4496,
      "▁టెక్నాలజీ": 4497,
      "▁నాగరికత": 4498,
      "్రై": 4499,
      "్రప్రదేశ్": 4500,
      "](https://te.wikipedia.org/wiki/ఢిల్లీ": 4501,
      "దేశం": 4502,
      "దేశాల": 4503,
      "దేశాలు": 4504,
      "ర్‌": 4505,
      "లు?action=edit&redlink=1": 4506,
      "రాఠ": 4507,
      "▁కి": 4508,
      "▁కో": 4509,
      "క్టో": 4510,
      "ంది": 4511,
      "▁వర్": 4512,
      "▁వారస": 4513,
      "నియా": 4514,
      "ల్వే": 4515,
      "▁సరిహద్దు": 4516,
      "▁మన": 4517,
      "▁మూ": 4518,
      "▁ప్రము": 4519,
      "▁ప్రతి": 4520,
      "▁ప్రస్తు": 4521,
      "▁ప్రకారం": 4522,
      "ండమా": 4523,
      "▁చిన్న": 4524,
      "తాన": 4525,
      "తిక": 4526,
      "త్వం": 4527,
      "enn": 4528,
      "ులు,": 4529,
      "ofindia.": 4530,
      "ంచిన": 4531,
      "కుడు": 4532,
      "నుమ": 4533,
      "00–సా.శ.పూ.": 4534,
      "▁రో": 4535,
      "▁రంగ": 4536,
      "▁రవాణా": 4537,
      "▁సాధించ": 4538,
      "ష్టు": 4539,
      "no-": 4540,
      "పాలన": 4541,
      "use": 4542,
      "ం](https://te.wikipedia.org/wiki/భారతీయ": 4543,
      "నేషనల్": 4544,
      "▁(సా.శ.14": 4545,
      "▁(సా.శ.15": 4546,
      "▁విభ": 4547,
      "వందే": 4548,
      "▁రాజ్యం](https://te.wikipedia.org/wiki/": 4549,
      "▁బహు": 4550,
      "▁బెంగ": 4551,
      "ic.in": 4552,
      "ాల్లో": 4553,
      "ంతో": 4554,
      "▁ప్రాంతం": 4555,
      "శ్వా": 4556,
      "_కేంద్రపాలిత_ప్రాంత": 4557,
      "ారిటీ": 4558,
      "26)": 4559,
      "mplate_": 4560,
      "గోళ": 4561,
      "బడిన": 4562,
      "▁ప్రాంతాలు\")": 4563,
      "తున్న": 4564,
      "▁స్వాతంత్ర్య": 4565,
      "ternational": 4566,
      "న్నిక": 4567,
      "▁[![](https://upload.wikimedia.org/wikipedia/commons/thumb/c/c": 4568,
      "▁కాలంలో": 4569,
      "National_In": 4570,
      "ధీన": 4571,
      "mbol": 4572,
      "ంపి": 4573,
      "బెంగాల్": 4574,
      "▁2021": 4575,
      "ెలవు": 4576,
      "](https://te.wikipedia.org/wiki/భారతదేశంలో_": 4577,
      "▁ప్రాచ": 4578,
      "▁అధికారిక": 4579,
      "Template": 4580,
      "ఆర్ధిక": 4581,
      "▁పట్టణ": 4582,
      "▁అయిన": 4583,
      "▁కాశ్మీరు": 4584,
      "▁రెండు": 4585,
      "ంగ్లీషు": 4586,
      "stitution": 4587,
      "ంటుంది.": 4588,
      "ాల్దీవులు": 4589,
      "s_Centre2005": 4590,
      "uthority": 4591,
      "ట్రో": 4592,
      "ుల్తాన": 4593,
      "రాష్ట్రాలు,_కేంద్రపాలిత_ప్రాంత": 4594,
      "▁వ్యాసం:": 4595,
      "formatics_Centre2005": 4596,
      "ార్లమెంట": 4597,
      "▁ఏర్ప": 4598,
      "ఆంధ్రప్రదేశ్": 4599,
      "లయాళ": 4600,
      "▁Nations": 4601,
      "▁ప్రముఖ": 4602,
      "National_Informatics_Centre2005": 4603,
      ".c": 4604,
      "/L": 4605,
      "75": 4606,
      "96": 4607,
      "Be": 4608,
      "CS": 4609,
      "Ethnologue": 4610,
      "Go": 4611,
      "Hig": 4612,
      "Min": 4613,
      "View": 4614,
      "Wayback": 4615,
      "_వి": 4616,
      "_Ar": 4617,
      "_2004": 4618,
      "_కాశ్మీ": 4619,
      "cre": 4620,
      "gro": 4621,
      "hel": 4622,
      "i-": 4623,
      "io": 4624,
      "j_M": 4625,
      "lhi": 4626,
      "nt": 4627,
      "pro": 4628,
      "ంస్కృ": 4629,
      "ఉత్తరా": 4630,
      "ఖో": 4631,
      "ఘాలయ": 4632,
      "చ్": 4633,
      "టై": 4634,
      "టర్": 4635,
      "డమ్": 4636,
      "డఖ్": 4637,
      "ణే": 4638,
      "ణంగా": 4639,
      "తే": 4640,
      "తెల": 4641,
      "దరంగ": 4642,
      "ధు": 4643,
      "ధార": 4644,
      "నో": 4645,
      "నంద": 4646,
      "బర్": 4647,
      "బార్": 4648,
      "యె": 4649,
      "లడఖ్": 4650,
      "ళా": 4651,
      "ళి": 4652,
      "శు": 4653,
      "హించ": 4654,
      "ాంగ": 4655,
      "ుకు": 4656,
      "ెన్న": 4657,
      "ెట్రో": 4658,
      "ేతిక": 4659,
      "ేఘాలయ": 4660,
      "ైనిక": 4661,
      "ోళ": 4662,
      "‌కా": 4663,
      "‌మహ": 4664,
      "▁ఐ": 4665,
      "▁ఖ": 4666,
      "▁జా": 4667,
      "▁Hind": 4668,
      "▁దినోత్స": 4669,
      "](https://te.wikipedia.org/wiki/B": 4670,
      "](https://te.wikipedia.org/wiki/G": 4671,
      "](https://te.wikipedia.org/wiki/భారతదేశ": 4672,
      "](https://te.wikipedia.org/wiki/గో": 4673,
      "](https://te.wikipedia.org/wiki/మూస:": 4674,
      "▁[జన": 4675,
      "▁[గో": 4676,
      "▁\"[": 4677,
      "▁\"పా": 4678,
      "▁\"జన": 4679,
      "▁\"గో": 4680,
      "▁\"మూస:": 4681,
      "ారస్వ": 4682,
      "ాలె": 4683,
      "స్ట": 4684,
      "స్వాతంత్ర్య": 4685,
      "▁పర": 4686,
      "▁పండు": 4687,
      "in_": 4688,
      "in_M": 4689,
      "లు](https://te.wikipedia.org/wiki/": 4690,
      "రాన్": 4691,
      "రాస్య": 4692,
      "▁కే": 4693,
      "▁కోర్": 4694,
      "త్రిక": 4695,
      "రికా": 4696,
      "క్స్": 4697,
      "క్కి": 4698,
      "▁వె": 4699,
      "ంగో": 4700,
      "▁సముద్ర": 4701,
      "▁సూచ": 4702,
      "▁సౌక": 4703,
      "▁ప్రజా": 4704,
      "ండా": 4705,
      "ండీ": 4706,
      "ండ్య": 4707,
      "\\_errors": 4708,
      "తాజ్": 4709,
      "నాథ": 4710,
      "estim": 4711,
      "సింది.": 4712,
      "త్వా": 4713,
      "ులు?action=edit&redlink=1": 4714,
      "్రామ": 4715,
      "▁అభి": 4716,
      "తం?action=edit&redlink=1": 4717,
      "ofil": 4718,
      "పూర్": 4719,
      "003": 4720,
      "▁ఉంట": 4721,
      "▁ఉత్తర": 4722,
      "ప్రిల్": 4723,
      "▁రూప": 4724,
      "▁సామా": 4725,
      "వాద": 4726,
      "ార్ఖండ్": 4727,
      "విధ": 4728,
      "క్షరాస్య": 4729,
      "religion": 4730,
      "ంటి": 4731,
      "▁Com": 4732,
      "పుర": 4733,
      "▁నడి": 4734,
      "▁ఇండియా": 4735,
      "tral": 4736,
      "లీ,": 4737,
      "loc": 4738,
      "–సా.శ.13": 4739,
      "–సా.శ.17": 4740,
      "▁గు": 4741,
      "డుకు": 4742,
      "నేషియా": 4743,
      "▁జన": 4744,
      "ంగాణ": 4745,
      "లియా": 4746,
      "▁వివిధ": 4747,
      "గుప్": 4748,
      "▁సంఘ": 4749,
      "ండిచ్చేరి": 4750,
      "▁[మధ్య": 4751,
      "జీరియా": 4752,
      "▁2016": 4753,
      "▁2017": 4754,
      "▁./వర్గం:Ar": 4755,
      "ంకేతిక": 4756,
      "వేలీ,": 4757,
      "Delhi": 4758,
      "_కాల": 4759,
      "బియా": 4760,
      "arch_2004": 4761,
      "403": 4762,
      "డామన్": 4763,
      "▁రాష్ట్రపతి": 4764,
      "త్రిపుర": 4765,
      "national-language": 4766,
      "rogr": 4767,
      "▁రైల్వే": 4768,
      "ai_": 4769,
      "మెరికా": 4770,
      "య్యూ": 4771,
      "▁ప్రదేశ్](https://te.wikipedia.org/wiki/": 4772,
      "త్తీస్": 4773,
      "నాగాలా": 4774,
      "cember": 4775,
      "▁\"జమ్మూ": 4776,
      "PPP": 4777,
      "▁పాకిస్తాన్": 4778,
      "కోవ": 4779,
      "కోబార్": 4780,
      "](https://te.wikipedia.org/wiki/జమ్మూ": 4781,
      "ల్లవ": 4782,
      "India_Go": 4783,
      "census/": 4784,
      "▁భారతదేశానికి": 4785,
      "రేబియా": 4786,
      "al_in_M": 4787,
      "టాక్": 4788,
      "▁మాత్ర": 4789,
      "్రిటిష్": 4790,
      "▁original](http://www.": 4791,
      "how": 4792,
      "house": 4793,
      "వెను": 4794,
      "ూచి": 4795,
      "భారతదేశ_రాష్ట్రాలు,_కేంద్రపాలిత_ప్రాంత": 4796,
      "achine": 4797,
      "▁ప్రపంచంలో": 4798,
      "-language\\_": 4799,
      "2011census/": 4800,
      "ప్పటిక": 4801,
      "లేషియా": 4802,
      "istry": 4803,
      "▁దేశంలోని": 4804,
      "▁మొదల": 4805,
      "ద్యు": 4806,
      "▁చిత్ర": 4807,
      "ద్వీప్": 4808,
      "▁ఉపఖండ": 4809,
      "▁కాంగ్రెసు": 4810,
      "FOOTNOTENational_Informatics_Centre2005": 4811,
      "amme": 4812,
      "mission": 4813,
      "ఆగష్టు": 4814,
      "లక్షద్వీప్": 4815,
      "హాయం:": 4816,
      "ీకరణ": 4817,
      "ోల్‌కా": 4818,
      "▁తరువాత": 4819,
      "మిజోరా": 4820,
      "Taj_M": 4821,
      "ర్యానా": 4822,
      "▁[ఢిల్లీ](https://te.wikipedia.org/wiki/ఢిల్లీ": 4823,
      "టిబెట్": 4824,
      "బడ్డీ": 4825,
      "ేరళ": 4826,
      "్రైస్త": 4827,
      "ండమాన్": 4828,
      "ెలవుదిన": 4829,
      "Chenn": 4830,
      "High": 4831,
      "JPG": 4832,
      "ahal_in_M": 4833,
      "crease": 4834,
      "help": 4835,
      "తెలంగాణ": 4836,
      "ెన్నై": 4837,
      "‌మహల్": 4838,
      "▁సౌకర్య": 4839,
      "తాజ్‌మహల్": 4840,
      "క్షరాస్యత": 4841,
      "▁./వర్గం:Articles": 4842,
      "rogramme": 4843,
      "నాగాలాండ్": 4844,
      "](https://te.wikipedia.org/wiki/జమ్మూ_కాశ్మీ": 4845,
      "India_Goa": 4846,
      "censusindia.gov.in/2011census/": 4847,
      "ోల్‌కాతా": 4848,
      "Taj_Mahal_in_M": 4849,
      "Taj_Mahal_in_March_2004": 4850,
      "&s": 4851,
      ",9": 4852,
      "-an": 4853,
      ".b": 4854,
      "41": 4855,
      "7,": 4856,
      "91": 4857,
      "94": 4858,
      "Census": 4859,
      "Cour": 4860,
      "CITEREF": 4861,
      "Hum": 4862,
      "Home": 4863,
      "PC": 4864,
      "Pages": 4865,
      "Wol": 4866,
      "_అ": 4867,
      "_ఎ": 4868,
      "_ర": 4869,
      "_te": 4870,
      "_యు": 4871,
      "_రాజ": 4872,
      "_do": 4873,
      "_శాస్త్ర": 4874,
      "du": 4875,
      "e](https://te.wikipedia.org/wiki/ప్ర": 4876,
      "f.": 4877,
      "gal": 4878,
      "ii": 4879,
      "km": 4880,
      "lion": 4881,
      "nment": 4882,
      "s18": 4883,
      "t](https://te.wikipedia.org/wiki/": 4884,
      "uary": 4885,
      "v](https://te.wikipedia.org/wiki/మూస:": 4886,
      "x\\_": 4887,
      "ఒలి": 4888,
      "కూ": 4889,
      "క్ర": 4890,
      "గ్ర": 4891,
      "గతి": 4892,
      "జు": 4893,
      "ఞాన": 4894,
      "టం": 4895,
      "టన్": 4896,
      "పం": 4897,
      "పో": 4898,
      "పచ్చ": 4899,
      "మ్య": 4900,
      "యాలో": 4901,
      "రె": 4902,
      "లె": 4903,
      "లాం": 4904,
      "వై": 4905,
      "వ్": 4906,
      "వత్స": 4907,
      "వృద్ధి": 4908,
      "శ్రమ": 4909,
      "సీ": 4910,
      "స్రా": 4911,
      "హక": 4912,
      "హన": 4913,
      "ాబ్": 4914,
      "ీఠ": 4915,
      "ీన": 4916,
      "ువు": 4917,
      "ృష్": 4918,
      "ెహ": 4919,
      "ెట్": 4920,
      "ే,": 4921,
      "ేన": 4922,
      "ైద": 4923,
      "ైగా": 4924,
      "ొయ": 4925,
      "ొగలు": 4926,
      "▁ఘ": 4927,
      "▁error": 4928,
      "▁errors": 4929,
      "▁do": 4930,
      "▁template": 4931,
      "▁0.": 4932,
      "▁km": 4933,
      "](https://te.wikipedia.org/wiki/19": 4934,
      "](https://te.wikipedia.org/wiki/జన": 4935,
      "](https://te.wikipedia.org/wiki/వర్గం:Harv": 4936,
      "▁[గ": 4937,
      "▁[కు": 4938,
      "▁[పా": 4939,
      "▁[రాష్ట్ర": 4940,
      "▁[దక్షిణ": 4941,
      "▁[హిందూ": 4942,
      "▁[పాకిస్తాన్": 4943,
      "▁[ముంబై": 4944,
      "▁[e](https://te.wikipedia.org/wiki/ప్ర": 4945,
      "▁[t](https://te.wikipedia.org/wiki/": 4946,
      "▁[v](https://te.wikipedia.org/wiki/మూస:": 4947,
      "▁\"గ": 4948,
      "▁\"దక్షిణ": 4949,
      "▁\"మూస": 4950,
      "▁\"హిందూ": 4951,
      "▁\"పాకిస్తాన్": 4952,
      "▁\"ముంబై": 4953,
      "▁\"వర్గం:Harv": 4954,
      "\")\"": 4955,
      "\"))\n": 4956,
      "్యాలె": 4957,
      "స్వా": 4958,
      "స్లా": 4959,
      "స్లాం": 4960,
      "▁పొ": 4961,
      "▁పద్ధ": 4962,
      "▁పైగా": 4963,
      "info": 4964,
      "ర్ద": 4965,
      "ర్ష": 4966,
      "న్ను": 4967,
      "రాజ్యం": 4968,
      "లోయ": 4969,
      "▁కేంద్ర": 4970,
      "▁కంపెనీ": 4971,
      "20)": 4972,
      "ాలుగా": 4973,
      "ాలు\")\n": 4974,
      "క్తి": 4975,
      "▁(1,": 4976,
      "▁వై": 4977,
      "భారతదేశం\n": 4978,
      "▁సమా": 4979,
      "▁సర్వ": 4980,
      "▁సుల్తాన": 4981,
      "▁చర్చ:": 4982,
      "\\_us": 4983,
      "\\_and": 4984,
      "\\_template": 4985,
      "\\_Sfn": 4986,
      "\\_no-": 4987,
      "తాక": 4988,
      "నాట": 4989,
      "తి](https://te.wikipedia.org/wiki/": 4990,
      "▁(సా.శ.6": 4991,
      "en/": 4992,
      "▁అను": 4993,
      "ిక,": 4994,
      "ంచింది.": 4995,
      "కుపచ్చ": 4996,
      "ernment": 4997,
      "▁ఆధీన": 4998,
      "▁ఆకుపచ్చ": 4999,
      "ప్రపంచ": 5000,
      "▁రే": 5001,
      "మాతర": 5002,
      "మాబాద్": 5003,
      "రుపు": 5004,
      "రుగు": 5005,
      "nominal": 5006,
      "](https://te.wikipedia.org/wiki/భారతదేశం#CITEREF": 5007,
      "▁CITEREF": 5008,
      "▁నది": 5009,
      "▁తన": 5010,
      "మించ": 5011,
      "▁గణ": 5012,
      "ం](https://te.wikipedia.org/wiki/అ": 5013,
      "ం](https://te.wikipedia.org/wiki/క": 5014,
      "▁(సా.శ.16": 5015,
      "▁(సా.శ.17": 5016,
      "them": 5017,
      "ంబంధ": 5018,
      "గువ": 5019,
      "▁సంస్థ": 5020,
      "▁సంవత్స": 5021,
      "డియా": 5022,
      "50)": 5023,
      "50–సా.శ.1": 5024,
      "ట్లు": 5025,
      "_చర్చ:": 5026,
      "▁\"మధ్య": 5027,
      "▁ఎన్నిక": 5028,
      "▁ఎన్ను": 5029,
      "▁(సా.శ.పూ.3": 5030,
      "▁(సా.శ.పూ.1200": 5031,
      "](https://te.wikipedia.org/wiki/మధ్య": 5032,
      "]](https://te.wikipedia.org/wiki/భారతదేశం#cite_note-india.gov.in": 5033,
      "[[1": 5034,
      "▁./వర్గం:Harv": 5035,
      "▁./వర్గం:Pages": 5036,
      "_సంగీతం": 5037,
      "ారిగా": 5038,
      "మూస_చర్చ:": 5039,
      "నాయక": 5040,
      "హాస": 5041,
      "దావరి": 5042,
      "▁కూడిన": 5043,
      "23)": 5044,
      "▁నిర్వ": 5045,
      "▁స్థా": 5046,
      "▁([help": 5047,
      "ోర్చు": 5048,
      "ce/": 5049,
      "శాఖ": 5050,
      "▁Sfn": 5051,
      "▁[జమ్మూ": 5052,
      "▁పాత్ర": 5053,
      "▁\"చైనా": 5054,
      "▁ఒకటి": 5055,
      "జ్ఞాన": 5056,
      "▁ఉన్నాయి.\n": 5057,
      "▁భారతదేశపు": 5058,
      "▁Increase": 5059,
      "▁పరిశ్రమ": 5060,
      "▁sq": 5061,
      "▁target": 5062,
      "▁\"ప్రపంచ": 5063,
      "▁\"ప్రత్యేక:EditPage/మూస:": 5064,
      "▁మార్గాలు": 5065,
      "pert": 5066,
      "రోపా": 5067,
      "▁మతము\")": 5068,
      "▁మతము\"),": 5069,
      "▁జాబితా\")\n": 5070,
      "▁ప్రభుత్వ": 5071,
      "▁ప్రభుత్వం": 5072,
      "%20%20%20%20%20%20%20%20": 5073,
      "_and_Sfn": 5074,
      "–సా.శ.1947)": 5075,
      "▁మొదటి": 5076,
      "box\\_": 5077,
      "▁పాలన": 5078,
      "▁కార్య": 5079,
      "▁కారణంగా": 5080,
      "▁కలిగి": 5081,
      "▁2014.\n": 5082,
      "శోకుడు": 5083,
      "▁area": 5084,
      "▁వేగంగా": 5085,
      "▁జరిగిన": 5086,
      "ources/": 5087,
      "వ](https://te.wikipedia.org/wiki/List_of_countries_by_": 5088,
      "cap": 5089,
      "target\\_errors": 5090,
      "▁[భారతదేశంలో": 5091,
      "▁అనేక": 5092,
      "▁ఎక్కువగా": 5093,
      "▁mi": 5094,
      "▁వారసత్వ": 5095,
      "▁ప్రస్తుతం": 5096,
      "▁రోడ్": 5097,
      "▁బెంగాల్": 5098,
      "ic.in)\n": 5099,
      "mplate_errors": 5100,
      "ంపిక్": 5101,
      "▁ప్రాచీన": 5102,
      "Ministry": 5103,
      "group": 5104,
      "produ": 5105,
      "ంస్కృతం": 5106,
      "▁దినోత్సవ": 5107,
      "▁వెబ్": 5108,
      "actbook": 5109,
      "ండీగఢ్": 5110,
      "▁అభివృద్ధి": 5111,
      "ofile": 5112,
      "▁నడిపించ": 5113,
      "గుప్త": 5114,
      "భారతదేశ_రాష్ట్రాలు,_కేంద్రపాలిత_ప్రాంతాలు": 5115,
      "Human": 5116,
      "_template_errors": 5117,
      "ృష్ణా": 5118,
      "▁error:": 5119,
      "▁errors\"))\n": 5120,
      "▁km2": 5121,
      "](https://te.wikipedia.org/wiki/వర్గం:Harv_and_Sfn": 5122,
      "▁[e](https://te.wikipedia.org/wiki/ప్రత్యేక:EditPage/మూస:": 5123,
      "▁[t](https://te.wikipedia.org/wiki/మూస_చర్చ:": 5124,
      "స్లామాబాద్": 5125,
      "infobox\\_": 5126,
      "\\_using\\_": 5127,
      "\\_and\\_Sfn": 5128,
      "\\_no-target\\_errors": 5129,
      "nominal)": 5130,
      "▁(సా.శ.పూ.1200–సా.శ.పూ.": 5131,
      "▁./వర్గం:Harv\\_and\\_Sfn": 5132,
      "▁./వర్గం:Pages\\_using\\_": 5133,
      "▁([help](https://te.wikipedia.org/wiki/వర్గం:Harv_and_Sfn": 5134,
      "ోర్చుగ": 5135,
      "▁target:": 5136,
      "\\_no-target\\_errors\n": 5137,
      "▁./వర్గం:Harv\\_and\\_Sfn\\_no-target\\_errors\n": 5138,
      "▁([help](https://te.wikipedia.org/wiki/వర్గం:Harv_and_Sfn_template_errors": 5139,
      "-a": 5140,
      "-01": 5141,
      "-national-language": 5142,
      "/1": 5143,
      "/D": 5144,
      "/ar": 5145,
      "/00": 5146,
      "1-": 5147,
      "2,": 5148,
      "219": 5149,
      "2](https://te.wikipedia.org/wiki/భారతదేశం#cite_ref-": 5150,
      "2]](https://te.wikipedia.org/wiki/భారతదేశం#cite_note-india.gov.in": 5151,
      "5/": 5152,
      "6/": 5153,
      "6–సా.శ.1": 5154,
      ":**": 5155,
      "=0": 5156,
      "C](https://te.wikipedia.org/wiki/": 5157,
      "CIA": 5158,
      "C-01": 5159,
      "DS": 5160,
      "EN": 5161,
      "E_": 5162,
      "Fr": 5163,
      "LIB": 5164,
      "SY": 5165,
      "_ఇ": 5166,
      "_ఫ": 5167,
      "_శ": 5168,
      "_స్": 5169,
      "_22": 5170,
      "_గాంధీ": 5171,
      "d/": 5172,
      "eff": 5173,
      "ethnologue": 5174,
      "f/": 5175,
      "iti": 5176,
      "ici": 5177,
      "list": 5178,
      "lio": 5179,
      "oid": 5180,
      "p?": 5181,
      "s#": 5182,
      "s–": 5183,
      "s\\_": 5184,
      "tur": 5185,
      "u.com/": 5186,
      "xt": 5187,
      "xis": 5188,
      "ం.\n": 5189,
      "ఎల": 5190,
      "ఏప్రిల్": 5191,
      "గిన": 5192,
      "జిల్": 5193,
      "డీ": 5194,
      "ఢా": 5195,
      "తై": 5196,
      "తంగా": 5197,
      "థారిటీ": 5198,
      "పై": 5199,
      "పార": 5200,
      "ఫి": 5201,
      "బీ": 5202,
      "బే": 5203,
      "బై": 5204,
      "మల": 5205,
      "మంత": 5206,
      "యం": 5207,
      "యూ": 5208,
      "యి.": 5209,
      "రల్": 5210,
      "వో": 5211,
      "వి.": 5212,
      "విక": 5213,
      "వార్": 5214,
      "వాల్": 5215,
      "వతంత్ర": 5216,
      "వలస": 5217,
      "వలం": 5218,
      "వత్రిక": 5219,
      "శక": 5220,
      "శి": 5221,
      "శకు": 5222,
      "సై": 5223,
      "సార్": 5224,
      "హిత": 5225,
      "హోర్": 5226,
      "ితి": 5227,
      "ిటన్": 5228,
      "ీం": 5229,
      "ీర": 5230,
      "ుప్ర": 5231,
      "ుతున్న": 5232,
      "ృత్య": 5233,
      "ెర్": 5234,
      "ేజి": 5235,
      "ైల్": 5236,
      "ైథి": 5237,
      "ోత్తర": 5238,
      "ౌర": 5239,
      "▁$": 5240,
      "▁ధ": 5241,
      "▁తి": 5242,
      "▁co": 5243,
      "▁ద్": 5244,
      "▁–సా.శ.1": 5245,
      "▁భూ": 5246,
      "▁దీవ": 5247,
      "▁3.": 5248,
      "▁దక్షిణాసియా": 5249,
      "▁5.": 5250,
      "▁ద్వీ": 5251,
      "▁3,": 5252,
      "▁టై": 5253,
      "▁డామన్": 5254,
      "▁house": 5255,
      "](https://te.wikipedia.org/wiki/P": 5256,
      "](https://te.wikipedia.org/wiki/హ": 5257,
      "](https://te.wikipedia.org/wiki/పా": 5258,
      "](https://te.wikipedia.org/wiki/హిందూ": 5259,
      "](https://te.wikipedia.org/wiki/పాకిస్తాన్": 5260,
      "](https://te.wikipedia.org/wiki/హిందీ": 5261,
      "](https://te.wikipedia.org/wiki/ముంబై": 5262,
      "](https://te.wikipedia.org/wiki/భారతదేశ_": 5263,
      "](https://te.wikipedia.org/wiki/భూటాన్": 5264,
      "](https://te.wikipedia.org/wiki/ఒడి": 5265,
      "](https://te.wikipedia.org/wiki/తమిళనాడు": 5266,
      "](https://te.wikipedia.org/wiki/శ్రీలంక": 5267,
      "](https://te.wikipedia.org/wiki/నేపాల్": 5268,
      "▁[ర": 5269,
      "▁[హిందీ": 5270,
      "▁[భూటాన్": 5271,
      "▁[ఉత్తర": 5272,
      "▁[ఒడి": 5273,
      "▁[తూర్పు": 5274,
      "▁[రాష్ట్రపతి": 5275,
      "▁[తమిళనాడు": 5276,
      "▁[గణతంత్ర": 5277,
      "▁[శ్రీలంక": 5278,
      "▁[నేపాల్": 5279,
      "▁[2](https://te.wikipedia.org/wiki/భారతదేశం#cite_ref-": 5280,
      "▁\"కు": 5281,
      "▁\"రాష్ట్ర": 5282,
      "▁\"హిందీ": 5283,
      "▁\"భూటాన్": 5284,
      "▁\"ఉత్తర": 5285,
      "▁\"ఒడి": 5286,
      "▁\"తూర్పు": 5287,
      "▁\"తమిళనాడు": 5288,
      "▁\"గణతంత్ర": 5289,
      "▁\"శ్రీలంక": 5290,
      "▁\"నేపాల్": 5291,
      "▁\"యునైటెడ్": 5292,
      "\")1": 5293,
      "ాలకు": 5294,
      "ాలతో": 5295,
      "్యాయ": 5296,
      "స్?action=edit&redlink=1": 5297,
      "స్ట్": 5298,
      "▁పద": 5299,
      "▁పో": 5300,
      "▁పీఠ": 5301,
      "ర్తి": 5302,
      "ర్జె": 5303,
      "ర్కొ": 5304,
      "ర్నేషనల్": 5305,
      "న్క": 5306,
      "న్మ": 5307,
      "న్](https://te.wikipedia.org/wiki/": 5308,
      "లుపు": 5309,
      "▁-15": 5310,
      ".శ.)": 5311,
      "లోన్": 5312,
      "లోమీ": 5313,
      "▁కల్": 5314,
      "▁కంట": 5315,
      "▁కనుమ": 5316,
      "▁క్యాలె": 5317,
      "20.": 5318,
      "ందిన": 5319,
      "▁వు": 5320,
      "▁వహించ": 5321,
      "నిడ్": 5322,
      "నియన్": 5323,
      "ita": 5324,
      "ల్లో": 5325,
      "▁సార్": 5326,
      "▁సమాఖ్య": 5327,
      "▁సమర": 5328,
      "▁సైనిక": 5329,
      "▁సంబంధ": 5330,
      "▁మతం\")": 5331,
      "▁ప్రారం": 5332,
      "\\_n": 5333,
      "\\_par": 5334,
      "angu": 5335,
      "ముఖ్య": 5336,
      "సింగ్": 5337,
      "–సా.శ.6": 5338,
      "్రాన్": 5339,
      "▁అర": 5340,
      "▁అని": 5341,
      "ికలు": 5342,
      "India.": 5343,
      "పూర్వ": 5344,
      "000)": 5345,
      "▁ఉత్తరా": 5346,
      "▁ఆధార": 5347,
      "▁రకాల": 5348,
      "మాన": 5349,
      "వాతావరణ": 5350,
      "వాహన": 5351,
      "ations/": 5352,
      "విజ": 5353,
      "ాంబే": 5354,
      "ంటో": 5355,
      "ంటారు.": 5356,
      "ంటర్నేషనల్": 5357,
      "▁న్యాయ": 5358,
      "▁ఇండో": 5359,
      ">": 5360,
      "ँ": 5361,
      "ं": 5362,
      "ः": 5363,
      "अ": 5364,
      "आ": 5365,
      "इ": 5366,
      "ई": 5367,
      "उ": 5368,
      "ऊ": 5369,
      "ऋ": 5370,
      "ऍ": 5371,
      "ए": 5372,
      "ऐ": 5373,
      "ऑ": 5374,
      "ओ": 5375,
      "औ": 5376,
      "क": 5377,
      "ख": 5378,
      "ग": 5379,
      "घ": 5380,
      "ङ": 5381,
      "च": 5382,
      "छ": 5383,
      "ज": 5384,
      "झ": 5385,
      "ञ": 5386,
      "ट": 5387,
      "ठ": 5388,
      "ड": 5389,
      "ढ": 5390,
      "ण": 5391,
      "त": 5392,
      "थ": 5393,
      "द": 5394,
      "ध": 5395,
      "न": 5396,
      "प": 5397,
      "फ": 5398,
      "ब": 5399,
      "भ": 5400,
      "म": 5401,
      "य": 5402,
      "र": 5403,
      "ऱ": 5404,
      "ल": 5405,
      "ळ": 5406,
      "व": 5407,
      "श": 5408,
      "ष": 5409,
      "स": 5410,
      "ह": 5411,
      "़": 5412,
      "ा": 5413,
      "ि": 5414,
      "ी": 5415,
      "ु": 5416,
      "ू": 5417,
      "ृ": 5418,
      "ॅ": 5419,
      "े": 5420,
      "ै": 5421,
      "ॉ": 5422,
      "ॊ": 5423,
      "ो": 5424,
      "ौ": 5425,
      "्": 5426,
      "ॠ": 5427,
      "।": 5428,
      "०": 5429,
      "१": 5430,
      "२": 5431,
      "३": 5432,
      "४": 5433,
      "५": 5434,
      "६": 5435,
      "७": 5436,
      "८": 5437,
      "९": 5438,
      "॰": 5439,
      "ॲ": 5440,
      "‍": 5441,
      "‘": 5442,
      "’": 5443,
      "“": 5444,
      "”": 5445,
      "†": 5446,
      "▲": 5447,
      "di": 5448,
      "ार": 5449,
      ".wikipedia": 5450,
      ".wikipedia.org/wiki/": 5451,
      "्र": 5452,
      "्य": 5453,
      "▁क": 5454,
      "ारत": 5455,
      "भारत": 5456,
      "▁स": 5457,
      "](https://hi": 5458,
      "](https://hi.wikipedia.org/wiki/": 5459,
      "▁प": 5460,
      "mr": 5461,
      "](https://mr": 5462,
      "](https://mr.wikipedia.org/wiki/": 5463,
      "▁म": 5464,
      "रा": 5465,
      "र्": 5466,
      "ान": 5467,
      "्या": 5468,
      "या": 5469,
      "▁ह": 5470,
      "▁व": 5471,
      "्त": 5472,
      "▁आ": 5473,
      "िक": 5474,
      "▁अ": 5475,
      "ात": 5476,
      "ाल": 5477,
      "ीय": 5478,
      "ेश": 5479,
      "ें": 5480,
      "▁प्र": 5481,
      "▁भारत": 5482,
      "▁द": 5483,
      "▁के": 5484,
      "ना": 5485,
      "ंग": 5486,
      "भारत#": 5487,
      "▁ज": 5488,
      "्ष": 5489,
      "त्र": 5490,
      "िया": 5491,
      "ला": 5492,
      "राज": 5493,
      "स्": 5494,
      "भारत#cite_": 5495,
      "भा": 5496,
      "▁त": 5497,
      "▁न": 5498,
      "ष्": 5499,
      "ास": 5500,
      "▁ब": 5501,
      "ां": 5502,
      "ची": 5503,
      "ले": 5504,
      "्व": 5505,
      "▁में": 5506,
      "ित": 5507,
      "देश": 5508,
      "दी": 5509,
      "क्ष": 5510,
      "हे": 5511,
      "न्": 5512,
      "ों": 5513,
      "▁का": 5514,
      "ष्ट": 5515,
      "ील": 5516,
      "वा": 5517,
      "वि": 5518,
      "▁आहे": 5519,
      "_क": 5520,
      "ली": 5521,
      "स्त": 5522,
      "चे": 5523,
      "षा": 5524,
      "सा": 5525,
      "▁ग": 5526,
      "▁है": 5527,
      "▁श": 5528,
      "राज्य": 5529,
      "](https://hi.wikipedia.org/wiki/भारत#cite_": 5530,
      "सं": 5531,
      "ष्ट्र": 5532,
      "री": 5533,
      "ती": 5534,
      "च्या": 5535,
      "प्र": 5536,
      "भाषा": 5537,
      "▁उ": 5538,
      "चि": 5539,
      "▁इ": 5540,
      "भारतीय": 5541,
      "मा": 5542,
      "और": 5543,
      "चा": 5544,
      "ने": 5545,
      "पु": 5546,
      "द्र": 5547,
      "▁की": 5548,
      "ता": 5549,
      "▁से": 5550,
      "▁सं": 5551,
      "्रे": 5552,
      "त्त": 5553,
      "र्व": 5554,
      "▁[म": 5555,
      "▁और": 5556,
      "ंड": 5557,
      "ति": 5558,
      "णी": 5559,
      "हि": 5560,
      "▁वि": 5561,
      "था": 5562,
      "ून": 5563,
      "मु": 5564,
      "▁सा": 5565,
      "िल": 5566,
      "राष्ट्र": 5567,
      "▁या": 5568,
      "▁र": 5569,
      "द्": 5570,
      "का": 5571,
      "](https://mr.wikipedia.org/wiki/भारत#cite_": 5572,
      "▁ए": 5573,
      "%A": 5574,
      "▁आहे.": 5575,
      "ध्य": 5576,
      "ी_": 5577,
      "र्म": 5578,
      "▁य": 5579,
      "पा": 5580,
      "▁पर": 5581,
      "▁\"म": 5582,
      "कार": 5583,
      "▁[↑": 5584,
      "ते": 5585,
      "ृत": 5586,
      "्म": 5587,
      "▁को": 5588,
      "=edit": 5589,
      "tion=edit": 5590,
      "action=edit": 5591,
      "णि": 5592,
      "▁\"भारत": 5593,
      "▁ल": 5594,
      "▁१": 5595,
      "्रा": 5596,
      "हा": 5597,
      "%E": 5598,
      "0%A": 5599,
      "से": 5600,
      "%E0%A": 5601,
      "पू": 5602,
      "▁प्रदेश": 5603,
      "▁भ": 5604,
      "▁हो": 5605,
      "द्ध": 5606,
      "ंद": 5607,
      "TE": 5608,
      "▁भारतीय": 5609,
      "हार": 5610,
      "ोक": 5611,
      "े_": 5612,
      "▁राज्य": 5613,
      "▁भाषा": 5614,
      "शिया": 5615,
      "चित्र": 5616,
      "िय": 5617,
      "स्तान": 5618,
      "]](https://hi.wikipedia.org/wiki/भारत#cite_": 5619,
      "मान": 5620,
      "ेत्र": 5621,
      "](https://hi.wikipedia.org/wiki/भारत": 5622,
      "नी": 5623,
      "कि": 5624,
      "▁ध": 5625,
      "ड़": 5626,
      "▁देश": 5627,
      "▁कर": 5628,
      "▁\"स": 5629,
      "वर्": 5630,
      "▁है।": 5631,
      "%E0%A4": 5632,
      "ंत": 5633,
      "िण": 5634,
      "▁\"क": 5635,
      "धान": 5636,
      "_म": 5637,
      "ंध": 5638,
      "िश": 5639,
      "ुर": 5640,
      "गर": 5641,
      "बा": 5642,
      "ही": 5643,
      "श्रे": 5644,
      "क्षिण": 5645,
      "_के_": 5646,
      "श्रेणी": 5647,
      "हर": 5648,
      "ुस": 5649,
      "जी": 5650,
      "श्रेणी:": 5651,
      "वे": 5652,
      "▁[क": 5653,
      "ाली": 5654,
      "्यां": 5655,
      "▁[स": 5656,
      "म्": 5657,
      "ंत्र": 5658,
      "](https://hi.wikipedia.org/wiki/भारत#cite_ref-": 5659,
      "]](https://hi.wikipedia.org/wiki/भारत#cite_note-": 5660,
      "ोल": 5661,
      "राष्ट्रीय": 5662,
      "जा": 5663,
      "▁राज": 5664,
      "▁[अ": 5665,
      "मी": 5666,
      "▁स्": 5667,
      "97": 5668,
      "स्क": 5669,
      "िल्": 5670,
      "दा": 5671,
      "म्रा": 5672,
      "ार्": 5673,
      "▁\"अ": 5674,
      "▁एक": 5675,
      "णा": 5676,
      "थान": 5677,
      "भारतीय_": 5678,
      "ातील": 5679,
      "ज़": 5680,
      "▁ख": 5681,
      "िस": 5682,
      "▁ना": 5683,
      "ुसार": 5684,
      "▁पु": 5685,
      "ाने": 5686,
      "▁प्रा": 5687,
      "▁अस": 5688,
      "ख्य": 5689,
      "▁मु": 5690,
      "▁आहेत": 5691,
      "Har": 5692,
      "त्तर": 5693,
      "_प्र": 5694,
      "पर": 5695,
      "िर": 5696,
      "▁घ": 5697,
      "शास": 5698,
      "t:": 5699,
      "पी": 5700,
      "के": 5701,
      "मन": 5702,
      "]](https://mr.wikipedia.org/wiki/भारत#cite_": 5703,
      "_स": 5704,
      "त्": 5705,
      "%E0%A4%": 5706,
      "वर": 5707,
      "चीन": 5708,
      "वी": 5709,
      "म्राज": 5710,
      "की": 5711,
      "हास": 5712,
      "टी": 5713,
      "धिक": 5714,
      "▁[ब": 5715,
      "ेंद्र": 5716,
      "▁झ": 5717,
      "िळ": 5718,
      "ेला": 5719,
      "](https://mr.wikipedia.org/wiki/म": 5720,
      "विश": 5721,
      "chive": 5722,
      "लेख": 5723,
      "गु": 5724,
      "▁च": 5725,
      "▁Cate": 5726,
      "▁./": 5727,
      "gory:": 5728,
      "ूची": 5729,
      "▁हि": 5730,
      "▁क्ष": 5731,
      "▁हे": 5732,
      "किस्तान": 5733,
      "ाला": 5734,
      "श्रेणी:Har": 5735,
      "श्रेणी:Harv": 5736,
      "▁ने": 5737,
      "](https://mr.wikipedia.org/wiki/भारत#cite_ref-": 5738,
      "]](https://mr.wikipedia.org/wiki/भारत#cite_note-": 5739,
      ".g": 5740,
      "S1": 5741,
      "क्त": 5742,
      "▁जात": 5743,
      "तम": 5744,
      "▁वर्": 5745,
      "ोर": 5746,
      "▁हैं": 5747,
      "▁भाषा\")": 5748,
      "CS1": 5749,
      "ंब": 5750,
      "▁\"भारतीय": 5751,
      "धार": 5752,
      "र्थ": 5753,
      "ोग": 5754,
      "▁\"ब": 5755,
      "हारा": 5756,
      "िव": 5757,
      "ेष": 5758,
      "▁भारता": 5759,
      "श्": 5760,
      "▁क्षेत्र": 5761,
      "ध्ये": 5762,
      "तात": 5763,
      "▁अन": 5764,
      "▁पा": 5765,
      "▁वा": 5766,
      "ंग्रे": 5767,
      "▁अभ": 5768,
      "▁[↑](https://hi.wikipedia.org/wiki/भारत#cite_ref-": 5769,
      "िल्ली": 5770,
      "यु": 5771,
      "▁ट": 5772,
      "▁२": 5773,
      "भाग": 5774,
      "म्राज्य": 5775,
      "दक्षिण": 5776,
      "्यात": 5777,
      "he": 5778,
      "▁आणि": 5779,
      "▁भारतात": 5780,
      "्वी": 5781,
      "द्य": 5782,
      "शी": 5783,
      "](https://mr.wikipedia.org/wiki/स": 5784,
      "ंगाल": 5785,
      "ाना": 5786,
      "▁धर्म": 5787,
      "NO": 5788,
      "ूल": 5789,
      "चित्र:": 5790,
      "ITE": 5791,
      "REF": 5792,
      "न\")": 5793,
      "रकार": 5794,
      "NOTE": 5795,
      "FOOT": 5796,
      "ज्": 5797,
      "िका": 5798,
      "पूर्व": 5799,
      "क्": 5800,
      "हिन्": 5801,
      "▁ति": 5802,
      "%E0%A4%B": 5803,
      "त्य": 5804,
      "▁आहेत.": 5805,
      "कर": 5806,
      "पाकिस्तान": 5807,
      "मे": 5808,
      "▁मो": 5809,
      "च्": 5810,
      "_की_": 5811,
      "्वीप": 5812,
      "ठा": 5813,
      "थि": 5814,
      "पं": 5815,
      "वं": 5816,
      "_न": 5817,
      "पट": 5818,
      "हाराष्ट्र": 5819,
      "ल्या": 5820,
      "श्चि": 5821,
      "हु": 5822,
      "वर्ग": 5823,
      "ल्": 5824,
      "ूर": 5825,
      "_प्रदेश": 5826,
      "तिहास": 5827,
      "चल": 5828,
      "स्थान": 5829,
      "▁\"आ": 5830,
      "▁१९": 5831,
      "माल": 5832,
      "वर्ग:": 5833,
      "लोक": 5834,
      "tar": 5835,
      "जाब": 5836,
      "िग": 5837,
      "पंजाब": 5838,
      "ंगा": 5839,
      ".archive.org/": 5840,
      "जरा": 5841,
      "](https://web": 5842,
      ".archive.org/web/": 5843,
      "जन": 5844,
      "गण": 5845,
      "](https://hi.wikipedia.org/wiki/अ": 5846,
      "▁बा": 5847,
      "ैद": 5848,
      "स्ट": 5849,
      "िट": 5850,
      "▁स्व": 5851,
      "lang": 5852,
      "▁[↑](https://mr.wikipedia.org/wiki/भारत#cite_ref-": 5853,
      "common": 5854,
      "विशेष": 5855,
      "विशेष:": 5856,
      "▁[भारत": 5857,
      "uage": 5858,
      "ृत्य": 5859,
      "िन": 5860,
      "▁\"इ": 5861,
      "▁पुरा": 5862,
      "ज्ञ": 5863,
      "ळे": 5864,
      "](https://mr.wikipedia.org/wiki/क": 5865,
      "स्था": 5866,
      "ंतर": 5867,
      "िक्ष": 5868,
      "प्त": 5869,
      "templ": 5870,
      "ठी": 5871,
      "▁नि": 5872,
      "माण": 5873,
      "_भाषा": 5874,
      "▁संस्क": 5875,
      "शासित": 5876,
      "नुसार": 5877,
      "हित": 5878,
      "_आ": 5879,
      "बर": 5880,
      "ीर": 5881,
      "ैन": 5882,
      "](https://hi.wikipedia.org/wiki/म": 5883,
      "targe": 5884,
      "्रो": 5885,
      "▁पू": 5886,
      "int:": 5887,
      "क्षेत्र": 5888,
      "maint:": 5889,
      "मध्ये": 5890,
      "रु": 5891,
      "ारी": 5892,
      "श्म": 5893,
      "▁सरकार": 5894,
      "▁तिथि": 5895,
      "दे": 5896,
      "्री": 5897,
      "▁जन": 5898,
      "tifi": 5899,
      "ख्या": 5900,
      "वन": 5901,
      "▁[इ": 5902,
      "ांची": 5903,
      "▁\"ज": 5904,
      "ंडिया": 5905,
      "ते.": 5906,
      "▁प्रदेश\")": 5907,
      "तात.": 5908,
      "व्य": 5909,
      "्रिट": 5910,
      "▁फ": 5911,
      "](https://hi.wikipedia.org/wiki/स": 5912,
      "▁तिथि:": 5913,
      "entifi": 5914,
      "identifier": 5915,
      "▁मान": 5916,
      "िंध": 5917,
      "ाले": 5918,
      "▁ये": 5919,
      "plo": 5920,
      "भू": 5921,
      "ढ़": 5922,
      "म्म": 5923,
      "▁अभिग": 5924,
      "▁अभिगमन": 5925,
      "धर्म": 5926,
      "▁[उ": 5927,
      "चा:": 5928,
      "श्चिम": 5929,
      "ृष्": 5930,
      "▁तथा": 5931,
      "_का": 5932,
      "्रोत": 5933,
      "्ह": 5934,
      "▁\"उ": 5935,
      "न्न": 5936,
      "▁इस": 5937,
      "पुर": 5938,
      "गुजरा": 5939,
      "/common": 5940,
      "uplo": 5941,
      "ोन": 5942,
      "](https://uplo": 5943,
      "pedia/common": 5944,
      ".org/wikipedia/common": 5945,
      "▁**[": 5946,
      "s/thum": 5947,
      "चित्रपट": 5948,
      "ad.wikimedia": 5949,
      "▁हैं।": 5950,
      "](https://upload.wikimedia": 5951,
      ".org/wikipedia/commons/thum": 5952,
      "डिया": 5953,
      "नाड": 5954,
      "दी\")": 5955,
      "▁साम्राज्य": 5956,
      "णे": 5957,
      "](https://hi.wikipedia.org/wiki/क": 5958,
      "▁हा": 5959,
      "ांत": 5960,
      "रब": 5961,
      "ीत": 5962,
      "ेट": 5963,
      "ंग्": 5964,
      "स्तक": 5965,
      "▁उप": 5966,
      "पुस्तक": 5967,
      "विशेष:पुस्तक": 5968,
      "्रिटिश": 5969,
      "्रोत/978": 5970,
      "गातील": 5971,
      "स्व": 5972,
      "▁अने": 5973,
      "▁अनेक": 5974,
      "ौद्ध": 5975,
      "सम": 5976,
      "▁[ग": 5977,
      "▁गण": 5978,
      "▁[भारतीय": 5979,
      "▁भारताच्या": 5980,
      "si": 5981,
      "](https://hi.wikipedia.org/wiki/भारतीय_": 5982,
      "▁रो": 5983,
      "▁वर्ष": 5984,
      "तु": 5985,
      "दिल्ली": 5986,
      "सद": 5987,
      "▁भू": 5988,
      "ंदिर": 5989,
      "द्वीप": 5990,
      "▁मेला": 5991,
      "जात": 5992,
      "डी": 5993,
      "▁\"ग": 5994,
      "\")**": 5995,
      "ब्": 5996,
      "](https://mr.wikipedia.org/wiki/अ": 5997,
      "](https://mr.wikipedia.org/wiki/आ": 5998,
      "▁काळ": 5999,
      "विध": 6000,
      "तमिळ": 6001,
      "रे": 6002,
      "▁सम": 6003,
      "▁हु": 6004,
      "_में": 6005,
      "▁[न": 6006,
      "▁संस्कृ": 6007,
      "ेत": 6008,
      "ारा": 6009,
      "ंप": 6010,
      "▁दक्षिण": 6011,
      "▁यु": 6012,
      "लेखित": 6013,
      "ंग्रेज़": 6014,
      "▁सर्व": 6015,
      "▁आशिया": 6016,
      "▁शिक्ष": 6017,
      "](https://web.archive.org/web/201": 6018,
      "बंध": 6019,
      "▁ही": 6020,
      "मुख": 6021,
      "▁पूर्व": 6022,
      "दू": 6023,
      "▁ऑ": 6024,
      "▁भाग": 6025,
      "▁[आ": 6026,
      "टक": 6027,
      "▁सूची": 6028,
      "भारत#CITEREF": 6029,
      "▁बहु": 6030,
      "विधान": 6031,
      ".jpg)": 6032,
      "सी": 6033,
      "▁[ज": 6034,
      "खंड": 6035,
      "्रम": 6036,
      "_देश": 6037,
      "▁चित्रपट": 6038,
      "](https://mr.wikipedia.org/wiki/इ": 6039,
      "](https://mr.wikipedia.org/wiki/ब": 6040,
      "ज्ञान": 6041,
      "Ste": 6042,
      "Singh": 6043,
      "डा": 6044,
      "िं": 6045,
      "००": 6046,
      "▁अधिक": 6047,
      "ंग्र": 6048,
      "साँ": 6049,
      "धी": 6050,
      "ूप": 6051,
      "▁ते": 6052,
      "▁मुख्य": 6053,
      "▁भी": 6054,
      "](https://hi.wikipedia.org/wiki/भारत_के_": 6055,
      "](https://hi.wikipedia.org/wiki/भारत_में": 6056,
      "▁शास": 6057,
      "ोब": 6058,
      "](https://mr.wikipedia.org/wiki/ज": 6059,
      "](https://mr.wikipedia.org/wiki/चित्र:": 6060,
      "राजस्थान": 6061,
      "▁विविध": 6062,
      "_भारत": 6063,
      "▁[सं": 6064,
      "▁उत्": 6065,
      "ेंद्रशासित": 6066,
      "lp": 6067,
      "▁राष्ट्र": 6068,
      "पुरा": 6069,
      "▁लोक": 6070,
      "ंबई": 6071,
      "▁[प": 6072,
      "▁\"न": 6073,
      "▁राष्ट्रीय": 6074,
      "▁इतिहास": 6075,
      "_की_स": 6076,
      "ंदी": 6077,
      "म\")": 6078,
      "ळी": 6079,
      "िक्": 6080,
      "मुळे": 6081,
      "पूर": 6082,
      "वर्ग:CS1": 6083,
      "▁रोजी": 6084,
      "▁ड": 6085,
      "ूच": 6086,
      "▁\"प": 6087,
      "मुद्र": 6088,
      "▁pp": 6089,
      "▁स्था": 6090,
      "br": 6091,
      "वस्था": 6092,
      "श्मीर": 6093,
      "_अ": 6094,
      "ण्": 6095,
      "ाक": 6096,
      "▁तक": 6097,
      "▁विश": 6098,
      "धील": 6099,
      "ेक": 6100,
      "्त्र": 6101,
      "ले.": 6102,
      "▁स्थान": 6103,
      "नाडू": 6104,
      "तर": 6105,
      "▁विक": 6106,
      "तेल": 6107,
      "मालय": 6108,
      "_सं": 6109,
      "▁आधार": 6110,
      "▁स्थाप": 6111,
      "लि": 6112,
      "्यान": 6113,
      "▁दे": 6114,
      "नाग": 6115,
      "1998": 6116,
      "](https://hi.wikipedia.org/wiki/ब": 6117,
      "▁होता": 6118,
      "_की_सूची": 6119,
      "_सा": 6120,
      "तंत्र": 6121,
      "वरी": 6122,
      "१९": 6123,
      "▁साहित": 6124,
      "ओं": 6125,
      "वार": 6126,
      "ेशिया": 6127,
      "▁काही": 6128,
      "ियों": 6129,
      "]](https://hi.wikipedia.org/wiki/भारत#cite_note-FOOTNOTE": 6130,
      "म्मू": 6131,
      "तमिळनाडू": 6132,
      "ंग्रेज़ी": 6133,
      "क्षा": 6134,
      "युक्त": 6135,
      "स.": 6136,
      "ाता": 6137,
      "ुरु": 6138,
      "_ब": 6139,
      "मार": 6140,
      "▁किया": 6141,
      "त्रि": 6142,
      "▁लि": 6143,
      "हाय": 6144,
      "▁प्राचीन": 6145,
      "Singh2009": 6146,
      "Stein1998": 6147,
      "ृष्ट": 6148,
      "▁वे": 6149,
      "▁त्या": 6150,
      "त्या": 6151,
      "द्या": 6152,
      "र्ना": 6153,
      "ुरू": 6154,
      "र्नाटक": 6155,
      "पुरी": 6156,
      "▁ओ": 6157,
      "▁हवा": 6158,
      "▁असे": 6159,
      "ासून": 6160,
      "ली.": 6161,
      "▁संस्कृती": 6162,
      "नि": 6163,
      "न्द": 6164,
      "संख्या": 6165,
      "दार": 6166,
      "▁राज्यों": 6167,
      "%E0%A4%A": 6168,
      "▁खाना": 6169,
      "गुजरात": 6170,
      "tra": 6171,
      "गा": 6172,
      "दल": 6173,
      "लय": 6174,
      "ीस": 6175,
      "▁प्रकार": 6176,
      "▁नृत्य": 6177,
      "दर्": 6178,
      "बसे": 6179,
      "▁मंदिर": 6180,
      "▁गया": 6181,
      "हिन्दी": 6182,
      "ग्": 6183,
      "शि": 6184,
      "नाथ": 6185,
      "च्च": 6186,
      "तील": 6187,
      "पे": 6188,
      "मधील": 6189,
      "श्र": 6190,
      "▁अर्थ": 6191,
      "ंगीत": 6192,
      "त्तरा": 6193,
      "ी_भाषा": 6194,
      "▁सूची\")": 6195,
      "कल": 6196,
      "स्ला": 6197,
      "न्द्र": 6198,
      "▁[मूल": 6199,
      ".gov.in/": 6200,
      "ke": 6201,
      "ेर": 6202,
      "▁भा": 6203,
      "पाल": 6204,
      "▁थ": 6205,
      "shi": 6206,
      "ओड": 6207,
      "▁कि": 6208,
      "▁कार": 6209,
      "▁सबसे": 6210,
      "](https://hi.wikipedia.org/wiki/चित्र:": 6211,
      "▁पुरालेखित": 6212,
      "ण्ड": 6213,
      "▁पुरालेखित।": 6214,
      "▁ला": 6215,
      "▁पद": 6216,
      "▁उत्तर": 6217,
      "_पर": 6218,
      "विक": 6219,
      "▁बन": 6220,
      "▁इंडिया": 6221,
      "च्छ": 6222,
      "व्यवस्था": 6223,
      "जय": 6224,
      "पती": 6225,
      "ऱ्या": 6226,
      "ूळ": 6227,
      "ikshi": 6228,
      "](https://mr.wikipedia.org/wiki/भारतीय_": 6229,
      "▁म्ह": 6230,
      "्याया": 6231,
      "▁राज्ये": 6232,
      "बाद": 6233,
      "क्ति": 6234,
      "▁म्हण": 6235,
      "▁लेख": 6236,
      "▁\"सं": 6237,
      "▁दिल्ली": 6238,
      "सभा": 6239,
      "▁तर": 6240,
      "ांक": 6241,
      "ार्थ": 6242,
      "द्योग": 6243,
      "▁युद्ध": 6244,
      "hp": 6245,
      "भी": 6246,
      "।[[": 6247,
      "](https://hi.wikipedia.org/wiki/भारत#CITEREF": 6248,
      "िकी": 6249,
      "ियाँ": 6250,
      "लादेश": 6251,
      "▁नाम": 6252,
      "संख्य": 6253,
      "ंत्री": 6254,
      "मेर": 6255,
      "ैदिक": 6256,
      "ृष्ठ": 6257,
      "▁विश्व": 6258,
      "गोल": 6259,
      "डे": 6260,
      "ॉल": 6261,
      "ौर": 6262,
      "▁सु": 6263,
      "ेश्व": 6264,
      "▁जु": 6265,
      "ों_की_सूची": 6266,
      "▁साथ": 6267,
      "▁है।\n": 6268,
      "िशा": 6269,
      "पूर्वी": 6270,
      "etcal": 6271,
      "ेश्वर": 6272,
      "](https://mr.wikipedia.org/wiki/ग": 6273,
      "▁मिळ": 6274,
      "ांच्या": 6275,
      "▁झाले": 6276,
      "_उ": 6277,
      "माज": 6278,
      "स्कृत": 6279,
      "-targe": 6280,
      "_templ": 6281,
      "t\\_errors": 6282,
      "▁था": 6283,
      "▁targe": 6284,
      "▁\"श्रेणी:Harv": 6285,
      "](https://hi.wikipedia.org/wiki/श्रेणी:Harv": 6286,
      "▁जिस": 6287,
      "no-targe": 6288,
      "\\_no-targe": 6289,
      "▁संघ": 6290,
      "fn_templ": 6291,
      "errors?action=edit&redlink=1": 6292,
      "▁./श्रेणी:Harv": 6293,
      "_Sfn_templ": 6294,
      "▁sfn": 6295,
      "_and_Sfn_templ": 6296,
      "ate_errors?action=edit&redlink=1": 6297,
      "▁([help](https://hi.wikipedia.org/wiki/श्रेणी:Harv": 6298,
      "t\\_errors\n": 6299,
      "▁./श्रेणी:Harv\\_and\\_Sfn": 6300,
      "_and_Sfn_template_errors?action=edit&redlink=1": 6301,
      "▁([help](https://hi.wikipedia.org/wiki/श्रेणी:Harv_and_Sfn_template_errors?action=edit&redlink=1": 6302,
      "▁./श्रेणी:Harv\\_and\\_Sfn\\_no-target\\_errors\n": 6303,
      "▁maint:": 6304,
      "_धर्म": 6305,
      "रत": 6306,
      "▁\"ल": 6307,
      "▁दि": 6308,
      "वाद": 6309,
      "ंका": 6310,
      "](https://hi.wikipedia.org/wiki/उ": 6311,
      "▁आक": 6312,
      "ीलंका": 6313,
      "▁यह": 6314,
      "▁गणराज्य": 6315,
      "टन": 6316,
      "ारे": 6317,
      "दीव": 6318,
      "%E0%A4%BE": 6319,
      "ण्यात": 6320,
      "स\")": 6321,
      "ाच्या": 6322,
      "िने": 6323,
      "](https://mr.wikipedia.org/wiki/भारत": 6324,
      "ातंत्र": 6325,
      "▁प्रजात": 6326,
      "▁जा": 6327,
      "म्ब": 6328,
      "▁टक्": 6329,
      ".pdf": 6330,
      "extra": 6331,
      "िंधू": 6332,
      "▁येथ": 6333,
      "▁शिक्षण": 6334,
      "▁हवामान": 6335,
      "▁प्रजाती": 6336,
      "5%": 6337,
      "=PA": 6338,
      "ith": 6339,
      "kno": 6340,
      "गढ़": 6341,
      "टा": 6342,
      "फ़": 6343,
      "िहार": 6344,
      "▁व्य": 6345,
      "_के_राज्य": 6346,
      "oogle": 6347,
      ".google": 6348,
      "तमिल": 6349,
      "books.google": 6350,
      "know": 6351,
      ".com/books?id=": 6352,
      "ोह": 6353,
      "_नदी": 6354,
      ".php": 6355,
      "▁ई": 6356,
      "▁(identifier": 6357,
      "▁संविधान": 6358,
      "_(identifier": 6359,
      "▁निर्": 6360,
      "दु": 6361,
      "ेड": 6362,
      "ोर्": 6363,
      "▁गे": 6364,
      "ताज": 6365,
      "मुंबई": 6366,
      "श्रीलंका": 6367,
      "ीन": 6368,
      "ूह": 6369,
      "ान\")": 6370,
      "▁बंगाल": 6371,
      "साय": 6372,
      "पूर्": 6373,
      "▁होती": 6374,
      "र्थिक": 6375,
      "गत": 6376,
      "▁[च": 6377,
      "▁[ल": 6378,
      "▁साहित्य": 6379,
      "Kul": 6380,
      "_और": 6381,
      "एं": 6382,
      "में": 6383,
      "ाची": 6384,
      "ो.": 6385,
      "▁३": 6386,
      "▁तसे": 6387,
      "▁ब्रिटिश": 6388,
      "▁यां": 6389,
      "%E0%A5%": 6390,
      "▁ऑफ": 6391,
      "हाय्य": 6392,
      "▁तसेच": 6393,
      "▁\"ह": 6394,
      "▁कु": 6395,
      "▁मा": 6396,
      "_द": 6397,
      "▁आज": 6398,
      "ref-1": 6399,
      "note-1": 6400,
      "ंग्ल": 6401,
      "_साम्राज्य": 6402,
      "नगर": 6403,
      "▁\"विशेष:पुस्तक": 6404,
      "▁स्रोत/978": 6405,
      "](https://hi.wikipedia.org/wiki/ISBN": 6406,
      "](https://hi.wikipedia.org/wiki/विशेष:पुस्तक": 6407,
      "लाई": 6408,
      "चेरी": 6409,
      "प्रधान": 6410,
      "▁[↑](https://hi.wikipedia.org/wiki/भारत#cite_": 6411,
      "_के_आ": 6412,
      "▁खास": 6413,
      "शास्त्र": 6414,
      "_स्रोत/978": 6415,
      "विश्व": 6416,
      "▁./श्रेणी:": 6417,
      "साँचा:": 6418,
      "▁[ISBN](https://hi.wikipedia.org/wiki/ISBN": 6419,
      "](https://hi.wikipedia.org/wiki/विशेष:पुस्तक_स्रोत/978": 6420,
      "▁[ISBN](https://hi.wikipedia.org/wiki/ISBN_(identifier)": 6421,
      "५०": 6422,
      "▁\"हि": 6423,
      "हासा": 6424,
      "ख्": 6425,
      "िवस": 6426,
      "ोड़": 6427,
      "▁पठ": 6428,
      "▁जो": 6429,
      "▁है,": 6430,
      "ंडोन": 6431,
      "तिश": 6432,
      "ंध्र": 6433,
      "▁बाद": 6434,
      "ूचना": 6435,
      "त्रिपुरा": 6436,
      "ओडिशा": 6437,
      "ंडोनेशिया": 6438,
      "_ए": 6439,
      "_या": 6440,
      "तां": 6441,
      "मह": 6442,
      "ल\")": 6443,
      "ळ\")": 6444,
      "ूटी": 6445,
      "४७": 6446,
      "](https://mr.wikipedia.org/wiki/उ": 6447,
      "राण": 6448,
      "▁धर्म\")": 6449,
      ".jpg)](https://mr.wikipedia.org/wiki/चित्र:": 6450,
      "दर्भ": 6451,
      "संख्ये": 6452,
      "▁टक्के": 6453,
      "_यादी": 6454,
      "हरी": 6455,
      "▁नदी": 6456,
      "▁रूप": 6457,
      "cog": 6458,
      "zed": 6459,
      "ंद्र": 6460,
      "आई": 6461,
      "गढ": 6462,
      "तन": 6463,
      "रो": 6464,
      "०१": 6465,
      "▁केंद्र": 6466,
      "▁मार्": 6467,
      "▁व्या": 6468,
      "ालय": 6469,
      "recog": 6470,
      "पाद": 6471,
      "वेब": 6472,
      "unrecog": 6473,
      "धार_पर": 6474,
      "nized": 6475,
      "देव": 6476,
      "िनेमा": 6477,
      "_के_आधार_पर": 6478,
      "unrecognized": 6479,
      "▁४": 6480,
      "▁\"बा": 6481,
      "▁अप": 6482,
      "▁प्रत्य": 6483,
      "▁स्थ": 6484,
      "पर्य": 6485,
      "सि": 6486,
      "▁[हि": 6487,
      "स्थ": 6488,
      "चिन्": 6489,
      "82": 6490,
      "eter": 6491,
      "pib": 6492,
      "छत्त": 6493,
      "डो": 6494,
      "वली": 6495,
      "ालीन": 6496,
      "णाचल": 6497,
      "▁हिन्": 6498,
      "रुणाचल": 6499,
      "_भारत_के_राज्य": 6500,
      "▁पुरालेखित।.": 6501,
      "▁जुलाई": 6502,
      "_के_आधार_पर_भारत_के_राज्य": 6503,
      "छत्तीस": 6504,
      "ंती": 6505,
      "खन": 6506,
      "▁[[": 6507,
      "▁पर्व": 6508,
      "▁न्याया": 6509,
      ".स.": 6510,
      "PD": 6511,
      "जास": 6512,
      "ण्या": 6513,
      "मर": 6514,
      "ाचे": 6515,
      "िझ": 6516,
      "hin": 6517,
      "▁सर्": 6518,
      "▁केले": 6519,
      "▁जय": 6520,
      "िया\")": 6521,
      "विष": 6522,
      "▁इतर": 6523,
      "त्ताक": 6524,
      "[[१": 6525,
      "[[२": 6526,
      "▁आहे.\n": 6527,
      "्यांची": 6528,
      "▁नाव": 6529,
      "▁झाला": 6530,
      "▁मोठ": 6531,
      "्यानमार": 6532,
      "ातंत्र्य": 6533,
      "जासत्ताक": 6534,
      "खा": 6535,
      "धु": 6536,
      "](https://hi.wikipedia.org/wiki/प": 6537,
      "ानुसार": 6538,
      "क्षद्वीप": 6539,
      "सेना": 6540,
      "▁देशों": 6541,
      "▁[↑](https://hi.wikipedia.org/wiki/भारत#cite_ref-FOOTNOTE": 6542,
      "_प": 6543,
      "ाम": 6544,
      "ोष": 6545,
      "▁ले": 6546,
      "▁द्वीप": 6547,
      "▁नदी\")": 6548,
      "ारिक": 6549,
      "▁मूल": 6550,
      "िकोब": 6551,
      "िकोबार": 6552,
      "झार": 6553,
      "▁[ह": 6554,
      "▁\"पंजाब": 6555,
      "र्दू": 6556,
      "text": 6557,
      "▁तट": 6558,
      "माचल": 6559,
      "▁एवं": 6560,
      "▁पर्य": 6561,
      "▁विकास": 6562,
      "हासागर": 6563,
      "▁५": 6564,
      "ांधी": 6565,
      "प्रदेश": 6566,
      "▁\"मध्य": 6567,
      "index": 6568,
      "▁अर्थव्यवस्था": 6569,
      "▁[बा": 6570,
      "▁\"सा": 6571,
      "न्स": 6572,
      "▁अन्य": 6573,
      "india/": 6574,
      "टि": 6575,
      "द्व": 6576,
      "पात": 6577,
      "पासून": 6578,
      "▁\"व": 6579,
      "▁किल्": 6580,
      "](https://mr.wikipedia.org/wiki/न": 6581,
      "](https://mr.wikipedia.org/wiki/भारत#": 6582,
      "▁मध्य": 6583,
      "▁मध्ये": 6584,
      "ंगलादेश": 6585,
      "्षिक": 6586,
      "ासा": 6587,
      "ांचा": 6588,
      "साम": 6589,
      "साठी": 6590,
      "संदर्भ": 6591,
      "नेपा": 6592,
      "▁होते.": 6593,
      "ड़ी": 6594,
      "्यांच्या": 6595,
      "▁झाली": 6596,
      "▁अनुसार": 6597,
      "_का_": 6598,
      "ंग्रजी": 6599,
      "िक्की": 6600,
      "▁होता.": 6601,
      "संख्येनुसार": 6602,
      "KulkeRothermund2004": 6603,
      "फ्र": 6604,
      "रक्ष": 6605,
      "ोच्च": 6606,
      "▁क्र": 6607,
      "▁सी": 6608,
      "▁समुद्र": 6609,
      "▁पक्ष": 6610,
      "▁प्रमाण": 6611,
      ":CS1": 6612,
      "▁प्रमुख": 6613,
      "वाधिक": 6614,
      "वंश": 6615,
      "▁साम्राज्य\")": 6616,
      "64": 6617,
      "rof": 6618,
      "एँ": 6619,
      "क्र": 6620,
      "लाल": 6621,
      "ैक": 6622,
      "▁\"च": 6623,
      "राठी": 6624,
      "र्जा": 6625,
      "्तर": 6626,
      "▁सेना": 6627,
      "ड़ा": 6628,
      "म्बर": 6629,
      "ल्प": 6630,
      ".jpg)](https://hi.wikipedia.org/wiki/चित्र:": 6631,
      "NC": 6632,
      "जे": 6633,
      "मंत्री": 6634,
      "।\n": 6635,
      "▁[पंजाब": 6636,
      "▁दिस": 6637,
      "ित्त": 6638,
      "▁उदा": 6639,
      "मुख्य": 6640,
      "▁जाते": 6641,
      "वंट": 6642,
      "िंह": 6643,
      "कालीन": 6644,
      "टे": 6645,
      "ुव": 6646,
      "-0-5": 6647,
      "न](https://hi.wikipedia.org/wiki/": 6648,
      "ाट": 6649,
      "▁[दक्षिण": 6650,
      "▁[पाकिस्तान": 6651,
      "▁\"दक्षिण": 6652,
      "▁\"पाकिस्तान": 6653,
      "▁आप": 6654,
      "▁अरब": 6655,
      "▁निव": 6656,
      "ष्ण": 6657,
      "ास्त": 6658,
      "▁गु": 6659,
      "▁एशिया": 6660,
      "_मेला": 6661,
      "हरिया": 6662,
      "](https://hi.wikipedia.org/wiki/भारत_में_": 6663,
      "तेलंग": 6664,
      "▁प्रत्येक": 6665,
      "झारखंड": 6666,
      "_भारतीय_": 6667,
      "योग": 6668,
      "ळवंट": 6669,
      "वळ": 6670,
      "िपी": 6671,
      "ैकी": 6672,
      "▁[द": 6673,
      "▁[व": 6674,
      "▁सण": 6675,
      "](https://mr.wikipedia.org/wiki/हि": 6676,
      "▁आहार": 6677,
      "[[३": 6678,
      "▁यादी": 6679,
      "▁असते.": 6680,
      "▁./वर्ग:": 6681,
      "▁पाहि": 6682,
      "गणना": 6683,
      "_आणि": 6684,
      "ांची_यादी": 6685,
      "▁येथील": 6686,
      "िपीडिया": 6687,
      "तिक": 6688,
      "प्": 6689,
      "ोज": 6690,
      "▁महा": 6691,
      "नाम": 6692,
      "प्रा": 6693,
      "▁\"महाराष्ट्र": 6694,
      "पूर्ण": 6695,
      "पति": 6696,
      "शन": 6697,
      "ैल": 6698,
      "▁वन": 6699,
      "▁दो": 6700,
      "▁[मध्य": 6701,
      "]](https://hi.wikipedia.org/wiki/भारत#cite_note-1": 6702,
      "▁जाता": 6703,
      "तेलु": 6704,
      "तंत्रता": 6705,
      "ताजमह": 6706,
      "▁[↑](https://hi.wikipedia.org/wiki/भारत#cite_ref-1": 6707,
      "गू": 6708,
      "बी": 6709,
      "शा": 6710,
      "्यता": 6711,
      "▁पह": 6712,
      "▁पार्": 6713,
      "▁संसद": 6714,
      "▁शासन": 6715,
      "ौर्य": 6716,
      "versity": 6717,
      "a/": 6718,
      "▁ऊ": 6719,
      "▁\"द": 6720,
      "▁सैन": 6721,
      "नाव": 6722,
      "ांध": 6723,
      "-13": 6724,
      "▁**राष्ट्रीय": 6725,
      "धानी": 6726,
      "करण": 6727,
      "▁सर्वाधिक": 6728,
      "_क्षेत्र": 6729,
      "घालय": 6730,
      "रवरी": 6731,
      "▁रा": 6732,
      "](https://hi.wikipedia.org/wiki/ग": 6733,
      "र्क": 6734,
      "ालदीव": 6735,
      "ेंज": 6736,
      "▁द्व": 6737,
      "▁दोन": 6738,
      "वादी": 6739,
      "विज्ञान": 6740,
      "-11": 6741,
      "off": 6742,
      "](https://hi.wikipedia.org/wiki/भारत_की_": 6743,
      "म्राट": 6744,
      "गुप्त": 6745,
      "▁समय": 6746,
      "भीम": 6747,
      "rofile": 6748,
      "-0-521": 6749,
      "▁\"पाकिस्तान\")": 6750,
      "_घ": 6751,
      "वान": 6752,
      "ेस": 6753,
      "▁क्रम": 6754,
      "▁वै": 6755,
      "▁आर्थिक": 6756,
      "▁दर": 6757,
      "▁देश\")": 6758,
      "पीठ": 6759,
      "▁पठार": 6760,
      "काल": 6761,
      "ाचा": 6762,
      "▁संगीत": 6763,
      "▁पड": 6764,
      "](https://mr.wikipedia.org/wiki/सा": 6765,
      "▁वैदिक": 6766,
      "▁अग": 6767,
      "▁अज": 6768,
      "ेशन": 6769,
      "▁जी": 6770,
      "▁जून": 6771,
      "त्रूटी": 6772,
      "[[४": 6773,
      "▁होत": 6774,
      "ंदू": 6775,
      "ंदमान": 6776,
      "वेर": 6777,
      "▁प्राणी": 6778,
      "▁असले": 6779,
      "▁असून": 6780,
      "_आशिया": 6781,
      "▁काळात": 6782,
      "हाय्य:CS1": 6783,
      "चिन्हे": 6784,
      "AQ": 6785,
      "gi": 6786,
      "एस": 6787,
      "निक": 6788,
      "मृत": 6789,
      "वेश": 6790,
      "शोक": 6791,
      "ाय": 6792,
      "िज़": 6793,
      "](https://hi.wikipedia.org/wiki/इ": 6794,
      "](https://hi.wikipedia.org/wiki/सं": 6795,
      "▁पृष्ठ": 6796,
      "र्ष": 6797,
      "्वे": 6798,
      "▁[महाराष्ट्र": 6799,
      "णिपुरी": 6800,
      "▁चु": 6801,
      "▁हुई": 6802,
      "नागाल": 6803,
      "हरियाणा": 6804,
      ".ए": 6805,
      "ोप": 6806,
      "▁काल": 6807,
      "▁शहर": 6808,
      "▁[मु": 6809,
      "ध्या": 6810,
      "भि": 6811,
      "ष्ठ": 6812,
      "▁विष": 6813,
      "ैदान": 6814,
      "क्षेत्रफ": 6815,
      "खाना": 6816,
      "तान": 6817,
      "दरा": 6818,
      "लया": 6819,
      "ीया": 6820,
      "▁[लोक": 6821,
      "▁दी": 6822,
      "▁दिया": 6823,
      "▁(इ": 6824,
      "▁बढ़": 6825,
      "▁विद्य": 6826,
      "्मार": 6827,
      "ड़े": 6828,
      "वेली": 6829,
      "▁Sch": 6830,
      "▁अनु": 6831,
      "ameter": 6832,
      "▁\"उत्तर": 6833,
      "गुजराती": 6834,
      "▁हुआ": 6835,
      "▁लिए": 6836,
      "मेरिक": 6837,
      "ॉलर": 6838,
      "माजिक": 6839,
      "▁हिन्दी": 6840,
      "▁उदाहर": 6841,
      "यार": 6842,
      "▁वृ": 6843,
      "▁संबंध": 6844,
      "ियन": 6845,
      "idge": 6846,
      "%E0%A4%9": 6847,
      "_नृत्य": 6848,
      "त्तराखंड": 6849,
      "स्लाम": 6850,
      "धि": 6851,
      "मि": 6852,
      "▁जल": 6853,
      ".php?": 6854,
      "*)": 6855,
      "dikshit": 6856,
      "zber": 6857,
      "एशिया": 6858,
      "घल": 6859,
      "जिं": 6860,
      "नत": 6861,
      "रस्व": 6862,
      "ळ](https://mr.wikipedia.org/wiki/": 6863,
      "हू": 6864,
      "ेघालय": 6865,
      "ोवा": 6866,
      "्ट": 6867,
      "▁छ": 6868,
      "▁\"हिन्": 6869,
      "▁समा": 6870,
      "▁पान": 6871,
      "](https://mr.wikipedia.org/wiki/प": 6872,
      "](https://mr.wikipedia.org/wiki/ल": 6873,
      "▁मस": 6874,
      "▁अतिश": 6875,
      "▁नगर": 6876,
      "ांमध्ये": 6877,
      "-1-10": 6878,
      "▁गेट": 6879,
      "▁१२": 6880,
      "ंदर": 6881,
      "स्तान\")": 6882,
      "▁देशांची": 6883,
      "ंतप्रधान": 6884,
      "्यांमध्ये": 6885,
      "▁घे": 6886,
      "▁./वर्ग:CS1": 6887,
      "▁क्षेत्र\")": 6888,
      "▁२०१": 6889,
      "क्स": 6890,
      "माणु": 6891,
      "्रीका": 6892,
      "▁\"जगातील": 6893,
      "▁फ़": 6894,
      "▁2007](https://mr.wikipedia.org/wiki/भारत#": 6895,
      "ंग्ला": 6896,
      "गातील_देश": 6897,
      "](https://mr.wikipedia.org/wiki/जगातील_देश": 6898,
      "वार्षिक": 6899,
      "▁खाना\")": 6900,
      "▁थी": 6901,
      "विकिपीडिया": 6902,
      "▁लेख:": 6903,
      "द्योगिकी": 6904,
      "▁मोठ्या": 6905,
      "▁किल्ला": 6906,
      "▁दिसम्बर": 6907,
      "▁[Dikshit": 6908,
      "वेरूळ": 6909,
      "▁विद्यार्थ": 6910,
      "▁Schwart": 6911,
      "dikshit),": 6912,
      "जिंठा": 6913,
      "रस्वती": 6914,
      "-1-107": 6915,
      "▁2007](https://mr.wikipedia.org/wiki/भारत#dikshit),": 6916,
      "विकिपीडिया:": 6917,
      "▁Schwartzberg": 6918,
      "auth": 6919,
      "ंक": 6920,
      "ल्य": 6921,
      "िख": 6922,
      "्च": 6923,
      "▁ठ": 6924,
      "hist": 6925,
      "▁वार": 6926,
      "ियां": 6927,
      "▁परंत": 6928,
      "▁हिमालय": 6929,
      "स्थाप": 6930,
      "▁नृत्य\")": 6931,
      "▁भाष": 6932,
      "history": 6933,
      "▁परंतु": 6934,
      "=`": 6935,
      "_इ": 6936,
      "_12": 6937,
      "`|": 6938,
      "ंची": 6939,
      "ाप": 6940,
      "ुक": 6941,
      "ैस": 6942,
      "▁,": 6943,
      "▁\"य": 6944,
      "▁सो": 6945,
      "▁पार": 6946,
      "▁निकोबार": 6947,
      "वाहर": 6948,
      "▁शै": 6949,
      "▁2009": 6950,
      "ंग्रेस": 6951,
      "पेक्ष": 6952,
      "स्लामी": 6953,
      "वाहरलाल": 6954,
      "_राज": 6955,
      "भरत": 6956,
      "रण": 6957,
      "हान": 6958,
      "ैंड": 6959,
      "२६": 6960,
      "](https://hi.wikipedia.org/wiki/न": 6961,
      "द्रा": 6962,
      "▁कोर": 6963,
      "हीं": 6964,
      "दादरा": 6965,
      "langoff": 6966,
      "▁इसके": 6967,
      "aya": 6968,
      "ticle": 6969,
      "▁मार्च": 6970,
      "वेबैक": 6971,
      "▁पर्वत": 6972,
      "▁द्वारा": 6973,
      "▁फ़रवरी": 6974,
      "/index": 6975,
      "गी": 6976,
      "वसाय": 6977,
      "सर": 6978,
      "▁[ओ": 6979,
      "▁सद": 6980,
      "▁बौद्ध": 6981,
      "▁[उत्तर": 6982,
      "▁उत्पाद": 6983,
      "ंग्लिश": 6984,
      "_maint:": 6985,
      "गरा": 6986,
      "थक": 6987,
      "सभ": 6988,
      "्स": 6989,
      "▁[ड": 6990,
      "▁किन": 6991,
      "▁केंद्रशासित": 6992,
      "▁सह": 6993,
      "राठा": 6994,
      "ंगे": 6995,
      "▁नद": 6996,
      "▁काम": 6997,
      "\\_maint:": 6998,
      "▁([link": 6999,
      "िरपेक्ष": 7000,
      "▁निर्म": 7001,
      "प्पा": 7002,
      "\\_maint:\\_": 7003,
      "cens": 7004,
      "ंच": 7005,
      "काता": 7006,
      "खण्ड": 7007,
      "बेट": 7008,
      "भु": 7009,
      "लम": 7010,
      "िवा": 7011,
      "१८": 7012,
      "▁सिनेमा": 7013,
      "र्ज": 7014,
      "्ता": 7015,
      "article": 7016,
      "ांति": 7017,
      "न्ह": 7018,
      "ोंड": 7019,
      "वाह": 7020,
      "चेन्न": 7021,
      "▁1,": 7022,
      "ताब्": 7023,
      "▁विस्त": 7024,
      "▁सामाजिक": 7025,
      "▁परि": 7026,
      "](https://hi.wikipedia.org/wiki/भारत#cite_ref-FOOTNOTE": 7027,
      "ोलकाता": 7028,
      "▁हैं,": 7029,
      "जाति": 7030,
      "रेल": 7031,
      "▁उत्प": 7032,
      "िक्कि": 7033,
      "पालिका": 7034,
      "भीमबेट": 7035,
      "चेन्नई": 7036,
      "भीमबेटका": 7037,
      ";\n": 7038,
      "ंट": 7039,
      "ंचा": 7040,
      "कल्प": 7041,
      "पैकी": 7042,
      "मारत": 7043,
      "यो": 7044,
      "य.ए": 7045,
      "ळख": 7046,
      "वारी": 7047,
      "ूण": 7048,
      "▁६": 7049,
      "▁extra": 7050,
      "▁\"ओ": 7051,
      "▁\"राजस्थान": 7052,
      "▁कम": 7053,
      "▁पासून": 7054,
      "](https://mr.wikipedia.org/wiki/सं": 7055,
      "](https://mr.wikipedia.org/wiki/भारत#CITEREF": 7056,
      "▁महासागर": 7057,
      "र्चा:": 7058,
      "्याद्र": 7059,
      "▁जगातील": 7060,
      "▁बांध": 7061,
      "वाघ": 7062,
      "स्तन": 7063,
      "▁इमारत": 7064,
      "नेय": 7065,
      "त्त्व": 7066,
      "▁साम्राज": 7067,
      "णिपूर": 7068,
      "▁करून": 7069,
      "वरील": 7070,
      "वरून": 7071,
      "▁जातो.": 7072,
      "िंधु": 7073,
      "▁उपसा": 7074,
      "▁वर्षां": 7075,
      "▁सर्वांत": 7076,
      "▁बहुतां": 7077,
      "bridge": 7078,
      "ृष्ट्या": 7079,
      "▁वेग": 7080,
      "▁ओळख": 7081,
      "ग्नेय": 7082,
      "▁लाग": 7083,
      "▁स्थित": 7084,
      "▁झाली.": 7085,
      "िक्कीम": 7086,
      "▁निवड": 7087,
      "ांची_यादी_(": 7088,
      "▁अतिशय": 7089,
      "](https://mr.wikipedia.org/wiki/जगातील_देशांची_यादी_(": 7090,
      "विकिपीडिया:संदर्भ": 7091,
      "author": 7092,
      "▁\"राजस्थान\")": 7093,
      "▁बहुतांशी": 7094,
      "voy": 7095,
      "ण\")": 7096,
      "▁\"ड": 7097,
      "▁\"दिल्ली": 7098,
      "▁वर": 7099,
      "▁दु": 7100,
      "ांस": 7101,
      "▁उद्य": 7102,
      "चा_": 7103,
      "▁रहा": 7104,
      "िश्च": 7105,
      "ार्क": 7106,
      "▁प्राप्त": 7107,
      "समूह": 7108,
      "ंपनी": 7109,
      "_उत्": 7110,
      "▁आक्रम": 7111,
      "▁जयंती": 7112,
      "▁सीमा": 7113,
      "▁\"महाराष्ट्र\")": 7114,
      "4-7": 7115,
      "AAQ": 7116,
      "Po": 7117,
      "_श": 7118,
      "nor": 7119,
      "san": 7120,
      "शक": 7121,
      "ौद्योगिकी": 7122,
      "▁[य": 7123,
      "▁[पुरा": 7124,
      "▁[हिन्दी": 7125,
      "▁सभा": 7126,
      "▁मिल": 7127,
      "▁बदल": 7128,
      "ांड": 7129,
      "्वज": 7130,
      "-111": 7131,
      "्रेल": 7132,
      "ूनि": 7133,
      "राष्ट्रपति": 7134,
      "▁भाषाओं": 7135,
      "िये": 7136,
      "वीं": 7137,
      "धिकारिक": 7138,
      "युद्ध": 7139,
      "स्ट्रेल": 7140,
      "904-7": 7141,
      "१९४७": 7142,
      "छत्तीसगढ": 7143,
      "▁न्यायालय": 7144,
      "धुनिक": 7145,
      "-0-521-80": 7146,
      "▁अगस्त": 7147,
      "्ता:": 7148,
      "ताब्दी": 7149,
      "▁[पुरालेखित": 7150,
      "-0-521-80904-7": 7151,
      "पान": 7152,
      "पया": 7153,
      "हरा": 7154,
      "▁९": 7155,
      "▁[पु": 7156,
      "▁\"लोक": 7157,
      "▁अव": 7158,
      "▁जाती": 7159,
      "so": 7160,
      "चर": 7161,
      "पृष्ठ": 7162,
      "व्ह": 7163,
      "▁सर": 7164,
      "▁पश्चिम": 7165,
      "▁जे": 7166,
      "क्षण": 7167,
      "विद्या": 7168,
      "▁विभाग": 7169,
      "▁घोष": 7170,
      "ंतरराष्ट्रीय": 7171,
      "ेंद्रशासित_प्रदेश": 7172,
      "▁डॉलर": 7173,
      "▁Language": 7174,
      "मेरिकन": 7175,
      "▁उदाहरण": 7176,
      "_maint:_": 7177,
      "voyage": 7178,
      "-पाकिस्तान": 7179,
      "5-8": 7180,
      "Com": 7181,
      "_ह": 7182,
      "_राज्य": 7183,
      "thi": 7184,
      "गान": 7185,
      "बे": 7186,
      "ल](https://hi.wikipedia.org/wiki/": 7187,
      "ूड": 7188,
      "](https://hi.wikipedia.org/wiki/आ": 7189,
      "▁मत": 7190,
      "▁अप्र": 7191,
      "ाती": 7192,
      "▁केन्द्र": 7193,
      "▁नी": 7194,
      "▁बना": 7195,
      "वायु": 7196,
      "विजय": 7197,
      "▁करने": 7198,
      "issi": 7199,
      "ंबेड": 7200,
      "ंग्रेजी": 7201,
      "▁१९९": 7202,
      "ैदरा": 7203,
      "नाडु": 7204,
      "▁मेला\")": 7205,
      "▁हुए": 7206,
      "brary": 7207,
      "▁देख": 7208,
      "hindi": 7209,
      "टिबंध": 7210,
      "▁[हिन्दी](https://hi.wikipedia.org/wiki/": 7211,
      "ंबेडकर": 7212,
      ".e": 7213,
      "2/": 7214,
      "_ग": 7215,
      "तृत": 7216,
      "ुष्": 7217,
      "६६": 7218,
      "▁:": 7219,
      "▁ऋ": 7220,
      "▁[श": 7221,
      "▁कॉ": 7222,
      "▁संग": 7223,
      "▁मे": 7224,
      "▁महाराष्ट्र": 7225,
      "▁भारत\")": 7226,
      "▁2004": 7227,
      "पीपी": 7228,
      "केर": 7229,
      "▁नेहर": 7230,
      "▁\"बंगाल": 7231,
      "▁निर्माण": 7232,
      "तेलुगू": 7233,
      "ुष्क": 7234,
      "ंनी": 7235,
      "गस्ट": 7236,
      "णारे": 7237,
      "फगा": 7238,
      "वृत": 7239,
      "ॅक": 7240,
      "ोस": 7241,
      "ोळी": 7242,
      "▁[गण": 7243,
      "▁[राजस्थान": 7244,
      "▁\"पु": 7245,
      "▁\"वर्ग:CS1": 7246,
      "▁\"तमिळनाडू": 7247,
      "▁\"मुंबई": 7248,
      "▁सुरु": 7249,
      "▁सध्या": 7250,
      "](https://mr.wikipedia.org/wiki/द": 7251,
      "](https://mr.wikipedia.org/wiki/ह": 7252,
      "](https://mr.wikipedia.org/wiki/बा": 7253,
      "](https://mr.wikipedia.org/wiki/वर्ग:CS1": 7254,
      "](https://mr.wikipedia.org/wiki/तमिळनाडू": 7255,
      "▁मैदान": 7256,
      "▁आढ": 7257,
      "▁आले": 7258,
      "▁केली": 7259,
      "ला.": 7260,
      "▁तरी": 7261,
      "▁तयार": 7262,
      "ले.\n": 7263,
      "क्षर": 7264,
      "प्रजासत्ताक": 7265,
      "ंडी": 7266,
      "द्दा": 7267,
      "▁Cam": 7268,
      "शियातील": 7269,
      "मान्य": 7270,
      "ुरक्षा": 7271,
      "▁राज्यात": 7272,
      "▁राजधानी": 7273,
      "▁नावा": 7274,
      "ानेवारी": 7275,
      "▁प्रामुख्य": 7276,
      "](https://mr.wikipedia.org/wiki/महाराष्ट्र": 7277,
      "]](https://mr.wikipedia.org/wiki/भारत#cite_note-4": 7278,
      "▁भारताची": 7279,
      "▁मोठा": 7280,
      "लोकसंख्येनुसार": 7281,
      "▁स्वातंत्र्य": 7282,
      "▁[↑](https://mr.wikipedia.org/wiki/भारत#cite_ref-4": 7283,
      "▁संस्कृत": 7284,
      "ेतील": 7285,
      "▁आशिया\")": 7286,
      "▁पूर्वी": 7287,
      "▁भागात": 7288,
      "▁राष्ट्रपती": 7289,
      "ेकड": 7290,
      "▁स्थानिक": 7291,
      "▁[2](https://mr.wikipedia.org/wiki/भारत#cite_ref-": 7292,
      "▁खासदार": 7293,
      "ख्खन": 7294,
      "▁[1](https://mr.wikipedia.org/wiki/भारत#cite_ref-": 7295,
      "▁लेणी": 7296,
      "▁अजून": 7297,
      "क्षेत्रफळ": 7298,
      "▁./वर्ग:CS1\\_maint:\\_": 7299,
      "▁([link](https://mr.wikipedia.org/wiki/वर्ग:CS1": 7300,
      "्याद्री": 7301,
      "वृतीय": 7302,
      "▁\"तमिळनाडू\")": 7303,
      "▁सुरुव": 7304,
      "▁प्रामुख्याने": 7305,
      "▁([link](https://mr.wikipedia.org/wiki/वर्ग:CS1_maint:_": 7306,
      "/साँचा:": 7307,
      "5]](https://hi.wikipedia.org/wiki/भारत#cite_note-": 7308,
      "8-6": 7309,
      "m.nic.in/": 7310,
      "ncl": 7311,
      "ँच": 7312,
      "ऑस्ट्रेल": 7313,
      "गध": 7314,
      "तट": 7315,
      "थवा": 7316,
      "फे": 7317,
      "भोज": 7318,
      "मत": 7319,
      "यी": 7320,
      "रेंद्र": 7321,
      "लेशिया": 7322,
      "वी_": 7323,
      "हम": 7324,
      "ैथि": 7325,
      "ॉग": 7326,
      "▁unrecognized": 7327,
      "▁स्मार": 7328,
      "▁मह": 7329,
      "▁अथवा": 7330,
      "▁ज्या": 7331,
      "▁नहीं": 7332,
      "▁बी": 7333,
      "▁से](http://": 7334,
      "▁लग": 7335,
      "श्चिमी": 7336,
      "विशेष:Edit": 7337,
      "ct,": 7338,
      "_संघ": 7339,
      "पेक्षा": 7340,
      "पर्यटन": 7341,
      "ugge": 7342,
      "Page/साँचा:": 7343,
      "▁चुनाव": 7344,
      "रेलू": 7345,
      "▁[पुरालेखित](https://web.archive.org/web/201": 7346,
      "विजयनगर": 7347,
      "nclm.nic.in/": 7348,
      "भोजपुरी": 7349,
      "ैथिली": 7350,
      "विशेष:EditPage/साँचा:": 7351,
      "Fl": 7352,
      "इट": 7353,
      "यल": 7354,
      "स्य": 7355,
      "ुल": 7356,
      "ोड": 7357,
      "▁औ": 7358,
      "▁मशी": 7359,
      "▁अल": 7360,
      "▁प्रति": 7361,
      "ंगल": 7362,
      "▁(क": 7363,
      "-12": 7364,
      "▁गा": 7365,
      "▁शा": 7366,
      "▁शहरी": 7367,
      "▁रु": 7368,
      "्मिक": 7369,
      "▁[बौद्ध": 7370,
      "%E0%A4%B0": 7371,
      "त्यमे": 7372,
      "त्यमेव": 7373,
      "_9": 7374,
      "tation": 7375,
      "िला": 7376,
      "▁७": 7377,
      "▁[गुजरात": 7378,
      "▁\"गुजरात": 7379,
      "र्ग": 7380,
      "यास": 7381,
      "▁हवेली": 7382,
      "▁दिवस": 7383,
      "▁नव": 7384,
      "षाण": 7385,
      "माय": 7386,
      "पुत्र": 7387,
      "▁१०": 7388,
      "▁१५": 7389,
      "▁१८": 7390,
      "_मंदिर": 7391,
      "ोरम": 7392,
      "▁२००": 7393,
      "ज्ज": 7394,
      "▁\"जम्मू": 7395,
      "▁भूगोल": 7396,
      "▁सर्वोच्च": 7397,
      "▁द्वीपसमूह": 7398,
      "▁सैन्य": 7399,
      "▁\"गुजरात\")": 7400,
      "-विज्ञान": 7401,
      "ईरा": 7402,
      "फ्रीका": 7403,
      "र-": 7404,
      "ल्त": 7405,
      "वै": 7406,
      "सून": 7407,
      "ोआ": 7408,
      "▁\"का": 7409,
      "▁कई": 7410,
      "▁कश्मीर": 7411,
      "](https://hi.wikipedia.org/wiki/ह": 7412,
      "](https://hi.wikipedia.org/wiki/पंजाब": 7413,
      "▁पुर": 7414,
      "र्द्र": 7415,
      "▁आधिकारिक": 7416,
      "▁प्रधान": 7417,
      "लेट": 7418,
      "न्दा": 7419,
      "-1-7": 7420,
      "▁शताब्दी": 7421,
      "▁इन": 7422,
      "▁से](http://www.": 7423,
      "ध्यम": 7424,
      "▁लाल": 7425,
      "▁करोड़": 7426,
      "वर्ष": 7427,
      "▁है।[[": 7428,
      "▁राजनी": 7429,
      "▁[अंग्रेज़ी": 7430,
      "▁\"अंग्रेज़ी": 7431,
      "8074": 7432,
      "▁जनगणना": 7433,
      "905-8": 7434,
      "-108-6": 7435,
      "▁हैं।\n": 7436,
      "▁Min": 7437,
      "ब्ब": 7438,
      "▁संस्कृति": 7439,
      "-882": 7440,
      "न्दिर": 7441,
      "▁कारण": 7442,
      "▁जिसमें": 7443,
      "known": 7444,
      "ोर्ड": 7445,
      "62-2": 7446,
      "parameter": 7447,
      "-1-107-111": 7448,
      "ूनिवर्": 7449,
      "-0-19-882": 7450,
      "▁बीच": 7451,
      "ल्तनत": 7452,
      "-1-78074": 7453,
      "▁[अंग्रेज़ी](https://hi.wikipedia.org/wiki/अ": 7454,
      "-1-107-11162-2": 7455,
      "-0-19-882905-8": 7456,
      "-1-78074-108-6": 7457,
      "तो": 7458,
      "षभ": 7459,
      "िस्तान": 7460,
      "ैव": 7461,
      "१५": 7462,
      "ांवर": 7463,
      "स्त्र": 7464,
      "▁घाट": 7465,
      "▁[बंगाल": 7466,
      "▁\"बौद्ध": 7467,
      "मालया": 7468,
      "sha": 7469,
      "tle": 7470,
      "{{": 7471,
      "}}": 7472,
      "णाली": 7473,
      "न्या": 7474,
      "ये": 7475,
      "▁[चीन": 7476,
      "▁\"गण": 7477,
      "▁साल": 7478,
      "▁आम": 7479,
      "▁तो": 7480,
      "▁\"कर्नाटक": 7481,
      "▁\"केर": 7482,
      "_मो": 7483,
      "▁[कर्नाटक": 7484,
      "▁नेतृत": 7485,
      "▁India\"": 7486,
      "](https://web.archive.org/web/200": 7487,
      "▁\"पश्चिम": 7488,
      "▁संविधान\")": 7489,
      "▁Official": 7490,
      "मायण": 7491,
      "-वेरूळ": 7492,
      "OL": 7493,
      "\\_क": 7494,
      "bin": 7495,
      "wali": 7496,
      "ंपी": 7497,
      "आणि": 7498,
      "ओ.": 7499,
      "णात": 7500,
      "बट": 7501,
      "मण": 7502,
      "महा": 7503,
      "र्य": 7504,
      "रवि": 7505,
      "ह्याद्री": 7506,
      "ूस": 7507,
      "्हा": 7508,
      "०]](https://mr.wikipedia.org/wiki/भारत#cite_note-": 7509,
      "१]](https://mr.wikipedia.org/wiki/भारत#cite_note-": 7510,
      "▁text": 7511,
      "ारचे": 7512,
      "▁[का": 7513,
      "▁[भू": 7514,
      "▁[दिल्ली": 7515,
      "▁[तमिळनाडू": 7516,
      "्ये": 7517,
      "▁कमी": 7518,
      "भारत)": 7519,
      "▁संग्र": 7520,
      "▁सुरू": 7521,
      "▁सिंधू": 7522,
      "▁सूचना": 7523,
      "](https://hi.wikipedia.org/wiki/ओ": 7524,
      "▁पंतप्रधान": 7525,
      "](https://mr.wikipedia.org/wiki/च": 7526,
      "](https://mr.wikipedia.org/wiki/व": 7527,
      "](https://mr.wikipedia.org/wiki/पाकिस्तान": 7528,
      "](https://mr.wikipedia.org/wiki/पंजाब": 7529,
      "राक": 7530,
      "ानंतर": 7531,
      "्याच्या": 7532,
      "▁आण": 7533,
      "▁आधुनिक": 7534,
      "▁अशी": 7535,
      "▁प्रां": 7536,
      "▁भारताने": 7537,
      "▁दशक": 7538,
      "▁जास्त": 7539,
      "**\n": 7540,
      "लां": 7541,
      "स्कार": 7542,
      "▁तिस": 7543,
      "▁(पूर्वी": 7544,
      "ासी": 7545,
      "ांनी": 7546,
      "ert": 7547,
      "िती": 7548,
      "▁काश्मीर": 7549,
      "▁आहे,": 7550,
      "▁शक": 7551,
      "▁शत": 7552,
      "▁शे": 7553,
      "▁शक्ति": 7554,
      "▁उद्योग": 7555,
      "▁संख्या": 7556,
      "▁[मूळ": 7557,
      "द्दु": 7558,
      "▁लोग": 7559,
      "्राम": 7560,
      "े_आणि": 7561,
      "](https://hi.wikipedia.org/wiki/भारत_का_": 7562,
      "▁करण्यात": 7563,
      "्यांना": 7564,
      "्यांचा": 7565,
      "▁एकूण": 7566,
      "▁प्राण": 7567,
      "▁मुघल": 7568,
      "▁झाल": 7569,
      "िळक": 7570,
      "](https://mr.wikipedia.org/wiki/मध्य": 7571,
      "▁चळ": 7572,
      "हाराज": 7573,
      "िवूड": 7574,
      "▁भारताचे": 7575,
      "▁क्षेत्रीय": 7576,
      "▁वापर": 7577,
      "▁वाळवंट": 7578,
      "हिन्द": 7579,
      "▁१९७": 7580,
      "जनसंख्या": 7581,
      "हित.": 7582,
      "▁जनसंख्या": 7583,
      "▁मानवी": 7584,
      "स्वातंत्र्य": 7585,
      "](https://mr.wikipedia.org/wiki/आसाम": 7586,
      "▁शिक्षा": 7587,
      "](https://mr.wikipedia.org/wiki/बंगाल": 7588,
      "डाख": 7589,
      "ंग्रज": 7590,
      "ोबत": 7591,
      "ंदीगढ": 7592,
      "]](https://hi.wikipedia.org/wiki/भारत#cite_note-FOOTNOTESingh2009": 7593,
      "]](https://hi.wikipedia.org/wiki/भारत#cite_note-FOOTNOTEStein1998": 7594,
      "स.ओ.": 7595,
      "शिष्ट": 7596,
      "त्तराखण्ड": 7597,
      "▁म्हणून": 7598,
      "▁म्हणजे": 7599,
      "ॉलिवूड": 7600,
      "▁गणराज्यचे": 7601,
      "▁होती.": 7602,
      "▁Uni": 7603,
      "▁कुल": 7604,
      "ignor": 7605,
      "](https://mr.wikipedia.org/wiki/उत्तर": 7606,
      "ण्यास": 7607,
      "विषुव": 7608,
      "▁जाते.": 7609,
      "_मेला?action=edit&redlink=1": 7610,
      "▁पाहिले.\n": 7611,
      "ताजमहाल": 7612,
      "ेंजो": 7613,
      "▁क्रमांक": 7614,
      "▁वैशिष्ट": 7615,
      "ress,": 7616,
      "जिंठा-वेरूळ": 7617,
      "▁ठिका": 7618,
      "िक्किम": 7619,
      "य.एस.ओ.": 7620,
      "▁वर्षांपूर्वी": 7621,
      "Combin": 7622,
      "▁अप्रैल": 7623,
      "ैदराबाद": 7624,
      "▁[हिन्दी](https://hi.wikipedia.org/wiki/हिन्दी": 7625,
      "फगाणि": 7626,
      "▁आढळ": 7627,
      "ंडीगढ़": 7628,
      "ेकडील": 7629,
      "क्षेत्रफळानुसार": 7630,
      "▁संग्रहित.": 7631,
      "द्दुचेरी": 7632,
      "ignored": 7633,
      "जिंठा-वेरूळची": 7634,
      "8D": 7635,
      "Bi": 7636,
      "ट्ट": 7637,
      "दि": 7638,
      "संगीत": 7639,
      "१६६": 7640,
      "५७": 7641,
      "▁[सा": 7642,
      "▁[राज्य": 7643,
      "▁\"श": 7644,
      "▁मंत्री": 7645,
      "▁प्रांत": 7646,
      "▁नौ": 7647,
      "▁गांधी": 7648,
      "▁इत्या": 7649,
      "▁परंप": 7650,
      "▁([स": 7651,
      "वर्ण": 7652,
      "▁२६": 7653,
      "▁Act,": 7654,
      "धीश": 7655,
      "▁शासित": 7656,
      "▁स्थापत्य": 7657,
      "%E0%A5%8D": 7658,
      "▁व्याप": 7659,
      "▁परंपरा": 7660,
      "\"](http://www.": 7661,
      "OP": 7662,
      "ंभ": 7663,
      "मरी": 7664,
      "रूप": 7665,
      "सू": 7666,
      "ो-": 7667,
      "ोला": 7668,
      "▁`|": 7669,
      "▁[घ": 7670,
      "▁समाज": 7671,
      "▁मन": 7672,
      "र्मा": 7673,
      "▁प्रसि": 7674,
      "▁(अ": 7675,
      "url": 7676,
      "▁1998": 7677,
      "श्चिम_ब": 7678,
      "▁भूम": 7679,
      "▁[जम्मू": 7680,
      "knowindia/": 7681,
      "▁बंगाल\")": 7682,
      "%E0%A5%87": 7683,
      "▁\"पंजाब\")": 7684,
      "india.gov.in/knowindia/": 7685,
      "▁[मुंबई": 7686,
      "▁दीव": 7687,
      "▁\"मुंबई\")": 7688,
      "▁\"कर्नाटक\")": 7689,
      "OPE": 7690,
      "श्चिम_बंगाल": 7691,
      "-201": 7692,
      "5,": 7693,
      "5_": 7694,
      "cat": 7695,
      "eport": 7696,
      "hl": 7697,
      "गल": 7698,
      "जि": 7699,
      "डु": 7700,
      "नता": 7701,
      "पि": 7702,
      "पदी": 7703,
      "यपुर": 7704,
      "लिस": 7705,
      "वरा": 7706,
      "श्य": 7707,
      "सित": 7708,
      "हात": 7709,
      "िज": 7710,
      "ित्र": 7711,
      "िन्": 7712,
      "ुट": 7713,
      "ेन्द्र": 7714,
      "ोडिया": 7715,
      "ौपदी": 7716,
      "्मा": 7717,
      "▁6.": 7718,
      "▁\"तमिल": 7719,
      "](https://hi.wikipedia.org/wiki/च": 7720,
      "](https://hi.wikipedia.org/wiki/ल": 7721,
      "](https://hi.wikipedia.org/wiki/बा": 7722,
      "▁प्रौद्योगिकी": 7723,
      "ंगोल": 7724,
      "त्री": 7725,
      "लाओ": 7726,
      "▁(*": 7727,
      "en:": 7728,
      "▁उन": 7729,
      "द्रौपदी": 7730,
      "र्मू": 7731,
      "▁राज्य\")": 7732,
      "ियार": 7733,
      "वर्तन": 7734,
      "ोलन": 7735,
      "▁राजवंश": 7736,
      "दाबाद": 7737,
      "▁टा": 7738,
      "using": 7739,
      "▁Press,": 7740,
      "जनप": 7741,
      "न्नड": 7742,
      "ंग्लादेश": 7743,
      "स्वतंत्रता": 7744,
      "▁[पश्चिम": 7745,
      "▁कार्य": 7746,
      "_Tem": 7747,
      "▁था।": 7748,
      "छत्तीसगढ़": 7749,
      "▁पहले": 7750,
      "▁पार्टी": 7751,
      "▁विषय": 7752,
      "द्दाख": 7753,
      "हमदाबाद": 7754,
      "▁चुनावों": 7755,
      "▁प्रधानमंत्री": 7756,
      "महाद्वीप": 7757,
      "हात्मा": 7758,
      "_Temple": 7759,
      "NG": 7760,
      "RL": 7761,
      "_ड": 7762,
      "s\n": 7763,
      "ऊर्जा": 7764,
      "कीय": 7765,
      "जल": 7766,
      "जार": 7767,
      "ज्य": 7768,
      "ृती": 7769,
      "ॉकी": 7770,
      "ार्मिक": 7771,
      "▁सिंह": 7772,
      "▁आग": 7773,
      "▁अस्त": 7774,
      "▁प्रभा": 7775,
      "ांचे": 7776,
      "▁इस्लामी": 7777,
      "ी_म": 7778,
      "▁भवन": 7779,
      "▁धार्मिक": 7780,
      "धारण": 7781,
      "शासित_प्रदेश": 7782,
      "%E0%A4%AF": 7783,
      "ोपीय": 7784,
      "%E0%A4%9A": 7785,
      "/index.php?": 7786,
      "वसायिक": 7787,
      "विद्यालय": 7788,
      "_a": 7789,
      "_युद्ध": 7790,
      "कूल": 7791,
      "ट्य": 7792,
      "ढा": 7793,
      "भार": 7794,
      "ृष": 7795,
      "ोध": 7796,
      "▁[ए": 7797,
      "▁\"चीन": 7798,
      "▁सकल": 7799,
      "र्ड": 7800,
      "ंगम": 7801,
      "्वाला": 7802,
      "▁गंगा": 7803,
      "▁197": 7804,
      "▁संस्थान": 7805,
      "मुना": 7806,
      "▁११": 7807,
      "▁१६": 7808,
      "▁पाकिस्तान": 7809,
      "%E0%A4%B8": 7810,
      "भूषा": 7811,
      "ौद्ध_धर्म": 7812,
      "▁\"गंगा": 7813,
      "\"](https://web.archive.org/web/20160": 7814,
      "प्राचीन": 7815,
      "▁शैली": 7816,
      "▁नेतृत्व": 7817,
      "▁प्रसिद्ध": 7818,
      "▁भूमिका": 7819,
      "▁\"चीन\")": 7820,
      "्वालामुख": 7821,
      ".f": 7822,
      "66": 7823,
      "8–": 7824,
      "busines": 7825,
      "log": 7826,
      "ंस": 7827,
      "जं": 7828,
      "टना": 7829,
      "दर": 7830,
      "न्तर": 7831,
      "फोर्ड": 7832,
      "मिल": 7833,
      "यत": 7834,
      "वणी": 7835,
      "शस्": 7836,
      "षद": 7837,
      "िम": 7838,
      "ी.": 7839,
      "ैंक": 7840,
      "ोली": 7841,
      "▁%": 7842,
      "▁·": 7843,
      "orities": 7844,
      "▁[श्रीलंका": 7845,
      "▁\"भू": 7846,
      "▁\"श्रीलंका": 7847,
      "▁\"en:": 7848,
      "्यु": 7849,
      "▁कला": 7850,
      "▁कंपनी": 7851,
      "](https://hi.wikipedia.org/wiki/दक्षिण": 7852,
      "](https://hi.wikipedia.org/wiki/पाकिस्तान": 7853,
      "▁मौ": 7854,
      "राम": 7855,
      "राव": 7856,
      "रामायण": 7857,
      "▁प्रेस": 7858,
      "on_": 7859,
      "▁(2018": 7860,
      "वियत": 7861,
      "\\_देश": 7862,
      "2013": 7863,
      "▁विदेश": 7864,
      "-0)\n": 7865,
      "▁राज्यक्षेत्र": 7866,
      "ड़ियाँ": 7867,
      "गर\")": 7868,
      "जीव": 7869,
      "▁[केर": 7870,
      "lia": 7871,
      "परमाणु": 7872,
      "▁[बिहार": 7873,
      "▁\"बिहार": 7874,
      "▁क्षेत्रों": 7875,
      "▁अन्त": 7876,
      "etra": 7877,
      "▁स्वतंत्रता": 7878,
      "ज्ञाप": 7879,
      "हित्य": 7880,
      "▁जनवरी": 7881,
      "▁मानसून": 7882,
      "पुरम": 7883,
      "_Indian": 7884,
      "समिया": 7885,
      "▁मेला\"),": 7886,
      "ब्ल": 7887,
      "▁युग": 7888,
      "ंग्रेज़ी_भाषा": 7889,
      "बंधन": 7890,
      "▁बहुत": 7891,
      "▁विकसित": 7892,
      "▁ओर": 7893,
      "▁पुरालेखित।,": 7894,
      "▁आकर्ष": 7895,
      "▁ईसा": 7896,
      "▁ईस्ट": 7897,
      "_और_संघ": 7898,
      "▁कुछ": 7899,
      "image": 7900,
      "_के_आधार_पर_भारत_के_राज्यों_की_सूची": 7901,
      "द्वार": 7902,
      "तेलंगाना": 7903,
      ".html)": 7904,
      "भिज्ञाप": 7905,
      "▁\"हिन्दी\")": 7906,
      "क्सफोर्ड": 7907,
      "▁[अंग्रेज़ी](https://hi.wikipedia.org/wiki/अंग्रेज़ी_भाषा": 7908,
      "uistic": 7909,
      "▁\"श्रीलंका\")": 7910,
      "▁\"बिहार\")": 7911,
      "भिज्ञापक": 7912,
      "%;\n": 7913,
      "IU": 7914,
      "Mon": 7915,
      "Wor": 7916,
      "_त्रूटी": 7917,
      "doc": 7918,
      "sci": 7919,
      "ंबा": 7920,
      "आशियातील": 7921,
      "चार": 7922,
      "टके": 7923,
      "डप्पा": 7924,
      "णु": 7925,
      "तै": 7926,
      "तून": 7927,
      "दिवस": 7928,
      "दडो": 7929,
      "धा": 7930,
      "ळा": 7931,
      "ळू": 7932,
      "वत": 7933,
      "शत": 7934,
      "ह्य": 7935,
      "हशत": 7936,
      "िरी": 7937,
      "ोबर": 7938,
      "▁]": 7939,
      "▁त्रूटी": 7940,
      "▁[राष्ट्रीय": 7941,
      "▁साली": 7942,
      "▁सस्तन": 7943,
      "▁सल्तनत": 7944,
      "▁पहा": 7945,
      "▁पृष्": 7946,
      "](https://mr.wikipedia.org/wiki/दक्षिण": 7947,
      "](https://mr.wikipedia.org/wiki/लोक": 7948,
      "](https://mr.wikipedia.org/wiki/राजस्थान": 7949,
      "tek": 7950,
      "्या\")": 7951,
      "्याचे": 7952,
      "▁ह्या": 7953,
      "▁प्रजासत्ताक": 7954,
      "▁भारताला": 7955,
      "▁केली.": 7956,
      "नाइट": 7957,
      "स्पती": 7958,
      "▁त्यात": 7959,
      "▁नका": 7960,
      "ांना": 7961,
      "लेला": 7962,
      "देशांक": 7963,
      "वाळवंट": 7964,
      "▁इ.": 7965,
      "त्ता": 7966,
      "▁यात": 7967,
      "▁यादी\")": 7968,
      "द्दल": 7969,
      "▁आहे.[[१": 7970,
      "▁[↑](https://mr.wikipedia.org/wiki/भारत#cite_": 7971,
      "▁प्रदेशात": 7972,
      "शियाई": 7973,
      "▁\"सहाय्य:CS1": 7974,
      "1967": 7975,
      "ang1967": 7976,
      "णाऱ्या": 7977,
      "िसी": 7978,
      "▁नाटके": 7979,
      "▁आहेत.\n": 7980,
      "▁घड": 7981,
      "त्न": 7982,
      "▁भारताचा": 7983,
      "▁वाघ": 7984,
      "▁टिळक": 7985,
      "शीख": 7986,
      "](https://mr.wikipedia.org/wiki/सहाय्य:CS1": 7987,
      "ल्ली": 7988,
      "▁\"आसा": 7989,
      "▁[↑](https://mr.wikipedia.org/wiki/भारत#cite_ref-3": 7990,
      "▁**[आ": 7991,
      "▁वर्षात": 7992,
      "▁[नवी": 7993,
      "▁बहुमत": 7994,
      "▁अधिकार": 7995,
      "्यानंतर": 7996,
      "ृष्टी": 7997,
      "▁त्यामुळे": 7998,
      "▁प्रकारच्या": 7999,
      "▁पदवी": 8000,
      "ोहेंजो": 8001,
      "▁En": 8002,
      "▁गेल्या": 8003,
      "▁गेली.": 8004,
      "हाय्य](https://mr.wikipedia.org/wiki/सहाय्य:CS1": 8005,
      "▁माध्यम": 8006,
      "▁नदी\"),": 8007,
      "▁व्यावसायिक": 8008,
      "पर्यंत": 8009,
      "ण्याची": 8010,
      "▁पर्यंत": 8011,
      "itsch": 8012,
      "साम](https://mr.wikipedia.org/wiki/आसाम": 8013,
      "नेपाळ": 8014,
      "ित्त्व": 8015,
      "▁पाहिले.": 8016,
      "▁वनस्पती": 8017,
      "▁प्राणी**": 8018,
      "▁[महाराष्ट्र](https://mr.wikipedia.org/wiki/महाराष्ट्र": 8019,
      "▁सोयी": 8020,
      "▁निर्मिती": 8021,
      "▁उपसागरा": 8022,
      "▁वेगळे": 8023,
      "▁जेव": 8024,
      "▁अजूनही": 8025,
      "▁पुरस्कार": 8026,
      "Biodiversity": 8027,
      "१६६-": 8028,
      "▁इत्यादी": 8029,
      "▁([सहाय्य](https://mr.wikipedia.org/wiki/सहाय्य:CS1": 8030,
      "▁अस्तित्त्व": 8031,
      "Montek": 8032,
      "_त्रूटी#": 8033,
      "▁पृष्ठा": 8034,
      "▁नकाशा": 8035,
      "ोहेंजोदडो": 8036,
      "▁([सहाय्य](https://mr.wikipedia.org/wiki/सहाय्य:CS1_त्रूटी#": 8037,
      "DIA": 8038,
      "Map": 8039,
      "b)": 8040,
      "c.": 8041,
      "ँग": 8042,
      "ग्वे": 8043,
      "निरपेक्ष": 8044,
      "मोर": 8045,
      "वन\")": 8046,
      "ुरा": 8047,
      "dition": 8048,
      ".org/w": 8049,
      "▁[१९": 8050,
      "▁\"ओडिशा": 8051,
      "▁सार": 8052,
      "▁स्त": 8053,
      "▁सम्राट": 8054,
      "▁सुरक्षा": 8055,
      "त्रिक": 8056,
      "▁रच": 8057,
      "▁\"मान": 8058,
      "णिपुर": 8059,
      "▁वर्षा": 8060,
      "▁पाव": 8061,
      "▁१९५०": 8062,
      "▁स्वरूप": 8063,
      "नुसार_देश": 8064,
      "_13": 8065,
      "▁आधारित": 8066,
      "निष्ठ": 8067,
      "▁\"हिमालय": 8068,
      "▁वन्य": 8069,
      "▁वृद्ध": 8070,
      "-of-": 8071,
      "IM": 8072,
      "WE": 8073,
      "\\*": 8074,
      "a)": 8075,
      "e-": 8076,
      "छा": 8077,
      "पास": 8078,
      "पाली": 8079,
      "फा": 8080,
      "भग": 8081,
      "भर": 8082,
      "भ्यता": 8083,
      "यर": 8084,
      "रद": 8085,
      "िप": 8086,
      "ृश्य": 8087,
      "ोहि": 8088,
      "२००": 8089,
      "▁thi": 8090,
      "dir": 8091,
      "dis": 8092,
      "्रु": 8093,
      "▁[ध": 8094,
      "▁[तमिल": 8095,
      "▁[त्रिपुरा": 8096,
      "▁\"पूर्व": 8097,
      "▁\"साँ": 8098,
      "▁\"त्रिपुरा": 8099,
      "▁सित": 8100,
      "](https://hi.wikipedia.org/wiki/व": 8101,
      "](https://hi.wikipedia.org/wiki/साँ": 8102,
      "](https://hi.wikipedia.org/wiki/तमिल": 8103,
      "▁पुरु": 8104,
      "▁मई": 8105,
      "र्ध": 8106,
      "▁हर": 8107,
      "्तु": 8108,
      "20]](https://hi.wikipedia.org/wiki/भारत#cite_note-": 8109,
      "ेंगल": 8110,
      "▁प्रार": 8111,
      "▁जब": 8112,
      "▁बद": 8113,
      "▁में,": 8114,
      "nolog": 8115,
      "▁गई": 8116,
      "▁शुष्क": 8117,
      "संधान": 8118,
      "नेपाली": 8119,
      "त्तरी": 8120,
      "तिब्ब": 8121,
      "-03": 8122,
      "र्मदा": 8123,
      "▁यूनिवर्": 8124,
      "les/": 8125,
      "▁लिये": 8126,
      "▁१७": 8127,
      "ड़िया": 8128,
      "196": 8129,
      "ुरत": 8130,
      "_के_अ": 8131,
      "म्भ": 8132,
      "library": 8133,
      "▁वर्ग": 8134,
      "ंबर": 8135,
      "_(भारत)": 8136,
      "हिन्दू": 8137,
      "▁\"आंध्र": 8138,
      "▁\"इंडोनेशिया": 8139,
      "▁जनजाति": 8140,
      "▁[इंडोनेशिया": 8141,
      ".gov.in": 8142,
      "▁मेला](https://hi.wikipedia.org/wiki/": 8143,
      "](https://hi.wikipedia.org/wiki/भारत_के_राज्य": 8144,
      "_संविधान": 8145,
      "▁युद्ध\")": 8146,
      "ोर्ट": 8147,
      "%2C_": 8148,
      "सिटी": 8149,
      "▁[पाकिस्तान](https://hi.wikipedia.org/wiki/पाकिस्तान": 8150,
      "_इंडिया": 8151,
      "▁कॉंग्रेस": 8152,
      "क्षरता": 8153,
      "titution": 8154,
      "▁(2018),": 8155,
      "ेंगलुरु": 8156,
      "▁यूनिवर्सिटी": 8157,
      "▁\"इंडोनेशिया\")": 8158,
      "hat": 8159,
      "ई\")": 8160,
      "घा": 8161,
      "ाख": 8162,
      "ोसी": 8163,
      "▁[ख": 8164,
      "▁आदि": 8165,
      "ातर": 8166,
      "▁प्रशास": 8167,
      "▁दर्": 8168,
      "_केंद्र": 8169,
      "▁होते": 8170,
      "ियर": 8171,
      "▁[कु": 8172,
      "▁नागर": 8173,
      "itan": 8174,
      "▁चल": 8175,
      "▁मोदी": 8176,
      "▁[\"The": 8177,
      "britan": 8178,
      "▁स्थापना": 8179,
      "विकास": 8180,
      "▁\"दिल्ली\")": 8181,
      "&action=edit": 8182,
      ".५": 8183,
      ".६": 8184,
      "=%E0%A4%B8": 8185,
      "_जय": 8186,
      "dlife": 8187,
      "phi": 8188,
      "us/": 8189,
      "wor": 8190,
      "ऑफ": 8191,
      "कृष्ट": 8192,
      "गोर": 8193,
      "थे": 8194,
      "ळम": 8195,
      "व्या": 8196,
      "सार": 8197,
      "ोत्तर": 8198,
      "orig": 8199,
      ".wikipedia.org/w": 8200,
      "▁[धर्म": 8201,
      "▁\"राष्ट्रीय": 8202,
      "▁सूर": 8203,
      "र्त": 8204,
      "▁आर्द्र": 8205,
      "report": 8206,
      "▁जि": 8207,
      "भाज": 8208,
      "title": 8209,
      "हेब": 8210,
      "ती\")": 8211,
      "▁धर्मा": 8212,
      "_महासागर": 8213,
      "▁2012": 8214,
      "▁नाग": 8215,
      "▁चार": 8216,
      "raphi": 8217,
      "▁\"ब्रिटिश": 8218,
      "_St": 8219,
      "व्यु": 8220,
      "ographi": 8221,
      "रबी": 8222,
      ".jpg/330": 8223,
      "▁शास्त्र": 8224,
      "▁[संयुक्त": 8225,
      "शिवा": 8226,
      "▁\"संस्कृत": 8227,
      "मेरिका": 8228,
      "%E0%A4%BE:": 8229,
      "sey": 8230,
      "ंद्रनाथ": 8231,
      "▁पर्यटन": 8232,
      "ासाहेब": 8233,
      "coun": 8234,
      "▁(इंग्लिश": 8235,
      "_उत्पाद": 8236,
      "क्षणिक": 8237,
      "▁नेहरु": 8238,
      "Flag": 8239,
      "▁प्रभाव": 8240,
      "%E0%A4%9A%E0%A4%BE:": 8241,
      "/index.php?title": 8242,
      "्वालामुखी": 8243,
      "&action=edit)": 8244,
      "=%E0%A4%B8%E0%A4%BE": 8245,
      "origin": 8246,
      ".wikipedia.org/w/index.php?title": 8247,
      "ographic": 8248,
      ".wikipedia.org/w/index.php?title=%E0%A4%B8%E0%A4%BE": 8249,
      "/link": 8250,
      "Pur": 8251,
      "Report": 8252,
      "Sikh": 8253,
      "ahi": 8254,
      "c=": 8255,
      "eal_": 8256,
      "gri": 8257,
      "m_at": 8258,
      "missi": 8259,
      "tri": 8260,
      "van": 8261,
      "इल": 8262,
      "ईल": 8263,
      "ईसा": 8264,
      "उप": 8265,
      "कात": 8266,
      "खिल": 8267,
      "घर": 8268,
      "चेंज": 8269,
      "छत्र": 8270,
      "जें": 8271,
      "थियार": 8272,
      "नु": 8273,
      "फल": 8274,
      "मराव": 8275,
      "सरा": 8276,
      "िंगा": 8277,
      "ुद्ध": 8278,
      "ूमर": 8279,
      "ृह": 8280,
      "ेख": 8281,
      "ॉक": 8282,
      "ॉर्ड": 8283,
      "ोदा": 8284,
      "्ञ": 8285,
      "२०": 8286,
      "▁°": 8287,
      "ikidata": 8288,
      "ारो": 8289,
      "्रं": 8290,
      "▁[Singh": 8291,
      "▁स्तर": 8292,
      "▁सभ्यता": 8293,
      "](https://hi.wikipedia.org/wiki/य": 8294,
      "mrits": 8295,
      "▁मौर्य": 8296,
      "रावली": 8297,
      "ान्स": 8298,
      "▁प्रग": 8299,
      "reed": 8300,
      "▁दल": 8301,
      "▁दृश्य": 8302,
      "नाट्य": 8303,
      "ंगाली": 8304,
      "citation": 8305,
      "▁जिन": 8306,
      "▁ज्ञ": 8307,
      "arsh": 8308,
      "▁बड़े": 8309,
      "संबर": 8310,
      "▁इंड": 8311,
      "नेपाल": 8312,
      "▁सेवा": 8313,
      "त्ति": 8314,
      "र्वोच्च": 8315,
      "[[10": 8316,
      "िलि": 8317,
      "ommissi": 8318,
      "▁रक्षा": 8319,
      "▁Commissi": 8320,
      "red/link": 8321,
      "हाँ": 8322,
      "पूजा": 8323,
      "](https://hi.wikipedia.org/wiki/भारत_का": 8324,
      "किर्ग": 8325,
      "वेद": 8326,
      "](https://hi.wikipedia.org/wiki/भारत#cite_ref-pib": 8327,
      "](https://hi.wikipedia.org/wiki/भारत#cite_ref-langoff": 8328,
      "▁[अरुणाचल": 8329,
      "▁\"अरुणाचल": 8330,
      "Harman": 8331,
      "inguistic": 8332,
      "_सिनेमा": 8333,
      "ंबोडिया": 8334,
      "_Sahi": 8335,
      "मेनि": 8336,
      "ठाणे": 8337,
      "show": 8338,
      "px?": 8339,
      "ilgri": 8340,
      "ीरे": 8341,
      "](https://hi.wikipedia.org/wiki/मध्य": 8342,
      "-7mar": 8343,
      "ृष्णा": 8344,
      "▁उपमहाद्वीप": 8345,
      "site": 8346,
      "▁वर्षों": 8347,
      "तुर्क": 8348,
      "▁[![](https://upload.wikimedia.org/wikipedia/commons/thumb/7/": 8349,
      "▁Tim": 8350,
      "▁Linguistic": 8351,
      "Singh2009),": 8352,
      "Stein1998),": 8353,
      "%E0%A4%A4": 8354,
      "▁मंदिर\")": 8355,
      "▁थे": 8356,
      "भीमा": 8357,
      "](https://hi.wikipedia.org/wiki/भारत#CITEREFSingh2009),": 8358,
      "](https://hi.wikipedia.org/wiki/भारत#CITEREFStein1998),": 8359,
      "▁CITEREFSingh2009": 8360,
      "▁CITEREFStein1998": 8361,
      "▁\"लक्षद्वीप": 8362,
      "▁दिसंबर": 8363,
      "▁व्यवस्था": 8364,
      "▁Wikidata": 8365,
      "ताजिक": 8366,
      "▁[लक्षद्वीप": 8367,
      "_Amrits": 8368,
      "▁./श्रेणी:CS1": 8369,
      "_एशिया": 8370,
      "रोहर": 8371,
      "रुणाचल_प्रदेश": 8372,
      "_in_Amrits": 8373,
      "uggle": 8374,
      "▁जयते": 8375,
      "_pilgri": 8376,
      "_Golden": 8377,
      "Pages\\_": 8378,
      "_भारतीय_राज्य": 8379,
      "feb": 8380,
      "[[120]](https://hi.wikipedia.org/wiki/भारत#cite_note-": 8381,
      ".html).": 8382,
      "मृतसर": 8383,
      "ैसूर": 8384,
      "▁2009](https://hi.wikipedia.org/wiki/भारत#CITEREFSingh2009),": 8385,
      "भरतनाट्य": 8386,
      "langoff-12": 8387,
      "▁सिनेमा\"),": 8388,
      "वाहन": 8389,
      "llchin": 8390,
      "_the_Golden": 8391,
      "बेकिस्तान": 8392,
      "टिबंधीय": 8393,
      "▁लगभग": 8394,
      "nclm.nic.in/sha": 8395,
      "▁अलग": 8396,
      "▁रुपया": 8397,
      "▁Minorities": 8398,
      ".aspx?": 8399,
      "▁1998](https://hi.wikipedia.org/wiki/भारत#CITEREFStein1998),": 8400,
      "डुचेरी": 8401,
      "using\\_": 8402,
      "images/": 8403,
      "dir_Sahi": 8404,
      "्रुने": 8405,
      "▁\"त्रिपुरा\")": 8406,
      "▁प्रारम्भ": 8407,
      "Sikh_pilgri": 8408,
      "m_at_the_Golden": 8409,
      "ोदावरी": 8410,
      "reedom": 8411,
      "red/linkimages/": 8412,
      "](https://hi.wikipedia.org/wiki/भारत#cite_ref-langoff_12": 8413,
      "Harmandir_Sahi": 8414,
      "-7mar2011": 8415,
      "तुर्कमेनि": 8416,
      "▁\"लक्षद्वीप\")": 8417,
      "_in_Amritsar": 8418,
      "[[120]](https://hi.wikipedia.org/wiki/भारत#cite_note-langoff-12": 8419,
      "nclm.nic.in/shared/linkimages/": 8420,
      "Sikh_pilgrim_at_the_Golden": 8421,
      "[[120]](https://hi.wikipedia.org/wiki/भारत#cite_note-langoff-128)": 8422,
      "Sikh_pilgrim_at_the_Golden_Temple": 8423,
      "c/": 8424,
      "लब्": 8425,
      "▁[राज": 8426,
      "▁सि": 8427,
      "▁वास्त": 8428,
      "▁आकार": 8429,
      "राज्य\")": 8430,
      "हिला": 8431,
      "मानव": 8432,
      "▁\"कु": 8433,
      "21)": 8434,
      "▁\"हिमाचल": 8435,
      "try": 8436,
      "▁20.": 8437,
      "▁घोषणा": 8438,
      "लाओस": 8439,
      "ublication": 8440,
      "लब्ध": 8441,
      "\"](http://": 8442,
      "*](https://mr.wikipedia.org/wiki/": 8443,
      "-०": 8444,
      "Ach": 8445,
      "CL": 8446,
      "E_E": 8447,
      "YCL": 8448,
      "_द्या": 8449,
      "a.gov/": 8450,
      "kum": 8451,
      "tin": 8452,
      "uation": 8453,
      "इव्ह": 8454,
      "ऋत्य": 8455,
      "ऑगस्ट": 8456,
      "घात": 8457,
      "चर्चा:": 8458,
      "ड\")": 8459,
      "तो.": 8460,
      "थारचे": 8461,
      "दारी": 8462,
      "न](https://mr.wikipedia.org/wiki/": 8463,
      "पणे": 8464,
      "बळ": 8465,
      "बद्दल": 8466,
      "ळूह": 8467,
      "वट": 8468,
      "वळी": 8469,
      "शान": 8470,
      "सव": 8471,
      "समी": 8472,
      "हज": 8473,
      "िरा": 8474,
      "िधा": 8475,
      "ैऋत्य": 8476,
      "ोण": 8477,
      "४]](https://mr.wikipedia.org/wiki/भारत#cite_note-": 8478,
      "६]](https://mr.wikipedia.org/wiki/भारत#cite_note-": 8479,
      "८]](https://mr.wikipedia.org/wiki/भारत#cite_note-": 8480,
      "▁ॲ": 8481,
      "्रिश्च": 8482,
      "▁\"विश्व": 8483,
      "▁\"नेपा": 8484,
      "▁\"विकिपीडिया:संदर्भ": 8485,
      "▁कड": 8486,
      "▁स.": 8487,
      "](https://mr.wikipedia.org/w/index.php?title=%E0%A4%B8%E0%A4%BE": 8488,
      "](https://mr.wikipedia.org/wiki/ड": 8489,
      "](https://mr.wikipedia.org/wiki/पु": 8490,
      "](https://mr.wikipedia.org/wiki/चीन": 8491,
      "](https://mr.wikipedia.org/wiki/गण": 8492,
      "](https://mr.wikipedia.org/wiki/दिल्ली": 8493,
      "](https://mr.wikipedia.org/wiki/गुजरात": 8494,
      "](https://mr.wikipedia.org/wiki/मुंबई": 8495,
      "](https://mr.wikipedia.org/wiki/ओडिशा": 8496,
      "▁मराठी": 8497,
      "▁महाराज": 8498,
      "▁हळूह": 8499,
      "▁वेष": 8500,
      "▁वारे": 8501,
      "▁आली": 8502
    },
    "merges": [
      [
        "i",
        "a"
      ],
      [
        "w",
        "i"
      ],
      [
        "k",
        "i"
      ],
      [
        "wi",
        "ki"
      ],
      [
        "d",
        "ia"
      ],
      [
        "e",
        "n"
      ],
      [
        "o",
        "r"
      ],
      [
        "p",
        "e"
      ],
      [
        "t",
        "t"
      ],
      [
        "]",
        "("
      ],
      [
        "p",
        "s"
      ],
      [
        "h",
        "tt"
      ],
      [
        ":",
        "/"
      ],
      [
        ":/",
        "/"
      ],
      [
        "htt",
        "ps"
      ],
      [
        "https",
        "://"
      ],
      [
        "](",
        "https://"
      ],
      [
        "i",
        "n"
      ],
      [
        "a",
        "n"
      ],
      [
        "g",
        "/"
      ],
      [
        ".",
        "or"
      ],
      [
        ".or",
        "g/"
      ],
      [
        "▁",
        "["
      ],
      [
        "pe",
        "dia"
      ],
      [
        "I",
        "n"
      ],
      [
        ".",
        "wiki"
      ],
      [
        ".org/",
        "wiki"
      ],
      [
        ".org/wiki",
        "/"
      ],
      [
        "](https://",
        "en"
      ],
      [
        "](https://en",
        ".wiki"
      ],
      [
        "](https://en.wiki",
        "pedia"
      ],
      [
        "](https://en.wikipedia",
        ".org/wiki/"
      ],
      [
        "t",
        "e"
      ],
      [
        "o",
        "n"
      ],
      [
        "In",
        "dia"
      ],
      [
        "t",
        "h"
      ],
      [
        "e",
        "r"
      ],
      [
        "▁",
        "\""
      ],
      [
        "t",
        "i"
      ],
      [
        "\"",
        ")"
      ],
      [
        "a",
        "l"
      ],
      [
        "a",
        "r"
      ],
      [
        "e",
        "s"
      ],
      [
        "2",
        "0"
      ],
      [
        "o",
        "f"
      ],
      [
        "i",
        "s"
      ],
      [
        "th",
        "e"
      ],
      [
        "r",
        "e"
      ],
      [
        "▁",
        "the"
      ],
      [
        "an",
        "d"
      ],
      [
        "▁",
        "of"
      ],
      [
        "o",
        "m"
      ],
      [
        "](https://en.wikipedia.org/wiki/",
        "India"
      ],
      [
        "o",
        "u"
      ],
      [
        "a",
        "s"
      ],
      [
        "c",
        "i"
      ],
      [
        "](https://en.wikipedia.org/wiki/India",
        "#"
      ],
      [
        "r",
        "i"
      ],
      [
        "▁",
        "-"
      ],
      [
        "e",
        "d"
      ],
      [
        "ti",
        "on"
      ],
      [
        "▁",
        "India"
      ],
      [
        "▁",
        "in"
      ],
      [
        "te",
        "_"
      ],
      [
        "i",
        "c"
      ],
      [
        "l",
        "e"
      ],
      [
        "ci",
        "te_"
      ],
      [
        "](https://en.wikipedia.org/wiki/India#",
        "cite_"
      ],
      [
        "o",
        "o"
      ],
      [
        "r",
        "a"
      ],
      [
        "O",
        "T"
      ],
      [
        "c",
        "h"
      ],
      [
        "▁",
        "s"
      ],
      [
        "20",
        "1"
      ],
      [
        "▁",
        "and"
      ],
      [
        "en",
        "t"
      ],
      [
        "▁",
        "p"
      ],
      [
        "i",
        "t"
      ],
      [
        "i",
        "d"
      ],
      [
        "▁",
        "("
      ],
      [
        "1",
        "9"
      ],
      [
        "a",
        "m"
      ],
      [
        "▁",
        "A"
      ],
      [
        "▁",
        "c"
      ],
      [
        "-",
        "0"
      ],
      [
        "▁",
        "f"
      ],
      [
        "in",
        "g"
      ],
      [
        "e",
        "t"
      ],
      [
        "▁",
        "|"
      ],
      [
        "a",
        "tion"
      ],
      [
        "u",
        "s"
      ],
      [
        "oo",
        "k"
      ],
      [
        "i",
        "v"
      ],
      [
        "o",
        "l"
      ],
      [
        "a",
        "t"
      ],
      [
        "a",
        "te"
      ],
      [
        "▁",
        "S"
      ],
      [
        "▁",
        "b"
      ],
      [
        ")",
        "."
      ],
      [
        "n",
        "o"
      ],
      [
        "▁",
        "t"
      ],
      [
        "▁",
        "C"
      ],
      [
        "▁",
        "m"
      ],
      [
        "20",
        "0"
      ],
      [
        "is",
        "t"
      ],
      [
        "a",
        "d"
      ],
      [
        "a",
        "g"
      ],
      [
        "u",
        "r"
      ],
      [
        "an",
        "g"
      ],
      [
        "i",
        "l"
      ],
      [
        "7",
        "8"
      ],
      [
        "re",
        "f"
      ],
      [
        "c",
        "e"
      ],
      [
        "▁",
        "w"
      ],
      [
        "te",
        "-"
      ],
      [
        "▁",
        "P"
      ],
      [
        "[",
        "["
      ],
      [
        "]",
        "](https://en.wikipedia.org/wiki/India#cite_"
      ],
      [
        "](https://en.wikipedia.org/wiki/India#cite_",
        "ref"
      ],
      [
        "no",
        "te-"
      ],
      [
        "]](https://en.wikipedia.org/wiki/India#cite_",
        "note-"
      ],
      [
        "](https://en.wikipedia.org/wiki/India#cite_ref",
        "-"
      ],
      [
        "ia",
        "l"
      ],
      [
        "_",
        "India"
      ],
      [
        "_",
        "of"
      ],
      [
        "e",
        "l"
      ],
      [
        "S",
        "ou"
      ],
      [
        "i",
        "g"
      ],
      [
        "-",
        "1"
      ],
      [
        "u",
        "l"
      ],
      [
        "▁",
        "1"
      ],
      [
        "u",
        "m"
      ],
      [
        "▁",
        "d"
      ],
      [
        "I",
        "S"
      ],
      [
        "T",
        "h"
      ],
      [
        "F",
        "O"
      ],
      [
        "r",
        "o"
      ],
      [
        "9",
        "78"
      ],
      [
        "N",
        "OT"
      ],
      [
        "i",
        "on"
      ],
      [
        "OT",
        "NOT"
      ],
      [
        "FO",
        "OTNOT"
      ],
      [
        "FOOTNOT",
        "E"
      ],
      [
        "te",
        "r"
      ],
      [
        "▁",
        "l"
      ],
      [
        "B",
        "N"
      ],
      [
        "IS",
        "BN"
      ],
      [
        "e",
        "m"
      ],
      [
        "▁",
        "a"
      ],
      [
        "▁",
        "R"
      ],
      [
        "f",
        "i"
      ],
      [
        "▁",
        "M"
      ],
      [
        "er",
        "s"
      ],
      [
        "en",
        "ti"
      ],
      [
        "u",
        "n"
      ],
      [
        "▁t",
        "o"
      ],
      [
        ".",
        "\n"
      ],
      [
        "c",
        "ial"
      ],
      [
        "s",
        "t"
      ],
      [
        "c",
        "om"
      ],
      [
        "▁India",
        "\")"
      ],
      [
        "er",
        ")"
      ],
      [
        "c",
        "es"
      ],
      [
        "id",
        "enti"
      ],
      [
        "identi",
        "fi"
      ],
      [
        "identifi",
        "er)"
      ],
      [
        "▁",
        "h"
      ],
      [
        "▁",
        "B"
      ],
      [
        "r",
        "es"
      ],
      [
        "Th",
        "e"
      ],
      [
        "ti",
        "c"
      ],
      [
        "o",
        "v"
      ],
      [
        "↑",
        "](https://en.wikipedia.org/wiki/India#cite_ref-"
      ],
      [
        "▁[",
        "↑](https://en.wikipedia.org/wiki/India#cite_ref-"
      ],
      [
        "S",
        "pe"
      ],
      [
        "s",
        "ia"
      ],
      [
        "b",
        "ook"
      ],
      [
        "e",
        "v"
      ],
      [
        "1",
        "0"
      ],
      [
        "or",
        "y"
      ],
      [
        "s",
        "."
      ],
      [
        "Spe",
        "cial"
      ],
      [
        "i",
        "r"
      ],
      [
        "Special",
        ":"
      ],
      [
        "e",
        "c"
      ],
      [
        "▁",
        "201"
      ],
      [
        "20",
        "2"
      ],
      [
        "w",
        "e"
      ],
      [
[...]
