{
  "version": "1.0",
  "truncation": null,
  "padding": null,
  "added_tokens": [],
  "normalizer": {
    "type": "NFKC"
  },
  "pre_tokenizer": {
    "type": "Metaspace",
    "replacement": "▁",
    "prepend_scheme": "always",
    "split": true
  },
  "post_processor": null,
  "decoder": {
    "type": "Metaspace",
    "replacement": "▁",
    "prepend_scheme": "always",
    "split": true
  },
  "model": {
    "type": "BPE",
    "dropout": null,
    "unk_token": "[UNK]",
    "continuing_subword_prefix": null,
    "end_of_word_suffix": null,
    "fuse_unk": false,
    "byte_fallback": false,
    "ignore_merges": false,
    "vocab": {
      "[UNK]": 0,
      "\n": 1,
      "!": 2,
      "\"": 3,
      "#": 4,
      "$": 5,
      "%": 6,
      "&": 7,
      "'": 8,
      "(": 9,
      ")": 10,
      "*": 11,
      "+": 12,
      ",": 13,
      "-": 14,
      ".": 15,
      "/": 16,
      "0": 17,
      "1": 18,
      "2": 19,
      "3": 20,
      "4": 21,
      "5": 22,
      "6": 23,
      "7": 24,
      "8": 25,
      "9": 26,
      ":": 27,
      ";": 28,
      "<": 29,
      "=": 30,
      "?": 31,
      "A": 32,
      "B": 33,
      "C": 34,
      "D": 35,
      "E": 36,
      "F": 37,
      "G": 38,
      "H": 39,
      "I": 40,
      "J": 41,
      "K": 42,
      "L": 43,
      "M": 44,
      "N": 45,
      "O": 46,
      "P": 47,
      "Q": 48,
      "R": 49,
      "S": 50,
      "T": 51,
      "U": 52,
      "V": 53,
      "W": 54,
      "X": 55,
      "Y": 56,
      "Z": 57,
      "[": 58,
      "\\": 59,
      "]": 60,
      "_": 61,
      "`": 62,
      "a": 63,
      "b": 64,
      "c": 65,
      "d": 66,
      "e": 67,
      "f": 68,
      "g": 69,
      "h": 70,
      "i": 71,
      "j": 72,
      "k": 73,
      "l": 74,
      "m": 75,
      "n": 76,
      "o": 77,
      "p": 78,
      "q": 79,
      "r": 80,
      "s": 81,
      "t": 82,
      "u": 83,
      "v": 84,
      "w": 85,
      "x": 86,
      "y": 87,
      "z": 88,
      "{": 89,
      "|": 90,
      "}": 91,
      "~": 92,
      "°": 93,
      "Ö": 94,
      "á": 95,
      "â": 96,
      "æ": 97,
      "ç": 98,
      "é": 99,
      "í": 100,
      "ö": 101,
      "ü": 102,
      "ā": 103,
      "ī": 104,
      "İ": 105,
      "Ś": 106,
      "ś": 107,
      "ū": 108,
      "ș": 109,
      "ə": 110,
      "ɦ": 111,
      "ɪ": 112,
      "ɾ": 113,
      "ʊ": 114,
      "ʼ": 115,
      "ˈ": 116,
      "ː": 117,
      "ί": 118,
      "α": 119,
      "δ": 120,
      "θ": 121,
      "ν": 122,
      "π": 123,
      "ς": 124,
      "ό": 125,
      "ṅ": 126,
      "ṇ": 127,
      "Ṛ": 128,
      "ṣ": 129,
      "ṭ": 130,
      "Ἰ": 131,
      "‎": 132,
      "–": 133,
      "—": 134,
      "•": 135,
      "′": 136,
      "⁡": 137,
      "₹": 138,
      "↑": 139,
      "−": 140,
      "▁": 141,
      "﻿": 142,
      "ia": 143,
      "wi": 144,
      "ki": 145,
      "wiki": 146,
      "dia": 147,
      "or": 148,
      "en": 149,
      "pe": 150,
      "tt": 151,
      "](": 152,
      "ps": 153,
      "htt": 154,
      ":/": 155,
      "://": 156,
      "https": 157,
      "https://": 158,
      "](https://": 159,
      "in": 160,
      "an": 161,
      "g/": 162,
      ".or": 163,
      ".org/": 164,
      "▁[": 165,
      "pedia": 166,
      "In": 167,
      ".wiki": 168,
      ".org/wiki": 169,
      ".org/wiki/": 170,
      "](https://en": 171,
      "](https://en.wiki": 172,
      "](https://en.wikipedia": 173,
      "](https://en.wikipedia.org/wiki/": 174,
      "te": 175,
      "on": 176,
      "India": 177,
      "th": 178,
      "er": 179,
      "▁\"": 180,
      "ti": 181,
      "\")": 182,
      "al": 183,
      "ar": 184,
      "es": 185,
      "20": 186,
      "of": 187,
      "is": 188,
      "the": 189,
      "re": 190,
      "▁the": 191,
      "and": 192,
      "▁of": 193,
      "om": 194,
      "](https://en.wikipedia.org/wiki/India": 195,
      "ou": 196,
      "as": 197,
      "ci": 198,
      "](https://en.wikipedia.org/wiki/India#": 199,
      "ri": 200,
      "▁-": 201,
      "ed": 202,
      "tion": 203,
      "▁India": 204,
      "▁in": 205,
      "te_": 206,
      "ic": 207,
      "le": 208,
      "cite_": 209,
      "](https://en.wikipedia.org/wiki/India#cite_": 210,
      "oo": 211,
      "ra": 212,
      "OT": 213,
      "ch": 214,
      "▁s": 215,
      "201": 216,
      "▁and": 217,
      "ent": 218,
      "▁p": 219,
      "it": 220,
      "id": 221,
      "▁(": 222,
      "am": 223,
      "19": 224,
      "▁A": 225,
      "▁c": 226,
      "-0": 227,
      "▁f": 228,
      "ing": 229,
      "et": 230,
      "▁|": 231,
      "ation": 232,
      "us": 233,
      "iv": 234,
      "ol": 235,
      "ook": 236,
      "ate": 237,
      "at": 238,
      "▁S": 239,
      "▁b": 240,
      ").": 241,
      "no": 242,
      "▁t": 243,
      "▁m": 244,
      "▁C": 245,
      "200": 246,
      "ist": 247,
      "ad": 248,
      "ag": 249,
      "ur": 250,
      "ang": 251,
      "il": 252,
      "78": 253,
      "ref": 254,
      "ce": 255,
      "▁w": 256,
      "te-": 257,
      "▁P": 258,
      "[[": 259,
      "]](https://en.wikipedia.org/wiki/India#cite_": 260,
      "](https://en.wikipedia.org/wiki/India#cite_ref": 261,
      "note-": 262,
      "]](https://en.wikipedia.org/wiki/India#cite_note-": 263,
      "](https://en.wikipedia.org/wiki/India#cite_ref-": 264,
      "_India": 265,
      "ial": 266,
      "_of": 267,
      "el": 268,
      "ig": 269,
      "Sou": 270,
      "-1": 271,
      "ul": 272,
      "▁1": 273,
      "um": 274,
      "▁d": 275,
      "IS": 276,
      "Th": 277,
      "FO": 278,
      "ro": 279,
      "NOT": 280,
      "OTNOT": 281,
      "FOOTNOT": 282,
      "FOOTNOTE": 283,
      "ion": 284,
      "978": 285,
      "ter": 286,
      "▁l": 287,
      "BN": 288,
      "ISBN": 289,
      "em": 290,
      "▁a": 291,
      "▁R": 292,
      "fi": 293,
      "▁M": 294,
      "ers": 295,
      "enti": 296,
      "un": 297,
      "▁to": 298,
      ".\n": 299,
      "st": 300,
      "cial": 301,
      "▁India\")": 302,
      "com": 303,
      "er)": 304,
      "ces": 305,
      "identi": 306,
      "identifi": 307,
      "identifier)": 308,
      "▁h": 309,
      "▁B": 310,
      "res": 311,
      "The": 312,
      "tic": 313,
      "↑](https://en.wikipedia.org/wiki/India#cite_ref-": 314,
      "▁[↑](https://en.wikipedia.org/wiki/India#cite_ref-": 315,
      "ov": 316,
      "Spe": 317,
      "sia": 318,
      "book": 319,
      "ev": 320,
      "ory": 321,
      "10": 322,
      "s.": 323,
      "Special": 324,
      "ir": 325,
      "Special:": 326,
      "ec": 327,
      "▁201": 328,
      "202": 329,
      "we": 330,
      "-0)": 331,
      "ww": 332,
      "ity": 333,
      "ment": 334,
      "▁2": 335,
      "rces": 336,
      "_in": 337,
      "/978": 338,
      "ay": 339,
      "Book": 340,
      "▁D": 341,
      "Sources": 342,
      "Un": 343,
      "Special:Book": 344,
      "Special:BookSources": 345,
      "Special:BookSources/978": 346,
      "▁E": 347,
      "_(": 348,
      "_of_": 349,
      "ly": 350,
      "▁\n": 351,
      "lo": 352,
      "rom": 353,
      "tu": 354,
      "sh": 355,
      "-2": 356,
      "im": 357,
      "\").": 358,
      "IT": 359,
      "ons": 360,
      "op": 361,
      "uag": 362,
      "anguag": 363,
      "▁N": 364,
      "RE": 365,
      "▁G": 366,
      "ITE": 367,
      "▁g": 368,
      "ind": 369,
      "ITERE": 370,
      "CITERE": 371,
      "\"),": 372,
      "](https://en.wikipedia.org/wiki/India#CITERE": 373,
      "](https://en.wikipedia.org/wiki/India#CITEREF": 374,
      "ber": 375,
      "-4": 376,
      "▁e": 377,
      "og": 378,
      ".com": 379,
      "▁*": 380,
      "),": 381,
      "-3": 382,
      "cal": 383,
      "▁H": 384,
      "▁re": 385,
      "199": 386,
      "▁on": 387,
      "ts": 388,
      "▁th": 389,
      "_A": 390,
      "ak": 391,
      "for": 392,
      "ry": 393,
      "oun": 394,
      ".com/": 395,
      "ast": 396,
      "chiv": 397,
      "ld": 398,
      "]](https://en.wikipedia.org/wiki/India#cite_note-FOOTNOTE": 399,
      "ern": 400,
      "web": 401,
      "ab": 402,
      "▁from": 403,
      "av": 404,
      "ain": 405,
      "al_": 406,
      "pg": 407,
      "▁n": 408,
      "ub": 409,
      "ep": 410,
      "calf": 411,
      "00": 412,
      ".[[": 413,
      "od": 414,
      "etcalf": 415,
      "up": 416,
      "▁T": 417,
      "onom": 418,
      "ct": 419,
      "ted": 420,
      "ish": 421,
      "11": 422,
      "▁or": 423,
      "ivers": 424,
      "▁J": 425,
      "ary": 426,
      "ress": 427,
      "ud": 428,
      "_of_India": 429,
      "▁\"C": 430,
      "est": 431,
      "▁In": 432,
      "os": 433,
      "-0-": 434,
      "▁3": 435,
      "▁ar": 436,
      "rit": 437,
      "▁(identifier)": 438,
      "▁for": 439,
      "_(identifier)": 440,
      "▁(identifier)\")": 441,
      "me": 442,
      "ust": 443,
      "ap": 444,
      "▁F": 445,
      "▁[A": 446,
      "▁by": 447,
      "ge": 448,
      "50": 449,
      "▁is": 450,
      "List": 451,
      "gh": 452,
      "iversity": 453,
      "AA": 454,
      "_S": 455,
      "12": 456,
      "orld": 457,
      "▁[M": 458,
      "▁Indian": 459,
      "_in_India": 460,
      "South": 461,
      "ew": 462,
      "▁The": 463,
      "anguage": 464,
      "'s": 465,
      "](https://en.wikipedia.org/wiki/C": 466,
      "india": 467,
      "▁Asia": 468,
      "▁[C": 469,
      "▁[S": 470,
      "-8": 471,
      "▁K": 472,
      "▁p.": 473,
      "hi": 474,
      "uc": 475,
      "▁\"M": 476,
      "books": 477,
      ".j": 478,
      "\\_": 479,
      "n_": 480,
      "▁wi": 481,
      "▁202": 482,
      "goo": 483,
      "gle": 484,
      "16": 485,
      "▁[↑](https://en.wikipedia.org/wiki/India#cite_ref-FOOTNOTE": 486,
      "har": 487,
      "%2": 488,
      "University": 489,
      "▁O": 490,
      "▁19": 491,
      "www": 492,
      "24": 493,
      "](https://en.wikipedia.org/wiki/M": 494,
      "▁\"S": 495,
      "ng": 496,
      "▁200": 497,
      "ont": 498,
      "google": 499,
      "Metcalf": 500,
      "ism": 501,
      "id=": 502,
      "?id=": 503,
      "_C": 504,
      "o-": 505,
      "▁W": 506,
      "our": 507,
      "www.": 508,
      "30": 509,
      "end": 510,
      "](https://en.wikipedia.org/wiki/S": 511,
      "-9": 512,
      "ve": 513,
      "aj": 514,
      "umm": 515,
      "books.": 516,
      ".com/books": 517,
      "google.com/books": 518,
      "books.google.com/books": 519,
      "books.google.com/books?id=": 520,
      "li": 521,
      "ut": 522,
      "▁[ISBN": 523,
      "](https://en.wikipedia.org/wiki/ISBN": 524,
      "▁\"ISBN": 525,
      "▁[ISBN](https://en.wikipedia.org/wiki/ISBN": 526,
      "▁[ISBN](https://en.wikipedia.org/wiki/ISBN_(identifier)": 527,
      "](Special:BookSources/978": 528,
      "▁[978": 529,
      "▁\"Special:BookSources/978": 530,
      "ount": 531,
      "rad": 532,
      "▁wh": 533,
      "ow": 534,
      "_P": 535,
      "17": 536,
      "ma": 537,
      "](https://books.google.com/books?id=": 538,
      "ere": 539,
      "40": 540,
      "▁be": 541,
      "▁[B": 542,
      "ear": 543,
      "ance": 544,
      "*.": 545,
      "etri": 546,
      "18": 547,
      "ck": 548,
      "ence": 549,
      "per": 550,
      "ies": 551,
      "▁I": 552,
      "▁L": 553,
      "inal": 554,
      "cy": 555,
      "▁\"A": 556,
      "▁\"B": 557,
      ")\n": 558,
      "ong": 559,
      "ational": 560,
      "eved": 561,
      "_and": 562,
      "52": 563,
      "a\")": 564,
      "▁\"P": 565,
      "▁Retri": 566,
      "▁Retrieved": 567,
      "Ind": 568,
      "ture": 569,
      "gory": 570,
      "ategory": 571,
      "ys": 572,
      "](https://en.wikipedia.org/wiki/B": 573,
      "▁as": 574,
      "▁with": 575,
      "all": 576,
      "ategory:": 577,
      "p.": 578,
      "ummit": 579,
      "▁st": 580,
      "ine": 581,
      "](https://en.wikipedia.org/wiki/P": 582,
      "a_": 583,
      "ans": 584,
      "▁[\"": 585,
      "▁[*": 586,
      "archiv": 587,
      "▁pp.": 588,
      "ore": 589,
      "umb": 590,
      "▁orig": 591,
      "archive": 592,
      "conom": 593,
      "land": 594,
      "ens": 595,
      "istory": 596,
      "tern": 597,
      "_and_": 598,
      "ha": 599,
      "art": 600,
      "ates": 601,
      "la": 602,
      "ian": 603,
      "Indian": 604,
      "archive.org/": 605,
      "15": 606,
      "ph": 607,
      "▁[P": 608,
      "38": 609,
      "▁original": 610,
      "ot": 611,
      "26": 612,
      "▁was": 613,
      "ire": 614,
      "mp": 615,
      "ass": 616,
      "late": 617,
      "als": 618,
      "ard": 619,
      "overn": 620,
      "28": 621,
      "ru": 622,
      "web.": 623,
      "14": 624,
      "](https://web.": 625,
      "esh": 626,
      "rchiv": 627,
      "ort": 628,
      "web/": 629,
      "archive.org/web/": 630,
      "](https://web.archive.org/web/": 631,
      "rchived": 632,
      "ff": 633,
      "omm": 634,
      "ical": 635,
      "PA": 636,
      "▁University": 637,
      "](https://en.wikipedia.org/wiki/A": 638,
      "▁\"E": 639,
      "1.": 640,
      "35": 641,
      "oi": 642,
      "ord": 643,
      "-5": 644,
      "70": 645,
      "](https://en.wikipedia.org/wiki/E": 646,
      "emp": 647,
      "outh": 648,
      "ich": 649,
      "▁ex": 650,
      "ank": 651,
      "eral": 652,
      "▁\"T": 653,
      "ik": 654,
      "_Asia": 655,
      "39": 656,
      "olog": 657,
      "ill": 658,
      "▁an": 659,
      "&pg": 660,
      "ile": 661,
      "2010": 662,
      "und": 663,
      ".jpg": 664,
      "&pg=": 665,
      "32": 666,
      "hm": 667,
      "▁4": 668,
      "ani": 669,
      "titu": 670,
      "2018": 671,
      "ction": 672,
      "s,": 673,
      "overnment": 674,
      "ite": 675,
      "▁\"D": 676,
      "\")\n": 677,
      "2006": 678,
      "indu": 679,
      ")[[": 680,
      "36": 681,
      "](https://en.wikipedia.org/wiki/D": 682,
      "▁&": 683,
      "ss": 684,
      "▁it": 685,
      "tem": 686,
      "▁v": 687,
      "ations": 688,
      "ries": 689,
      "ford": 690,
      "9.": 691,
      "les": 692,
      "oc": 693,
      "\").\n": 694,
      "omp": 695,
      "ubl": 696,
      "&pg=PA": 697,
      "▁\"G": 698,
      "media": 699,
      "25": 700,
      "](https://en.wikipedia.org/wiki/T": 701,
      "oli": 702,
      "▁are": 703,
      "aki": 704,
      "ath": 705,
      "ll": 706,
      "xford": 707,
      "age": 708,
      "anguages": 709,
      "*](https://books.google.com/books?id=": 710,
      "tive": 711,
      "ous": 712,
      "/https://": 713,
      "▁V": 714,
      "eng": 715,
      "](https://en.wikipedia.org/wiki/List": 716,
      "▁\"N": 717,
      "▁\"R": 718,
      "▁\"List": 719,
      "comm": 720,
      "udd": 721,
      "-7": 722,
      "IC": 723,
      "ach": 724,
      "px": 725,
      "](https://en.wikipedia.org/wiki/G": 726,
      "](https://en.wikipedia.org/wiki/R": 727,
      "amb": 728,
      "▁Press": 729,
      "stan": 730,
      "tics": 731,
      "37": 732,
      "▁[G": 733,
      "_s": 734,
      "rid": 735,
      "▁language": 736,
      "▁*[": 737,
      "_M": 738,
      "ef": 739,
      "hin": 740,
      "s/": 741,
      "](https://en.wikipedia.org/wiki/N": 742,
      "tein": 743,
      "opul": 744,
      "27": 745,
      "▁[D": 746,
      "▁which": 747,
      ".in": 748,
      "ope": 749,
      "▁India's": 750,
      "AJ": 751,
      "oth": 752,
      "ral": 753,
      "](https://www.": 754,
      "▁[N": 755,
      "▁[R": 756,
      "sher": 757,
      "](https://en.wikipedia.org/wiki/List_of_": 758,
      "BAJ": 759,
      "QBAJ": 760,
      "onstitu": 761,
      "RIC": 762,
      "_R": 763,
      "gion": 764,
      "orth": 765,
      "_T": 766,
      "riti": 767,
      "load": 768,
      "upload": 769,
      "67": 770,
      "_B": 771,
      "▁|\n": 772,
      ".wikimedia": 773,
      "▁South": 774,
      "igh": 775,
      "ountries": 776,
      "![": 777,
      "ited": 778,
      "rou": 779,
      "▁\"H": 780,
      "out": 781,
      ").\n": 782,
      "▁has": 783,
      "▁that": 784,
      "-0-19": 785,
      "_G": 786,
      "nd": 787,
      "▁ch": 788,
      "▁[E": 789,
      "pedia/": 790,
      ".org/wikipedia/": 791,
      "thumb": 792,
      "ark": 793,
      "AAQBAJ": 794,
      "MetcalfMetcalf": 795,
      "commons": 796,
      "upload.wikimedia": 797,
      "upload.wikimedia.org/wikipedia/": 798,
      "..": 799,
      "/thumb": 800,
      "60": 801,
      "ac": 802,
      "ition": 803,
      "▁r": 804,
      "](https://upload.wikimedia.org/wikipedia/": 805,
      "territ": 806,
      "ile:": 807,
      "/thumb/": 808,
      "##": 809,
      "34": 810,
      "File:": 811,
      "ah": 812,
      "ology": 813,
      "RICS": 814,
      "ex": 815,
      "language": 816,
      "](https://en.wikipedia.org/wiki/H": 817,
      "px-": 818,
      "5.": 819,
      "gen": 820,
      "gov": 821,
      "sland": 822,
      "ond": 823,
      "amil": 824,
      "ult": 825,
      "%2C": 826,
      "commons/thumb/": 827,
      "2.": 828,
      "ib": 829,
      "ost": 830,
      "](https://upload.wikimedia.org/wikipedia/commons/thumb/": 831,
      "](File:": 832,
      "▁[H": 833,
      "▁[T": 834,
      "ration": 835,
      "▁pro": 836,
      "ange": 837,
      "ign": 838,
      "▁[Archived": 839,
      "mpire": 840,
      "▁[Archived](https://web.archive.org/web/": 841,
      "-6": 842,
      "▁[![": 843,
      "2011": 844,
      ")](File:": 845,
      ".gov": 846,
      "29": 847,
      "3.": 848,
      "_D": 849,
      "to": 850,
      "▁te": 851,
      "rav": 852,
      "](https://en.wikipedia.org/wiki/India#cite_ref-FOOTNOTE": 853,
      "opulation": 854,
      "4.": 855,
      "47": 856,
      "_N": 857,
      "qu": 858,
      "erv": 859,
      "iss": 860,
      "ree": 861,
      "South_Asia": 862,
      "-p": 863,
      "ob": 864,
      "s\")": 865,
      "ta": 866,
      "ty": 867,
      "any": 868,
      "▁[2": 869,
      "arg": 870,
      "ame": 871,
      "▁cent": 872,
      "over": 873,
      "ensus": 874,
      "\"\n": 875,
      "6.": 876,
      "_b": 877,
      "cont": 878,
      "duc": 879,
      "nic": 880,
      "▁no": 881,
      "inist": 882,
      "ties": 883,
      "ric": 884,
      "usic": 885,
      "ritish": 886,
      "ai": 887,
      "cl": 888,
      "ines": 889,
      "ana": 890,
      "▁\"K": 891,
      "▁\"Indian": 892,
      "aste": 893,
      "econom": 894,
      "conomy": 895,
      "/C": 896,
      "hand": 897,
      "isation": 898,
      "▁18": 899,
      "United": 900,
      "7.": 901,
      "_4": 902,
      "bot": 903,
      "▁199": 904,
      "▁[1": 905,
      "albot": 906,
      "10.": 907,
      "31": 908,
      "au": 909,
      "▁pe": 910,
      "▁[K": 911,
      "ater": 912,
      "RC": 913,
      "▁5": 914,
      "](https://en.wikipedia.org/wiki/K": 915,
      "ese": 916,
      "▁--": 917,
      "lection": 918,
      "ury": 919,
      "row": 920,
      "Asher": 921,
      "Oxford": 922,
      "_E": 923,
      "alth": 924,
      "raph": 925,
      "ulture": 926,
      "evel": 927,
      "▁its": 928,
      "ublic": 929,
      "onstitution": 930,
      "▁---": 931,
      "led": 932,
      "▁ri": 933,
      "2007": 934,
      "▁2011": 935,
      "MetcalfMetcalf2006": 936,
      "3)": 937,
      "48": 938,
      "Stein": 939,
      "ail": 940,
      "pg/": 941,
      "▁\"The": 942,
      "AARC": 943,
      "Stein2010": 944,
      "22": 945,
      "eb": 946,
      "if": 947,
      "ue": 948,
      "inent": 949,
      "red": 950,
      "▁were": 951,
      "AAQBAJ&pg=PA": 952,
      "_p": 953,
      "ey": 954,
      "▁at": 955,
      "ated": 956,
      "ata": 957,
      "tical": 958,
      "odern": 959,
      "Indo-": 960,
      "ridge": 961,
      "ati": 962,
      "por": 963,
      "old": 964,
      "uring": 965,
      "-1)": 966,
      "ograph": 967,
      "radesh": 968,
      "80": 969,
      "90": 970,
      "World": 971,
      "_language": 972,
      "doi": 973,
      "mer": 974,
      "na": 975,
      "▁Th": 976,
      "ork": 977,
      "▁[L": 978,
      "igion": 979,
      "indi": 980,
      "▁rel": 981,
      "ound": 982,
      ".jpg/": 983,
      ".jpg)](File:": 984,
      "akistan": 985,
      "man": 986,
      "▁le": 987,
      "India)": 988,
      "tim": 989,
      "ali": 990,
      "ome": 991,
      "ashm": 992,
      "▁cont": 993,
      "urope": 994,
      "▁languages": 995,
      "\").[[": 996,
      "epend": 997,
      "emplate": 998,
      ".in/": 999,
      "gan": 1000,
      "▁un": 1001,
      "▁\"L": 1002,
      "▁Asian": 1003,
      "sv": 1004,
      "uch": 1005,
      "ya": 1006,
      "▁ad": 1007,
      "alay": 1008,
      "ational_": 1009,
      "2008": 1010,
      "elhi": 1011,
      "yson": 1012,
      "ystem": 1013,
      "ambridge": 1014,
      "evelop": 1015,
      "aw": 1016,
      "](https://en.wikipedia.org/wiki/L": 1017,
      "arl": 1018,
      "ision": 1019,
      "▁sub": 1020,
      "▁(P": 1021,
      "ames": 1022,
      "ell": 1023,
      "ovem": 1024,
      "▁Hindu": 1025,
      ",_": 1026,
      "-s": 1027,
      ".p": 1028,
      "33": 1029,
      "lass": 1030,
      "oh": 1031,
      "](https://en.wikipedia.org/wiki/Indian_": 1032,
      "rate": 1033,
      "-10": 1034,
      "irst": 1035,
      "ansk": 1036,
      "continent": 1037,
      "1)": 1038,
      "_c": 1039,
      "_d": 1040,
      "_the": 1041,
      "fter": 1042,
      "lim": 1043,
      "world": 1044,
      "year": 1045,
      "▁\"F": 1046,
      "artic": 1047,
      "ics": 1048,
      "2014": 1049,
      "ustry": 1050,
      "46": 1051,
      "ht": 1052,
      "s-": 1053,
      "tates": 1054,
      "ister": 1055,
      "Union": 1056,
      "/https://www.": 1057,
      "anskrit": 1058,
      "-l": 1059,
      ".;": 1060,
      "49": 1061,
      "57": 1062,
      "8.": 1063,
      "Dw": 1064,
      "ran": 1065,
      "ug": 1066,
      "▁.": 1067,
      "ories": 1068,
      "er,": 1069,
      "ood": 1070,
      "emb": 1071,
      "▁2010": 1072,
      "ght": 1073,
      "56": 1074,
      "ip": 1075,
      "iki": 1076,
      "ugh": 1077,
      "▁U": 1078,
      "arch": 1079,
      "other": 1080,
      "evelopment": 1081,
      "_F": 1082,
      "df": 1083,
      "eg": 1084,
      "▁ag": 1085,
      "▁territ": 1086,
      "ant": 1087,
      "](https://en.wikipedia.org/wiki/F": 1088,
      "▁ind": 1089,
      "▁Category:": 1090,
      "uly": 1091,
      "▁region": 1092,
      "ave": 1093,
      "](Special:BookSources/978-1": 1094,
      "▁[978-1": 1095,
      "▁\"Special:BookSources/978-1": 1096,
      "▁Island": 1097,
      "conomic": 1098,
      "/Category:": 1099,
      "▁./Category:": 1100,
      "DF": 1101,
      "port": 1102,
      "▁[F": 1103,
      "une": 1104,
      "▁Asia\")": 1105,
      "harma": 1106,
      "ower": 1107,
      "earch": 1108,
      "\"](https://www.": 1109,
      "on-": 1110,
      "ise": 1111,
      "▁India,": 1112,
      "ice": 1113,
      "aman": 1114,
      "▁Empire": 1115,
      "illion": 1116,
      "ission": 1117,
      "emplate:": 1118,
      "-b": 1119,
      "-m": 1120,
      ".\"\n": 1121,
      "Talbot": 1122,
      "dom": 1123,
      "lish": 1124,
      "new": 1125,
      "▁20": 1126,
      "king": 1127,
      "eneral": 1128,
      "▁\"South": 1129,
      "rib": 1130,
      "lear": 1131,
      "oll": 1132,
      "ummit\")": 1133,
      "AsherTalbot": 1134,
      "▁(PDF": 1135,
      "df)": 1136,
      "**": 1137,
      "-india": 1138,
      "pr": 1139,
      "▁7": 1140,
      "▁[J": 1141,
      "▁[the": 1142,
      "▁\"J": 1143,
      "rab": 1144,
      "▁An": 1145,
      "anges": 1146,
      "ely": 1147,
      "s.[[": 1148,
      "ect": 1149,
      "aint": 1150,
      "ountry": 1151,
      "uddh": 1152,
      "4)": 1153,
      "69": 1154,
      "gy": 1155,
      "pu": 1156,
      "▁##": 1157,
      "▁year": 1158,
      "](https://en.wikipedia.org/wiki/J": 1159,
      "cies": 1160,
      "▁into": 1161,
      "▁system": 1162,
      "rov": 1163,
      "▁New": 1164,
      "▁July": 1165,
      "▁Ind": 1166,
      "uclear": 1167,
      "_Press": 1168,
      "engal": 1169,
      "▁language\")": 1170,
      "hina": 1171,
      "ledge": 1172,
      "uropean": 1173,
      "-d": 1174,
      "250": 1175,
      "51": 1176,
      "58": 1177,
      "59": 1178,
      "aper": 1179,
      "ober": 1180,
      "se": 1181,
      "uj": 1182,
      "yn": 1183,
      "ril": 1184,
      "▁Ap": 1185,
      "ats": 1186,
      "▁Ch": 1187,
      "▁17": 1188,
      "▁during": 1189,
      "1994": 1190,
      "also": 1191,
      "_summit": 1192,
      "inistry": 1193,
      "times": 1194,
      "htm": 1195,
      "62": 1196,
      "68": 1197,
      "_1": 1198,
      "fic": 1199,
      "ni": 1200,
      "rin": 1201,
      "ure": 1202,
      "▁9": 1203,
      "▁econom": 1204,
      "▁Archived": 1205,
      "▁first": 1206,
      "usines": 1207,
      "▁Pres": 1208,
      "iron": 1209,
      "▁form": 1210,
      "matics": 1211,
      "▁Press\").": 1212,
      "outledge": 1213,
      "ashmir": 1214,
      "65": 1215,
      "ee": 1216,
      "uk": 1217,
      "ined": 1218,
      "inister": 1219,
      "▁their": 1220,
      "ed.": 1221,
      "ley": 1222,
      "idd": 1223,
      "▁(201": 1224,
      "▁cons": 1225,
      "▁comp": 1226,
      "▁10": 1227,
      "▁have": 1228,
      "▁History": 1229,
      "▁north": 1230,
      "eptem": 1231,
      "](Special:BookSources/978-0-": 1232,
      "▁[978-0-": 1233,
      "▁\"Special:BookSources/978-0-": 1234,
      "radition": 1235,
      "eptember": 1236,
      "8/": 1237,
      "_I": 1238,
      "att": 1239,
      "athe": 1240,
      "fl": 1241,
      "iff": 1242,
      "viron": 1243,
      "yan": 1244,
      "▁also": 1245,
      "▁[W": 1246,
      "▁so": 1247,
      "▁class": 1248,
      "▁Sh": 1249,
      "▁government": 1250,
      "argest": 1251,
      "_by": 1252,
      "vironment": 1253,
      "13": 1254,
      "_K": 1255,
      "_m": 1256,
      "ution": 1257,
      "▁us": 1258,
      "▁[I": 1259,
      "\")*.": 1260,
      "ari": 1261,
      "entral": 1262,
      "ural": 1263,
      "▁Pradesh": 1264,
      "ople": 1265,
      "ctober": 1266,
      "▁October": 1267,
      "▁World": 1268,
      "Dyson": 1269,
      "jab": 1270,
      "ote": 1271,
      "pt": 1272,
      "wing": 1273,
      "Intern": 1274,
      "estern": 1275,
      "cience": 1276,
      "chn": 1277,
      "▁pl": 1278,
      "iver": 1279,
      "▁September": 1280,
      "_Indian_": 1281,
      "ayan": 1282,
      "isher": 1283,
      "ishing": 1284,
      "University_Press": 1285,
      "ongress": 1286,
      "8](https://en.wikipedia.org/wiki/India#CITEREF": 1287,
      "_L": 1288,
      "ban": 1289,
      "nvironment": 1290,
      "rans": 1291,
      "omb": 1292,
      "omen": 1293,
      "ash": 1294,
      "edic": 1295,
      "etwe": 1296,
      "ive": 1297,
      "▁Comm": 1298,
      "▁world": 1299,
      "gency": 1300,
      "raven": 1301,
      "▁not": 1302,
      "etween": 1303,
      "72": 1304,
      "DP": 1305,
      "_University_Press": 1306,
      "iz": 1307,
      "mi": 1308,
      "ne": 1309,
      "ock": 1310,
      "▁\"W": 1311,
      "arle": 1312,
      "eser": 1313,
      "▁(200": 1314,
      "istan": 1315,
      "uman": 1316,
      "100": 1317,
      "▁[Archived](https://web.archive.org/web/202": 1318,
      "▁April": 1319,
      "-c": 1320,
      "6](https://en.wikipedia.org/wiki/India#CITEREF": 1321,
      "_H": 1322,
      "_re": 1323,
      "fric": 1324,
      "rd": 1325,
      "sl": 1326,
      "▁res": 1327,
      "▁[Indian": 1328,
      "▁\"O": 1329,
      "▁more": 1330,
      "unjab": 1331,
      "▁India\"),": 1332,
      "ird": 1333,
      "▁this": 1334,
      "ikh": 1335,
      "DwAAQBAJ&pg=PA": 1336,
      "iddle": 1337,
      "Dyson2018": 1338,
      "chnology": 1339,
      "5–": 1340,
      "6)": 1341,
      "air": 1342,
      "fe": 1343,
      "▁8": 1344,
      "▁im": 1345,
      "ones": 1346,
      "ally": 1347,
      "reas": 1348,
      "andhi": 1349,
      "ool": 1350,
      "racy": 1351,
      "▁part": 1352,
      "▁Aug": 1353,
      "▁music": 1354,
      "▁dis": 1355,
      "berg": 1356,
      "able": 1357,
      "rade": 1358,
      "▁century": 1359,
      "▁August": 1360,
      "23": 1361,
      "Template:": 1362,
      "cri": 1363,
      "lad": 1364,
      "pa": 1365,
      "tal": 1366,
      "▁Y": 1367,
      "▁al": 1368,
      "iament": 1369,
      "ering": 1370,
      "ram": 1371,
      "▁between": 1372,
      "adu": 1373,
      "urr": 1374,
      "▁dance": 1375,
      "▁after": 1376,
      "form": 1377,
      "-81": 1378,
      "521": 1379,
      "ompany": 1380,
      "clud": 1381,
      "arliament": 1382,
      "▁subcontinent": 1383,
      "-in": 1384,
      "44": 1385,
      "88": 1386,
      "a,": 1387,
      "cul": 1388,
      "eh": 1389,
      "hol": 1390,
      "ok": 1391,
      "p://": 1392,
      "vi": 1393,
      "wart": 1394,
      "zberg": 1395,
      "▁per": 1396,
      "▁ru": 1397,
      "http://": 1398,
      "anu": 1399,
      "▁\"I": 1400,
      "cient": 1401,
      "chwart": 1402,
      "▁but": 1403,
      "ures": 1404,
      "ild": 1405,
      "▁15": 1406,
      "rop": 1407,
      "-40": 1408,
      "▁**": 1409,
      "%2F": 1410,
      "▁years": 1411,
      "▁Press.": 1412,
      "chwartzberg": 1413,
      "\"](https://": 1414,
      "%7": 1415,
      "-19": 1416,
      ".sv": 1417,
      "3_": 1418,
      "330": 1419,
      ":[": 1420,
      "IN": 1421,
      "ece": 1422,
      "eograph": 1423,
      "mb": 1424,
      "▁over": 1425,
      "ia\")": 1426,
      "annic": 1427,
      ".org/10.": 1428,
      "ered": 1429,
      "ess": 1430,
      "rime": 1431,
      "▁sh": 1432,
      "▁tw": 1433,
      "▁most": 1434,
      "anglad": 1435,
      "▁ab": 1436,
      "▁India\")\n": 1437,
      "ritannic": 1438,
      "▁(identifier)\"):[": 1439,
      "▁For": 1440,
      "india.gov": 1441,
      "nglish": 1442,
      "ajor": 1443,
      "▁been": 1444,
      "olitical": 1445,
      "doi.org/10.": 1446,
      "250px-": 1447,
      "angladesh": 1448,
      ")\")": 1449,
      "/artic": 1450,
      "3-0)": 1451,
      "77": 1452,
      "Wiki": 1453,
      "creas": 1454,
      "eat": 1455,
      "ham": 1456,
      "mu": 1457,
      "son": 1458,
      "▁6": 1459,
      "ttar": 1460,
      "▁[South": 1461,
      "rahm": 1462,
      "ide": 1463,
      "▁Ar": 1464,
      "▁con": 1465,
      "▁bec": 1466,
      "igi": 1467,
      "2024": 1468,
      "▁East": 1469,
      "shit": 1470,
      "▁election": 1471,
      "life": 1472,
      "irect": 1473,
      "ikshit": 1474,
      "▁[2](https://en.wikipedia.org/wiki/India#cite_ref-FOOTNOTE": 1475,
      "▁[1](https://en.wikipedia.org/wiki/India#cite_ref-FOOTNOTE": 1476,
      "ganisation": 1477,
      ".pdf)": 1478,
      "▁###": 1479,
      "ombined": 1480,
      "\".": 1481,
      "\"](https://web.archive.org/web/": 1482,
      "86": 1483,
      "CE": 1484,
      "ID": 1485,
      "cent": 1486,
      "ft": 1487,
      "ke": 1488,
      "ton": 1489,
      "ven": 1490,
      "▁all": 1491,
      "iation": 1492,
      "peration": 1493,
      "▁[s": 1494,
      "](https://en.wikipedia.org/wiki/W": 1495,
      "time": 1496,
      "ala": 1497,
      "arn": 1498,
      "rick": 1499,
      "icy": 1500,
      "▁comm": 1501,
      "▁Metcalf": 1502,
      "_in_": 1503,
      "low": 1504,
      "▁Oxford": 1505,
      "▁2006](https://en.wikipedia.org/wiki/India#CITEREF": 1506,
      "roup": 1507,
      "ndaman": 1508,
      "...": 1509,
      "▁2011.\n": 1510,
      "ovement": 1511,
      "news/": 1512,
      "ujar": 1513,
      "html": 1514,
      "/0": 1515,
      "1–": 1516,
      "1.\n": 1517,
      "4](https://en.wikipedia.org/wiki/India#CITEREF": 1518,
      "5)": 1519,
      "54": 1520,
      "C&pg=PA": 1521,
      "ack": 1522,
      "countries": 1523,
      "ealth": 1524,
      "mar": 1525,
      "oin": 1526,
      "oast": 1527,
      "rish": 1528,
      "ver": 1529,
      "▁end": 1530,
      "with": 1531,
      "onwe": 1532,
      "ther": 1533,
      "arb": 1534,
      "read": 1535,
      "ched": 1536,
      "2005": 1537,
      "▁16": 1538,
      "▁de": 1539,
      "emoc": 1540,
      "union": 1541,
      "▁BCE": 1542,
      "2023": 1543,
      "avid": 1544,
      "▁states": 1545,
      "obb": 1546,
      "▁[2](https://en.wikipedia.org/wiki/India#cite_ref-": 1547,
      "▁[1](https://en.wikipedia.org/wiki/India#cite_ref-": 1548,
      "ports": 1549,
      "▁2010](https://en.wikipedia.org/wiki/India#CITEREF": 1550,
      "ughal": 1551,
      "onwealth": 1552,
      "/p": 1553,
      "Combined": 1554,
      "_territ": 1555,
      "min": 1556,
      "oor": 1557,
      "war": 1558,
      "▁k": 1559,
      "](https://en.wikipedia.org/wiki/V": 1560,
      "▁\"V": 1561,
      "ale": 1562,
      "reat": 1563,
      "ough": 1564,
      "asia": 1565,
      "change": 1566,
      "▁spe": 1567,
      "2016": 1568,
      "ident": 1569,
      "▁(India)": 1570,
      "▁Ass": 1571,
      "▁countries": 1572,
      "▁Congress": 1573,
      "▁May": 1574,
      "▁had": 1575,
      "▁26": 1576,
      "aksh": 1577,
      "▁June": 1578,
      "▁[Metcalf": 1579,
      "▁It": 1580,
      "▁state": 1581,
      "olitics": 1582,
      "udden": 1583,
      "▁[Archived](https://web.archive.org/web/201": 1584,
      "ed.).": 1585,
      "▁two": 1586,
      "-t": 1587,
      "6).": 1588,
      "Harle": 1589,
      "_at": 1590,
      "_%2": 1591,
      "ced": 1592,
      "clo": 1593,
      "ms": 1594,
      "ron": 1595,
      "val": 1596,
      "▁ev": 1597,
      "▁up": 1598,
      "▁[O": 1599,
      "▁[p": 1600,
      "](https://en.wikipedia.org/wiki/The": 1601,
      "alley": 1602,
      "arti": 1603,
      "theast": 1604,
      "omin": 1605,
      "riod": 1606,
      "▁includ": 1607,
      "▁summit\")": 1608,
      "▁population": 1609,
      "ussia": 1610,
      "ivil": 1611,
      "olicy": 1612,
      "▁tradition": 1613,
      "istor": 1614,
      "▁war": 1615,
      "umber": 1616,
      "▁dec": 1617,
      "ember": 1618,
      "ers,": 1619,
      "ecu": 1620,
      "▁24": 1621,
      "imes": 1622,
      "▁general": 1623,
      "1997": 1624,
      "ake": 1625,
      "akh": 1626,
      "000": 1627,
      "▁30": 1628,
      "▁artic": 1629,
      "ustral": 1630,
      "](Special:BookSources/978-0-19": 1631,
      "▁[978-0-19": 1632,
      "▁\"Special:BookSources/978-0-19": 1633,
      "Indus": 1634,
      "ortal": 1635,
      "▁\"Economy": 1636,
      "](https://en.wikipedia.org/wiki/Economy": 1637,
      ".jpg/250px-": 1638,
      "▁territories": 1639,
      "ector": 1640,
      "▁became": 1641,
      "Harle1994": 1642,
      "-g": 1643,
      "/india": 1644,
      "21": 1645,
      "3](https://en.wikipedia.org/wiki/India#CITEREF": 1646,
      "81": 1647,
      "Asia": 1648,
      "CN": 1649,
      "Uttar": 1650,
      "_2": 1651,
      "_f": 1652,
      "act": 1653,
      "e,": 1654,
      "her": 1655,
      "ner": 1656,
      "ria": 1657,
      "rganisation": 1658,
      "y\")": 1659,
      "▁j": 1660,
      "▁en": 1661,
      "▁am": 1662,
      "oram": 1663,
      "](https://doi.org/10.": 1664,
      "▁[m": 1665,
      "▁[India": 1666,
      "▁[doi": 1667,
      "](https://en.wikipedia.org/wiki/O": 1668,
      "eral_": 1669,
      "ised": 1670,
      "leg": 1671,
      "ooperation": 1672,
      "chool": 1673,
      "entre": 1674,
      "itary": 1675,
      "▁caste": 1676,
      "atar": 1677,
      "-17": 1678,
      "rote": 1679,
      "term": 1680,
      "▁ac": 1681,
      "▁BRICS": 1682,
      "_(India)": 1683,
      "imalay": 1684,
      "indust": 1685,
      "abad": 1686,
      "apit": 1687,
      "oi_(identifier)": 1688,
      "▁\"Doi": 1689,
      "](https://en.wikipedia.org/wiki/Doi_(identifier)": 1690,
      "roups": 1691,
      "▁(identifier)\"):[10.": 1692,
      "▁[doi](https://en.wikipedia.org/wiki/Doi_(identifier)": 1693,
      "55": 1694,
      "5).": 1695,
      "7](https://en.wikipedia.org/wiki/India#CITEREF": 1696,
      "9).": 1697,
      "Ar": 1698,
      "Craven": 1699,
      "Fisher": 1700,
      "be": 1701,
      "cture": 1702,
      "cord": 1703,
      "ea": 1704,
      "go": 1705,
      "han": 1706,
      "uis": 1707,
      "yayan": 1708,
      "▁es": 1709,
      "▁ref": 1710,
      "▁und": 1711,
      "▁rate": 1712,
      "▁Union": 1713,
      "ince": 1714,
      "ann": 1715,
      "tell": 1716,
      "\")*": 1717,
      "ara": 1718,
      "rac": 1719,
      "▁sup": 1720,
      "▁Act": 1721,
      "▁mil": 1722,
      "▁modern": 1723,
      "▁million": 1724,
      "▁Plate": 1725,
      "eld": 1726,
      "▁March": 1727,
      "str": 1728,
      "▁National": 1729,
      "al_P": 1730,
      "epublic": 1731,
      "ose": 1732,
      "harat": 1733,
      "cyclo": 1734,
      "itecture": 1735,
      "induism": 1736,
      "ultan": 1737,
      "AsherTalbot2008": 1738,
      "ainting": 1739,
      "atsyayan": 1740,
      "_Island": 1741,
      "slam": 1742,
      "anuary": 1743,
      "ritannica": 1744,
      "Craven1997": 1745,
      "Fisher2018": 1746,
      ",[[": 1747,
      "-B": 1748,
      "-f": 1749,
      "3.\n": 1750,
      "71": 1751,
      "9-0)": 1752,
      "CO": 1753,
      "_W": 1754,
      "ahar": 1755,
      "bi": 1756,
      "cod": 1757,
      "eal": 1758,
      "ele": 1759,
      "i,": 1760,
      "ities": 1761,
      "mber": 1762,
      "rg": 1763,
      "vatsyayan": 1764,
      "▁ra": 1765,
      "ped": 1766,
      "▁[V": 1767,
      "](https://en.wikipedia.org/wiki/I": 1768,
      "](https://en.wikipedia.org/wiki/South_Asia": 1769,
      "arh": 1770,
      "▁such": 1771,
      "▁(19": 1772,
      "▁St": 1773,
      "▁Sanskrit": 1774,
      "now": 1775,
      "▁Constitution": 1776,
      "adh": 1777,
      "▁14": 1778,
      "▁later": 1779,
      "▁ap": 1780,
      "▁Main": 1781,
      "ung": 1782,
      "Spear": 1783,
      "_of_the": 1784,
      "▁*The": 1785,
      "▁one": 1786,
      "▁there": 1787,
      ".[[2": 1788,
      "118": 1789,
      "▁January": 1790,
      "▁art": 1791,
      "_Sh": 1792,
      "%29": 1793,
      "▁War": 1794,
      "ruary": 1795,
      "ublishing": 1796,
      "athak": 1797,
      "age/": 1798,
      "_BRICS": 1799,
      "▁period": 1800,
      "ebruary": 1801,
      "ovember": 1802,
      "-lord": 1803,
      "embly": 1804,
      "▁classical": 1805,
      "ehru": 1806,
      "ecember": 1807,
      "igious": 1808,
      "_%28": 1809,
      "vatsyayan-lord": 1810,
      "/http://": 1811,
      "3).": 1812,
      "3]](https://en.wikipedia.org/wiki/India#cite_note-FOOTNOTE": 1813,
      "4-0)": 1814,
      "5-0)": 1815,
      "87": 1816,
      "C).": 1817,
      "_3": 1818,
      "_t": 1819,
      "egion": 1820,
      "iev": 1821,
      "minist": 1822,
      "ncyclo": 1823,
      "pl": 1824,
      "rar": 1825,
      "ras": 1826,
      "▁ci": 1827,
      "▁em": 1828,
      "ins": 1829,
      "▁[t": 1830,
      "ald": 1831,
      "arv": 1832,
      "arly": 1833,
      "arna": 1834,
      "andard": 1835,
      "astern": 1836,
      "rits": 1837,
      "right": 1838,
      "eds.": 1839,
      "▁south": 1840,
      "atak": 1841,
      "▁mathe": 1842,
      "2004": 1843,
      "come": 1844,
      "econd": 1845,
      "▁2019.": 1846,
      "▁2018](https://en.wikipedia.org/wiki/India#CITEREF": 1847,
      "▁25": 1848,
      "▁28": 1849,
      "1990": 1850,
      "▁than": 1851,
      "▁national": 1852,
      "▁who": 1853,
      "owland": 1854,
      "▁[*The": 1855,
      "](https://en.wikipedia.org/wiki/List_of_countries": 1856,
      "duction": 1857,
      "rowth": 1858,
      "▁(PDF).": 1859,
      "uddhism": 1860,
      "ficial": 1861,
      "▁northern": 1862,
      "\"](https://web.archive.org/web/201": 1863,
      "](https://en.wikipedia.org/wiki/Economy_of_": 1864,
      "%20": 1865,
      "1-0)": 1866,
      "1]](https://en.wikipedia.org/wiki/India#cite_note-FOOTNOTE": 1867,
      "2)": 1868,
      "2-0)": 1869,
      "6-2": 1870,
      "79": 1871,
      "84": 1872,
      "Dikshit": 1873,
      "Empire": 1874,
      "European": 1875,
      "Schwartzberg": 1876,
      "_h": 1877,
      "can": 1878,
      "dit": 1879,
      "eth": 1880,
      "ij": 1881,
      "oy": 1882,
      "ple": 1883,
      "tro": 1884,
      "vers": 1885,
      "▁ro": 1886,
      "▁emp": 1887,
      "Ins": 1888,
      "teen": 1889,
      "esearch": 1890,
      "ould": 1891,
      "ase": 1892,
      "▁India:": 1893,
      "▁increas": 1894,
      "ical_": 1895,
      "rative": 1896,
      "2012": 1897,
      "▁(eds.": 1898,
      "ammu": 1899,
      "ingdom": 1900,
      "olk": 1901,
      "▁many": 1902,
      "2000": 1903,
      "ade": 1904,
      "urk": 1905,
      "urn": 1906,
      "eligion": 1907,
      "-14": 1908,
      "▁13": 1909,
      "ross": 1910,
      "▁long": 1911,
      "▁English": 1912,
      "ast_Asia": 1913,
      "osed": 1914,
      "▁February": 1915,
      "utra": 1916,
      "Indones": 1917,
      "ffair": 1918,
      "▁Press](https://en.wikipedia.org/wiki/": 1919,
      "▁people": 1920,
      "▁religion": 1921,
      "▁industry": 1922,
      "▁(PDF)": 1923,
      "usiness": 1924,
      "▁rule": 1925,
      "330px-": 1926,
      "-to-": 1927,
      "▁among": 1928,
      "DikshitSchwartzberg": 1929,
      "▁(eds.).": 1930,
      ",000": 1931,
      "-20": 1932,
      "-re": 1933,
      "/S": 1934,
      "/d": 1935,
      "6]](https://en.wikipedia.org/wiki/India#cite_note-": 1936,
      "7).": 1937,
      "98": 1938,
      "Al": 1939,
      "Hindi": 1940,
      "_19": 1941,
      "_for": 1942,
      "bal": 1943,
      "hy": 1944,
      "iri": 1945,
      "jan": 1946,
      "mund": 1947,
      "nam": 1948,
      "rol": 1949,
      "utt": 1950,
      "pee": 1951,
      "](https://en.wikipedia.org/wiki/Indo-": 1952,
      "▁\"India": 1953,
      "▁\"Indo-": 1954,
      "tig": 1955,
      "ests": 1956,
      "le:": 1957,
      "2017": 1958,
      "2019": 1959,
      "▁Arab": 1960,
      "▁Afric": 1961,
      "ives": 1962,
      "▁States": 1963,
      "2009": 1964,
      "ages": 1965,
      "ilg": 1966,
      "ument": 1967,
      "▁22": 1968,
      "▁29": 1969,
      "loy": 1970,
      "_Summit": 1971,
      "ineering": 1972,
      "umbai": 1973,
      "ankar": 1974,
      "arket": 1975,
      "rown": 1976,
      "ependent": 1977,
      "ependence": 1978,
      "othermund": 1979,
      "▁Islands": 1980,
      "ynast": 1981,
      "▁economic": 1982,
      "ricket": 1983,
      "_in_South_Asia": 1984,
      "ujarat": 1985,
      "▁under": 1986,
      "ast_Asia_Summit": 1987,
      "/f": 1988,
      "2).": 1989,
      "6_": 1990,
      "Edit": 1991,
      "Page/": 1992,
      "_V": 1993,
      "az": 1994,
      "ate_": 1995,
      "cted": 1996,
      "census": 1997,
      "fgh": 1998,
      "k:": 1999,
      "line": 2000,
      "nal": 2001,
      "pic": 2002,
      "rist": 2003,
      "way": 2004,
      "▁'": 2005,
      "▁out": 2006,
      "▁other": 2007,
      "dian": 2008,
      "encies": 2009,
      "pect": 2010,
      "inance": 2011,
      "one": 2012,
      "eration": 2013,
      "▁\"Oxford": 2014,
      "alli": 2015,
      "ar,": 2016,
      "omas": 2017,
      "▁India.": 2018,
      "oot": 2019,
      "▁([": 2020,
      "▁Ac": 2021,
      "-00": 2022,
      "ety": 2023,
      "ivision": 2024,
      "olution": 2025,
      "▁minister": 2026,
      "▁major": 2027,
      "urton": 2028,
      "iles": 2029,
      "ility": 2030,
      "igence": 2031,
      "ulke": 2032,
      "ement": 2033,
      "▁high": 2034,
      "▁Bank": 2035,
      "▁British": 2036,
      "overe": 2037,
      "Special:Edit": 2038,
      "▁27": 2039,
      "_ind": 2040,
      "▁Nadu": 2041,
      "-317": 2042,
      "▁rep": 2043,
      "fore": 2044,
      "ains": 2045,
      "ainism": 2046,
      "▁Talbot": 2047,
      "apan": 2048,
      "▁[Stein": 2049,
      "▁K.": 2050,
      "▁2021.": 2051,
      "▁2021.\n": 2052,
      "own": 2053,
      "▁[\"India": 2054,
      "▁original](https://www.": 2055,
      "▁exp": 2056,
      "▁ext": 2057,
      "hinese": 2058,
      "ervation": 2059,
      "rovision": 2060,
      "▁social": 2061,
      "International": 2062,
      "arnatak": 2063,
      "telligence": 2064,
      "Spear1990": 2065,
      "Page/Template:": 2066,
      "fghan": 2067,
      "Special:EditPage/Template:": 2068,
      "\"](https://books.google.com/books?id=": 2069,
      ".nic": 2070,
      "1,": 2071,
      "1/": 2072,
      "4).": 2073,
      "6.\n": 2074,
      "6-0)": 2075,
      "7)": 2076,
      "UCN": 2077,
      "_O": 2078,
      "aus": 2079,
      "election": 2080,
      "get": 2081,
      "ix": 2082,
      "lor": 2083,
      "pur": 2084,
      "rm": 2085,
      "ris": 2086,
      "▁–": 2087,
      "▁oc": 2088,
      "▁time": 2089,
      "ors": 2090,
      "oral": 2091,
      "▁[3": 2092,
      "▁[United": 2093,
      "](https://en.wikipedia.org/wiki/South": 2094,
      "tes": 2095,
      "arge": 2096,
      "cil": 2097,
      "lect": 2098,
      "rain": 2099,
      "▁se": 2100,
      "▁some": 2101,
      "-0-2": 2102,
      "▁found": 2103,
      "etail": 2104,
      "uslim": 2105,
      "▁SAARC": 2106,
      "▁both": 2107,
      "▁trans": 2108,
      "▁CE": 2109,
      "▁Cons": 2110,
      "▁Census": 2111,
      "▁China": 2112,
      "2003": 2113,
      "istrar": 2114,
      "ada": 2115,
      "urban": 2116,
      "▁Pakistan": 2117,
      "▁1.": 2118,
      "▁def": 2119,
      "▁largest": 2120,
      "▁December": 2121,
      "tud": 2122,
      "▁Hindi": 2123,
      "odi": 2124,
      "▁\"Ch": 2125,
      "emple": 2126,
      "▁\"History": 2127,
      "](https://en.wikipedia.org/wiki/History": 2128,
      "reek": 2129,
      "riculture": 2130,
      "MetcalfMetcalf2006),": 2131,
      "ife": 2132,
      ".jpg/330px-": 2133,
      "▁union": 2134,
      "egistrar": 2135,
      "▁territory": 2136,
      "▁Empire\")": 2137,
      "▁2020": 2138,
      "▁play": 2139,
      "▁Commission": 2140,
      "▁world's": 2141,
      "arliamentary": 2142,
      ".svg": 2143,
      "india.gov.in/": 2144,
      "▁2006](https://en.wikipedia.org/wiki/India#CITEREFMetcalfMetcalf2006),": 2145,
      "▁article:": 2146,
      "ffairs": 2147,
      "fghanistan": 2148,
      ".nic.in/": 2149,
      "▁occ": 2150,
      "6]](https://en.wikipedia.org/wiki/India#cite_note-FOOTNOTE": 2151,
      "7-0)": 2152,
      "Ary": 2153,
      "Category:": 2154,
      "Robb": 2155,
      "Sharma": 2156,
      "_n": 2157,
      "data": 2158,
      "ek": 2159,
      "hang": 2160,
      "itt": 2161,
      "jec": 2162,
      "ott": 2163,
      "oci": 2164,
      "ocial": 2165,
      "ura": 2166,
      "west": 2167,
      "▁term": 2168,
      "](Category:": 2169,
      "ances": 2170,
      "▁[Oxford": 2171,
      "ery": 2172,
      "rel": 2173,
      "▁they": 2174,
      "ict": 2175,
      "▁Al": 2176,
      "▁Summit\")": 2177,
      "▁Cambridge": 2178,
      "▁Company": 2179,
      "agar": 2180,
      "▁Pro": 2181,
      "▁Pers": 2182,
      "▁12": 2183,
      "road": 2184,
      "ters": 2185,
      "emale": 2186,
      "states": 2187,
      "▁history": 2188,
      "▁Bengal": 2189,
      "▁Delhi": 2190,
      "▁Environment": 2191,
      "▁Gandhi": 2192,
      "avi": 2193,
      "▁number": 2194,
      "epal": 2195,
      "upta": 2196,
      "▁\"Category:": 2197,
      "▁[Asher": 2198,
      "▁Kashmir": 2199,
      "ournal": 2200,
      "▁began": 2201,
      "lack": 2202,
      "▁original](https://": 2203,
      "aniz": 2204,
      "▁*[The": 2205,
      "rough": 2206,
      "ultural": 2207,
      "ibet": 2208,
      "ducation": 2209,
      "Oxford_University_Press": 2210,
      "Stein2010),": 2211,
      "meric": 2212,
      "limate": 2213,
      "inistry_of_": 2214,
      "yanmar": 2215,
      "esert": 2216,
      "union_territ": 2217,
      "▁2010](https://en.wikipedia.org/wiki/India#CITEREFStein2010),": 2218,
      "ultanate": 2219,
      "rganiz": 2220,
      "ministrative": 2221,
      "▁Press](https://en.wikipedia.org/wiki/Oxford_University_Press": 2222,
      "Spear199024": 2223,
      "*,": 2224,
      "/P": 2225,
      "2](https://en.wikipedia.org/wiki/India#CITEREF": 2226,
      "5]](https://en.wikipedia.org/wiki/India#cite_note-FOOTNOTE": 2227,
      "500": 2228,
      "61": 2229,
      "7-1": 2230,
      "8-0)": 2231,
      "Ludden": 2232,
      "Qu": 2233,
      "_g": 2234,
      "a.": 2235,
      "ball": 2236,
      "bank": 2237,
      "ho": 2238,
      "lin": 2239,
      "languages": 2240,
      "oon": 2241,
      "ocal": 2242,
      "ots": 2243,
      "s_of_India": 2244,
      "wal": 2245,
      "–2": 2246,
      "iam": 2247,
      "kim": 2248,
      "ancy": 2249,
      "anoram": 2250,
      "thor": 2251,
      "errit": 2252,
      "eries": 2253,
      "tice": 2254,
      "alore": 2255,
      "cid": 2256,
      "rim": 2257,
      "tionary": 2258,
      "▁ins": 2259,
      "▁sp": 2260,
      "▁since": 2261,
      "▁par": 2262,
      "▁prime": 2263,
      "ament": 2264,
      "1970": 2265,
      "inger": 2266,
      "olper": 2267,
      "adi": 2268,
      "angalore": 2269,
      "cean": 2270,
      "▁11": 2271,
      "▁land": 2272,
      "▁R.": 2273,
      "▁Raj": 2274,
      "▁India\").": 2275,
      "ments": 2276,
      "▁Development": 2277,
      "lowing": 2278,
      "▁groups": 2279,
      "▁non-": 2280,
      "▁Times": 2281,
      "aputra": 2282,
      "](https://en.wikipedia.org/wiki/Ch": 2283,
      "otals": 2284,
      "ommonwealth": 2285,
      "erala": 2286,
      "undament": 2287,
      "_East_Asia_Summit": 2288,
      "AARC_summit": 2289,
      "▁relations": 2290,
      "▁lead": 2291,
      ".png": 2292,
      "uddhist": 2293,
      "flu": 2294,
      "▁used": 2295,
      "rdu": 2296,
      "▁York": 2297,
      "formation": 2298,
      "rahmaputra": 2299,
      "emocracy": 2300,
      "▁(India)\")": 2301,
      "artition": 2302,
      "▁app": 2303,
      "aldives": 2304,
      "](https://en.wikipedia.org/wiki/List_of_countries_by": 2305,
      "Aryan": 2306,
      "rganization": 2307,
      "erritory": 2308,
      "olpert": 2309,
      "-le": 2310,
      "/c": 2311,
      "/India": 2312,
      "1).": 2313,
      "110": 2314,
      "2–": 2315,
      "2.\n": 2316,
      "3–": 2317,
      "53": 2318,
      "7/": 2319,
      "76": 2320,
      "99": 2321,
      "Coll": 2322,
      "MF": 2323,
      "Rowland": 2324,
      "TR": 2325,
      "_J": 2326,
      "ao": 2327,
      "aury": 2328,
      "cis": 2329,
      "ez": 2330,
      "gra": 2331,
      "kar": 2332,
      "ns": 2333,
      "ved": 2334,
      "y,": 2335,
      "yle": 2336,
      "▁[d": 2337,
      "▁[19": 2338,
      "thnic": 2339,
      "aran": 2340,
      "▁official": 2341,
      "city": 2342,
      "rig": 2343,
      "ediev": 2344,
      "icial": 2345,
      "rature": 2346,
      "cha": 2347,
      "chitecture": 2348,
      "▁power": 2349,
      "amp": 2350,
      "▁All": 2351,
      "▁col": 2352,
      "-0-4": 2353,
      "▁famil": 2354,
      "atus": 2355,
      "▁mar": 2356,
      "▁movement": 2357,
      "▁made": 2358,
      "▁C.": 2359,
      "▁large": 2360,
      "emic": 2361,
      "▁River": 2362,
      "▁his": 2363,
      "109": 2364,
      "▁2011.": 2365,
      "aylor": 2366,
      "lobal": 2367,
      "ship": 2368,
      "-2)": 2369,
      "force": 2370,
      "asting": 2371,
      "abh": 2372,
      ".[[4": 2373,
      "udi": 2374,
      "-80": 2375,
      "▁1950": 2376,
      "o-ope": 2377,
      "▁[*A": 2378,
      "_and_D": 2379,
      "illen": 2380,
      "iteracy": 2381,
      "onstituent": 2382,
      "ight": 2383,
      "▁tex": 2384,
      "overty": 2385,
      "ohn": 2386,
      "nergy": 2387,
      "teenth": 2388,
      "Indonesia": 2389,
      "Rowland1970": 2390,
      "edieval": 2391,
      ".n": 2392,
      "1_": 2393,
      "4/": 2394,
      "4–": 2395,
      "4-3": 2396,
      "BC": 2397,
      "_0": 2398,
      "a-": 2399,
      "af": 2400,
      "der": 2401,
      "e/": 2402,
      "iew": 2403,
      "ks": 2404,
      "lurton": 2405,
      "national": 2406,
      "rary": 2407,
      "sub": 2408,
      "ua": 2409,
      "ual": 2410,
      "work": 2411,
      "▁...": 2412,
      "▁ed.).": 2413,
      "▁urban": 2414,
      "ency": 2415,
      "an,": 2416,
      "▁[c": 2417,
      "▁[Indo-": 2418,
      "](https://en.wikipedia.org/wiki/United": 2419,
      "erry": 2420,
      "▁\"United": 2421,
      "tiv": 2422,
      "\");": 2423,
      "are": 2424,
      "▁them": 2425,
      "asi": 2426,
      "▁India](https://en.wikipedia.org/wiki/G": 2427,
      "▁influ": 2428,
      "icob": 2429,
      "rat": 2430,
      "▁summit": 2431,
      "▁pre": 2432,
      "▁painting": 2433,
      "▁country": 2434,
      "▁S.": 2435,
      "▁Science": 2436,
      "▁bas": 2437,
      "▁western": 2438,
      "▁Pl": 2439,
      "▁Publishing": 2440,
      "]](https://en.wikipedia.org/wiki/India#cite_note-4": 2441,
      "eli": 2442,
      "ulti": 2443,
      "▁Bi": 2444,
      "resent": 2445,
      "▁[↑](https://en.wikipedia.org/wiki/India#cite_ref-4": 2446,
      "ove": 2447,
      "▁2019": 2448,
      "▁21": 2449,
      "▁Ex": 2450,
      "imach": 2451,
      "▁General": 2452,
      "▁GDP": 2453,
      "▁eastern": 2454,
      "▁Himalay": 2455,
      "akhand": 2456,
      "formatics": 2457,
      "ouncil": 2458,
      ".com/news/": 2459,
      ".[[3": 2460,
      "▁Tamil": 2461,
      "uduch": 2462,
      "▁Kingdom": 2463,
      "160": 2464,
      "▁[↑](https://en.wikipedia.org/wiki/India#cite_ref-FOOTNOTEMetcalfMetcalf2006": 2465,
      "▁Lank": 2466,
      "ikkim": 2467,
      "ssam": 2468,
      "▁Valley": 2469,
      "general_": 2470,
      "▁prov": 2471,
      "ravi": 2472,
      "▁left": 2473,
      "▁contrib": 2474,
      "-largest": 2475,
      "nium": 2476,
      "iffer": 2477,
      "_Indian_general_": 2478,
      "%7C": 2479,
      "%7c": 2480,
      "html).": 2481,
      "_at_the": 2482,
      "ustralia": 2483,
      "/http://www.": 2484,
      "▁employ": 2485,
      "illennium": 2486,
      "uducherry": 2487,
      "_Indian_general_election": 2488,
      "-h": 2489,
      "3/": 2490,
      "5.\n": 2491,
      "73": 2492,
      "IMF": 2493,
      "Provision": 2494,
      "Rothermund": 2495,
      "SAARC_summit": 2496,
      "_18": 2497,
      "hil": 2498,
      "ling": 2499,
      "lag": 2500,
      "lood": 2501,
      "oal": 2502,
      "oard": 2503,
      "pdf)": 2504,
      "rial": 2505,
      "ward": 2506,
      "▁•": 2507,
      "▁el": 2508,
      "▁40": 2509,
      "pecial": 2510,
      "anag": 2511,
      "tex": 2512,
      "on,": 2513,
      "▁\"Th": 2514,
      "\"))": 2515,
      "alit": 2516,
      "isc": 2517,
      "ret": 2518,
      "as,": 2519,
      "cip": 2520,
      "▁India*](https://books.google.com/books?id=": 2521,
      "raz": 2522,
      "▁serv": 2523,
      "▁second": 2524,
      "▁(199": 2525,
      "ams": 2526,
      "▁far": 2527,
      "ingh": 2528,
      "etary": 2529,
      "▁me": 2530,
      "urch": 2531,
      "urve": 2532,
      "▁women": 2533,
      "▁P.": 2534,
      "ular": 2535,
      "uled": 2536,
      "emograph": 2537,
      "▁Mon": 2538,
      "▁Modern": 2539,
      "state": 2540,
      "cess": 2541,
      "▁By": 2542,
      "resident": 2543,
      "▁D.": 2544,
      "logo": 2545,
      "▁November": 2546,
      "▁Nehru": 2547,
      "▁Gu": 2548,
      "▁gre": 2549,
      "aves": 2550,
      "▁new": 2551,
      "▁J.": 2552,
      "oss": 2553,
      "endra": 2554,
      "a\")\n": 2555,
      "oreign": 2556,
      "arty": 2557,
      "fficial": 2558,
      "order": 2559,
      "ological": 2560,
      "iley": 2561,
      "les\\_": 2562,
      "athura": 2563,
      "▁\"National": 2564,
      "▁[Government": 2565,
      "](https://en.wikipedia.org/wiki/National_": 2566,
      "](https://en.wikipedia.org/wiki/List_of_SAARC_summit": 2567,
      "ibrary": 2568,
      "▁technology": 2569,
      "▁This": 2570,
      "ashmiri": 2571,
      "awahar": 2572,
      "▁Hinduism": 2573,
      "worldbank": 2574,
      "rancis": 2575,
      "kingdom": 2576,
      "pringer": 2577,
      "▁economy": 2578,
      "ockey": 2579,
      "eserve": 2580,
      "ildlife": 2581,
      "vention": 2582,
      "▁Assembly": 2583,
      "istorical": 2584,
      "industani": 2585,
      "_Islands": 2586,
      "_BRICS_summit": 2587,
      "DikshitSchwartzberg2023": 2588,
      "pectancy": 2589,
      "omason": 2590,
      "ootball": 2591,
      "overeign": 2592,
      "_industry": 2593,
      "▁Persian": 2594,
      "icobar": 2595,
      "▁summits\")": 2596,
      "](https://en.wikipedia.org/wiki/List_of_SAARC_summits": 2597,
      "awaharl": 2598,
      ".india": 2599,
      "2]](https://en.wikipedia.org/wiki/India#cite_note-": 2600,
      "3-8": 2601,
      "318": 2602,
      "4.\n": 2603,
      "4]](https://en.wikipedia.org/wiki/India#cite_note-FOOTNOTE": 2604,
      "511": 2605,
      "7_": 2606,
      "7]](https://en.wikipedia.org/wiki/India#cite_note-FOOTNOTE": 2607,
      "85": 2608,
      "EO": 2609,
      "Kulke": 2610,
      "MC": 2611,
      "MID": 2612,
      "National_": 2613,
      "WEO": 2614,
      "_on": 2615,
      "casting": 2616,
      "dish": 2617,
      "eor": 2618,
      "ead": 2619,
      "eology": 2620,
      "iber": 2621,
      "ning": 2622,
      "press": 2623,
      "pture": 2624,
      "vel": 2625,
      "yam": 2626,
      "ymb": 2627,
      "–24": 2628,
      "▁50": 2629,
      "en,": 2630,
      "anc": 2631,
      "ants": 2632,
      "▁[f": 2633,
      "▁[v": 2634,
      "](https://en.wikipedia.org/wiki/Th": 2635,
      "than": 2636,
      "th_BRICS_summit": 2637,
      "eri": 2638,
      "▁\"In": 2639,
      "ars": 2640,
      "aria": 2641,
      "arlo": 2642,
      "araj": 2643,
      "arath": 2644,
      "esc": 2645,
      "educ": 2646,
      "icon": 2647,
      "ches": 2648,
      "entr": 2649,
      "▁popul": 2650,
      "▁cour": 2651,
      "▁culture": 2652,
      "▁caus": 2653,
      "iving": 2654,
      "olence": 2655,
      "▁billion": 2656,
      "▁tree": 2657,
      "▁Civil": 2658,
      "2001": 2659,
      "2002": 2660,
      "▁Punjab": 2661,
      "iger": 2662,
      "▁development": 2663,
      "ema": 2664,
      "▁Rev": 2665,
      "▁Republic": 2666,
      "▁Research": 2667,
      "▁hum": 2668,
      "2022": 2669,
      "▁23": 2670,
      "▁Economic": 2671,
      "_of_2011": 2672,
      "-25": 2673,
      "onsoon": 2674,
      "oples": 2675,
      "▁rem": 2676,
      "▁these": 2677,
      "_Ass": 2678,
      "ained": 2679,
      "aining": 2680,
      "odiversity": 2681,
      "▁[Ch": 2682,
      "hief": 2683,
      "▁wid": 2684,
      "▁[↑](https://en.wikipedia.org/wiki/India#cite_ref-FOOTNOTEB": 2685,
      "▁1947": 2686,
      "ource": 2687,
      "▁when": 2688,
      "_Paper": 2689,
      "umbers": 2690,
      "late_": 2691,
      "phere": 2692,
      "overnment_of_India": 2693,
      "ociation": 2694,
      "ouse": 2695,
      "▁Press](https://en.wikipedia.org/wiki/C": 2696,
      "▁language\"),": 2697,
      "▁[Dyson": 2698,
      "▁[National": 2699,
      "_Totals": 2700,
      "ighth": 2701,
      "MetcalfMetcalf2012": 2702,
      "ibcod": 2703,
      "▁[![A": 2704,
      "opulation_Totals": 2705,
      "qual": 2706,
      "issing": 2707,
      "▁control": 2708,
      "▁languages\")": 2709,
      "▁add": 2710,
      "ipp": 2711,
      "▁Islands\")": 2712,
      "gypt": 2713,
      "▁Indus": 2714,
      "_1_of_2011": 2715,
      "_rel": 2716,
      "ikhism": 2717,
      "urrent": 2718,
      "oint": 2719,
      "cording": 2720,
      "uisine": 2721,
      "struc": 2722,
      "al_Population_Totals": 2723,
      "nown": 2724,
      "arnatic": 2725,
      "▁mathema": 2726,
      "ynasty": 2727,
      "](https://en.wikipedia.org/wiki/History_of_": 2728,
      "roadcasting": 2729,
      "o-operation": 2730,
      "Provisional_Population_Totals": 2731,
      "emographics": 2732,
      "education": 2733,
      "_Paper_1_of_2011": 2734,
      "ibcode": 2735,
      "Provisional_Population_Totals_Paper_1_of_2011": 2736,
      "Provisional_Population_Totals_Paper_1_of_2011_India": 2737,
      "-D": 2738,
      "-R": 2739,
      "-S": 2740,
      "-50": 2741,
      ".as": 2742,
      ".\")\n": 2743,
      ".](https://upload.wikimedia.org/wikipedia/commons/thumb/": 2744,
      ".IN": 2745,
      "/A": 2746,
      "2]](https://en.wikipedia.org/wiki/India#cite_note-FOOTNOTE": 2747,
      "3TR": 2748,
      "4]](https://en.wikipedia.org/wiki/India#cite_note-": 2749,
      "6–": 2750,
      "7C": 2751,
      "7]](https://en.wikipedia.org/wiki/India#cite_note-": 2752,
      "89": 2753,
      "AS": 2754,
      "For": 2755,
      "IF": 2756,
      "IUCN": 2757,
      "PP": 2758,
      "UN": 2759,
      "_pe": 2760,
      "_with": 2761,
      "_languages": 2762,
      "ax": 2763,
      "ative": 2764,
      "dr": 2765,
      "ges": 2766,
      "jpg": 2767,
      "ject": 2768,
      "most": 2769,
      "ncient": 2770,
      "o.": 2771,
      "ption": 2772,
      "ute": 2773,
      "uct": 2774,
      "ually": 2775,
      "vil": 2776,
      "▁z": 2777,
      "▁Qu": 2778,
      "iary": 2779,
      "ortheast": 2780,
      "](Template:": 2781,
      "▁[e": 2782,
      "ofk": 2783,
      "reme": 2784,
      "anda": 2785,
      "▁off": 2786,
      "ources": 2787,
      "ed,": 2788,
      "ediff": 2789,
      "▁India](https://en.wikipedia.org/wiki/C": 2790,
      "▁sign": 2791,
      "▁sector": 2792,
      "▁capit": 2793,
      "olon": 2794,
      "ately": 2795,
      "ature": 2796,
      "atyam": 2797,
      "▁Soci": 2798,
      "▁Con": 2799,
      "▁Cooperation": 2800,
      "▁Centre": 2801,
      "adra": 2802,
      "adras": 2803,
      "▁Pe": 2804,
      "▁Park": 2805,
      "▁Population": 2806,
      "]](https://en.wikipedia.org/wiki/India#cite_note-Combined": 2807,
      "ign_": 2808,
      "igarh": 2809,
      "ions": 2810,
      "▁life": 2811,
      "▁att": 2812,
      "▁total": 2813,
      "▁her": 2814,
      "▁human": 2815,
      "▁Buddhist": 2816,
      "irth": 2817,
      "eck": 2818,
      "eccan": 2819,
      "▁2.": 2820,
      "loth": 2821,
      "▁Games": 2822,
      "▁growth": 2823,
      "▁ear": 2824,
      "▁through": 2825,
      "akes": 2826,
      "ability": 2827,
      "▁name": 2828,
      ".[[40": 2829,
      "osphere": 2830,
      "▁35": 2831,
      "rity": 2832,
      "AAJ": 2833,
      "▁[Ministry": 2834,
      "▁\"Mughal": 2835,
      "](https://en.wikipedia.org/wiki/Mugh": 2836,
      "▁2007](https://en.wikipedia.org/wiki/India#CITEREF": 2837,
      "-90": 2838,
      "ummer": 2839,
      "▁\"British": 2840,
      "](https://en.wikipedia.org/wiki/British": 2841,
      "▁ass": 2842,
      "▁within": 2843,
      "a_Empire": 2844,
      "ternal": 2845,
      "ffice": 2846,
      "▁\"Template:": 2847,
      "hmed": 2848,
      "anipur": 2849,
      "▁produc": 2850,
      "handigarh": 2851,
      "embers": 2852,
      "pura": 2853,
      "times.com/": 2854,
      "ote:": 2855,
      "mitt": 2856,
      "Dyson2018),": 2857,
      "culpture": 2858,
      "view": 2859,
      "eography": 2860,
      "/article": 2861,
      "irector": 2862,
      "rishn": 2863,
      "rishna": 2864,
      "ortal:": 2865,
      "Uttarakhand": 2866,
      "Artic": 2867,
      "▁especial": 2868,
      "▁Plateau": 2869,
      "](https://en.wikipedia.org/wiki/South_Asian_": 2870,
      "▁emer": 2871,
      "▁2018](https://en.wikipedia.org/wiki/India#CITEREFDyson2018),": 2872,
      "▁increased": 2873,
      "IMFWEO": 2874,
      "urvey": 2875,
      ".aspx": 2876,
      "3TRt": 2877,
      "▁Quote:": 2878,
      "](https://en.wikipedia.org/wiki/Mughal_": 2879,
      "▁especially": 2880,
      "IMFWEO.IN": 2881,
      "*](https://web.archive.org/web/": 2882,
      "-k": 2883,
      "-v": 2884,
      "-India": 2885,
      "-and": 2886,
      "0.": 2887,
      "1-2": 2888,
      "2_": 2889,
      "43": 2890,
      "5]](https://en.wikipedia.org/wiki/India#cite_note-": 2891,
      "5](https://en.wikipedia.org/wiki/India#CITEREF": 2892,
      "7.\n": 2893,
      "8)": 2894,
      "8]](https://en.wikipedia.org/wiki/India#cite_note-": 2895,
      "8.\n": 2896,
      "9)": 2897,
      "9]](https://en.wikipedia.org/wiki/India#cite_note-": 2898,
      "Ex": 2899,
      "Paki": 2900,
      "_&": 2901,
      "_38": 2902,
      "_2024": 2903,
      "baki": 2904,
      "country": 2905,
      "day": 2906,
      "ees": 2907,
      "hut": 2908,
      "iet": 2909,
      "khand": 2910,
      "men": 2911,
      "nc": 2912,
      "rang": 2913,
      "rust": 2914,
      "ront": 2915,
      "▁eng": 2916,
      "▁old": 2917,
      "orn": 2918,
      "orship": 2919,
      "ences": 2920,
      "ini": 2921,
      "▁[World": 2922,
      "](https://en.wikipedia.org/wiki/World": 2923,
      "▁\"World": 2924,
      "aro": 2925,
      "arendra": 2926,
      "ison": 2927,
      "ederal": 2928,
      "ictionary": 2929,
      "lege": 2930,
      "chi": 2931,
      "chin": 2932,
      "▁sim": 2933,
      "▁prom": 2934,
      "▁political": 2935,
      "itz": 2936,
      "itation": 2937,
      "▁(ed.).": 2938,
      "ama": 2939,
      "▁Am": 2940,
      "▁After": 2941,
      "▁Affairs": 2942,
      "-06": 2943,
      "ingham": 2944,
      "oln": 2945,
      "atna": 2946,
      "▁Sub": 2947,
      "▁See": 2948,
      "▁bu": 2949,
      "▁Comp": 2950,
      "▁Central": 2951,
      "ango": 2952,
      "angam": 2953,
      "ilk": 2954,
      "ceu": 2955,
      "▁work": 2956,
      "ull": 2957,
      "umar": 2958,
      "▁M.": 2959,
      "stani": 2960,
      "ever,": 2961,
      "103": 2962,
      "ecret": 2963,
      "▁David": 2964,
      "_of_C": 2965,
      "▁gen": 2966,
      "-432": 2967,
      "-30": 2968,
      "▁only": 2969,
      "astr": 2970,
      "▁near": 2971,
      "epart": 2972,
      "00–": 2973,
      "▁Territory": 2974,
      "▁\"Cambridge": 2975,
      "ghts": 2976,
      "▁[Cambridge": 2977,
      "hib": 2978,
      "▁[↑](https://en.wikipedia.org/wiki/India#cite_ref-FOOTNOTEStein2010": 2979,
      "harkhand": 2980,
      "▁2001": 2981,
      "_Comm": 2982,
      "_Centre": 2983,
      "ourbaki": 2984,
      "owever,": 2985,
      "▁[British": 2986,
      "▁[\"C": 2987,
      "▁[*India": 2988,
      "hai": 2989,
      "arden": 2990,
      "ichell": 2991,
      "▁vill": 2992,
      "ocument": 2993,
      "▁\"Government": 2994,
      "aking": 2995,
      "677": 2996,
      "▁range": 2997,
      "ext": 2998,
      "ondon": 2999,
      "amil_N": 3000,
      "▁[![](https://upload.wikimedia.org/wikipedia/commons/thumb/": 3001,
      ".gov/": 3002,
      "class": 3003,
      "_432": 3004,
      "▁1994](https://en.wikipedia.org/wiki/India#CITEREF": 3005,
      "▁right": 3006,
      "ific": 3007,
      "_pro": 3008,
      "olden": 3009,
      "ambridge_University_Press": 3010,
      "-107": 3011,
      "▁ago": 3012,
      "▁regions": 3013,
      "harmaceu": 3014,
      "-india-": 3015,
      "▁composed": 3016,
      "▁use": 3017,
      "International_": 3018,
      "▁dispu": 3019,
      "▁along": 3020,
      "hola": 3021,
      ".svg/": 3022,
      "india.gov.in": 3023,
      "oastal": 3024,
      "cheduled": 3025,
      "ominion": 3026,
      "▁including": 3027,
      "ecurity": 3028,
      "▁[India](https://en.wikipedia.org/wiki/India": 3029,
      "rotection": 3030,
      "vatsyayan-lord-432": 3031,
      "vatsyayan-lord_432": 3032,
      "ritsch": 3033,
      "6]](https://en.wikipedia.org/wiki/India#cite_note-vatsyayan-lord-432": 3034,
      "ristian": 3035,
      "▁Commissioner": 3036,
      ".svg.png": 3037,
      "undamental": 3038,
      "subcontinent": 3039,
      "ifferent": 3040,
      "KulkeRothermund": 3041,
      "▁Press](https://en.wikipedia.org/wiki/Cambridge_University_Press": 3042,
      "quality": 3043,
      "Pakistani": 3044,
      "hutan": 3045,
      "epartment": 3046,
      "amil_Nadu": 3047,
      "-n": 3048,
      ".htm": 3049,
      ".ni": 3050,
      "/s": 3051,
      "1-1": 3052,
      "230": 3053,
      "3-7": 3054,
      "45": 3055,
      "4-0": 3056,
      "5-4": 3057,
      "812": 3058,
      "9]](https://en.wikipedia.org/wiki/India#cite_note-FOOTNOTE": 3059,
      ";[[": 3060,
      "AG": 3061,
      "Bharat": 3062,
      "II": 3063,
      "JP": 3064,
      "Kashmir": 3065,
      "Pakistan": 3066,
      "S$": 3067,
      "Tarlo": 3068,
      "Wolpert": 3069,
      "_-": 3070,
      "_24": 3071,
      "_26": 3072,
      "aos": 3073,
      "back": 3074,
      "britannica": 3075,
      "edia": 3076,
      "fr": 3077,
      "gl": 3078,
      "ged": 3079,
      "gram": 3080,
      "hra": 3081,
      "hind": 3082,
      "ihar": 3083,
      "lar": 3084,
      "lesh": 3085,
      "mill": 3086,
      "nim": 3087,
      "oa": 3088,
      "odia": 3089,
      "pen": 3090,
      "rune": 3091,
      "ues": 3092,
      "ule": 3093,
      "wh": 3094,
      "well": 3095,
      "yth": 3096,
      "yer": 3097,
      "▁Un": 3098,
      "▁kingdom": 3099,
      "iated": 3100,
      "ino-": 3101,
      "inema": 3102,
      "▁[Y": 3103,
      "er-": 3104,
      "tis": 3105,
      "tile": 3106,
      "alam": 3107,
      "arc": 3108,
      "aries": 3109,
      "20-2": 3110,
      "ofindia": 3111,
      "omo": 3112,
      "omes": 3113,
      "](https://en.wikipedia.org/wiki/Indian": 3114,
      "riya": 3115,
      "leav": 3116,
      "ratic": 3117,
      "▁school": 3118,
      "its": 3119,
      "▁As": 3120,
      "▁At": 3121,
      "▁cre": 3122,
      "-0-3": 3123,
      "-0\").\n": 3124,
      "▁fol": 3125,
      "▁four": 3126,
      "ingap": 3127,
      "ets": 3128,
      "etry": 3129,
      "ation,": 3130,
      "ived": 3131,
      "ator": 3132,
      "ating": 3133,
      "ata_": 3134,
      "▁main": 3135,
      "▁Chand": 3136,
      "ists": 3137,
      "angered": 3138,
      "▁would": 3139,
      "▁Public": 3140,
      "elang": 3141,
      "eligious": 3142,
      "igration": 3143,
      "Southeast": 3144,
      "ults": 3145,
      "▁direct": 3146,
      "▁led": 3147,
      "▁lik": 3148,
      "▁Routledge": 3149,
      "fir": 3150,
      "▁B.": 3151,
      "1017": 3152,
      "s.\"\n": 3153,
      "▁2012.": 3154,
      "▁Dev": 3155,
      "▁Dance": 3156,
      "ly,": 3157,
      "▁N.": 3158,
      "▁Nicobar": 3159,
      "▁Greek": 3160,
      "indus": 3161,
      "indhi": 3162,
      "\"),[[": 3163,
      "ogri": 3164,
      "ogam": 3165,
      "ogue": 3166,
      "▁*India": 3167,
      "▁rec": 3168,
      "▁reg": 3169,
      "▁third": 3170,
      "_Act": 3171,
      "_A7C": 3172,
      "abha": 3173,
      "upt": 3174,
      "▁Temple": 3175,
      "▁36": 3176,
      "▁37": 3177,
      "▁38": 3178,
      "ustrial": 3179,
      "aph": 3180,
      "▁Fund": 3181,
      "▁[Central": 3182,
      "▁2024": 3183,
      "▁2025.": 3184,
      "▁[↑](https://en.wikipedia.org/wiki/India#cite_ref-FOOTNOTEM": 3185,
      "▁Organization": 3186,
      "ngineering": 3187,
      "_Ch": 3188,
      "o-d": 3189,
      "](Special:BookSources/978-81": 3190,
      "▁[978-81": 3191,
      "▁\"Special:BookSources/978-81": 3192,
      "ountain": 3193,
      "ow/": 3194,
      "_Pradesh": 3195,
      "](https://books.google.com/books?id=3TRt": 3196,
      "lative": 3197,
      "otal": 3198,
      "-53": 3199,
      "iterature": 3200,
      "▁areas": 3201,
      "▁Ved": 3202,
      "engali": 3203,
      "uddha": 3204,
      "ambodia": 3205,
      "_River": 3206,
      "ndhra": 3207,
      "▁change": 3208,
      "acmill": 3209,
      "%2C5": 3210,
      "▁[![The": 3211,
      "erves": 3212,
      "ameez": 3213,
      "aith": 3214,
      "economic": 3215,
      "ailand": 3216,
      "▁These": 3217,
      "▁religious": 3218,
      "ependencies": 3219,
      "alaysia": 3220,
      "rates": 3221,
      "DwAAQBAJ": 3222,
      "▁agriculture": 3223,
      "▁./Category:Artic": 3224,
      "ureau": 3225,
      "usiness/": 3226,
      "ukesh": 3227,
      "](Special:BookSources/978-0-521": 3228,
      "▁[978-0-521": 3229,
      "▁\"Special:BookSources/978-0-521": 3230,
      "athematics": 3231,
      "▁Pradesh\")": 3232,
      "cript": 3233,
      "▁subcontinent\")": 3234,
      "-in-": 3235,
      "eographical": 3236,
      "▁Force": 3237,
      "html)": 3238,
      "chedule": 3239,
      "emocratic": 3240,
      "▁species": 3241,
      "ataraj": 3242,
      "industan": 3243,
      "▁estim": 3244,
      "adhya": 3245,
      "troduction": 3246,
      "▁rock": 3247,
      "Insur": 3248,
      "janta": 3249,
      "censusindia.gov.in/": 3250,
      "▁majority": 3251,
      "arnataka": 3252,
      "tudies": 3253,
      "▁occup": 3254,
      "Sharma2007": 3255,
      "data.": 3256,
      "merican": 3257,
      "Collingham": 3258,
      "-0-415": 3259,
      "lurton199": 3260,
      "ravidian": 3261,
      "▁employed": 3262,
      "razil": 3263,
      "worldbank.org/": 3264,
      "_industry_in_India": 3265,
      "ymbol": 3266,
      "IFT": 3267,
      "ofker": 3268,
      "▁Society": 3269,
      "olnar": 3270,
      "_Commission": 3271,
      "harmaceutical": 3272,
      "Tarlo199": 3273,
      "britannica.com/": 3274,
      "gramme": 3275,
      "leshow/": 3276,
      "runei": 3277,
      "ingapore": 3278,
      "](https://books.google.com/books?id=3TRtDwAAQBAJ&pg=PA": 3279,
      "acmillan": 3280,
      "▁./Category:Articles\\_": 3281,
      "censusindia.gov.in/2011": 3282,
      "-of": 3283,
      "-ex": 3284,
      "-world": 3285,
      "-on-": 3286,
      "/b": 3287,
      "/t": 3288,
      "/news/": 3289,
      "119": 3290,
      "1-3": 3291,
      "139": 3292,
      "3]](https://en.wikipedia.org/wiki/India#cite_note-": 3293,
      "338": 3294,
      "5-3": 3295,
      "8).": 3296,
      "Ag": 3297,
      "Countries": 3298,
      "OV": 3299,
      "QAAQBAJ&pg=PA": 3300,
      "SE": 3301,
      "Urdu": 3302,
      "Wright": 3303,
      "\\_in": 3304,
      "_17": 3305,
      "_Union": 3306,
      "bn": 3307,
      "cise": 3308,
      "cms": 3309,
      "detail": 3310,
      "dynasty": 3311,
      "eag": 3312,
      "i)": 3313,
      "ield": 3314,
      "lm": 3315,
      "ls": 3316,
      "mall": 3317,
      "ren": 3318,
      "rian": 3319,
      "round": 3320,
      "rban": 3321,
      "tou": 3322,
      "tate": 3323,
      "tandard": 3324,
      "u,": 3325,
      "ui": 3326,
      "uries": 3327,
      "uthor": 3328,
      "va": 3329,
      "wan": 3330,
      "orpor": 3331,
      "enj": 3332,
      "enous": 3333,
      "](Special:EditPage/Template:": 3334,
      "in-": 3335,
      "▁[n": 3336,
      "▁[Th": 3337,
      "Intelligence": 3338,
      "temp": 3339,
      "tered": 3340,
      "▁\"Special:EditPage/Template:": 3341,
      "tival": 3342,
      "alk:": 3343,
      "reen": 3344,
      "andoor": 3345,
      "ominal": 3346,
      "aste-": 3347,
      "asthan": 3348,
      "rior": 3349,
      "▁inv": 3350,
      "▁inte": 3351,
      "icha": 3352,
      "raman": 3353,
      "▁sev": 3354,
      "▁prac": 3355,
      "itar": 3356,
      "id-": 3357,
      "▁(2007": 3358,
      "▁Ad": 3359,
      "▁Agency": 3360,
      "▁constitution": 3361,
      "▁fes": 3362,
      "atal": 3363,
      "▁talk:": 3364,
      "▁mon": 3365,
      "▁member": 3366,
      "▁millennium": 3367,
      "▁Col": 3368,
      "789": 3369,
      "▁we": 3370,
      "▁Prin": 3371,
      "](https://en.wikipedia.org/wiki/India#cite_ref-vatsyayan-lord_432": 3372,
      "igenous": 3373,
      "-1\").\n": 3374,
      "▁division": 3375,
      "▁different": 3376,
      "rowing": 3377,
      "rocod": 3378,
      "▁lim": 3379,
      "▁last": 3380,
      "emi": 3381,
      "▁Ro": 3382,
      "▁Man": 3383,
      "▁Minister": 3384,
      "▁Muslim": 3385,
      "tical_": 3386,
      "▁[↑](https://en.wikipedia.org/wiki/India#cite_ref-2": 3387,
      "▁2014.": 3388,
      "▁2014](https://en.wikipedia.org/wiki/India#CITEREF": 3389,
      "▁Emer": 3390,
      "_of_South_Asia": 3391,
      "lymp": 3392,
      "log": 3393,
      "tual": 3394,
      "▁Nations": 3395,
      "▁Government": 3396,
      "▁Ganges": 3397,
      "bert": 3398,
      "▁east": 3399,
      "1992": 3400,
      "1999": 3401,
      "▁though": 3402,
      "akers": 3403,
      "▁numbers": 3404,
      "eport": 3405,
      "ody": 3406,
      "▁Trade": 3407,
      "iverse": 3408,
      "▁\"Central": 3409,
      "▁\"Climate": 3410,
      "osa": 3411,
      "▁39": 3412,
      "▁forest": 3413,
      "▁Francis": 3414,
      "](https://en.wikipedia.org/wiki/China": 3415,
      "▁[China": 3416,
      "▁\"Ministry": 3417,
      "▁2026": 3418,
      "▁2025.\n": 3419,
      "▁Ocean": 3420,
      "](https://en.wikipedia.org/wiki/Ministry_of_": 3421,
      "▁2003](https://en.wikipedia.org/wiki/India#CITEREF": 3422,
      "ourism": 3423,
      "-9\").\n": 3424,
      "lief": 3425,
      "40px-": 3426,
      "▁become": 3427,
      "▁before": 3428,
      "▁status": 3429,
      "a_M": 3430,
      "orea": 3431,
      "ternational": 3432,
      "_and_d": 3433,
      "iance": 3434,
      "emplate_": 3435,
      "▁\"Template": 3436,
      "▁ancient": 3437,
      "undarb": 3438,
      "ites": 3439,
      "▁\"Delhi": 3440,
      "](https://en.wikipedia.org/wiki/Delhi": 3441,
      "](https://en.wikipedia.org/wiki/Template_": 3442,
      "olitical_": 3443,
      "▁area": 3444,
      "athan": 3445,
      "▁Vedic": 3446,
      "▁\"Routledge": 3447,
      "](https://en.wikipedia.org/wiki/Routledge": 3448,
      "▁[New": 3449,
      "▁[Routledge": 3450,
      "acred": 3451,
      "%2C_": 3452,
      "▁[History": 3453,
      "▁[Tamil": 3454,
      "angetic": 3455,
      "igned": 3456,
      "▁tea": 3457,
      "▁centuries": 3458,
      "▁now": 3459,
      "_Economic": 3460,
      "onstitution_of_India": 3461,
      "▁2011](https://en.wikipedia.org/wiki/India#CITEREF": 3462,
      "▁leg": 3463,
      "▁contin": 3464,
      "_dance": 3465,
      "limate_": 3466,
      "▁US$": 3467,
      "▁independence": 3468,
      "▁[Fisher": 3469,
      "on-Al": 3470,
      "▁Indo-": 3471,
      "▁(2017).": 3472,
      "▁plain": 3473,
      "_Lank": 3474,
      "talk:": 3475,
      "alace": 3476,
      "▁known": 3477,
      "▁upper": 3478,
      "rotected": 3479,
      "▁refor": 3480,
      "▁Act,": 3481,
      "▁milk": 3482,
      "▁military": 3483,
      "Fisher2018),": 3484,
      "bi.n": 3485,
      "ncyclopedia": 3486,
      "▁[t](https://en.wikipedia.org/wiki/Template_": 3487,
      "arvard": 3488,
      "ritsar": 3489,
      "▁2018](https://en.wikipedia.org/wiki/India#CITEREFFisher2018),": 3490,
      "▁republic": 3491,
      "▁Conservation": 3492,
      "religion": 3493,
      "ibetan": 3494,
      "▁appro": 3495,
      "forcement": 3496,
      "_and_Development": 3497,
      "▁India](https://en.wikipedia.org/wiki/Government_of_India": 3498,
      "▁[v](Template:": 3499,
      "entral_": 3500,
      "▁widely": 3501,
      "▁addition": 3502,
      "struction": 3503,
      "▁[e](Special:EditPage/Template:": 3504,
      "lothing": 3505,
      "▁Games\")": 3506,
      "▁earli": 3507,
      "hmedabad": 3508,
      "ncbi.n": 3509,
      "▁engineering": 3510,
      "▁village": 3511,
      ".nih": 3512,
      "omestic": 3513,
      "first": 3514,
      "Wright2010": 3515,
      "lm.nih": 3516,
      "touch": 3517,
      "ichael": 3518,
      "▁(2007).": 3519,
      "▁[China](https://en.wikipedia.org/wiki/China": 3520,
      "undarbans": 3521,
      "▁\"Routledge\").": 3522,
      "▁[Routledge](https://en.wikipedia.org/wiki/Routledge": 3523,
      "on-Aligned": 3524,
      "▁[t](https://en.wikipedia.org/wiki/Template_talk:": 3525,
      "ncbi.nlm.nih": 3526,
      ")[": 3527,
      ")\"),": 3528,
      "*](https://": 3529,
      "-th": 3530,
      "/M": 3531,
      "152": 3532,
      "2%": 3533,
      "2/": 3534,
      "212": 3535,
      "2nd": 3536,
      "3-1": 3537,
      "5_": 3538,
      "75": 3539,
      "8]](https://en.wikipedia.org/wiki/India#cite_note-FOOTNOTE": 3540,
      "94": 3541,
      "David": 3542,
      "Environment": 3543,
      "IJ": 3544,
      "MAAJ": 3545,
      "New": 3546,
      "RL": 3547,
      "SN": 3548,
      "Vu": 3549,
      "ZVu": 3550,
      "_v": 3551,
      "_201": 3552,
      "_36": 3553,
      "_to": 3554,
      "a/": 3555,
      "aid": 3556,
      "bc": 3557,
      "bar": 3558,
      "ctive": 3559,
      "eu": 3560,
      "equality": 3561,
      "government": 3562,
      "ira": 3563,
      "ji": 3564,
      "kZVu": 3565,
      "las": 3566,
      "mon": 3567,
      "mil": 3568,
      "more": 3569,
      "oz": 3570,
      "rof": 3571,
      "s:": 3572,
      "ten": 3573,
      "tain": 3574,
      "xim": 3575,
      "–19": 3576,
      "▁er": 3577,
      "▁op": 3578,
      "▁ve": 3579,
      "▁United": 3580,
      "▁education": 3581,
      "orce": 3582,
      "ene": 3583,
      "enins": 3584,
      "](http://": 3585,
      "inan": 3586,
      "anada": 3587,
      "pedia:": 3588,
      "Informatics": 3589,
      "](https://en.wikipedia.org/wiki/19": 3590,
      "](https://en.wikipedia.org/wiki/Indus": 3591,
      "erm": 3592,
      "▁\"19": 3593,
      "▁\"Indus": 3594,
      "tices": 3595,
      "till": 3596,
      "alisation": 3597,
      "alwar": 3598,
      "arsh": 3599,
      "arrow": 3600,
      "es,": 3601,
      "20)": 3602,
      "ising": 3603,
      "isted": 3604,
      "reed": 3605,
      "reater": 3606,
      "▁often": 3607,
      "ashi": 3608,
      "▁India*.": 3609,
      "▁inter": 3610,
      "ick": 3611,
      "ico": 3612,
      "lex": 3613,
      "rak": 3614,
      "▁su": 3615,
      "▁set": 3616,
      "itch": 3617,
      "▁(2014": 3618,
      "▁can": 3619,
      "▁fig": 3620,
      "▁feat": 3621,
      "inguis": 3622,
      "not": 3623,
      "▁trade": 3624,
      "▁men": 3625,
      "▁middle": 3626,
      "▁market": 3627,
      "▁Chinese": 3628,
      "ad-": 3629,
      "adwe": 3630,
      "adakh": 3631,
      "agen": 3632,
      "ilbert": 3633,
      "elf": 3634,
      "-138": 3635,
      "-135": 3636,
      "ISO": 3637,
      "rove": 3638,
      "emen": 3639,
      "▁Region": 3640,
      "fied": 3641,
      "▁Mah": 3642,
      "unleav": 3643,
      "▁top": 3644,
      "comp": 3645,
      "▁he": 3646,
      "▁Be": 3647,
      "even": 3648,
      "102": 3649,
      "_in_the": 3650,
      "ayashi": 3651,
      "▁Dictionary": 3652,
      "▁Economy": 3653,
      "▁Nuclear": 3654,
      "bercul": 3655,
      "▁early": 3656,
      "ogn": 3657,
      "▁Health": 3658,
      "▁Hindus": 3659,
      "_Agency": 3660,
      "ldlife": 3661,
      "]](https://en.wikipedia.org/wiki/India#cite_note-FOOTNOTESpear199024": 3662,
      "abel": 3663,
      "ables": 3664,
      "ablish": 3665,
      ".[[10": 3666,
      "ode": 3667,
      "ishes": 3668,
      "ishers": 3669,
      "▁\"Chin": 3670,
      "osis": 3671,
      "osition": 3672,
      "AAMAAJ": 3673,
      "129": 3674,
      "▁Indians": 3675,
      "▁[Craven": 3676,
      "▁[SAARC": 3677,
      "-8\").\n": 3678,
      "▁2023": 3679,
      "16]](https://en.wikipedia.org/wiki/India#cite_note-": 3680,
      "▁On": 3681,
      "240": 3682,
      "▁2008](https://en.wikipedia.org/wiki/India#CITEREF": 3683,
      "▁Wiley": 3684,
      "ender": 3685,
      "ajasthan": 3686,
      "▁whose": 3687,
      "▁Law": 3688,
      "alls": 3689,
      "allav": 3690,
      "a_dynasty": 3691,
      "▁[\"The": 3692,
      "_and_union_territ": 3693,
      "haw": 3694,
      "latt": 3695,
      "lace": 3696,
      "ians": 3697,
      "▁[Pakistan": 3698,
      "lated": 3699,
      "rupee": 3700,
      "ommaraj": 3701,
      "▁\"Tamil": 3702,
      "▁vi": 3703,
      "ublishers": 3704,
      "253": 3705,
      "▁V.": 3706,
      "▁[Delhi": 3707,
      "oped": 3708,
      "ights": 3709,
      "_Gandhi": 3710,
      "▁rise": 3711,
      "▁rural": 3712,
      "34)": 3713,
      "%2C_India": 3714,
      "](https://upload.wikimedia.org/wikipedia/commons/thumb/8/": 3715,
      ".gov.in": 3716,
      ".gov.in/": 3717,
      "que": 3718,
      "▁central": 3719,
      "containing": 3720,
      "▁rights": 3721,
      "atis": 3722,
      "orkee": 3723,
      "ational_P": 3724,
      "arlung": 3725,
      "ohenj": 3726,
      "2014-p": 3727,
      "_Fund": 3728,
      "▁News": 3729,
      "▁consum": 3730,
      "raditional": 3731,
      "attle": 3732,
      "▁soci": 3733,
      "▁Shankar": 3734,
      "ize": 3735,
      "▁[Archived](https://web.archive.org/web/20210": 3736,
      "▁century,": 3737,
      "▁rupee": 3738,
      "ropped": 3739,
      "/articleshow/": 3740,
      "son2014-p": 3741,
      "1–12": 3742,
      "with\\_": 3743,
      "▁speakers": 3744,
      "akshadwe": 3745,
      "ronz": 3746,
      "▁even": 3747,
      "▁include": 3748,
      "ecutive": 3749,
      "actbook": 3750,
      "riage": 3751,
      "leges": 3752,
      "_War": 3753,
      "athakali": 3754,
      "▁cities": 3755,
      "▁mathematics": 3756,
      "▁Africa": 3757,
      "ilgrim": 3758,
      "/files": 3759,
      "lectri": 3760,
      "lackb": 3761,
      "union_territory": 3762,
      "Ludden2014": 3763,
      "anorama": 3764,
      "^": 3765,
      "·": 3766,
      "è": 3767,
      "ñ": 3768,
      "ం": 3769,
      "ః": 3770,
      "అ": 3771,
      "ఆ": 3772,
      "ఇ": 3773,
      "ఈ": 3774,
      "ఉ": 3775,
      "ఋ": 3776,
      "ఎ": 3777,
      "ఏ": 3778,
      "ఐ": 3779,
      "ఒ": 3780,
      "ఓ": 3781,
      "ఔ": 3782,
      "క": 3783,
      "ఖ": 3784,
      "గ": 3785,
      "ఘ": 3786,
      "చ": 3787,
      "ఛ": 3788,
      "జ": 3789,
      "ఞ": 3790,
      "ట": 3791,
      "ఠ": 3792,
      "డ": 3793,
      "ఢ": 3794,
      "ణ": 3795,
      "త": 3796,
      "థ": 3797,
      "ద": 3798,
      "ధ": 3799,
      "న": 3800,
      "ప": 3801,
      "ఫ": 3802,
      "బ": 3803,
      "భ": 3804,
      "మ": 3805,
      "య": 3806,
      "ర": 3807,
      "ల": 3808,
      "ళ": 3809,
      "వ": 3810,
      "శ": 3811,
      "ష": 3812,
      "స": 3813,
      "హ": 3814,
      "ా": 3815,
      "ి": 3816,
      "ీ": 3817,
      "ు": 3818,
      "ూ": 3819,
      "ృ": 3820,
      "ె": 3821,
      "ే": 3822,
      "ై": 3823,
      "ొ": 3824,
      "ో": 3825,
      "ౌ": 3826,
      "్": 3827,
      "‌": 3828,
      "‹": 3829,
      "›": 3830,
      "tp": 3831,
      "http": 3832,
      "](http": 3833,
      "ia.": 3834,
      "s://": 3835,
      "్ర": 3836,
      "org/": 3837,
      "ia.org/": 3838,
      "ia.org/wiki": 3839,
      "te.wiki": 3840,
      "](https://te.wiki": 3841,
      "pedia.org/wiki": 3842,
      "](https://te.wikipedia.org/wiki": 3843,
      "](https://te.wikipedia.org/wiki/": 3844,
      "ార": 3845,
      "ాల": 3846,
      "్య": 3847,
      "భార": 3848,
      "భారత": 3849,
      "దే": 3850,
      "దేశ": 3851,
      "స్": 3852,
      "▁ప": 3853,
      "సా": 3854,
      "ర్": 3855,
      "న్": 3856,
      "లు": 3857,
      "రా": 3858,
      "భారతదేశ": 3859,
      ".శ": 3860,
      ".శ.": 3861,
      "లో": 3862,
      "సా.శ.": 3863,
      "▁క": 3864,
      "త్ర": 3865,
      "ాలు": 3866,
      "రి": 3867,
      "క్": 3868,
      "ంద": 3869,
      "▁వ": 3870,
      "ని": 3871,
      "ల్": 3872,
      "భారతదేశం": 3873,
      "ంగ": 3874,
      "▁స": 3875,
      "▁మ": 3876,
      "▁ప్ర": 3877,
      "ీయ": 3878,
      "ండ": 3879,
      "జ్య": 3880,
      "▁చ": 3881,
      "=1": 3882,
      "ి.": 3883,
      "link": 3884,
      "?ac": 3885,
      "tion=": 3886,
      "?action=": 3887,
      "&red": 3888,
      "edit": 3889,
      "link=1": 3890,
      "?action=edit": 3891,
      "&redlink=1": 3892,
      "?action=edit&redlink=1": 3893,
      "తా": 3894,
      "ము": 3895,
      "నా": 3896,
      "్ట": 3897,
      "తి": 3898,
      "సి": 3899,
      "త్": 3900,
      "▁(సా.శ.": 3901,
      "యా": 3902,
      "ులు": 3903,
      "▁రా": 3904,
      "–సా.శ.": 3905,
      "్రా": 3906,
      "▁అ": 3907,
      "ిక": 3908,
      "తం": 3909,
      "ిన": 3910,
      "జ్యం": 3911,
      "జా": 3912,
      "ంచ": 3913,
      "కు": 3914,
      "](https://te.wikipedia.org/wiki/భారతదేశం": 3915,
      "ను": 3916,
      "పూ": 3917,
      "·**": 3918,
      "▁**·**": 3919,
      "భా": 3920,
      "co": 3921,
      "ద్": 3922,
      "ింద": 3923,
      "▁ఉ": 3924,
      "ం:": 3925,
      "▁ఆ": 3926,
      "ప్ర": 3927,
      "▁ర": 3928,
      "మా": 3929,
      "▁సా": 3930,
      "భారతీయ": 3931,
      "వా": 3932,
      "రు": 3933,
      "ష్ట": 3934,
      "ార్": 3935,
      "పూ.": 3936,
      "వి": 3937,
      "క్ష": 3938,
      "స్థ": 3939,
      "రిత్ర": 3940,
      "](https://te.wikipedia.org/wiki/భారతదేశం#": 3941,
      "న్న": 3942,
      "ాం": 3943,
      "jp": 3944,
      "](https://te.wikipedia.org/wiki/భారతదేశం#cite_": 3945,
      "కి": 3946,
      ".jp": 3947,
      "ంట": 3948,
      "మ్రా": 3949,
      "ష్ట్ర": 3950,
      "పు": 3951,
      "▁న": 3952,
      "▁త": 3953,
      "మి": 3954,
      "ాన": 3955,
      "ాయ": 3956,
      "▁ఇ": 3957,
      "భాష": 3958,
      "▁దేశ": 3959,
      "tr": 3960,
      "పాల": 3961,
      "లీ": 3962,
      "స్తా": 3963,
      "వర్": 3964,
      "పా": 3965,
      "–సా.శ.1": 3966,
      "మ్రాజ్యం": 3967,
      "▁గ": 3968,
      "దేశ్": 3969,
      "ం](https://te.wikipedia.org/wiki/": 3970,
      "ం\")": 3971,
      "టి": 3972,
      "తీయ": 3973,
      "ంలో": 3974,
      "స్తాన్": 3975,
      "డు": 3976,
      "నే": 3977,
      "్చ": 3978,
      "▁(సా.శ.1": 3979,
      "గా": 3980,
      "మూ": 3981,
      "▁జ": 3982,
      "్రీ": 3983,
      "ంబ": 3984,
      "ంగా": 3985,
      "డ్": 3986,
      "ిల్": 3987,
      "gu": 3988,
      "లి": 3989,
      "స్త్ర": 3990,
      "▁వి": 3991,
      "కా": 3992,
      "ణా": 3993,
      "దక్ష": 3994,
      "ధిక": 3995,
      "▁భారతదేశం": 3996,
      "సియా": 3997,
      "జాతీయ": 3998,
      "ింది.": 3999,
      "గు": 4000,
      "▁సం": 4001,
      "▁చరిత్ర": 4002,
      "డి": 4003,
      "తర": 4004,
      "లా": 4005,
      "వం": 4006,
      "▁రాజ్యం": 4007,
      "▁సామ్రాజ్యం": 4008,
      "వర్గ": 4009,
      "దక్షి": 4010,
      "దీ": 4011,
      "▁బ": 4012,
      "స్త": 4013,
      "ండి": 4014,
      "వర్గం:": 4015,
      "b/": 4016,
      "ట్": 4017,
      "ిత": 4018,
      "▁[మ": 4019,
      "_చ": 4020,
      "ది": 4021,
      "▁\"మ": 4022,
      "ంది.": 4023,
      "▁ఎ": 4024,
      "▁(సా.శ.పూ.": 4025,
      "--": 4026,
      "ధ్య": 4027,
      "▁శ": 4028,
      "ంద్ర": 4029,
      "f-": 4030,
      "ైన": 4031,
      "](https://te.wikipedia.org/wiki/మ": 4032,
      "▁పే": 4033,
      "note": 4034,
      "ట్ట": 4035,
      "హింద": 4036,
      "ంగ్": 4037,
      "ద్ధ": 4038,
      "ించ": 4039,
      "▁ఒ": 4040,
      "▁భాష": 4041,
      "▁[క": 4042,
      "ాల్": 4043,
      "]](https://te.wikipedia.org/wiki/భారతదేశం#cite_": 4044,
      "చ్చ": 4045,
      "జీ": 4046,
      "ేంద్ర": 4047,
      "▁\"క": 4048,
      "ref-": 4049,
      "](https://te.wikipedia.org/wiki/భారతదేశం#cite_ref-": 4050,
      "]](https://te.wikipedia.org/wiki/భారతదేశం#cite_note-": 4051,
      "/వర్గం:": 4052,
      "ంత": 4053,
      "త్య": 4054,
      "బ్": 4055,
      "మీ": 4056,
      "](https://te.wikipedia.org/wiki/ద": 4057,
      "్యా": 4058,
      "రాష్ట్ర": 4059,
      "▁ప్రాం": 4060,
      "▁Category": 4061,
      "▁./వర్గం:": 4062,
      "lan": 4063,
      "ంక": 4064,
      "ప్": 4065,
      "యు": 4066,
      "తంత్ర": 4067,
      "untr": 4068,
      "దక్షిణ": 4069,
      "_స": 4070,
      "తము": 4071,
      "ష్": 4072,
      "ాన్": 4073,
      "స్క": 4074,
      "ాలు,": 4075,
      "ిల్లీ": 4076,
      "0)": 4077,
      "జి": 4078,
      "ధాన": 4079,
      "బె": 4080,
      "వే": 4081,
      "ారు": 4082,
      "▁రాజ": 4083,
      "De": 4084,
      "దు": 4085,
      "మ్": 4086,
      "శ్": 4087,
      "](https://te.wikipedia.org/wiki/క": 4088,
      "▁కా": 4089,
      "_చరిత్ర": 4090,
      "_క": 4091,
      "ంధ": 4092,
      "ఢిల్లీ": 4093,
      "పంచ": 4094,
      "ారి": 4095,
      "్యవ": 4096,
      "countr": 4097,
      "మూస": 4098,
      "med": 4099,
      "వు": 4100,
      "▁\"భారతీయ": 4101,
      "de": 4102,
      "w.": 4103,
      "జన": 4104,
      "టు": 4105,
      "టె": 4106,
      "▁చె": 4107,
      "నాయ": 4108,
      "–సా.శ.పూ.": 4109,
      "▁ఆర్": 4110,
      "పాలిత": 4111,
      "స్త్రం:": 4112,
      "india.": 4113,
      "ేంద్రపాలిత": 4114,
      "](https://te.wikipedia.org/wiki/దస్త్రం:": 4115,
      "langu": 4116,
      "_ప": 4117,
      "mpl": 4118,
      "ఖ్య": 4119,
      "గో": 4120,
      "తో": 4121,
      "బి": 4122,
      "హి": 4123,
      "స్కృ": 4124,
      "/com": 4125,
      "హా": 4126,
      "▁ను": 4127,
      "▁జాతీయ": 4128,
      "](https://up": 4129,
      ".wikimed": 4130,
      "ia.org/wikipedia": 4131,
      "▁చరిత్ర\")": 4132,
      "%20%20": 4133,
      "mons/": 4134,
      "్యవస్థ": 4135,
      "/commons/": 4136,
      "](https://upload": 4137,
      ".wikimedia.org/wikipedia": 4138,
      "](https://upload.wikimedia.org/wikipedia": 4139,
      "](https://upload.wikimedia.org/wikipedia/commons/": 4140,
      ")](https://te.wikipedia.org/wiki/దస్త్రం:": 4141,
      "mes": 4142,
      "s_": 4143,
      "డా": 4144,
      "దా": 4145,
      "బడ": 4146,
      "మే": 4147,
      "▁భారత": 4148,
      "▁లో": 4149,
      "▁కూ": 4150,
      "thum": 4151,
      "▁రాష్ట్ర": 4152,
      "కిస్తాన్": 4153,
      "](https://upload.wikimedia.org/wikipedia/commons/thum": 4154,
      "by": 4155,
      "రణ": 4156,
      "▁ఈ": 4157,
      "▁[అ": 4158,
      "త్రి": 4159,
      "ాలు](https://te.wikipedia.org/wiki/": 4160,
      "ాలు\")": 4161,
      "▁ప్రాంత": 4162,
      "తు": 4163,
      "పతి": 4164,
      "↑](https://te.wikipedia.org/wiki/భారతదేశం#cite_ref-": 4165,
      "▁స్": 4166,
      "▁ని": 4167,
      "▁స్థ": 4168,
      "్రి": 4169,
      "▁[ప": 4170,
      "▁[↑](https://te.wikipedia.org/wiki/భారతదేశం#cite_ref-": 4171,
      "▁\"భారతదేశం": 4172,
      "ర్వ": 4173,
      "న్ని": 4174,
      "మిళ": 4175,
      "వంశ": 4176,
      "gov.in": 4177,
      "_మ": 4178,
      "_భాష": 4179,
      "ఫ్": 4180,
      "ర్య": 4181,
      "▁ల": 4182,
      "▁[బ": 4183,
      "▁[స": 4184,
      "▁\"అ": 4185,
      "న్నాయ": 4186,
      "▁కాల": 4187,
      "ులు](https://te.wikipedia.org/wiki/": 4188,
      "err": 4189,
      "▁రై": 4190,
      "హిందూ": 4191,
      "ఆసియా": 4192,
      "ద్ర": 4193,
      "భూ": 4194,
      "మె": 4195,
      "య్య": 4196,
      "▁\"ప": 4197,
      "▁\"బ": 4198,
      "▁\"స": 4199,
      "▁ప్రదేశ్": 4200,
      "త్త": 4201,
      "▁అధిక": 4202,
      "ప్రదేశ్": 4203,
      ".jpg)\n": 4204,
      ".jpg)](https://te.wikipedia.org/wiki/దస్త్రం:": 4205,
      "▁నుండి": 4206,
      "న్నాయి.": 4207,
      "120": 4208,
      "National": 4209,
      "ణి": 4210,
      "తమిళ": 4211,
      "ధీ": 4212,
      "మైన": 4213,
      "హార": 4214,
      "ోర్": 4215,
      "](https://te.wikipedia.org/wiki/బ": 4216,
      "▁\"ఇ": 4217,
      "▁\"భారత": 4218,
      "▁మొ": 4219,
      "నాగ": 4220,
      "త్తర": 4221,
      "ులు\")": 4222,
      "శ్మీ": 4223,
      "మూస:": 4224,
      "e_": 4225,
      "శా": 4226,
      "ైనా": 4227,
      "](https://te.wikipedia.org/wiki/ఇ": 4228,
      "](https://te.wikipedia.org/wiki/స": 4229,
      "▁[ఇ": 4230,
      "▁\"జ": 4231,
      "భారత_": 4232,
      "రాజ": 4233,
      "లో](https://te.wikipedia.org/wiki/": 4234,
      "రిజ": 4235,
      "క్కు": 4236,
      "ండ్": 4237,
      "స్కృతి": 4238,
      "error": 4239,
      "GDP": 4240,
      "Re": 4241,
      "_సా": 4242,
      "ం?action=edit&redlink=1": 4243,
      "చే": 4244,
      "▁[జ": 4245,
      "▁పా": 4246,
      "▁వా": 4247,
      "ండు": 4248,
      "▁చూ": 4249,
      "త్వ": 4250,
      "▁తే": 4251,
      "120px-": 4252,
      "01": 4253,
      "ంప": 4254,
      "కో": 4255,
      "గణ": 4256,
      "దిన": 4257,
      "నై": 4258,
      "రీ": 4259,
      "](https://te.wikipedia.org/wiki/జ": 4260,
      "▁[చ": 4261,
      "▁[భారతీయ": 4262,
      "▁\"చ": 4263,
      "ారం": 4264,
      "▁క్రీ": 4265,
      "క్‌": 4266,
      "నికి": 4267,
      "ల్ల": 4268,
      "ంగీ": 4269,
      "▁సి": 4270,
      "నాభా": 4271,
      "జాబి": 4272,
      "▁శా": 4273,
      "▁భాష\")": 4274,
      "బెంగ": 4275,
      "mplate": 4276,
      "జాబితా": 4277,
      "0%": 4278,
      "fn": 4279,
      "చల్": 4280,
      "యన్": 4281,
      "షు": 4282,
      "ూర్": 4283,
      "](https://te.wikipedia.org/wiki/ప": 4284,
      "](https://te.wikipedia.org/wiki/భారతీయ": 4285,
      "▁[భారత": 4286,
      "ార్ట": 4287,
      "ాలయ": 4288,
      "క్క": 4289,
      "▁వ్యవస్థ": 4290,
      "▁ము": 4291,
      "ండో": 4292,
      "ముంబ": 4293,
      "సిన": 4294,
      "ినల్": 4295,
      "ద్ద": 4296,
      "▁ఉన్న": 4297,
      "▁ఉంది.": 4298,
      "పాకిస్తాన్": 4299,
      "ticles": 4300,
      "▁ఒక": 4301,
      "▁ఒరిజ": 4302,
      "ulation": 4303,
      "వంశం": 4304,
      "▁తేదీ": 4305,
      "ార్టీ": 4306,
      "▁ఒరిజినల్": 4307,
      "con": 4308,
      "జ్": 4309,
      "బా": 4310,
      "వరి": 4311,
      "శ్చ": 4312,
      "ిన్న": 4313,
      "ెల": 4314,
      "్రె": 4315,
      "▁\"భారతదేశ": 4316,
      "\"):": 4317,
      "ాలు\n": 4318,
      "నిస్తాన్": 4319,
      "▁మధ్య": 4320,
      "▁ప్రధాన": 4321,
      "es/": 4322,
      "](https://te.wikipedia.org/wiki/భారతదేశంలో": 4323,
      "▁ఉన్నాయి.": 4324,
      "స్థాన్": 4325,
      "India_": 4326,
      "▁పేజీ": 4327,
      "మ్మూ": 4328,
      "▁\"భారతదేశంలో": 4329,
      "▁చూసిన": 4330,
      "▁తేదీ:": 4331,
      "శ్చి": 4332,
      "▁పేజీని": 4333,
      ".archive": 4334,
      "/http": 4335,
      "షన్": 4336,
      "హ్": 4337,
      "ెలు": 4338,
      "▁భారతదేశ": 4339,
      "▁De": 4340,
      "](https://te.wikipedia.org/wiki/అ": 4341,
      "▁పరి": 4342,
      "రియా": 4343,
      "▁మార్": 4344,
      "\\_with": 4345,
      "ాయి": 4346,
      "▁సంస్కృతి": 4347,
      "దీవ": 4348,
      "బడింది.": 4349,
      ".org/web/": 4350,
      ".jpg/120px-": 4351,
      "errors": 4352,
      "web.archive": 4353,
      "\\_with\\_": 4354,
      "web.archive.org/web/": 4355,
      "Harv": 4356,
      "_వ": 4357,
      "ం\"),": 4358,
      "ంత్రి": 4359,
      "ఆఫ్": 4360,
      "కై": 4361,
      "క్య": 4362,
      "దాయ": 4363,
      "రే": 4364,
      "లంక": 4365,
      "వీ": 4366,
      "శ్రీ": 4367,
      "షి": 4368,
      "సు": 4369,
      "▁ఏ": 4370,
      "](https://te.wikipedia.org/wiki/చ": 4371,
      "▁[సి": 4372,
      "▁\"ప్ర": 4373,
      "స్సా": 4374,
      "▁పార్టీ": 4375,
      "న్‌": 4376,
      "▁కు": 4377,
      "▁వచ్చ": 4378,
      "ముద్ర": 4379,
      "ాంధీ": 4380,
      "నేపాల": 4381,
      "▁పేరు": 4382,
      "హిందీ": 4383,
      "▁చెయ్య": 4384,
      "▁కూడా": 4385,
      "ంగీతం": 4386,
      "ముంబై": 4387,
      "శ్చిమ": 4388,
      "▁మార్గ": 4389,
      "300": 4390,
      "Ti": 4391,
      "do": 4392,
      "uth": 4393,
      "గర": 4394,
      "టక": 4395,
      "టా": 4396,
      "దార": 4397,
      "నీ": 4398,
      "రో": 4399,
      "సభ": 4400,
      "ెద్ద": 4401,
      "](https://te.wikipedia.org/wiki/భారత_": 4402,
      "▁\"సి": 4403,
      "▁పు": 4404,
      "లు\")": 4405,
      "రాజ్య": 4406,
      "▁కొ": 4407,
      "▁కేంద్రపాలిత": 4408,
      "▁మా": 4409,
      "▁ప్రా": 4410,
      "▁చే": 4411,
      "thno": 4412,
      "ము\")": 4413,
      "త్స": 4414,
      "▁రాజ్య": 4415,
      "వాతంత్ర": 4416,
      "▁దేశాల": 4417,
      "లాదేశ్": 4418,
      "▁సామ్రాజ్యం](https://te.wikipedia.org/wiki/": 4419,
      "స్తు": 4420,
      "ంగ్లాదేశ్": 4421,
      "iginal": 4422,
      "](http://www.": 4423,
      "ారు.": 4424,
      "_ప్రా": 4425,
      "్రిటి": 4426,
      "▁అధికార": 4427,
      "ూర్పు": 4428,
      "కైవు": 4429,
      "▁చెయ్యబడింది.": 4430,
      "Te": 4431,
      "ం,": 4432,
      "ంజా": 4433,
      "గి": 4434,
      "టీ": 4435,
      "టాన్": 4436,
      "ది.": 4437,
      "మంత్రి": 4438,
      "లను": 4439,
      "వె": 4440,
      "వరణ": 4441,
      "హదార": 4442,
      "ూచ": 4443,
      "ూప": 4444,
      "▁హ": 4445,
      "▁Re": 4446,
      "్రమ": 4447,
      "భారతదేశ_": 4448,
      "రిక": 4449,
      "▁వ్యా": 4450,
      "▁మత": 4451,
      "▁మతము": 4452,
      "▁ప్రపంచ": 4453,
      "తావరణ": 4454,
      "arget": 4455,
      "నాడు": 4456,
      "▁ఇతర": 4457,
      "ణాసియా": 4458,
      "▁భారతదేశంలో": 4459,
      "and_": 4460,
      "టెడ్": 4461,
      "▁ఆర్కైవు": 4462,
      "▁రైలు": 4463,
      "భూటాన్": 4464,
      "_సామ్రాజ్యం": 4465,
      "వాతంత్ర్య": 4466,
      "-language": 4467,
      "_In": 4468,
      "dia.": 4469,
      "lig": 4470,
      "ఆర్": 4471,
      "ఉత్తర": 4472,
      "ఒడి": 4473,
      "కీయ": 4474,
      "చు": 4475,
      "జరా": 4476,
      "తూర్పు": 4477,
      "భు": 4478,
      "మన్": 4479,
      "లస": 4480,
      "ేక": 4481,
      "▁డ": 4482,
      "▁జాబితా": 4483,
      "template": 4484,
      "▁[భారతదేశ": 4485,
      "▁పట్ట": 4486,
      "నిక": 4487,
      "ంగ్రె": 4488,
      "▁సభ": 4489,
      "▁ప్రభు": 4490,
      "తాబ్": 4491,
      "articles": 4492,
      "▁**జాతీయ": 4493,
      "▁అయ": 4494,
      "00)": 4495,
      "▁ఆసియా": 4496,
      "మ్రాజ్య": 4497,
      "logu": 4498,
      "▁జనాభా": 4499,
      "గుజరా": 4500,
      "▁సామ్రాజ్యం\")": 4501,
      "త్యేక": 4502,
      "రాష్ట్రపతి": 4503,
      "ప్ప": 4504,
      "ధానమంత్రి": 4505,
      "▁రాజవంశం": 4506,
      "▁కాశ్మీ": 4507,
      "▁చెంద": 4508,
      "▁ఆర్ధిక": 4509,
      "%20%20%20%20": 4510,
      "▁స్థాన": 4511,
      "తమిళనాడు": 4512,
      "గణతంత్ర": 4513,
      "▁క్రీడ": 4514,
      "ఆఫ్ఘ": 4515,
      "శ్రీలంక": 4516,
      "షియా": 4517,
      "న్‌ఫ": 4518,
      "నేపాల్": 4519,
      "thnologu": 4520,
      "తాబ్ద": 4521,
      "St": 4522,
      "San": 4523,
      "_ప్రదేశ్": 4524,
      "par": 4525,
      "pment": 4526,
      "population": 4527,
      "sti": 4528,
      "ఉప": 4529,
      "జె": 4530,
      "ఢ్": 4531,
      "నాల": 4532,
      "లే": 4533,
      "ళు": 4534,
      "ౌద్ధ": 4535,
      "▁భా": 4536,
      "](https://te.wikipedia.org/wiki/ప్ర": 4537,
      "▁[వి": 4538,
      "ాలీ": 4539,
      "ర్చ": 4540,
      "ర్\")": 4541,
      "ాలు?action=edit&redlink=1": 4542,
      "–సా.శ.19": 4543,
      "▁అత్య": 4544,
      "▁రె": 4545,
      "మాఖ్య": 4546,
      "వాణా": 4547,
      "istr": 4548,
      "ాయి.": 4549,
      "▁దేశం": 4550,
      "▁దేశంలో": 4551,
      "lopment": 4552,
      "–సా.శ.18": 4553,
      "▁గల": 4554,
      "డ్డ": 4555,
      "దక్షిణాసియా": 4556,
      "ంగ్లీ": 4557,
      "▁భాషలు": 4558,
      "velopment": 4559,
      "యునై": 4560,
      "ష్ణ": 4561,
      "_చరిత్ర?action=edit&redlink=1": 4562,
      "▁రాష్ట్రాలు,": 4563,
      "_మతము": 4564,
      "ing\\_": 4565,
      "▁మొద": 4566,
      "0%B": 4567,
      "ibr": 4568,
      "thnologue": 4569,
      "stitu": 4570,
      "యునైటెడ్": 4571,
      ".html": 4572,
      "/a": 4573,
      "/మూస:": 4574,
      ":E": 4575,
      "Con": 4576,
      "EF": 4577,
      "ER": 4578,
      "Hind": 4579,
      "Nation": 4580,
      "Page": 4581,
      "Sfn": 4582,
      "_న": 4583,
      "bo": 4584,
      "gr": 4585,
      "కొ": 4586,
      "ఖండ": 4587,
      "గం": 4588,
      "గలు": 4589,
      "టిక": 4590,
      "డే": 4591,
      "ద్య": 4592,
      "మార్": 4593,
      "మాలయ": 4594,
      "లలో": 4595,
      "లకు": 4596,
      "ళ్": 4597,
      "వ](https://te.wikipedia.org/wiki/": 4598,
      "ానికి": 4599,
      "ాళు": 4600,
      "ీర్": 4601,
      "▁భ": 4602,
      "▁యు": 4603,
      "▁\"వి": 4604,
      "ాలో": 4605,
      "▁పాల": 4606,
      "న్\")": 4607,
      "▁కార": 4608,
      "▁కలి": 4609,
      "రిగ": 4610,
      "రిహ": 4611,
      "క్నాల": 4612,
      "▁వం": 4613,
      "▁వంట": 4614,
      "నిమా": 4615,
      "▁సంగీతం": 4616,
      "▁చి": 4617,
      "ులు\"),": 4618,
      "ద్వీ": 4619,
      "▁ఉప": 4620,
      "ప్రదాయ": 4621,
      "న్నడ": 4622,
      "ంటు": 4623,
      "▁ఇది": 4624,
      "కాశ్మీ": 4625,
      "వర్గం:Harv": 4626,
      "ద్ధం": 4627,
      "ద్ధి": 4628,
      "ాల్దీవ": 4629,
      "చ్చే": 4630,
      "▁2014": 4631,
      "▁./వర్గం:W": 4632,
      "_of_countries": 4633,
      "దక్షిణ_": 4634,
      "▁కాంగ్రె": 4635,
      "ంధు": 4636,
      "టెక్నాల": 4637,
      "ేంద్రపాలిత_ప్రా": 4638,
      "హిమాలయ": 4639,
      "s_C": 4640,
      "▁లే": 4641,
      "త్తరా": 4642,
      "నాగరిక": 4643,
      "క్కువ": 4644,
      "List_of_countries": 4645,
      "క్‌సభ": 4646,
      "▁శాస్త్ర": 4647,
      "ెలుగు": 4648,
      "▁వచ్చింది.": 4649,
      "త్యేక:E": 4650,
      "ర్చ:": 4651,
      "EREF": 4652,
      "ITEREF": 4653,
      "Page/మూస:": 4654,
      "_by_": 4655,
      "ditPage/మూస:": 4656,
      "ాళుక్య": 4657,
      "టెక్నాలజీ": 4658,
      "నాగరికత": 4659,
      "త్యేక:EditPage/మూస:": 4660,
      ".పూ.": 4661,
      "74": 4662,
      "IB": 4663,
      "Library": 4664,
      "NGDP": 4665,
      "fo": 4666,
      "gn": 4667,
      "lic": 4668,
      "mis": 4669,
      "sion": 4670,
      "ఆగ": 4671,
      "కళ": 4672,
      "ఖండ్": 4673,
      "గ్": 4674,
      "గఢ్": 4675,
      "జో": 4676,
      "ట్ర": 4677,
      "తెలుగు": 4678,
      "ద్రా": 4679,
      "పద": 4680,
      "భి": 4681,
      "యో": 4682,
      "లక్ష": 4683,
      "వర": 4684,
      "శో": 4685,
      "హు": 4686,
      "హార్": 4687,
      "హాయ": 4688,
      "ాష్ట్ర": 4689,
      "ీక": 4690,
      "ీహార్": 4691,
      "ుల": 4692,
      "ుల్": 4693,
      "ోల్": 4694,
      "ోత్స": 4695,
      "ౌర్య": 4696,
      "్రూ": 4697,
      "](https://te.wikipedia.org/wiki/సి": 4698,
      "▁[హ": 4699,
      "▁\"హ": 4700,
      "▁\"ఢిల్లీ": 4701,
      "ాలా": 4702,
      "ాలలో": 4703,
      "్యం": 4704,
      "స్వ": 4705,
      "ర్ణా": 4706,
      "ర్మే": 4707,
      "లోక్‌సభ": 4708,
      "▁వే": 4709,
      "ండర్": 4710,
      "త్మా": 4711,
      "▁అతి": 4712,
      "ికి": 4713,
      "ద్దు": 4714,
      "▁రహదార": 4715,
      "మాచల్": 4716,
      "▁సామ్రాజ్య": 4717,
      "రువా": 4718,
      "రుణా": 4719,
      "న్నో": 4720,
      "▁తరువా": 4721,
      "మిజో": 4722,
      "▁జరిగ": 4723,
      "▁శతాబ్ద": 4724,
      "ట్టు": 4725,
      "రాష్ట్రాలు,": 4726,
      "వేద": 4727,
      "▁రాజకీయ": 4728,
      "హిమాచల్": 4729,
      "హాత్మా": 4730,
      "▁ప్రాంతాలు": 4731,
      "▁ప్రదేశ్\")": 4732,
      "forma": 4733,
      "హారాష్ట్ర": 4734,
      "శాస్త్ర": 4735,
      "రాజస్థాన్": 4736,
      "▁వాతావరణ": 4737,
      "దినోత్స": 4738,
      "బెంగాలీ": 4739,
      "యన్మార్": 4740,
      "▁ముఖ్య": 4741,
      "pril": 4742,
      "ourc": 4743,
      "imf": 4744,
      "ంజాబ్": 4745,
      "▁వ్యాస": 4746,
      "గుజరాత్": 4747,
      "ఆఫ్ఘనిస్తాన్": 4748,
      "న్‌ఫర్మే": 4749,
      "వ](https://te.wikipedia.org/wiki/List_of_countries": 4750,
      "రిహద్దు": 4751,
      "▁వంశ": 4752,
      "చ్చేరి": 4753,
      "ర్ణాటక": 4754,
      "రుణాచల్": 4755,
      "formatic": 4756,
      "న్‌ఫర్మేషన్": 4757,
      ",NGDP": 4758,
      "1200": 4759,
      "Co": 4760,
      "E0%B": 4761,
      "Ta": 4762,
      "ca": 4763,
      "den": 4764,
      "krit": 4765,
      "minal": 4766,
      "public": 4767,
      "sy": 4768,
      "skrit": 4769,
      "t/": 4770,
      "target": 4771,
      "ంతి": 4772,
      "కాల": 4773,
      "కారం": 4774,
      "ఖ్": 4775,
      "గర్": 4776,
      "గంగా": 4777,
      "టో": 4778,
      "డిన": 4779,
      "తీ": 4780,
      "ధి": 4781,
      "ధించ": 4782,
      "నల్": 4783,
      "మన": 4784,
      "మర": 4785,
      "ర్యా": 4786,
      "లం": 4787,
      "లతో": 4788,
      "లమె": 4789,
      "ీస్": 4790,
      "ూరు": 4791,
      "ెనీ": 4792,
      "ౌక": 4793,
      "▁ద": 4794,
      "▁ఫ": 4795,
      "▁దక్షిణ": 4796,
      "▁హిందూ": 4797,
      "▁[భారతదేశం": 4798,
      "▁[ప్ర": 4799,
      "▁[ఢిల్లీ": 4800,
      "ారస": 4801,
      "ాలను": 4802,
      "స్](https://te.wikipedia.org/wiki/": 4803,
      "స్\")": 4804,
      "▁పెద్ద": 4805,
      "ర్లు": 4806,
      "▁ప్రజ": 4807,
      "\\_articles": 4808,
      "\\_identi": 4809,
      "త్తం": 4810,
      "▁అనే": 4811,
      "తం\")": 4812,
      "ంచి": 4813,
      "▁ఆఫ్": 4814,
      "▁సాం": 4815,
      "ార్లమె": 4816,
      "కిస్థాన్": 4817,
      "▁నే": 4818,
      "▁నగర": 4819,
      "▁గాంధీ": 4820,
      "టిబె": 4821,
      "్రీ.పూ.": 4822,
      "▁విస్త": 4823,
      "ండియా": 4824,
      "▁ఎక్కువ": 4825,
      "▁ఎన్నో": 4826,
      "pedia\\_articles": 4827,
      "_సం": 4828,
      "ారు.\n": 4829,
      "47)": 4830,
      "టుంబ": 4831,
      "▁భారత్": 4832,
      "▁మొత్తం": 4833,
      "లో](https://te.wikipedia.org/wiki/19": 4834,
      "ంపెనీ": 4835,
      "ayback": 4836,
      "బాద్": 4837,
      "హ్మ": 4838,
      "▁ఏర్": 4839,
      "Times": 4840,
      "్రిటిషు": 4841,
      "ligion": 4842,
      "Sanskrit": 4843,
      "▁అత్యధిక": 4844,
      "fiers": 4845,
      "ీర్ణ": 4846,
      "▁./వర్గం:Wiki": 4847,
      "దక్షిణ_ఆసియా": 4848,
      "ేంద్రపాలిత_ప్రాంత": 4849,
      "entre2005": 4850,
      "imf2": 4851,
      "dencies": 4852,
      "pendencies": 4853,
      "\\_identifiers": 4854,
      "pedia\\_articles\\_with\\_": 4855,
      "▁./వర్గం:Wikipedia\\_articles\\_with\\_": 4856,
      "%E0%B": 4857,
      "-15": 4858,
      "3,": 4859,
      "IA": 4860,
      "PDF": 4861,
      "_జాబితా": 4862,
      "aul": 4863,
      "c/c": 4864,
      "ఆంధ": 4865,
      "కీ": 4866,
      "కాలు": 4867,
      "క్రమ": 4868,
      "గాంధీ": 4869,
      "డో": 4870,
      "థి": 4871,
      "నె": 4872,
      "నాలు": 4873,
      "పించ": 4874,
      "బడ్డ": 4875,
      "భర": 4876,
      "మహ": 4877,
      "మై": 4878,
      "యన": 4879,
      "యి": 4880,
      "రంగ": 4881,
      "లయా": 4882,
      "వార": 4883,
      "శీ": 4884,
      "షా": 4885,
      "షనల్": 4886,
      "స్య": 4887,
      "ృద్ధి": 4888,
      "ెంగ": 4889,
      "ేర": 4890,
      "▁—": 4891,
      "▁భారతీయ": 4892,
      "▁దా": 4893,
      "▁Nation": 4894,
      "▁టెక్నాలజీ": 4895,
      "▁నాగరికత": 4896,
      "్రై": 4897,
      "్రప్రదేశ్": 4898,
      "](https://te.wikipedia.org/wiki/ఢిల్లీ": 4899,
      "దేశం": 4900,
      "దేశాల": 4901,
      "దేశాలు": 4902,
      "ర్‌": 4903,
      "లు?action=edit&redlink=1": 4904,
      "రాఠ": 4905,
      "▁కి": 4906,
      "▁కో": 4907,
      "క్టో": 4908,
      "ంది": 4909,
      "▁వర్": 4910,
      "▁వారస": 4911,
      "నియా": 4912,
      "ల్వే": 4913,
      "▁సరిహద్దు": 4914,
      "▁మన": 4915,
      "▁మూ": 4916,
      "▁ప్రము": 4917,
      "▁ప్రతి": 4918,
      "▁ప్రస్తు": 4919,
      "▁ప్రకారం": 4920,
      "ండమా": 4921,
      "▁చిన్న": 4922,
      "తాన": 4923,
      "తిక": 4924,
      "త్వం": 4925,
      "enn": 4926,
      "ులు,": 4927,
      "ofindia.": 4928,
      "ంచిన": 4929,
      "కుడు": 4930,
      "నుమ": 4931,
      "00–సా.శ.పూ.": 4932,
      "▁రో": 4933,
      "▁రంగ": 4934,
      "▁రవాణా": 4935,
      "▁సాధించ": 4936,
      "ష్టు": 4937,
      "no-": 4938,
      "పాలన": 4939,
      "use": 4940,
      "ం](https://te.wikipedia.org/wiki/భారతీయ": 4941,
      "నేషనల్": 4942,
      "▁(సా.శ.14": 4943,
      "▁(సా.శ.15": 4944,
      "▁విభ": 4945,
      "వందే": 4946,
      "▁రాజ్యం](https://te.wikipedia.org/wiki/": 4947,
      "▁బహు": 4948,
      "▁బెంగ": 4949,
      "ic.in": 4950,
      "ాల్లో": 4951,
      "ంతో": 4952,
      "▁ప్రాంతం": 4953,
      "శ్వా": 4954,
      "_కేంద్రపాలిత_ప్రాంత": 4955,
      "ారిటీ": 4956,
      "26)": 4957,
      "mplate_": 4958,
      "గోళ": 4959,
      "బడిన": 4960,
      "▁ప్రాంతాలు\")": 4961,
      "తున్న": 4962,
      "▁స్వాతంత్ర్య": 4963,
      "న్నిక": 4964,
      "▁[![](https://upload.wikimedia.org/wikipedia/commons/thumb/c/c": 4965,
      "▁కాలంలో": 4966,
      "National_In": 4967,
      "ధీన": 4968,
      "mbol": 4969,
      "ంపి": 4970,
      "బెంగాల్": 4971,
      "▁2021": 4972,
      "ెలవు": 4973,
      "](https://te.wikipedia.org/wiki/భారతదేశంలో_": 4974,
      "▁ప్రాచ": 4975,
      "▁అధికారిక": 4976,
      "Template": 4977,
      "ఆర్ధిక": 4978,
      "▁పట్టణ": 4979,
      "▁అయిన": 4980,
      "▁కాశ్మీరు": 4981,
      "▁రెండు": 4982,
      "ంగ్లీషు": 4983,
      "stitution": 4984,
      "ంటుంది.": 4985,
      "ాల్దీవులు": 4986,
      "s_Centre2005": 4987,
      "uthority": 4988,
      "ట్రో": 4989,
      "ుల్తాన": 4990,
      "రాష్ట్రాలు,_కేంద్రపాలిత_ప్రాంత": 4991,
      "▁వ్యాసం:": 4992,
      "formatics_Centre2005": 4993,
      "ార్లమెంట": 4994,
      "▁ఏర్ప": 4995,
      "ఆంధ్రప్రదేశ్": 4996,
      "లయాళ": 4997,
      "▁ప్రముఖ": 4998,
      "National_Informatics_Centre2005": 4999,
      ".c": 5000,
      "/L": 5001,
      "96": 5002,
      "Be": 5003,
      "CS": 5004,
      "Ch": 5005,
      "Ethnologue": 5006,
      "Go": 5007,
      "Hig": 5008,
      "Min": 5009,
      "View": 5010,
      "Wayback": 5011,
      "_వి": 5012,
      "_Ar": 5013,
      "_2004": 5014,
      "_కాశ్మీ": 5015,
      "cre": 5016,
      "gro": 5017,
      "hel": 5018,
      "i-": 5019,
      "io": 5020,
      "j_M": 5021,
      "lhi": 5022,
      "nt": 5023,
      "pro": 5024,
      "ంస్కృ": 5025,
      "ఉత్తరా": 5026,
      "ఖో": 5027,
      "ఘాలయ": 5028,
      "చ్": 5029,
      "టై": 5030,
      "టర్": 5031,
      "డమ్": 5032,
      "డఖ్": 5033,
      "ణే": 5034,
      "ణంగా": 5035,
      "తే": 5036,
      "తెల": 5037,
      "దరంగ": 5038,
      "ధు": 5039,
      "ధార": 5040,
      "నో": 5041,
      "నంద": 5042,
      "బర్": 5043,
      "బార్": 5044,
      "యె": 5045,
      "లడఖ్": 5046,
      "ళా": 5047,
      "ళి": 5048,
      "శు": 5049,
      "హించ": 5050,
      "ాంగ": 5051,
      "ుకు": 5052,
      "ెన్న": 5053,
      "ెట్రో": 5054,
      "ేతిక": 5055,
      "ేఘాలయ": 5056,
      "ైనిక": 5057,
      "ోళ": 5058,
      "‌కా": 5059,
      "‌మహ": 5060,
      "▁ఐ": 5061,
      "▁ఖ": 5062,
      "▁జా": 5063,
      "▁Hind": 5064,
      "▁దినోత్స": 5065,
      "](https://te.wikipedia.org/wiki/B": 5066,
      "](https://te.wikipedia.org/wiki/G": 5067,
      "](https://te.wikipedia.org/wiki/భారతదేశ": 5068,
      "](https://te.wikipedia.org/wiki/గో": 5069,
      "](https://te.wikipedia.org/wiki/మూస:": 5070,
      "▁[జన": 5071,
      "▁[గో": 5072,
      "▁\"[": 5073,
      "▁\"పా": 5074,
      "▁\"జన": 5075,
      "▁\"గో": 5076,
      "▁\"మూస:": 5077,
      "ారస్వ": 5078,
      "ాలె": 5079,
      "స్ట": 5080,
      "స్వాతంత్ర్య": 5081,
      "▁పర": 5082,
      "▁పండు": 5083,
      "in_": 5084,
      "in_M": 5085,
      "లు](https://te.wikipedia.org/wiki/": 5086,
      "రాన్": 5087,
      "రాస్య": 5088,
      "▁కే": 5089,
      "▁కోర్": 5090,
      "త్రిక": 5091,
      "రికా": 5092,
      "క్స్": 5093,
      "క్కి": 5094,
      "▁వె": 5095,
      "ంగో": 5096,
      "▁సముద్ర": 5097,
      "▁సూచ": 5098,
      "▁సౌక": 5099,
      "▁ప్రజా": 5100,
      "ండా": 5101,
      "ండీ": 5102,
      "ండ్య": 5103,
      "\\_errors": 5104,
      "తాజ్": 5105,
      "నాథ": 5106,
      "estim": 5107,
      "సింది.": 5108,
      "త్వా": 5109,
      "ులు?action=edit&redlink=1": 5110,
      "్రామ": 5111,
      "▁అభి": 5112,
      "తం?action=edit&redlink=1": 5113,
      "ofil": 5114,
      "పూర్": 5115,
      "003": 5116,
      "▁ఉంట": 5117,
      "▁ఉత్తర": 5118,
      "ప్రిల్": 5119,
      "▁రూప": 5120,
      "▁సామా": 5121,
      "వాద": 5122,
      "ార్ఖండ్": 5123,
      "విధ": 5124,
      "క్షరాస్య": 5125,
      "ంటి": 5126,
      "▁Com": 5127,
      "పుర": 5128,
      "▁నడి": 5129,
      "▁ఇండియా": 5130,
      "tral": 5131,
      "లీ,": 5132,
      "loc": 5133,
      "–సా.శ.13": 5134,
      "–సా.శ.17": 5135,
      "▁గు": 5136,
      "డుకు": 5137,
      "నేషియా": 5138,
      "▁జన": 5139,
      "ంగాణ": 5140,
      "లియా": 5141,
      "▁వివిధ": 5142,
      "గుప్": 5143,
      "▁సంఘ": 5144,
      "ండిచ్చేరి": 5145,
      "▁[మధ్య": 5146,
      "జీరియా": 5147,
      "▁2016": 5148,
      "▁2017": 5149,
      "▁./వర్గం:Ar": 5150,
      "ంకేతిక": 5151,
      "వేలీ,": 5152,
      "Delhi": 5153,
      "_కాల": 5154,
      "బియా": 5155,
      "arch_2004": 5156,
      "403": 5157,
      "డామన్": 5158,
      "▁రాష్ట్రపతి": 5159,
      "త్రిపుర": 5160,
      "national-language": 5161,
      "rogr": 5162,
      "▁రైల్వే": 5163,
      "ai_": 5164,
      "మెరికా": 5165,
      "య్యూ": 5166,
      "▁ప్రదేశ్](https://te.wikipedia.org/wiki/": 5167,
      "త్తీస్": 5168,
      "నాగాలా": 5169,
      "cember": 5170,
      "▁\"జమ్మూ": 5171,
      "PPP": 5172,
      "▁పాకిస్తాన్": 5173,
      "కోవ": 5174,
      "కోబార్": 5175,
      "](https://te.wikipedia.org/wiki/జమ్మూ": 5176,
      "ల్లవ": 5177,
      "India_Go": 5178,
      "census/": 5179,
      "▁భారతదేశానికి": 5180,
      "రేబియా": 5181,
      "al_in_M": 5182,
      "టాక్": 5183,
      "▁మాత్ర": 5184,
      "్రిటిష్": 5185,
      "▁original](http://www.": 5186,
      "how": 5187,
      "house": 5188,
      "వెను": 5189,
      "ూచి": 5190,
      "భారతదేశ_రాష్ట్రాలు,_కేంద్రపాలిత_ప్రాంత": 5191,
      "achine": 5192,
      "▁ప్రపంచంలో": 5193,
      "-language\\_": 5194,
      "2011census/": 5195,
      "ప్పటిక": 5196,
      "లేషియా": 5197,
      "istry": 5198,
      "▁దేశంలోని": 5199,
      "▁మొదల": 5200,
      "ద్యు": 5201,
      "▁చిత్ర": 5202,
      "ద్వీప్": 5203,
      "▁ఉపఖండ": 5204,
      "▁కాంగ్రెసు": 5205,
      "FOOTNOTENational_Informatics_Centre2005": 5206,
      "amme": 5207,
      "mission": 5208,
      "ఆగష్టు": 5209,
      "లక్షద్వీప్": 5210,
      "హాయం:": 5211,
      "ీకరణ": 5212,
      "ోల్‌కా": 5213,
      "▁తరువాత": 5214,
      "మిజోరా": 5215,
      "Taj_M": 5216,
      "ర్యానా": 5217,
      "▁[ఢిల్లీ](https://te.wikipedia.org/wiki/ఢిల్లీ": 5218,
      "టిబెట్": 5219,
      "బడ్డీ": 5220,
      "ేరళ": 5221,
      "్రైస్త": 5222,
      "ండమాన్": 5223,
      "ెలవుదిన": 5224,
      "Chenn": 5225,
      "High": 5226,
      "JPG": 5227,
      "ahal_in_M": 5228,
      "crease": 5229,
      "help": 5230,
      "తెలంగాణ": 5231,
      "ెన్నై": 5232,
      "‌మహల్": 5233,
      "▁సౌకర్య": 5234,
      "తాజ్‌మహల్": 5235,
      "క్షరాస్యత": 5236,
      "▁./వర్గం:Articles": 5237,
      "rogramme": 5238,
      "నాగాలాండ్": 5239,
      "](https://te.wikipedia.org/wiki/జమ్మూ_కాశ్మీ": 5240,
      "India_Goa": 5241,
      "censusindia.gov.in/2011census/": 5242,
      "ోల్‌కాతా": 5243,
      "Taj_Mahal_in_M": 5244,
      "Taj_Mahal_in_March_2004": 5245,
      "&s": 5246,
      ",9": 5247,
      "-an": 5248,
      ".b": 5249,
      "41": 5250,
      "7,": 5251,
      "91": 5252,
      "Census": 5253,
      "Cour": 5254,
      "CITEREF": 5255,
      "Hum": 5256,
      "Home": 5257,
      "PC": 5258,
      "Pages": 5259,
      "Wol": 5260,
      "_అ": 5261,
      "_ఎ": 5262,
      "_ర": 5263,
      "_te": 5264,
      "_యు": 5265,
      "_రాజ": 5266,
      "_do": 5267,
      "_శాస్త్ర": 5268,
      "du": 5269,
      "e](https://te.wikipedia.org/wiki/ప్ర": 5270,
      "f.": 5271,
      "gal": 5272,
      "ii": 5273,
      "km": 5274,
      "lion": 5275,
      "nment": 5276,
      "s18": 5277,
      "t](https://te.wikipedia.org/wiki/": 5278,
      "uary": 5279,
      "v](https://te.wikipedia.org/wiki/మూస:": 5280,
      "x\\_": 5281,
      "ఒలి": 5282,
      "కూ": 5283,
      "క్ర": 5284,
      "గ్ర": 5285,
      "గతి": 5286,
      "జు": 5287,
      "ఞాన": 5288,
      "టం": 5289,
      "టన్": 5290,
      "పం": 5291,
      "పో": 5292,
      "పచ్చ": 5293,
      "మ్య": 5294,
      "యాలో": 5295,
      "రె": 5296,
      "లె": 5297,
      "లాం": 5298,
      "వై": 5299,
      "వ్": 5300,
      "వత్స": 5301,
      "వృద్ధి": 5302,
      "శ్రమ": 5303,
      "సీ": 5304,
      "స్రా": 5305,
      "హక": 5306,
      "హన": 5307,
      "ాబ్": 5308,
      "ీఠ": 5309,
      "ీన": 5310,
      "ువు": 5311,
      "ృష్": 5312,
      "ెహ": 5313,
      "ెట్": 5314,
      "ే,": 5315,
      "ేన": 5316,
      "ైద": 5317,
      "ైగా": 5318,
      "ొయ": 5319,
      "ొగలు": 5320,
      "▁ఘ": 5321,
      "▁error": 5322,
      "▁errors": 5323,
      "▁do": 5324,
      "▁template": 5325,
      "▁0.": 5326,
      "▁km": 5327,
      "](https://te.wikipedia.org/wiki/19": 5328,
      "](https://te.wikipedia.org/wiki/జన": 5329,
      "](https://te.wikipedia.org/wiki/వర్గం:Harv": 5330,
      "▁[గ": 5331,
      "▁[కు": 5332,
      "▁[పా": 5333,
      "▁[రాష్ట్ర": 5334,
      "▁[దక్షిణ": 5335,
      "▁[హిందూ": 5336,
      "▁[పాకిస్తాన్": 5337,
      "▁[ముంబై": 5338,
      "▁[e](https://te.wikipedia.org/wiki/ప్ర": 5339,
      "▁[t](https://te.wikipedia.org/wiki/": 5340,
      "▁[v](https://te.wikipedia.org/wiki/మూస:": 5341,
      "▁\"గ": 5342,
      "▁\"దక్షిణ": 5343,
      "▁\"మూస": 5344,
      "▁\"హిందూ": 5345,
      "▁\"పాకిస్తాన్": 5346,
      "▁\"ముంబై": 5347,
      "▁\"వర్గం:Harv": 5348,
      "\")\"": 5349,
      "\"))\n": 5350,
      "్యాలె": 5351,
      "స్వా": 5352,
      "స్లా": 5353,
      "స్లాం": 5354,
      "▁పొ": 5355,
      "▁పద్ధ": 5356,
      "▁పైగా": 5357,
      "info": 5358,
      "ర్ద": 5359,
      "ర్ష": 5360,
      "న్ను": 5361,
      "రాజ్యం": 5362,
      "లోయ": 5363,
      "▁కేంద్ర": 5364,
      "▁కంపెనీ": 5365,
      "ాలుగా": 5366,
      "ాలు\")\n": 5367,
      "క్తి": 5368,
      "▁(1,": 5369,
      "▁వై": 5370,
      "భారతదేశం\n": 5371,
      "▁సమా": 5372,
      "▁సర్వ": 5373,
      "▁సుల్తాన": 5374,
      "▁చర్చ:": 5375,
      "\\_us": 5376,
      "\\_and": 5377,
      "\\_template": 5378,
      "\\_Sfn": 5379,
      "\\_no-": 5380,
      "తాక": 5381,
      "నాట": 5382,
      "తి](https://te.wikipedia.org/wiki/": 5383,
      "▁(సా.శ.6": 5384,
      "en/": 5385,
      "▁అను": 5386,
      "ిక,": 5387,
      "ంచింది.": 5388,
      "కుపచ్చ": 5389,
      "ernment": 5390,
      "▁ఆధీన": 5391,
      "▁ఆకుపచ్చ": 5392,
      "ప్రపంచ": 5393,
      "▁రే": 5394,
      "మాతర": 5395,
      "మాబాద్": 5396,
      "రుపు": 5397,
      "రుగు": 5398,
      "nominal": 5399,
      "](https://te.wikipedia.org/wiki/భారతదేశం#CITEREF": 5400,
      "▁CITEREF": 5401,
      "▁నది": 5402,
      "▁తన": 5403,
      "మించ": 5404,
      "▁గణ": 5405,
      "ం](https://te.wikipedia.org/wiki/అ": 5406,
      "ం](https://te.wikipedia.org/wiki/క": 5407,
      "▁(సా.శ.16": 5408,
      "▁(సా.శ.17": 5409,
      "them": 5410,
      "ంబంధ": 5411,
      "గువ": 5412,
      "▁సంస్థ": 5413,
      "▁సంవత్స": 5414,
      "డియా": 5415,
      "50)": 5416,
      "50–సా.శ.1": 5417,
      "ట్లు": 5418,
      "_చర్చ:": 5419,
      "▁\"మధ్య": 5420,
      "▁ఎన్నిక": 5421,
      "▁ఎన్ను": 5422,
      "▁(సా.శ.పూ.3": 5423,
      "▁(సా.శ.పూ.1200": 5424,
      "](https://te.wikipedia.org/wiki/మధ్య": 5425,
      "]](https://te.wikipedia.org/wiki/భారతదేశం#cite_note-india.gov.in": 5426,
      "[[1": 5427,
      "▁./వర్గం:Harv": 5428,
      "▁./వర్గం:Pages": 5429,
      "_సంగీతం": 5430,
      "ారిగా": 5431,
      "మూస_చర్చ:": 5432,
      "నాయక": 5433,
      "హాస": 5434,
      "దావరి": 5435,
      "▁కూడిన": 5436,
      "23)": 5437,
      "▁నిర్వ": 5438,
      "▁స్థా": 5439,
      "▁([help": 5440,
      "ోర్చు": 5441,
      "ce/": 5442,
      "శాఖ": 5443,
      "▁Sfn": 5444,
      "▁[జమ్మూ": 5445,
      "▁పాత్ర": 5446,
      "▁\"చైనా": 5447,
      "▁ఒకటి": 5448,
      "జ్ఞాన": 5449,
      "▁ఉన్నాయి.\n": 5450,
      "▁భారతదేశపు": 5451,
      "▁Increase": 5452,
      "▁పరిశ్రమ": 5453,
      "▁sq": 5454,
      "▁target": 5455,
      "▁\"ప్రపంచ": 5456,
      "▁\"ప్రత్యేక:EditPage/మూస:": 5457,
      "▁మార్గాలు": 5458,
      "pert": 5459,
      "రోపా": 5460,
      "▁మతము\")": 5461,
      "▁మతము\"),": 5462,
      "▁జాబితా\")\n": 5463,
      "▁ప్రభుత్వ": 5464,
      "▁ప్రభుత్వం": 5465,
      "%20%20%20%20%20%20%20%20": 5466,
      "_and_Sfn": 5467,
      "–సా.శ.1947)": 5468,
      "▁మొదటి": 5469,
      "box\\_": 5470,
      "▁పాలన": 5471,
      "▁కార్య": 5472,
      "▁కారణంగా": 5473,
      "▁కలిగి": 5474,
      "▁2014.\n": 5475,
      "శోకుడు": 5476,
      "▁వేగంగా": 5477,
      "▁జరిగిన": 5478,
      "ources/": 5479,
      "వ](https://te.wikipedia.org/wiki/List_of_countries_by_": 5480,
      "cap": 5481,
      "target\\_errors": 5482,
      "▁[భారతదేశంలో": 5483,
      "▁అనేక": 5484,
      "▁ఎక్కువగా": 5485,
      "▁mi": 5486,
      "▁వారసత్వ": 5487,
      "▁ప్రస్తుతం": 5488,
      "▁రోడ్": 5489,
      "▁బెంగాల్": 5490,
      "ic.in)\n": 5491,
      "mplate_errors": 5492,
      "ంపిక్": 5493,
      "▁ప్రాచీన": 5494,
      "Ministry": 5495,
      "group": 5496,
      "produ": 5497,
      "ంస్కృతం": 5498,
      "▁దినోత్సవ": 5499,
      "▁వెబ్": 5500,
      "ండీగఢ్": 5501,
      "▁అభివృద్ధి": 5502,
      "ofile": 5503,
      "▁నడిపించ": 5504,
      "గుప్త": 5505,
      "భారతదేశ_రాష్ట్రాలు,_కేంద్రపాలిత_ప్రాంతాలు": 5506,
      "Human": 5507,
      "_template_errors": 5508,
      "ృష్ణా": 5509,
      "▁error:": 5510,
      "▁errors\"))\n": 5511,
      "▁km2": 5512,
      "](https://te.wikipedia.org/wiki/వర్గం:Harv_and_Sfn": 5513,
      "▁[e](https://te.wikipedia.org/wiki/ప్రత్యేక:EditPage/మూస:": 5514,
      "▁[t](https://te.wikipedia.org/wiki/మూస_చర్చ:": 5515,
      "స్లామాబాద్": 5516,
      "infobox\\_": 5517,
      "\\_using\\_": 5518,
      "\\_and\\_Sfn": 5519,
      "\\_no-target\\_errors": 5520,
      "nominal)": 5521,
      "▁(సా.శ.పూ.1200–సా.శ.పూ.": 5522,
      "▁./వర్గం:Harv\\_and\\_Sfn": 5523,
      "▁./వర్గం:Pages\\_using\\_": 5524,
      "▁([help](https://te.wikipedia.org/wiki/వర్గం:Harv_and_Sfn": 5525,
      "ోర్చుగ": 5526,
      "▁target:": 5527,
      "\\_no-target\\_errors\n": 5528,
      "▁./వర్గం:Harv\\_and\\_Sfn\\_no-target\\_errors\n": 5529,
      "▁([help](https://te.wikipedia.org/wiki/వర్గం:Harv_and_Sfn_template_errors": 5530,
      "-a": 5531,
      "-01": 5532,
      "-national-language": 5533,
      "/1": 5534,
      "/D": 5535,
      "/ar": 5536,
      "/00": 5537,
      "1-": 5538,
      "2,": 5539,
      "219": 5540,
      "2](https://te.wikipedia.org/wiki/భారతదేశం#cite_ref-": 5541,
      "2]](https://te.wikipedia.org/wiki/భారతదేశం#cite_note-india.gov.in": 5542,
      "5/": 5543,
      "6/": 5544,
      "6–సా.శ.1": 5545,
      ":**": 5546,
      "=0": 5547,
      "C](https://te.wikipedia.org/wiki/": 5548,
      "CIA": 5549,
      "C-01": 5550,
      "DS": 5551,
      "EN": 5552,
      "E_": 5553,
      "Fr": 5554,
      "LIB": 5555,
      "SY": 5556,
      "_ఇ": 5557,
      "_ఫ": 5558,
      "_శ": 5559,
      "_స్": 5560,
      "_22": 5561,
      "_గాంధీ": 5562,
      "d/": 5563,
      "eff": 5564,
      "ethnologue": 5565,
      "f/": 5566,
      "iti": 5567,
      "ici": 5568,
      "list": 5569,
      "lio": 5570,
      "oid": 5571,
      "p?": 5572,
      "s#": 5573,
      "s–": 5574,
      "s\\_": 5575,
      "tur": 5576,
      "u.com/": 5577,
      "xt": 5578,
      "xis": 5579,
      "ం.\n": 5580,
      "ఎల": 5581,
      "ఏప్రిల్": 5582,
      "గిన": 5583,
      "జిల్": 5584,
      "డీ": 5585,
      "ఢా": 5586,
      "తై": 5587,
      "తంగా": 5588,
      "థారిటీ": 5589,
      "పై": 5590,
      "పార": 5591,
      "ఫి": 5592,
      "బీ": 5593,
      "బే": 5594,
      "బై": 5595,
      "మల": 5596,
      "మంత": 5597,
      "యం": 5598,
      "యూ": 5599,
      "యి.": 5600,
      "రల్": 5601,
      "వో": 5602,
      "వి.": 5603,
      "విక": 5604,
      "వార్": 5605,
      "వాల్": 5606,
      "వతంత్ర": 5607,
      "వలస": 5608,
      "వలం": 5609,
      "వత్రిక": 5610,
      "శక": 5611,
      "శి": 5612,
      "శకు": 5613,
      "సై": 5614,
      "సార్": 5615,
      "హిత": 5616,
      "హోర్": 5617,
      "ితి": 5618,
      "ిటన్": 5619,
      "ీం": 5620,
      "ీర": 5621,
      "ుప్ర": 5622,
      "ుతున్న": 5623,
      "ృత్య": 5624,
      "ెర్": 5625,
      "ేజి": 5626,
      "ైల్": 5627,
      "ైథి": 5628,
      "ోత్తర": 5629,
      "ౌర": 5630,
      "▁$": 5631,
      "▁ధ": 5632,
      "▁తి": 5633,
      "▁co": 5634,
      "▁ద్": 5635,
      "▁–సా.శ.1": 5636,
      "▁భూ": 5637,
      "▁దీవ": 5638,
      "▁3.": 5639,
      "▁దక్షిణాసియా": 5640,
      "▁5.": 5641,
      "▁ద్వీ": 5642,
      "▁3,": 5643,
      "▁టై": 5644,
      "▁డామన్": 5645,
      "▁house": 5646,
      "](https://te.wikipedia.org/wiki/P": 5647,
      "](https://te.wikipedia.org/wiki/హ": 5648,
      "](https://te.wikipedia.org/wiki/పా": 5649,
      "](https://te.wikipedia.org/wiki/హిందూ": 5650,
      "](https://te.wikipedia.org/wiki/పాకిస్తాన్": 5651,
      "](https://te.wikipedia.org/wiki/హిందీ": 5652,
      "](https://te.wikipedia.org/wiki/ముంబై": 5653,
      "](https://te.wikipedia.org/wiki/భారతదేశ_": 5654,
      "](https://te.wikipedia.org/wiki/భూటాన్": 5655,
      "](https://te.wikipedia.org/wiki/ఒడి": 5656,
      "](https://te.wikipedia.org/wiki/తమిళనాడు": 5657,
      "](https://te.wikipedia.org/wiki/శ్రీలంక": 5658,
      "](https://te.wikipedia.org/wiki/నేపాల్": 5659,
      "▁[ర": 5660,
      "▁[హిందీ": 5661,
      "▁[భూటాన్": 5662,
      "▁[ఉత్తర": 5663,
      "▁[ఒడి": 5664,
      "▁[తూర్పు": 5665,
      "▁[రాష్ట్రపతి": 5666,
      "▁[తమిళనాడు": 5667,
      "▁[గణతంత్ర": 5668,
      "▁[శ్రీలంక": 5669,
      "▁[నేపాల్": 5670,
      "▁[2](https://te.wikipedia.org/wiki/భారతదేశం#cite_ref-": 5671,
      "▁\"కు": 5672,
      "▁\"రాష్ట్ర": 5673,
      "▁\"హిందీ": 5674,
      "▁\"భూటాన్": 5675,
      "▁\"ఉత్తర": 5676,
      "▁\"ఒడి": 5677,
      "▁\"తూర్పు": 5678,
      "▁\"తమిళనాడు": 5679,
      "▁\"గణతంత్ర": 5680,
      "▁\"శ్రీలంక": 5681,
      "▁\"నేపాల్": 5682,
      "▁\"యునైటెడ్": 5683,
      "\")1": 5684,
      "ాలకు": 5685,
      "ాలతో": 5686,
      "్యాయ": 5687,
      "స్?action=edit&redlink=1": 5688,
      "స్ట్": 5689,
      "▁పద": 5690,
      "▁పో": 5691,
      "▁పీఠ": 5692,
      "ర్తి": 5693,
      "ర్జె": 5694,
      "ర్కొ": 5695,
      "ర్నేషనల్": 5696,
      "న్క": 5697,
      "న్మ": 5698,
      "న్](https://te.wikipedia.org/wiki/": 5699,
      "లుపు": 5700,
      "▁-15": 5701,
      ".శ.)": 5702,
      "లోన్": 5703,
      "లోమీ": 5704,
      "▁కల్": 5705,
      "▁కంట": 5706,
      "▁కనుమ": 5707,
      "▁క్యాలె": 5708,
      "20.": 5709,
      "ందిన": 5710,
      "▁వు": 5711,
      "▁వహించ": 5712,
      "నిడ్": 5713,
      "నియన్": 5714,
      "ita": 5715,
      "ల్లో": 5716,
      "▁సార్": 5717,
      "▁సమాఖ్య": 5718,
      "▁సమర": 5719,
      "▁సైనిక": 5720,
      "▁సంబంధ": 5721,
      "▁మతం\")": 5722,
      "▁ప్రారం": 5723,
      "\\_n": 5724,
      "\\_par": 5725,
      "angu": 5726,
      "ముఖ్య": 5727,
      "సింగ్": 5728,
      "–సా.శ.6": 5729,
      "్రాన్": 5730,
      "▁అర": 5731,
      "▁అని": 5732,
      "ికలు": 5733,
      "India.": 5734,
      "పూర్వ": 5735,
      "000)": 5736,
      "▁ఉత్తరా": 5737,
      "▁ఆధార": 5738,
      "▁రకాల": 5739,
      "మాన": 5740,
      "వాతావరణ": 5741,
      "వాహన": 5742,
      "ations/": 5743,
      "విజ": 5744,
      "ాంబే": 5745,
      "ంటో": 5746,
      "ంటారు.": 5747,
      "ంటర్నేషనల్": 5748,
      "▁న్యాయ": 5749,
      "▁ఇండో": 5750,
      "▁దేశాలు\")": 5751,
      "▁దేశానికి": 5752,
      "పాలిటన్": 5753,
      "వర్ష": 5754,
      "ం\")\n": 5755,
      "టిలో": 5756,
      "▁(సా.శ.10": 5757,
      "▁(సా.శ.13": 5758,
      "గా,": 5759,
      "▁జయ": 5760,
      "▁జంత": 5761,
      "▁జన్మ": 5762,
      "్రీడ": 5763,
      "thehind": 5764,
      "కాహార": 5765,
      "▁సంఖ్య": 5766,
      "▁చరిత్ర](https://te.wikipedia.org/wiki/భారతదేశ": 5767,
      "లాడే": 5768,
      "లాహోర్": 5769,
      "▁సామ్రాజ్యం](https://te.wikipedia.org/wiki/మ": 5770,
      "s/india": 5771,
      "▁బాం": 5772,
      "స్తారు": 5773,
      "ట్లాడే": 5774,
      "▁ఎక్స్": 5775,
      "▁(సా.శ.పూ.300": 5776,
      "ticle": 5777,
      "ంగ్డమ్": 5778,
      "ించిన": 5779,
      "చ్చు": 5780,
      "]](https://te.wikipedia.org/wiki/భారతదేశం#cite_note-imf2": 5781,
      "[[18": 5782,
      "ంతాల": 5783,
      "▁ప్రాంతీయ": 5784,
      "_of_India_": 5785,
      "lance/": 5786,
      "ంకణి": 5787,
      "యుగ": 5788,
      "untry": 5789,
      "తము\")": 5790,
      "స్కరణ": 5791,
      "▁రాజు": 5792,
      "▁రాజవంశ": 5793,
      "21)": 5794,
      "217": 5795,
      "Development": 5796,
      "ultur": 5797,
      "శ్వ": 5798,
      "_క్రీడ": 5799,
      "ంధ్": 5800,
      "dex": 5801,
      "dependencies": 5802,
      "జనపద": 5803,
      "టు](http://": 5804,
      "–సా.శ.పూ.3": 5805,
      "▁ఆర్థ": 5806,
      "హాకీ": 5807,
      "mestic": 5808,
      "దాద్రా": 5809,
      "▁లోయ": 5810,
      "▁లోని": 5811,
      "18)": 5812,
      "▁స్టాక్": 5813,
      "▁స్వతంత్ర": 5814,
      "▁నిర్": 5815,
      "▁నికోబార్": 5816,
      "ters#": 5817,
      "▁[పశ్చిమ": 5818,
      "_మతం": 5819,
      "_భాషలు": 5820,
      "▁[బంగ్లాదేశ్": 5821,
      "▁రైళ్": 5822,
      "ఆసియా\")": 5823,
      "▁\"పశ్చిమ": 5824,
      "▁\"బంగ్లాదేశ్": 5825,
      "ణిజ్య": 5826,
      "ణిపూర్": 5827,
      "మైనది.": 5828,
      "](https://te.wikipedia.org/wiki/బంగ్లాదేశ్": 5829,
      "▁\"ఇరా": 5830,
      "▁\"ఇండో": 5831,
      "-22)": 5832,
      "▁Programme": 5833,
      "](https://te.wikipedia.org/wiki/ఇండో": 5834,
      "▁[ఇండో": 5835,
      "GDP_(": 5836,
      "Republic": 5837,
      "▁Machine": 5838,
      "▁పాక్": 5839,
      "▁వాణిజ్య": 5840,
      "india.gov.in_2": 5841,
      "గణమన": 5842,
      "రీక్ష": 5843,
      "▁[చైనా": 5844,
      "indiatimes": 5845,
      "india-g": 5846,
      "▁క్రీ.శ.)": 5847,
      "▁సినిమా": 5848,
      "iblio": 5849,
      "](https://te.wikipedia.org/wiki/పశ్చిమ": 5850,
      "▁ఉంది.\n": 5851,
      ".com/india": 5852,
      "conta": 5853,
      "బాదు": 5854,
      "బాటు": 5855,
      "హ్వాల్": 5856,
      "▁పరిపాలన": 5857,
      "25)": 5858,
      "48)": 5859,
      "_వ్యవస్థ": 5860,
      "రేడు": 5861,
      "▁tot": 5862,
      "](https://te.wikipedia.org/wiki/చైనా": 5863,
      "▁\"ప్రధానమంత్రి": 5864,
      "స్సామీ": 5865,
      "▁కుటుంబ": 5866,
      "▁వచ్చిన": 5867,
      "▁మార్గాలు\n": 5868,
      "](https://te.wikipedia.org/wiki/భారత_జాతీయ": 5869,
      "▁కొన్ని": 5870,
      "▁కొరియా": 5871,
      "▁చేయ": 5872,
      "▁రాజ్యాంగ": 5873,
      "▁దేశాలలో": 5874,
      "▁original](http://": 5875,
      "ంజాబీ": 5876,
      "▁హవేలీ,": 5877,
      "have": 5878,
      "▁4.": 5879,
      "▁Data": 5880,
      "▁డాల": 5881,
      "▁డయ్యూ": 5882,
      "▁సభ్య": 5883,
      "articleshow": 5884,
      "2011religion": 5885,
      "ధానమంత్రి](https://te.wikipedia.org/wiki/ప్ర": 5886,
      "country\\_with\\_": 5887,
      "▁చెందిన": 5888,
      "▁చెందుతున్న": 5889,
      "▁స్థానం": 5890,
      "▁స్థానంలో": 5891,
      "గణతంత్ర_": 5892,
      "▁క్రీడలు": 5893,
      "_and_dependencies": 5894,
      "ంగ్లీష్": 5895,
      "stituent": 5896,
      ".html)": 5897,
      "_నది": 5898,
      "ssemb": 5899,
      "ళ్ళ": 5900,
      "▁యుగం": 5901,
      "▁యుద్ధం": 5902,
      "▁వంటి": 5903,
      "▁సంగీతం\")": 5904,
      "ప్రదాయాలు": 5905,
      "ద్ధం_19": 5906,
      "హిమాలయాలు": 5907,
      "▁లేని": 5908,
      "india.gov.in/india-g": 5909,
      "IBSY": 5910,
      "▁Off": 5911,
      "▁dependencies": 5912,
      "▁\"ఢిల్లీ\")": 5913,
      "▁రహదారులు](https://te.wikipedia.org/wiki/": 5914,
      "ట్టుపూర్వ": 5915,
      "▁ముఖ్యమైన": 5916,
      "వ](https://te.wikipedia.org/wiki/List_of_countries_and_dependencies": 5917,
      "▁వంశం\")": 5918,
      "geo": 5919,
      "sys": 5920,
      "▁దక్షిణాన": 5921,
      "▁[ప్రధానమంత్రి](https://te.wikipedia.org/wiki/ప్ర": 5922,
      "timesofindia.": 5923,
      "▁ప్రజల": 5924,
      "▁సాంప్రదాయ": 5925,
      "▁గాంధీ\")": 5926,
      "▁విస్తరి": 5927,
      "imf2_22": 5928,
      "ameters#": 5929,
      "నెగ": 5930,
      "భరత": 5931,
      "రాఠీ": 5932,
      "▁కోట్": 5933,
      "క్టోరల్": 5934,
      "▁మూడు": 5935,
      "శ్వాస": 5936,
      ">": 5937,
      "ँ": 5938,
      "ं": 5939,
      "ः": 5940,
      "अ": 5941,
      "आ": 5942,
      "इ": 5943,
      "ई": 5944,
      "उ": 5945,
      "ऊ": 5946,
      "ऋ": 5947,
      "ऍ": 5948,
      "ए": 5949,
      "ऐ": 5950,
      "ऑ": 5951,
      "ओ": 5952,
      "औ": 5953,
      "क": 5954,
      "ख": 5955,
      "ग": 5956,
      "घ": 5957,
      "ङ": 5958,
      "च": 5959,
      "छ": 5960,
      "ज": 5961,
      "झ": 5962,
      "ञ": 5963,
      "ट": 5964,
      "ठ": 5965,
      "ड": 5966,
      "ढ": 5967,
      "ण": 5968,
      "त": 5969,
      "थ": 5970,
      "द": 5971,
      "ध": 5972,
      "न": 5973,
      "ऩ": 5974,
      "प": 5975,
      "फ": 5976,
      "ब": 5977,
      "भ": 5978,
      "म": 5979,
      "य": 5980,
      "र": 5981,
      "ल": 5982,
      "ळ": 5983,
      "व": 5984,
      "श": 5985,
      "ष": 5986,
      "स": 5987,
      "ह": 5988,
      "ऻ": 5989,
      "़": 5990,
      "ऽ": 5991,
      "ा": 5992,
      "ि": 5993,
      "ी": 5994,
      "ु": 5995,
      "ू": 5996,
      "ृ": 5997,
      "े": 5998,
      "ै": 5999,
      "ॉ": 6000,
      "ॊ": 6001,
      "ो": 6002,
      "ौ": 6003,
      "्": 6004,
      "॔": 6005,
      "।": 6006,
      "०": 6007,
      "१": 6008,
      "२": 6009,
      "३": 6010,
      "४": 6011,
      "५": 6012,
      "६": 6013,
      "७": 6014,
      "८": 6015,
      "९": 6016,
      "॰": 6017,
      "‍": 6018,
      "‘": 6019,
      "’": 6020,
      "“": 6021,
      "”": 6022,
      "†": 6023,
      "(http": 6024,
      "ार": 6025,
      ".wikipedia": 6026,
      ".wikipedia.org/wiki/": 6027,
      "i.wikipedia.org/wiki/": 6028,
      "्र": 6029,
      "▁क": 6030,
      "](https://h": 6031,
      "](https://hi.wikipedia.org/wiki/": 6032,
      "भार": 6033,
      "भारत": 6034,
      "▁स": 6035,
      "▁म": 6036,
      "्य": 6037,
      "रा": 6038,
      "▁प": 6039,
      "ान": 6040,
      "्त": 6041,
      "र्": 6042,
      "ें": 6043,
      "▁के": 6044,
      "▁ह": 6045,
      "या": 6046,
      "](https://hi.wikipedia.org/wiki/भारत": 6047,
      "िक": 6048,
      "ीय": 6049,
      "▁अ": 6050,
      "▁में": 6051,
      "िया": 6052,
      "न्": 6053,
      "ाल": 6054,
      "्ष": 6055,
      "वि": 6056,
      "ों": 6057,
      "ेश": 6058,
      "▁ज": 6059,
      "▁द": 6060,
      "ना": 6061,
      "भा": 6062,
      "_क": 6063,
      "](https://hi.wikipedia.org/wiki/भारत#": 6064,
      "त्र": 6065,
      "राज": 6066,
      "▁है": 6067,
      "▁भारत": 6068,
      "](https://hi.wikipedia.org/wiki/भारत#cite_": 6069,
      "्व": 6070,
      "▁प्र": 6071,
      "ला": 6072,
      "ता": 6073,
      "▁ब": 6074,
      "ंग": 6075,
      "ति": 6076,
      "्ट": 6077,
      "और": 6078,
      "_स": 6079,
      "](https://ma": 6080,
      "▁न": 6081,
      "](https://mai.wikipedia.org/wiki/": 6082,
      "▁की": 6083,
      "्रे": 6084,
      "▁से": 6085,
      "षा": 6086,
      "▁और": 6087,
      "स्त": 6088,
      "▁का": 6089,
      "ित": 6090,
      "न्द": 6091,
      "▁\"भारत": 6092,
      "भाषा": 6093,
      "▁आ": 6094,
      "▁व": 6095,
      "राज्य": 6096,
      "ास": 6097,
      "क्ष": 6098,
      "देश": 6099,
      "ी\")": 6100,
      "पु": 6101,
      "स्": 6102,
      "▁त": 6103,
      "मा": 6104,
      "▁ग": 6105,
      "णी": 6106,
      "था": 6107,
      "ड़": 6108,
      "ष्ट": 6109,
      "री": 6110,
      "=ed": 6111,
      "tion=ed": 6112,
      "action=ed": 6113,
      "action=edit": 6114,
      "▁उ": 6115,
      "▁को": 6116,
      "ाद": 6117,
      "▁ए": 6118,
      "ष्ट्र": 6119,
      "का": 6120,
      "▁[म": 6121,
      "श्रे": 6122,
      "▁सं": 6123,
      "श्रेणी": 6124,
      "हि": 6125,
      "]](https://hi.wikipedia.org/wiki/भारत#cite_": 6126,
      "](https://hi.wikipedia.org/wiki/भारत#cite_ref": 6127,
      "]](https://hi.wikipedia.org/wiki/भारत#cite_note": 6128,
      "ने": 6129,
      "ूच": 6130,
      "श्रेणी:": 6131,
      "िल": 6132,
      "ेत्र": 6133,
      "▁पर": 6134,
      "प्र": 6135,
      "_म": 6136,
      "म्": 6137,
      "▁श": 6138,
      "ले": 6139,
      "▁वि": 6140,
      "_के": 6141,
      "▁है।": 6142,
      "सं": 6143,
      "्या": 6144,
      "िय": 6145,
      "▁इ": 6146,
      "▁र": 6147,
      "सा": 6148,
      "▁भाषा": 6149,
      "राष्ट्र": 6150,
      "](https://hi.wikipedia.org/wiki/भारत#cite_ref-": 6151,
      "]](https://hi.wikipedia.org/wiki/भारत#cite_note-": 6152,
      "त्त": 6153,
      "र्व": 6154,
      "्षेत्र": 6155,
      "ी_": 6156,
      "_के_": 6157,
      "ी](https://hi.wikipedia.org/wiki/": 6158,
      "▁\"म": 6159,
      "▁[↑": 6160,
      "▁सा": 6161,
      "ज़": 6162,
      "िस": 6163,
      "ीन": 6164,
      "जा": 6165,
      "पा": 6166,
      "िम": 6167,
      "कार": 6168,
      "गर": 6169,
      "स्तान": 6170,
      "मन": 6171,
      "ंड": 6172,
      "▁ल": 6173,
      "▁राज्य": 6174,
      "हिन्द": 6175,
      "हा": 6176,
      "Har": 6177,
      "यु": 6178,
      "▁भ": 6179,
      "्च": 6180,
      "विश": 6181,
      "क्त": 6182,
      "ेल": 6183,
      "श्रेणी:Har": 6184,
      "श्रेणी:Harv": 6185,
      "ीप": 6186,
      "ंग्रे": 6187,
      "ोल": 6188,
      "▁क्षेत्र": 6189,
      "▁हैं": 6190,
      "धान": 6191,
      "र्म": 6192,
      "्रा": 6193,
      "द्": 6194,
      "पर": 6195,
      "ृत": 6196,
      "▁१": 6197,
      "▁मे": 6198,
      "िण": 6199,
      "▁[अ": 6200,
      "▁[↑](https://hi.wikipedia.org/wiki/भारत#cite_ref-": 6201,
      "िर": 6202,
      "ेष": 6203,
      "कि": 6204,
      "▁अन": 6205,
      "वा": 6206,
      "▁\"अ": 6207,
      "▁[भारत": 6208,
      "▁कर": 6209,
      "▁\"स": 6210,
      "क्षिण": 6211,
      "से": 6212,
      "](https://hi.wikipedia.org/wiki/म": 6213,
      "▁[स": 6214,
      "▁\"क": 6215,
      "▁./": 6216,
      "ीय_": 6217,
      "ंध": 6218,
      "धार": 6219,
      "ाना": 6220,
      "▁एक": 6221,
      ".g": 6222,
      "ोत": 6223,
      "▁च": 6224,
      "▁[क": 6225,
      "▁ने": 6226,
      "भि": 6227,
      "▁\"ब": 6228,
      "chive": 6229,
      "ूल": 6230,
      "▁भाषा\")": 6231,
      "ोग": 6232,
      "▁पु": 6233,
      "▁प्रदेश": 6234,
      "विशेष": 6235,
      "%A": 6236,
      "tar": 6237,
      "सभ": 6238,
      "▁ति": 6239,
      "▁\"भारतीय": 6240,
      "जन": 6241,
      "्स": 6242,
      "▁य": 6243,
      "▁सूच": 6244,
      "लेख": 6245,
      "▁भारतीय": 6246,
      "ँच": 6247,
      "धिक": 6248,
      "▁[ब": 6249,
      "ंद": 6250,
      "ंत्र": 6251,
      "दी": 6252,
      "िट": 6253,
      "▁जन": 6254,
      "थि": 6255,
      "्म": 6256,
      "▁देश": 6257,
      "विशेष:": 6258,
      "ूर्व": 6259,
      "ITER": 6260,
      "िश": 6261,
      "templ": 6262,
      "▁तथा": 6263,
      "ज्": 6264,
      "▁ख": 6265,
      "मे": 6266,
      "हास": 6267,
      "](https://hi.wikipedia.org/wiki/क": 6268,
      "स्क": 6269,
      "▁तिथि": 6270,
      "गमन": 6271,
      "ी_स": 6272,
      "▁ध": 6273,
      "्वीप": 6274,
      "ढ़": 6275,
      "द्य": 6276,
      "मान": 6277,
      "पुर": 6278,
      "म्ब": 6279,
      "boo": 6280,
      "नी": 6281,
      "ून": 6282,
      "्ड": 6283,
      "्ल": 6284,
      "्री": 6285,
      "गु": 6286,
      "वं": 6287,
      "▁तिथि:": 6288,
      "▁राज": 6289,
      "▁मु": 6290,
      "द्ध": 6291,
      "पाल": 6292,
      "रब": 6293,
      "रकार": 6294,
      "▁अभि": 6295,
      "▁अभिगमन": 6296,
      "हर": 6297,
      "ोक": 6298,
      "्रोत": 6299,
      "%E": 6300,
      ".archive.org/": 6301,
      "0%A": 6302,
      "ुस": 6303,
      "](https://web": 6304,
      "▁हैं।": 6305,
      "किस्तान": 6306,
      "%E0%A": 6307,
      ".archive.org/web/": 6308,
      "▁स्": 6309,
      "िका": 6310,
      "िया\")": 6311,
      "▁जा": 6312,
      "राष्ट्रीय": 6313,
      "fier": 6314,
      "identifier": 6315,
      "न्त": 6316,
      "](https://hi.wikipedia.org/wiki/च": 6317,
      "स्तक": 6318,
      "पुस्तक": 6319,
      "विशेष:पुस्तक": 6320,
      "्रोत/978": 6321,
      "िव": 6322,
      "▁\"प": 6323,
      "▁सम": 6324,
      "ती": 6325,
      "द्र": 6326,
      "हार": 6327,
      "](https://hi.wikipedia.org/wiki/स": 6328,
      "▁इस": 6329,
      "त्": 6330,
      "दक्षिण": 6331,
      "ित्र": 6332,
      "र्थ": 6333,
      "_भारत": 6334,
      "_प्र": 6335,
      "ण्ड": 6336,
      "त्तर": 6337,
      "▁मेला": 6338,
      "न\")": 6339,
      "्रिट": 6340,
      "रालेख": 6341,
      "ूची": 6342,
      "ष्": 6343,
      "▁हु": 6344,
      "_की_स": 6345,
      "_में": 6346,
      "ते": 6347,
      "मिल": 6348,
      "](https://hi.wikipedia.org/wiki/अ": 6349,
      "▁वर्": 6350,
      "ंग्रेज़": 6351,
      "ज्ञ": 6352,
      "रालेखित": 6353,
      "गण": 6354,
      "▁[प": 6355,
      "नाम": 6356,
      "▁भी": 6357,
      "▁./श्रेणी:": 6358,
      "Ste": 6359,
      "थान": 6360,
      "ध्य": 6361,
      "ा_": 6362,
      "ूप": 6363,
      "ूर": 6364,
      "▁सरकार": 6365,
      "%E0%A4": 6366,
      "Singh": 6367,
      "फ़": 6368,
      "▁घ": 6369,
      "▁२": 6370,
      "](https://hi.wikipedia.org/wiki/ब": 6371,
      "साँच": 6372,
      "](https://hi.wikipedia.org/wiki/भारत_में": 6373,
      "_भाषा": 6374,
      "ख्या": 6375,
      "रु": 6376,
      "श्च": 6377,
      "हु": 6378,
      "ा:": 6379,
      "न्न": 6380,
      "न्द्र": 6381,
      "▁सूची\")": 6382,
      "श्चिम": 6383,
      "कर": 6384,
      "जी": 6385,
      "▁[उ": 6386,
      "ङ्": 6387,
      "जरा": 6388,
      "uage": 6389,
      "एस": 6390,
      "के": 6391,
      "चीन": 6392,
      "ोर": 6393,
      "▁हो": 6394,
      "युक्त": 6395,
      "ुसार": 6396,
      "्रिटिश": 6397,
      "ीर": 6398,
      "ैद": 6399,
      "▁मान": 6400,
      "▁तक": 6401,
      "जाब": 6402,
      "शिया": 6403,
      "](https://hi.wikipedia.org/wiki/भारतीय_": 6404,
      "पाकिस्तान": 6405,
      "स्कृत": 6406,
      "सम": 6407,
      "▁\"उ": 6408,
      "ों_की_स": 6409,
      "▁नि": 6410,
      "▁१९": 6411,
      "ंब": 6412,
      "ओं": 6413,
      "प्त": 6414,
      "ब्": 6415,
      "ीं": 6416,
      "ुल": 6417,
      "](https://hi.wikipedia.org/wiki/प": 6418,
      "▁हि": 6419,
      "▁प्रा": 6420,
      "▁उप": 6421,
      "▁विश": 6422,
      "]](https://hi.wikipedia.org/wiki/भारत#cite_note-FOOTNOTE": 6423,
      "](https://web.archive.org/web/201": 6424,
      "▁किया": 6425,
      "_के_राज्य": 6426,
      "1998": 6427,
      "धिकार": 6428,
      "ंदिर": 6429,
      "Singh2009": 6430,
      "Stein1998": 6431,
      "ख्य": 6432,
      "शास": 6433,
      "ालय": 6434,
      "ंजाब": 6435,
      "वन": 6436,
      "ागर": 6437,
      "ैन": 6438,
      "▁सब": 6439,
      "▁[मूल": 6440,
      "▁राज्यों": 6441,
      "▁खाना": 6442,
      "चल": 6443,
      "ज्य": 6444,
      "नि": 6445,
      "म्रा": 6446,
      "श्म": 6447,
      "ेंद्र": 6448,
      "याल": 6449,
      "](https://hi.wikipedia.org/wiki/भारत_क": 6450,
      "स्था": 6451,
      "▁गया": 6452,
      "▁[भारतीय": 6453,
      "ोर्": 6454,
      "ाली": 6455,
      "](https://mai.wikipedia.org/wiki/भारत": 6456,
      "म्राज्य": 6457,
      "आई": 6458,
      "तमिल": 6459,
      "दा": 6460,
      "मु": 6461,
      "िप": 6462,
      "्क": 6463,
      "तिहास": 6464,
      "माण": 6465,
      "ियों": 6466,
      "ी_भाषा": 6467,
      "▁पुरालेखित": 6468,
      "ित्र:": 6469,
      "▁सबसे": 6470,
      "▁पुरालेखित।": 6471,
      "_templ": 6472,
      "si": 6473,
      "की": 6474,
      "िन्": 6475,
      "▁[सं": 6476,
      "ियाँ": 6477,
      "▁बाद": 6478,
      "िल्ल": 6479,
      "](https://hi.wikipedia.org/wiki/चित्र:": 6480,
      "ों_की_सूची": 6481,
      "टी": 6482,
      "मह": 6483,
      "ेव": 6484,
      "ेला": 6485,
      "।[[": 6486,
      "▁कि": 6487,
      "▁जिस": 6488,
      "्वत": 6489,
      "्वर": 6490,
      "▁आधार": 6491,
      "स्थान": 6492,
      "▁संघ": 6493,
      "▁([hel": 6494,
      "▁धर्म": 6495,
      "च्च": 6496,
      "बंध": 6497,
      "वरी": 6498,
      "](https://hi.wikipedia.org/wiki/भारत#CITEREF": 6499,
      "_सं": 6500,
      "▁गण": 6501,
      "▁है।\n": 6502,
      "▁साथ": 6503,
      "etcal": 6504,
      "%E0%A4%": 6505,
      "](https://hi.wikipedia.org/wiki/भारत_में_": 6506,
      "▁विश्व": 6507,
      "-target": 6508,
      "Ro": 6509,
      "पति": 6510,
      "स्ट": 6511,
      "ेर": 6512,
      "▁था": 6513,
      "▁templ": 6514,
      "](https://hi.wikipedia.org/wiki/श्रेणी:Harv": 6515,
      "▁\"श्रेणी:Harv": 6516,
      "\\_no": 6517,
      "नेपाल": 6518,
      "▁शास": 6519,
      "common": 6520,
      "errors?action=edit&redlink=1": 6521,
      "Sfn_templ": 6522,
      "श्रेणी:Harv\\_and": 6523,
      "▁./श्रेणी:Harv\\_and": 6524,
      "गुजरा": 6525,
      "_प्रदेश": 6526,
      "▁sfn": 6527,
      "_and_Sfn_templ": 6528,
      "ate_errors?action=edit&redlink=1": 6529,
      "\\_errors\n": 6530,
      "▁([help](https://hi.wikipedia.org/wiki/श्रेणी:Harv": 6531,
      "-target\\_errors\n": 6532,
      "\\_Sfn\\_no-target\\_errors\n": 6533,
      "▁./श्रेणी:Harv\\_and\\_Sfn\\_no-target\\_errors\n": 6534,
      "_and_Sfn_template_errors?action=edit&redlink=1": 6535,
      "▁([help](https://hi.wikipedia.org/wiki/श्रेणी:Harv_and_Sfn_template_errors?action=edit&redlink=1": 6536,
      "णा": 6537,
      "सद": 6538,
      "००": 6539,
      "▁थ": 6540,
      "▁कार": 6541,
      "](https://hi.wikipedia.org/wiki/उ": 6542,
      "▁\"इ": 6543,
      "्यट": 6544,
      "▁रूप": 6545,
      "plo": 6546,
      "▁हिन्द": 6547,
      "=PA": 6548,
      "_अ": 6549,
      "गढ़": 6550,
      "वे": 6551,
      "ांग": 6552,
      "▁[हिन्द": 6553,
      "▁सि": 6554,
      "▁दक्षिण": 6555,
      "oogle": 6556,
      ".google": 6557,
      "books.google": 6558,
      ".com/books?id=": 6559,
      "तेल": 6560,
      "्ला": 6561,
      "▁नाम": 6562,
      "्वार": 6563,
      "क्षेत्र": 6564,
      "▁यह": 6565,
      "/common": 6566,
      "Kul": 6567,
      "_और": 6568,
      "uplo": 6569,
      "एं": 6570,
      "क्स": 6571,
      "खा": 6572,
      "जय": 6573,
      "िन": 6574,
      "ृष्": 6575,
      "▁।": 6576,
      "](https://uplo": 6577,
      "ार्ट": 6578,
      ".org/wikipedia": 6579,
      "विधान": 6580,
      "_क्षेत्र": 6581,
      "▁**[": 6582,
      "ड़ा": 6583,
      "ic.in/": 6584,
      "s/thumb": 6585,
      "ad.wikimedia": 6586,
      "त्प": 6587,
      "ज्ञान": 6588,
      "thermund": 6589,
      "/commons/thumb": 6590,
      "](https://upload.wikimedia": 6591,
      ".org/wikipedia/commons/thumb": 6592,
      "](https://upload.wikimedia.org/wikipedia/commons/thumb": 6593,
      ")](https://hi.wikipedia.org/wiki/चित्र:": 6594,
      "काल": 6595,
      "डिया": 6596,
      "तर": 6597,
      "भी": 6598,
      "मी": 6599,
      "ली": 6600,
      "▁[इ": 6601,
      "](https://hi.wikipedia.org/wiki/ISBN": 6602,
      "](https://hi.wikipedia.org/wiki/विशेष:पुस्तक": 6603,
      "▁\"हिन्द": 6604,
      "▁\"विशेष:पुस्तक": 6605,
      "▁स्रोत/978": 6606,
      "्यव": 6607,
      "्यता": 6608,
      "▁पा": 6609,
      "▁पूर्व": 6610,
      "ान\")": 6611,
      "](https://hi.wikipedia.org/wiki/भारत_के_": 6612,
      "▁अप": 6613,
      "▁(identifier": 6614,
      "लाई": 6615,
      "_स्रोत/978": 6616,
      "▁विक": 6617,
      "राष्ट्रपति": 6618,
      "_के_आ": 6619,
      "▁[↑](https://hi.wikipedia.org/wiki/भारत#cite_ref": 6620,
      "▁अनुसार": 6621,
      "हासागर": 6622,
      "_(identifier": 6623,
      "▁समय": 6624,
      "साँचा:": 6625,
      "ांग्ला": 6626,
      "▁[ISBN](https://hi.wikipedia.org/wiki/ISBN": 6627,
      "](https://hi.wikipedia.org/wiki/विशेष:पुस्तक_स्रोत/978": 6628,
      "▁[ISBN](https://hi.wikipedia.org/wiki/ISBN_(identifier)": 6629,
      "ंप": 6630,
      "त्य": 6631,
      "धर्म": 6632,
      "बर": 6633,
      "में": 6634,
      "लोक": 6635,
      "ोस": 6636,
      "▁यु": 6637,
      "▁राष्ट्रीय": 6638,
      "▁[न": 6639,
      "▁\"सं": 6640,
      "र्भ": 6641,
      "ेश्वर": 6642,
      "▁जु": 6643,
      "▁है,": 6644,
      "▁न्या": 6645,
      "ाद्वीप": 6646,
      "▁रह": 6647,
      "शासित": 6648,
      "_पर": 6649,
      "he": 6650,
      "बाद": 6651,
      "रे": 6652,
      "रक्ष": 6653,
      "ाष्ट्र": 6654,
      "ेट": 6655,
      "िक्ष": 6656,
      "नेमा": 6657,
      "_मेला": 6658,
      "धार_पर": 6659,
      "द्योग": 6660,
      "▁मुख्य": 6661,
      "न्त्र": 6662,
      "हाराष्ट्र": 6663,
      "_के_आधार_पर": 6664,
      "_के_आधार_पर_भारत": 6665,
      "pib": 6666,
      "धु": 6667,
      "ल\")": 6668,
      "वाद": 6669,
      "हित": 6670,
      "ीस": 6671,
      "ृति": 6672,
      "ोन": 6673,
      "▁मंदिर": 6674,
      "र्द": 6675,
      "ंगा": 6676,
      "▁से](http://": 6677,
      "▁साम्राज्य": 6678,
      "ंग्रेज़ी": 6679,
      "▁पुरालेखित।.": 6680,
      "्यवस्था": 6681,
      "▁जुलाई": 6682,
      "_के_आधार_पर_भारत_के_राज्य": 6683,
      "धी": 6684,
      "र्त": 6685,
      "वै": 6686,
      "\")**": 6687,
      "▁मा": 6688,
      "▁अधिक": 6689,
      "म्प": 6690,
      "▁लि": 6691,
      "क्ति": 6692,
      "▁[↑](https://hi.wikipedia.org/wiki/भारत#cite_ref-FOOTNOTE": 6693,
      "▁प्रदेश\")": 6694,
      "▁देशों": 6695,
      "82": 6696,
      "_ए": 6697,
      "_द": 6698,
      "ंक": 6699,
      "टे": 6700,
      "रण": 6701,
      "▁[ज": 6702,
      "ंगाल": 6703,
      "▁तट": 6704,
      "ड़ी": 6705,
      "▁एवं": 6706,
      "▁स्थ": 6707,
      "▁वर्ष": 6708,
      "श्मीर": 6709,
      "महाद्वीप": 6710,
      "्वतंत्र": 6711,
      "गुजरात": 6712,
      "PD": 6713,
      "गा": 6714,
      "णि": 6715,
      "तु": 6716,
      "निक": 6717,
      "ीत": 6718,
      "ुट": 6719,
      "▁केंद्र": 6720,
      "▁\"द": 6721,
      "भाग": 6722,
      "▁वा": 6723,
      "संख्या": 6724,
      "Rothermund2004": 6725,
      "KulkeRothermund2004": 6726,
      "_आ": 6727,
      "एँ": 6728,
      "क्र": 6729,
      "गोल": 6730,
      "फल": 6731,
      "ैक": 6732,
      "ोड़": 6733,
      "▁छ": 6734,
      "ori": 6735,
      "▁\"आ": 6736,
      "▁मार": 6737,
      "▁मूल": 6738,
      "▁अग": 6739,
      "▁अरब": 6740,
      "ाला": 6741,
      "▁जो": 6742,
      "\\_देश": 6743,
      "▁बहु": 6744,
      "▁सेना": 6745,
      "off": 6746,
      "हिन्दी": 6747,
      "▁भू": 6748,
      "विश्व": 6749,
      "म्बर": 6750,
      ".jpg)](https://hi.wikipedia.org/wiki/चित्र:": 6751,
      "%E0%A4%B": 6752,
      "्यटन": 6753,
      "64": 6754,
      "Ed": 6755,
      "इल": 6756,
      "डी": 6757,
      "भू": 6758,
      "िज": 6759,
      "ील": 6760,
      "▁[[": 6761,
      "▁\"न": 6762,
      "▁सभ": 6763,
      "र्ष": 6764,
      "िया](https://mai.wikipedia.org/wiki/": 6765,
      "नाथ": 6766,
      "](https://mai.wikipedia.org/wiki/ब": 6767,
      "▁उत्तर": 6768,
      "▁अन्य": 6769,
      "र्थिक": 6770,
      "ज्ञा": 6771,
      "मुख": 6772,
      "bl": 6773,
      "टक": 6774,
      "धि": 6775,
      "रो": 6776,
      "िस्तान": 6777,
      "ौद्ध": 6778,
      "▁[आ": 6779,
      "▁[द": 6780,
      "▁सद": 6781,
      "पुरी": 6782,
      "]](https://hi.wikipedia.org/wiki/भारत#cite_note-1": 6783,
      "म्म": 6784,
      "हाय": 6785,
      "वंश": 6786,
      "▁जाता": 6787,
      "वेब": 6788,
      "▁[↑](https://hi.wikipedia.org/wiki/भारत#cite_ref-1": 6789,
      "द्योगिक": 6790,
      "्वतंत्रता": 6791,
      "Of": 6792,
      "_प": 6793,
      "_ब": 6794,
      "br": 6795,
      "गो": 6796,
      "तिक": 6797,
      "पे": 6798,
      "मार": 6799,
      "रवरी": 6800,
      "वार": 6801,
      "श्री": 6802,
      "सी": 6803,
      "स\")": 6804,
      "ाट": 6805,
      "▁ई": 6806,
      "▁ऊ": 6807,
      "▁ड": 6808,
      "▁फ": 6809,
      "▁राष्ट्र": 6810,
      "राठ": 6811,
      "▁पार्ट": 6812,
      "विज्ञान": 6813,
      "_सा": 6814,
      "ड़े": 6815,
      "-0-5": 6816,
      "▁संविधान": 6817,
      "ी](https://hi.wikipedia.org/wiki/अ": 6818,
      "यालय": 6819,
      "▁थी": 6820,
      "▁विकास": 6821,
      "-0-521": 6822,
      "AQ": 6823,
      "S1": 6824,
      "_देश": 6825,
      "gi": 6826,
      "ंच": 6827,
      "गाल": 6828,
      "जान": 6829,
      "डु": 6830,
      "मंत्र": 6831,
      "योग": 6832,
      "ेस": 6833,
      "।\n": 6834,
      "▁ट": 6835,
      "▁दे": 6836,
      "▁द्वार": 6837,
      "नाव": 6838,
      "माज": 6839,
      "▁इतिहास": 6840,
      "▁क्षेत्र\")": 6841,
      "सेना": 6842,
      "▁2007": 6843,
      "▁चु": 6844,
      "्रीका": 6845,
      "▁हुई": 6846,
      "गणना": 6847,
      "ृष्ठ": 6848,
      "त्पाद": 6849,
      "lang": 6850,
      "so": 6851,
      "खाना": 6852,
      "पद": 6853,
      "सभा": 6854,
      "ीब": 6855,
      "०१": 6856,
      "▁ओ": 6857,
      "▁[पु": 6858,
      "](https://hi.wikipedia.org/wiki/इ": 6859,
      "▁\"ज": 6860,
      "▁सु": 6861,
      "▁महासागर": 6862,
      "्ता:": 6863,
      "▁दृ": 6864,
      "▁दिया": 6865,
      "▁दिस": 6866,
      "\\_अ": 6867,
      "\\_प": 6868,
      "▁प्रमुख": 6869,
      "▁बढ़": 6870,
      "](https://mai.wikipedia.org/wiki/म": 6871,
      "▁एशिया": 6872,
      "्रां": 6873,
      "स्कृति": 6874,
      "904": 6875,
      "▁हुआ": 6876,
      "फ़रवरी": 6877,
      "ंबई": 6878,
      "▁प्राप्त": 6879,
      "▁उपमहाद्वीप": 6880,
      "र्दू": 6881,
      "▁लिए": 6882,
      "▁अगस्त": 6883,
      ".s": 6884,
      "_न": 6885,
      "त्व": 6886,
      "न](https://hi.wikipedia.org/wiki/": 6887,
      "रेल": 6888,
      "ल्": 6889,
      "लयाल": 6890,
      "ाम": 6891,
      "िख": 6892,
      "िज़": 6893,
      "ूर्": 6894,
      "▁[ओ": 6895,
      "▁\"ओ": 6896,
      "▁जून": 6897,
      "राजस्थान": 6898,
      "ताज": 6899,
      "ताब्": 6900,
      "▁बा": 6901,
      "-1-107": 6902,
      "▁संसद": 6903,
      "त्तरा": 6904,
      "जाति": 6905,
      "ंग्रेजी": 6906,
      "धानमंत्र": 6907,
      "▁खाना\")": 6908,
      "ोर्ड": 6909,
      "माणु": 6910,
      "▁गणराज्य": 6911,
      "▁हिन्दी": 6912,
      "म्मू": 6913,
      "श्रील": 6914,
      "▁दिसम्बर": 6915,
      "CS1": 6916,
      "इन": 6917,
      "कल": 6918,
      "क_स": 6919,
      "गान": 6920,
      "चे": 6921,
      "तन्त्र": 6922,
      "ी.": 6923,
      "ैल": 6924,
      "ैंड": 6925,
      "ोष": 6926,
      "▁फ़रवरी": 6927,
      "▁क्र": 6928,
      "](https://hi.wikipedia.org/wiki/सं": 6929,
      "्यान": 6930,
      "▁पह": 6931,
      "र्ज": 6932,
      "र्स": 6933,
      "र्जा": 6934,
      "](https://hi.wikipedia.org/wiki/भारतीय": 6935,
      "▁बना": 6936,
      "ी\"),": 6937,
      "र्वत": 6938,
      "पात": 6939,
      "▁इसके": 6940,
      "एसिया": 6941,
      "ैदान": 6942,
      "धिकारिक": 6943,
      "▁शासन": 6944,
      "▁कार्य": 6945,
      "▁\"हिन्दी\")": 6946,
      "र्भर": 6947,
      "▁मार्च": 6948,
      "वेबैक": 6949,
      "Official": 6950,
      "▁द्वारा": 6951,
      "ृष्ठसभ": 6952,
      "langoff": 6953,
      "\\_पृष्ठसभ": 6954,
      "-प": 6955,
      "Com": 6956,
      "cens": 6957,
      "ंट": 6958,
      "उप": 6959,
      "खंड": 6960,
      "खण्ड": 6961,
      "दि": 6962,
      "रू": 6963,
      "व्यवस्था": 6964,
      "शीन": 6965,
      "हरा": 6966,
      "हीं": 6967,
      "िला": 6968,
      "ुरु": 6969,
      "ोम": 6970,
      "ौर": 6971,
      "ौद्योगिक": 6972,
      "▁या": 6973,
      "▁सभा": 6974,
      "▁संग": 6975,
      "र्ग": 6976,
      "िक्क": 6977,
      "▁जल": 6978,
      "▁दर": 6979,
      "▁द्वीप": 6980,
      "नाडु": 6981,
      "त्रि": 6982,
      "\\_स": 6983,
      "▁प्रति": 6984,
      "स्त्र": 6985,
      "▁1,": 6986,
      "ूचना": 6987,
      "](https://hi.wikipedia.org/wiki/भारत#cite_ref-FOOTNOTE": 6988,
      "त्तरी": 6989,
      "ंडिया": 6990,
      "▁हैं,": 6991,
      "पर्यटन": 6992,
      "url": 6993,
      "दीव": 6994,
      "पालिका": 6995,
      "%E0%A4%A": 6996,
      "▁निर्": 6997,
      "िल्ली": 6998,
      "▁सिनेमा": 6999,
      "िक्षा": 7000,
      "िक्किम": 7001,
      "-78": 7002,
      "66": 7003,
      "AAQ": 7004,
      "_इ": 7005,
      "_12": 7006,
      "इप्र": 7007,
      "छि": 7008,
      "थिल": 7009,
      "दार": 7010,
      "नु": 7011,
      "बा": 7012,
      "वास": 7013,
      "वीं": 7014,
      "शक": 7015,
      "ैथिल": 7016,
      "▁ऑ": 7017,
      "▁[दक्षिण": 7018,
      "▁कुल": 7019,
      "▁\"ल": 7020,
      "▁\"ह": 7021,
      "▁\"दक्षिण": 7022,
      "भारत\n": 7023,
      "▁पश्चिम": 7024,
      "▁अछि": 7025,
      "▁दो": 7026,
      "_का": 7027,
      "-111": 7028,
      "▁वार": 7029,
      "▁गा": 7030,
      "▁शा": 7031,
      "▁शताब्": 7032,
      "िये": 7033,
      "▁भाषाओं": 7034,
      "ंग्रेस": 7035,
      "ृत्य": 7036,
      "▁2009": 7037,
      "ूनिव": 7038,
      "905": 7039,
      "ूरो": 7040,
      "](https://hi.wikipedia.org/wiki/भारत_की_": 7041,
      "_संघ": 7042,
      "तेलु": 7043,
      "▁युद्ध": 7044,
      "▁न्यायालय": 7045,
      "हायता": 7046,
      "-0-521-80": 7047,
      "▁[पुरालेखित": 7048,
      "904-7": 7049,
      "धानमंत्री": 7050,
      "-0-521-80904-7": 7051,
      "5]](https://hi.wikipedia.org/wiki/भारत#cite_note-": 7052,
      "ंका": 7053,
      "एशिया": 7054,
      "गंगा": 7055,
      "धन": 7056,
      "नान": 7057,
      "नुसार": 7058,
      "पान": 7059,
      "फ्रीका": 7060,
      "भो": 7061,
      "वी": 7062,
      "शा": 7063,
      "स](https://hi.wikipedia.org/wiki/": 7064,
      "ीमा": 7065,
      "ूह": 7066,
      "▁ले": 7067,
      "▁[ह": 7068,
      "](https://hi.wikipedia.org/wiki/ल": 7069,
      "राबाद": 7070,
      "र्ना": 7071,
      "▁केन्द्र": 7072,
      "▁अव": 7073,
      "▁अप्र": 7074,
      "▁अधिकार": 7075,
      "on_": 7076,
      "mage": 7077,
      "▁नी": 7078,
      "▁आधिकारिक": 7079,
      "स्थ": 7080,
      "▁संबंध": 7081,
      "▁संस्कृति": 7082,
      "हिमा": 7083,
      "issi": 7084,
      "त्तीस": 7085,
      "र्वो": 7086,
      "िस्ट": 7087,
      "िरपे": 7088,
      "▁अन्त": 7089,
      "वायु": 7090,
      "▁करने": 7091,
      "▁जनगणना": 7092,
      "मेर": 7093,
      "▁स्था": 7094,
      "▁मेला\")": 7095,
      "▁हुए": 7096,
      "-108": 7097,
      "करण": 7098,
      "ैदराबाद": 7099,
      "](https://hi.wikipedia.org/wiki/भारत_का_": 7100,
      "▁[हिन्दी](https://hi.wikipedia.org/wiki/": 7101,
      "भीम": 7102,
      "धिराज्य": 7103,
      "र्नाटक": 7104,
      "िरपेक्ष": 7105,
      "/साँचा:": 7106,
      "_9": 7107,
      "_व": 7108,
      "hindi": 7109,
      "kno": 7110,
      "ंह": 7111,
      "क\\_पृष्ठसभ": 7112,
      "गल": 7113,
      "झार": 7114,
      "डो": 7115,
      "तट": 7116,
      "द्वीप": 7117,
      "फा": 7118,
      "श्र": 7119,
      "हन": 7120,
      "हरी": 7121,
      "ाटी": 7122,
      "िहार": 7123,
      "ुंबई": 7124,
      "ौक्स": 7125,
      "८५": 7126,
      "▁लेख": 7127,
      "ार्क": 7128,
      "▁[च": 7129,
      "▁[सा": 7130,
      "▁[पाकिस्तान": 7131,
      "](https://hi.wikipedia.org/wiki/आ": 7132,
      "](https://hi.wikipedia.org/wiki/ओ": 7133,
      "▁\"पाकिस्तान": 7134,
      "▁मो": 7135,
      "रान": 7136,
      "र्क": 7137,
      "▁ही": 7138,
      "▁होत": 7139,
      "▁अर्थ": 7140,
      "ियां": 7141,
      "ाले": 7142,
      "\\_मा": 7143,
      "▁नद": 7144,
      "▁नहीं": 7145,
      "](https://mai.wikipedia.org/wiki/क": 7146,
      "](https://mai.wikipedia.org/wiki/स": 7147,
      "न्दोल": 7148,
      "▁\"भारतक": 7149,
      "linki": 7150,
      "पुरा": 7151,
      "स्ला": 7152,
      "▁उद्य": 7153,
      "प्रा": 7154,
      "▁है।[[": 7155,
      "▁रहा": 7156,
      "कारीब": 7157,
      "ीपी": 7158,
      "विशेष:Edit": 7159,
      "ूर्वी": 7160,
      "▁मेला](https://hi.wikipedia.org/wiki/": 7161,
      "▁वर्ग": 7162,
      "▁./श्रेणी:जान": 7163,
      "▁२०१": 7164,
      "हितक\\_पृष्ठसभ": 7165,
      "\\_देशमे": 7166,
      "▁भूम": 7167,
      "▁चुनाव": 7168,
      "nclm": 7169,
      "पदण्ड": 7170,
      "रेलू": 7171,
      "लयालम": 7172,
      "Page/साँचा:": 7173,
      "\\_सहितक\\_पृष्ठसभ": 7174,
      "▁शताब्दी": 7175,
      "▁[पुरालेखित](https://web.archive.org/web/201": 7176,
      "र्वोच्च": 7177,
      "\\_मापदण्ड": 7178,
      "कारीबौक्स": 7179,
      "विशेष:EditPage/साँचा:": 7180,
      "▁./श्रेणी:जानकारीबौक्स": 7181,
      "nclm.nic.in/": 7182,
      "\\_सहितक\\_पृष्ठसभ#": 7183,
      "-विज्ञान": 7184,
      "074": 7185,
      "5,": 7186,
      "bin": 7187,
      "e-": 7188,
      "y-": 7189,
      "ंत": 7190,
      "गू": 7191,
      "छत्तीस": 7192,
      "तृत": 7193,
      "देव": 7194,
      "पक": 7195,
      "रस": 7196,
      "श्य": 7197,
      "सून": 7198,
      "िंध": 7199,
      "ीच": 7200,
      "ीरी": 7201,
      "ेक": 7202,
      "▁[ल": 7203,
      "▁कई": 7204,
      "▁कश्मीर": 7205,
      "▁\"च": 7206,
      "▁\"तमिल": 7207,
      "भारत)": 7208,
      "▁सैन": 7209,
      "▁पर्वत": 7210,
      "याधी": 7211,
      "ाल्": 7212,
      "वित": 7213,
      "ोंक": 7214,
      "▁दि": 7215,
      "भाज": 7216,
      "_का_": 7217,
      "▁बीच": 7218,
      "-13": 7219,
      "-1-78": 7220,
      "न्दिर": 7221,
      "क्षा": 7222,
      "▁उत्पाद": 7223,
      "_मंदिर": 7224,
      "लेट": 7225,
      "▁इन": 7226,
      "▁लोक": 7227,
      "▁राज्य\")": 7228,
      "▁[अंग्रेज़": 7229,
      "▁अनु": 7230,
      "▁करोड़": 7231,
      "म्बई": 7232,
      "▁राजनी": 7233,
      "india/": 7234,
      "▁हैं।\n": 7235,
      "-882": 7236,
      "न्तर": 7237,
      "▁\"पंजाब": 7238,
      "▁Min": 7239,
      "गणराज्य": 7240,
      "▁[पंजाब": 7241,
      "▁होता": 7242,
      "ब्ब": 7243,
      "▁प्राचीन": 7244,
      "श्मीरी": 7245,
      "▁Language": 7246,
      "▁जिसमें": 7247,
      "▁कारण": 7248,
      "_मेला?action=edit&redlink=1": 7249,
      "62-2": 7250,
      "▁से](http://www.": 7251,
      "▁स्थित": 7252,
      "णिपुरी": 7253,
      "oriti": 7254,
      "गोआ": 7255,
      "ूर्ण": 7256,
      "-1-107-111": 7257,
      "श्रीलंका": 7258,
      "र्सिट": 7259,
      "-0-19-882": 7260,
      "ूनिवर्सिट": 7261,
      "905-8": 7262,
      "▁स्थाप": 7263,
      "-108-6": 7264,
      "074-108-6": 7265,
      "याधीश": 7266,
      "-1-78074-108-6": 7267,
      "▁[अंग्रेज़ी](https://hi.wikipedia.org/wiki/अ": 7268,
      "-1-107-11162-2": 7269,
      "-0-19-882905-8": 7270,
      "*)": 7271,
      "-शासित": 7272,
      "OL": 7273,
      "_उ": 7274,
      "_राज्य": 7275,
      "तम": 7276,
      "त\\_मापदण्ड": 7277,
      "पार": 7278,
      "भिय": 7279,
      "मर": 7280,
      "रत": 7281,
      "लग": 7282,
      "वल": 7283,
      "शिया\")": 7284,
      "ीगढ़": 7285,
      "ॉक": 7286,
      "१९": 7287,
      "▁[ड": 7288,
      "▁[वि": 7289,
      "▁कु": 7290,
      "▁सँ": 7291,
      "▁स्त": 7292,
      "▁मध्य": 7293,
      "▁मैदान": 7294,
      "▁पै": 7295,
      "ानव": 7296,
      "int": 7297,
      "ालदीव": 7298,
      "ेशन": 7299,
      "ेशिया": 7300,
      "▁जी": 7301,
      "▁दशक": 7302,
      "▁भारत\")": 7303,
      "▁नव": 7304,
      "षाण": 7305,
      "▁आर": 7306,
      "▁आर्थिक": 7307,
      "क्षर": 7308,
      "▁गु": 7309,
      "▁Cam": 7310,
      "▁कोर": 7311,
      "काश": 7312,
      "▁शिक्षा": 7313,
      "ियर": 7314,
      "idge": 7315,
      "ंडीगढ़": 7316,
      "▁लग": 7317,
      "▁लोग": 7318,
      "ंग्रेज": 7319,
      "▁क्षेत्रीय": 7320,
      "▁नेतृत": 7321,
      "▁\"ब्रिटिश": 7322,
      "▁पुरा": 7323,
      "सभ\\_सहितक\\_पृष्ठसभ#": 7324,
      "जनसंख्या": 7325,
      "▁सूचना": 7326,
      "▁जनसंख्या": 7327,
      "]](https://hi.wikipedia.org/wiki/भारत#cite_note-FOOTNOTESingh2009": 7328,
      "]](https://hi.wikipedia.org/wiki/भारत#cite_note-FOOTNOTEStein1998": 7329,
      "](https://mai.wikipedia.org/wiki/भारतक": 7330,
      "िन्धु": 7331,
      "▁धर्म\")": 7332,
      "▁रहल": 7333,
      "▁सभ्यता": 7334,
      "ज्ञात\\_मापदण्ड": 7335,
      "bridge": 7336,
      "\\_अज्ञात\\_मापदण्ड": 7337,
      "त्तराखण्ड": 7338,
      "ress,": 7339,
      "एसियाक": 7340,
      "Combin": 7341,
      "हायता:": 7342,
      "▁अप्रैल": 7343,
      "हिमाचल": 7344,
      "▁लेख:": 7345,
      "\\_देशमे\\_अज्ञात\\_मापदण्ड": 7346,
      "▁./श्रेणी:जानकारीबौक्स\\_देशमे\\_अज्ञात\\_मापदण्ड": 7347,
      "▁./श्रेणी:जानकारीबौक्स\\_देशमे\\_अज्ञात\\_मापदण्डसभ\\_सहितक\\_पृष्ठसभ#": 7348,
      "5%": 7349,
      "_राज": 7350,
      "kh": 7351,
      "w/": 7352,
      "अरब": 7353,
      "एन": 7354,
      "एल": 7355,
      "को": 7356,
      "टि": 7357,
      "धा": 7358,
      "नगर": 7359,
      "मिक": 7360,
      "लिस": 7361,
      "वर्त": 7362,
      "षय": 7363,
      "िनेमा": 7364,
      "ुम्बई": 7365,
      "ृद्ध": 7366,
      "ॉल": 7367,
      "▁३": 7368,
      "ार्व": 7369,
      "▁[य": 7370,
      "▁[तमिल": 7371,
      "▁[नेपाल": 7372,
      "▁कम": 7373,
      "▁\"य": 7374,
      "▁\"नेपाल": 7375,
      "▁मह": 7376,
      "्यों": 7377,
      "राक": 7378,
      "न्स": 7379,
      "▁जय": 7380,
      "नाग": 7381,
      "▁(*": 7382,
      "▁(अ": 7383,
      "▁प्रस": 7384,
      "▁प्रेस": 7385,
      "▁प्रौद्योगिक": 7386,
      "▁व्य": 7387,
      "▁व्या": 7388,
      "ी\"))": 7389,
      "ड़िया": 7390,
      "▁उन": 7391,
      "▁शु": 7392,
      "ियार": 7393,
      "साई": 7394,
      "▁सागर": 7395,
      "ेली": 7396,
      "परमाणु": 7397,
      "▁जनवरी": 7398,
      "ज्ज": 7399,
      "_(भारत)": 7400,
      "▁Press,": 7401,
      "▁राजधान": 7402,
      "▁राजवंश": 7403,
      "▁स्थान": 7404,
      "▁जाती": 7405,
      "िवस": 7406,
      "आईएस": 7407,
      "▁था।": 7408,
      "▁शासित": 7409,
      "ांग्लादेश": 7410,
      "लोकसभा": 7411,
      "रेन्द्र": 7412,
      "धुनिक": 7413,
      "▁साम्राज्य\")": 7414,
      "_साम्राज्य": 7415,
      "▁पहले": 7416,
      "नुसार_देश": 7417,
      "▁[हिन्दी](https://hi.wikipedia.org/wiki/हिन्दी": 7418,
      "▁Univers": 7419,
      "▁चुनावों": 7420,
      "▁सैन्य": 7421,
      "ोंकणी": 7422,
      "भाजपा": 7423,
      "\"](http://": 7424,
      "GD": 7425,
      "_घ": 7426,
      "_ma": 7427,
      "bh": 7428,
      "busines": 7429,
      "gar": 7430,
      "tri": 7431,
      "ंति": 7432,
      "इव": 7433,
      "खन": 7434,
      "ग्व": 7435,
      "च्": 7436,
      "चित्र": 7437,
      "जं": 7438,
      "ञ्": 7439,
      "डम": 7440,
      "तनाम": 7441,
      "नत्व": 7442,
      "पया": 7443,
      "पदी": 7444,
      "फोर्ड": 7445,
      "ब्ल": 7446,
      "बेट": 7447,
      "भग": 7448,
      "भु": 7449,
      "भ्स": 7450,
      "भुट": 7451,
      "यर": 7452,
      "लों": 7453,
      "िंग": 7454,
      "ीठ": 7455,
      "ुवै": 7456,
      "ैंक": 7457,
      "ॉंग्रेस": 7458,
      "ौसेना": 7459,
      "ौपदी": 7460,
      "२००": 7461,
      "▁/": 7462,
      "▁`": 7463,
      "▁·": 7464,
      "▁५": 7465,
      "▁ना": 7466,
      "▁ला": 7467,
      "▁Official": 7468,
      "ारी": 7469,
      "▁[ई": 7470,
      "▁[ग": 7471,
      "▁[प्र": 7472,
      "](https://hi.wikipedia.org/wiki/पाकिस्तान": 7473,
      "▁सह": 7474,
      "▁साल": 7475,
      "▁स्व": 7476,
      "▁स्वतंत्रता": 7477,
      "▁मौ": 7478,
      "राम": 7479,
      "र्श": 7480,
      "▁हर": 7481,
      "▁हिम": 7482,
      "](https://hi.wikipedia.org/wiki/भारत_के": 7483,
      "▁(क": 7484,
      "▁(2018": 7485,
      "_की_": 7486,
      "लाओ": 7487,
      "लादेश": 7488,
      "ंगाना": 7489,
      "▁व्यवस्था": 7490,
      "ड़ियाँ": 7491,
      "-0)\n": 7492,
      "काता": 7493,
      "_महासागर": 7494,
      "▁शक्त": 7495,
      "▁विस्त": 7496,
      "▁विदेश": 7497,
      "istic": 7498,
      "त्ति": 7499,
      "ी](https://hi.wikipedia.org/wiki/द": 7500,
      "जापान": 7501,
      "मन्त": 7502,
      "ंडोन": 7503,
      "▁राज्यक्षेत्र": 7504,
      "हात्": 7505,
      "ing_": 7506,
      "ोलकाता": 7507,
      "▁क्षेत्रों": 7508,
      "र्मू": 7509,
      "्राम": 7510,
      "्राष्ट्र": 7511,
      "▁\"अंग्रेज़ी": 7512,
      "ंध्र": 7513,
      "▁2004": 7514,
      "भिज्ञा": 7515,
      "सभक": 7516,
      "▁[ब्रिटिश": 7517,
      "▁जनता": 7518,
      "▁देश\")": 7519,
      "िशा": 7520,
      "मेव": 7521,
      "etra": 7522,
      "पुरम": 7523,
      "india-": 7524,
      "हरिया": 7525,
      "](https://web.archive.org/web/200": 7526,
      "द्रौपदी": 7527,
      "index": 7528,
      "▁मेला\"),": 7529,
      "ष्ण": 7530,
      "ंग्रेज़ी_भाषा": 7531,
      "न्नई": 7532,
      "श्चिमी": 7533,
      "जराय": 7534,
      "▁मानसून": 7535,
      "िपीठ": 7536,
      "▁पुरालेखित।,": 7537,
      "▁[संयुक्त": 7538,
      "्वतन्त्र": 7539,
      "बंधन": 7540,
      "ेरल": 7541,
      "_Indian": 7542,
      "तेलंगाना": 7543,
      "▁En": 7544,
      "_और_संघ": 7545,
      "क्सफोर्ड": 7546,
      "कालीन": 7547,
      "त्यमेव": 7548,
      "▁युग": 7549,
      "▁\"संस्कृत": 7550,
      "रक्षा": 7551,
      "हित्य": 7552,
      "_के_आधार_पर_भारत_के_राज्यों_की_सूची": 7553,
      "_एशिया": 7554,
      "gni": 7555,
      "▁बहुत": 7556,
      "▁देख": 7557,
      "▁ओर": 7558,
      "्यानमार": 7559,
      "दिभ्स": 7560,
      "त्रिपुरा": 7561,
      "▁निर्माण": 7562,
      "तेलुगू": 7563,
      "भीमबेट": 7564,
      "know": 7565,
      "झारखंड": 7566,
      "▁\"पाकिस्तान\")": 7567,
      "स्लाम": 7568,
      "छत्तीसगढ़": 7569,
      "िंधु": 7570,
      "ाल्दिभ्स": 7571,
      "ब्बत": 7572,
      "orities": 7573,
      "▁[अंग्रेज़ी](https://hi.wikipedia.org/wiki/अंग्रेज़ी_भाषा": 7574,
      "▁कुछ": 7575,
      "int:": 7576,
      "▁नेतृत्व": 7577,
      "▁./श्रेणी:जानकारीबौक्स\\_देशमे\\_अज्ञात\\_मापदण्डसभ\\_सहितक\\_पृष्ठसभ#l": 7578,
      "ikidata": 7579,
      "च्छ": 7580,
      "ुवैत": 7581,
      "हात्मा": 7582,
      "भिज्ञापक": 7583,
      "्वतन्त्रता": 7584,
      "भीमबेटका": 7585,
      "-201": 7586,
      "3),": 7587,
      "IM": 7588,
      "Po": 7589,
      "\\*": 7590,
      "_त": 7591,
      "_श": 7592,
      "_धर्म": 7593,
      "cat": 7594,
      "opl": 7595,
      "sa": 7596,
      "टना": 7597,
      "बल": 7598,
      "मरी": 7599,
      "हम": 7600,
      "ेड": 7601,
      "ोला": 7602,
      "्थ": 7603,
      "४७": 7604,
      "५०": 7605,
      "▁,": 7606,
      "▁औ": 7607,
      "▁भाग": 7608,
      "▁[व": 7609,
      "▁[राज्य": 7610,
      "्रु": 7611,
      "▁काल": 7612,
      "▁कॉंग्रेस": 7613,
      "](https://hi.wikipedia.org/wiki/द": 7614,
      "](https://hi.wikipedia.org/wiki/दक्षिण": 7615,
      "](https://hi.wikipedia.org/wiki/तमिल": 7616,
      "▁\"ग": 7617,
      "▁\"साँच": 7618,
      "भारत)\")": 7619,
      "▁सन्": 7620,
      "▁सित": 7621,
      "▁समाज": 7622,
      "▁मई": 7623,
      "▁मन": 7624,
      "▁मिल": 7625,
      "▁मशीन": 7626,
      "20]](https://hi.wikipedia.org/wiki/भारत#cite_note-": 7627,
      "ेंगल": 7628,
      "](https://hi.wikipedia.org/wiki/भारत_के_राज्य": 7629,
      "▁अधिराज्य": 7630,
      "▁में,": 7631,
      "न्ध": 7632,
      "▁जब": 7633,
      "भाई": 7634,
      "भाष": 7635,
      "▁(भारत)\")": 7636,
      "▁प्रार": 7637,
      "nolo": 7638,
      "▁आन्दोल": 7639,
      "▁गई": 7640,
      "▁गठ": 7641,
      "▁[मध्य": 7642,
      "_मु": 7643,
      "म्भ": 7644,
      "▁शहर": 7645,
      "संधान": 7646,
      "▁इंडिया": 7647,
      "_के_अ": 7648,
      "ज़ा": 7649,
      "ीनगर": 7650,
      "▁लिये": 7651,
      "धानमन्त": 7652,
      "▁चार": 7653,
      "▁1998": 7654,
      "ोगरी": 7655,
      "▁यूनिवर्सिट": 7656,
      "▁जनजाति": 7657,
      "%E0%A5%": 7658,
      "▁घाटी": 7659,
      "रुणा": 7660,
      "न्नड़": 7661,
      "▁मानव": 7662,
      "▁मान्यता": 7663,
      "समिया": 7664,
      ".ph": 7665,
      "ोर्ट": 7666,
      "त्पत्ति": 7667,
      "राष्ट्रपति\")": 7668,
      "pib-1": 7669,
      "तुर्क": 7670,
      "वार्ता:": 7671,
      "▁2024.": 7672,
      "▁दृष्ट": 7673,
      "_न्या": 7674,
      "ताजमह": 7675,
      "इप्रस": 7676,
      "▁वार्ता:": 7677,
      "▁[पाकिस्तान](https://hi.wikipedia.org/wiki/पाकिस्तान": 7678,
      "gue": 7679,
      "न्तर्राष्ट्र": 7680,
      "क्षरता": 7681,
      "▁(2018),": 7682,
      "ेंगलुरु": 7683,
      "▁यूनिवर्सिटी": 7684,
      "#cite_": 7685,
      "*](http://": 7686,
      "/linki": 7687,
      "=`": 7688,
      "Report": 7689,
      "\\_क": 7690,
      "a)": 7691,
      "feb": 7692,
      "missi": 7693,
      "uistic": 7694,
      "ंतर": 7695,
      "ईल": 7696,
      "गत": 7697,
      "घर": 7698,
      "घालय": 7699,
      "चें": 7700,
      "टान": 7701,
      "तुल": 7702,
      "थियार": 7703,
      "दय": 7704,
      "दर्श": 7705,
      "फगान": 7706,
      "भौ": 7707,
      "मस": 7708,
      "ल](https://hi.wikipedia.org/wiki/": 7709,
      "स्व": 7710,
      "ी](https://mai.wikipedia.org/wiki/": 7711,
      "ृष": 7712,
      "ेन्द्र": 7713,
      "ोट": 7714,
      "्लेट": 7715,
      "२६": 7716,
      "▁°": 7717,
      "▁ऐ": 7718,
      "▁९": 7719,
      "▁रा": 7720,
      "ed/linki": 7721,
      "ारो": 7722,
      "▁[Singh": 7723,
      "▁[गुजरात": 7724,
      "्रह": 7725,
      "](https://hi.wikipedia.org/wiki/ज": 7726,
      "](https://hi.wikipedia.org/wiki/साँच": 7727,
      "▁\"ई": 7728,
      "▁\"ड": 7729,
      "▁\"सा": 7730,
      "▁\"राष्ट्रीय": 7731,
      "▁\"चीन": 7732,
      "▁पहु": 7733,
      "ाने": 7734,
      "ेंस": 7735,
      "▁हाला": 7736,
      "](https://hi.wikipedia.org/wiki/भारत_स": 7737,
      "▁अमेर": 7738,
      "▁अलग": 7739,
      "ared/linki": 7740,
      "न्डिया": 7741,
      "विय": 7742,
      "▁जिन": 7743,
      "▁दी": 7744,
      "▁देव": 7745,
      "▁दोन": 7746,
      "भाजन": 7747,
      "▁भारतक": 7748,
      "▁प्रधानमंत्री": 7749,
      "लाका": 7750,
      "▁बन": 7751,
      "▁बंगाल": 7752,
      "▁बड़े": 7753,
      "_से": 7754,
      "](https://mai.wikipedia.org/wiki/अ": 7755,
      "](https://mai.wikipedia.org/wiki/सं": 7756,
      "▁सेवा": 7757,
      "-128": 7758,
      "▁काम": 7759,
      "न्दा": 7760,
      "▁आ॔": 7761,
      "ी\")\n": 7762,
      "▁गेल": 7763,
      "रीब": 7764,
      "▁एशिया\")": 7765,
      "▁संस्थान": 7766,
      "▁परि": 7767,
      "म्प्र": 7768,
      "संबर": 7769,
      "[[10": 7770,
      "ियन": 7771,
      "▁रक्षा": 7772,
      "राष्ट्रीय_": 7773,
      "](https://hi.wikipedia.org/wiki/भारत#cite_ref-langoff": 7774,
      "ी](https://hi.wikipedia.org/wiki/म": 7775,
      "▁\"मध्य": 7776,
      "िसमस": 7777,
      "स्तान\")": 7778,
      "हिन्द_महासागर": 7779,
      "हाँ": 7780,
      "inguistic": 7781,
      "](https://hi.wikipedia.org/wiki/मध्य": 7782,
      "the_": 7783,
      "द्यालय": 7784,
      "पुर\")": 7785,
      "गुप्त": 7786,
      "न्तु": 7787,
      "▁./श्रेणी:CS1": 7788,
      "▁घाट": 7789,
      "▁घोष": 7790,
      "न्नड": 7791,
      "-7mar": 7792,
      "▁[उत्तर": 7793,
      "ीरे": 7794,
      "ैदिक": 7795,
      "shared/linki": 7796,
      "▁\"उत्तर": 7797,
      "▁निर्भर": 7798,
      "▁१९९": 7799,
      "](https://hi.wikipedia.org/wiki/पश्चिम": 7800,
      "](https://hi.wikipedia.org/wiki/पंजाब": 7801,
      "Singh2009),": 7802,
      "Stein1998),": 7803,
      "px?": 7804,
      "निर्भर": 7805,
      "](https://mai.wikipedia.org/wiki/भारतीय_": 7806,
      "▁Linguistic": 7807,
      "site": 7808,
      "िल्ली\")": 7809,
      "ों_की_सूची?action=edit&redlink=1": 7810,
      "बंधीय": 7811,
      "](https://hi.wikipedia.org/wiki/भारत#CITEREFSingh2009),": 7812,
      "](https://hi.wikipedia.org/wiki/भारत#CITEREFStein1998),": 7813,
      "गुजराती": 7814,
      "▁थे": 7815,
      "▁CITEREFSingh2009": 7816,
      "▁CITEREFStein1998": 7817,
      "क्षेत्रफल": 7818,
      "ृष्ण": 7819,
      "▁पाकिस्तान": 7820,
      "ंपन": 7821,
      "▁\"संयुक्त": 7822,
      "▁न्यायाधीश": 7823,
      "pib-7mar": 7824,
      "वादी": 7825,
      "▁मंदिर\")": 7826,
      "▁वर्षों": 7827,
      "क्रम": 7828,
      "▁उत्तर-प": 7829,
      "\"](https://web.archive.org/web/20160": 7830,
      "रोहर": 7831,
      "_पार्ट": 7832,
      "▁ईसा": 7833,
      "glish": 7834,
      "गालैंड": 7835,
      "▁Wikidata": 7836,
      "▁दृश्य": 7837,
      "[[120]](https://hi.wikipedia.org/wiki/भारत#cite_note-": 7838,
      "क_सूची": 7839,
      "langoff-128": 7840,
      "articl": 7841,
      "▁सिनेमा\"),": 7842,
      "_128": 7843,
      "▁2009](https://hi.wikipedia.org/wiki/भारत#CITEREFSingh2009),": 7844,
      "doc": 7845,
      "mages/": 7846,
      ".aspx?": 7847,
      "८५७": 7848,
      "▁होती": 7849,
      "▁अर्थव्यवस्था": 7850,
      "प्राचीन": 7851,
      "▁भूमिका": 7852,
      "nclm.nic.in/shared/linki": 7853,
      "▁दिसंबर": 7854,
      "▁Minorities": 7855,
      "llchin": 7856,
      "▁स्तर": 7857,
      "▁लगभग": 7858,
      "_at_": 7859,
      "टिबंधीय": 7860,
      "ार्वभौ": 7861,
      "▁व्यापार": 7862,
      "भुटान": 7863,
      "▁`|": 7864,
      "▁प्रारम्भ": 7865,
      "▁1998](https://hi.wikipedia.org/wiki/भारत#CITEREFStein1998),": 7866,
      "रुणाचल": 7867,
      "चेंज": 7868,
      "फगानिस्तान": 7869,
      "](https://hi.wikipedia.org/wiki/भारत#cite_ref-langoff_128": 7870,
      "pib-7mar2011": 7871,
      "[[120]](https://hi.wikipedia.org/wiki/भारत#cite_note-langoff-128": 7872,
      "nclm.nic.in/shared/linkimages/": 7873,
      "ार्वभौम": 7874,
      "[[120]](https://hi.wikipedia.org/wiki/भारत#cite_note-langoff-128)": 7875,
      "-च": 7876,
      "-कार": 7877,
      "42": 7878,
      "63": 7879,
      "83": 7880,
      "Language": 7881,
      "Su": 7882,
      "_en": 7883,
      "b)": 7884,
      "c=": 7885,
      "cb": 7886,
      "ce_": 7887,
      "t-": 7888,
      "van": 7889,
      "ंश": 7890,
      "ंस": 7891,
      "इटे": 7892,
      "उद्": 7893,
      "ऍथ": 7894,
      "ऑक्सफोर्ड": 7895,
      "क\")": 7896,
      "कृति": 7897,
      "ख़": 7898,
      "ख्": 7899,
      "गध": 7900,
      "जपुरी": 7901,
      "जिस्ट": 7902,
      "टिका": 7903,
      "तार": 7904,
      "ताल": 7905,
      "तंत्र": 7906,
      "थम": 7907,
      "दल": 7908,
      "दान": 7909,
      "द्वार": 7910,
      "नो": 7911,
      "नोल": 7912,
      "पीय": 7913,
      "फिल": 7914,
      "फ्रां": 7915,
      "बू": 7916,
      "बे": 7917,
      "मत": 7918,
      "मो": 7919,
      "मृत": 7920,
      "मिर": 7921,
      "रि": 7922,
      "लक": 7923,
      "लिम": 7924,
      "वत": 7925,
      "वर्": 7926,
      "वेश": 7927,
      "शत": 7928,
      "शोक": 7929,
      "हें": 7930,
      "ाबा": 7931,
      "िड़": 7932,
      "ुरा": 7933,
      "ूबर": 7934,
      "ेद": 7935,
      "ेघालय": 7936,
      "ैली": 7937,
      "ॉग": 7938,
      "ोण": 7939,
      "ोडिया": 7940,
      "४.": 7941,
      "–1": 7942,
      "▁ma": 7943,
      "▁[ना": 7944,
      "▁[चीन": 7945,
      "्रार": 7946,
      "](https://hi.wikipedia.org/wiki/ग": 7947,
      "](https://hi.wikipedia.org/wiki/न": 7948,
      "](https://hi.wikipedia.org/wiki/ह": 7949,
      "](https://hi.wikipedia.org/wiki/साँचा:": 7950,
      "▁\"साँचा:": 7951,
      "▁सक": 7952,
      "▁सम्प": 7953,
      "▁सीमा": 7954,
      "▁मन्दिर": 7955,
      "्यूरो": 7956,
      "रात": 7957,
      "▁पड़": 7958,
      "▁प्लेट": 7959,
      "▁हथियार": 7960,
      "िकी": 7961,
      "िकिस्तान": 7962,
      "ालर": 7963,
      "▁ज़": 7964,
      "नाइटे": 7965,
      "▁बार": 7966,
      "▁बने": 7967,
      "▁ब्रिटिश": 7968,
      "▁बड़ा": 7969,
      "तिब्बत": 7970,
      "्टॉक": 7971,
      "_सागर": 7972,
      "▁नौसेना": 7973,
      "thnolo": 7974,
      "▁आधुनिक": 7975,
      "▁वे": 7976,
      "▁वृद्ध": 7977,
      "क्षण": 7978,
      "क्षद्वीप": 7979,
      "स्‍": 7980,
      "स्लिम": 7981,
      "▁गान": 7982,
      "थाईल": 7983,
      "काउ": 7984,
      "कांक": 7985,
      "▁[महाराष्ट्र": 7986,
      "नेई": 7987,
      "िलि": 7988,
      "▁परंप": 7989,
      "लेब": 7990,
      "लेस": 7991,
      "▁विज्ञान": 7992,
      "ी](https://hi.wikipedia.org/wiki/प": 7993,
      "▁\"महाराष्ट्र": 7994,
      "ंडमान": 7995,
      "▁लिया": 7996,
      "ica": 7997,
      "196": 7998,
      "▁क्षेत्र,": 7999,
      "परेशन": 8000,
      "किर्ग": 8001,
      "uran": 8002,
      "▁करना": 8003,
      "▁करता": 8004,
      "](https://hi.wikipedia.org/wiki/महाराष्ट्र": 8005,
      "ंधी": 8006,
      "▁सूची": 8007,
      "ंदोल": 8008,
      "मेनि": 8009,
      "मान्य": 8010,
      "130": 8011,
      "132": 8012,
      "रबै": 8013,
      "ोकोस": 8014,
      "राष्ट्रीय_स": 8015,
      "हारजिस्ट": 8016,
      "_भारतीय_": 8017,
      "▁वर्षा": 8018,
      "ा_वार्ता:": 8019,
      "▁घरेलू": 8020,
      "▁सूची\"))": 8021,
      "ोरम": 8022,
      "समूह": 8023,
      "▁निभाई": 8024,
      "](https://hi.wikipedia.org/wiki/पूर्व": 8025,
      "ोर्नो": 8026,
      "दाख": 8027,
      "िपि": 8028,
      "तिहासिक": 8029,
      "▁[संस्कृत": 8030,
      "▁31": 8031,
      "ेर-": 8032,
      "▁था,": 8033,
      "जयनगर": 8034,
      "मीरात": 8035,
      "▁अपने": 8036,
      "pib.nic.in/": 8037,
      "▁तटीय": 8038,
      "▁From": 8039,
      "▁सदस": 8040,
      "_Air": 8041,
      "▁ईस्ट": 8042,
      "राठी": 8043,
      "▁पार्टी": 8044,
      "▁2007\n": 8045,
      "soon_": 8046,
      "▁सुरक्षा": 8047,
      "्रांति": 8048,
      "िज़ोरम": 8049,
      "ताजिकिस्तान": 8050,
      "fr/": 8051,
      "▁[2](https://hi.wikipedia.org/wiki/भारत#cite_ref-FOOTNOTE": 8052,
      "पातकाल": 8053,
      "article": 8054,
      "▁जलवायु": 8055,
      "वासी": 8056,
      "भोजपुरी": 8057,
      "▁[1](https://hi.wikipedia.org/wiki/भारत#cite_ref-FOOTNOTE": 8058,
      "फाएं": 8059,
      "ार्कटिका": 8060,
      "▁राजनीतिक": 8061,
      "▁[पंजाब](https://hi.wikipedia.org/wiki/पंजाब": 8062,
      "_राजवंश": 8063,
      "▁जयते": 8064,
      "▁शुरू": 8065,
      "_map": 8066,
      "खनऊ": 8067,
      "▁हिमालय": 8068,
      "हरियाणा": 8069,
      "-of-": 8070,
      "_तथा": 8071,
      "्रुनेई": 8072,
      "▁\"साँचा": 8073,
      "_के_अनुसार_देश": 8074,
      "तुर्कमेनि": 8075,
      "तुल्य": 8076,
      "ृषि": 8077,
      "](https://hi.wikipedia.org/wiki/साँचा_वार्ता:": 8078,
      "▁दोनों": 8079,
      "-काराबा": 8080,
      "ऍथनोल": 8081,
      "बेकिस्तान": 8082,
      "िड़ला": 8083,
      "नाइटेड": 8084,
      "▁वृद्धि": 8085,
      "▁[महाराष्ट्र](https://hi.wikipedia.org/wiki/महाराष्ट्र": 8086,
      "▁परंपरा": 8087,
      "▁\"महाराष्ट्र\")": 8088,
      "हारजिस्ट्रार": 8089,
      "ोर्नो-काराबा": 8090,
      "ऍथनोलॉग": 8091,
      "-गंगा": 8092,
      ".0": 8093,
      ".e": 8094,
      ".fr/": 8095,
      "412": 8096,
      "5.pdf)": 8097,
      "AC": 8098,
      "FWEO": 8099,
      "NC": 8100,
      "Zv": 8101,
      "_शासित": 8102,
      "cm": 8103,
      "gin": 8104,
      "history": 8105,
      "les/": 8106,
      "mo": 8107,
      "mir": 8108,
      "tin": 8109,
      "ँकि": 8110,
      "ंथ": 8111,
      "आर": 8112,
      "ऊर्जा": 8113,
      "ऋतु": 8114,
      "क्": 8115,
      "त्या": 8116,
      "थाल": 8117,
      "दु": 8118,
      "द्रा": 8119,
      "दरण": 8120,
      "नत": 8121,
      "पूर्ण": 8122,
      "भरत": 8123,
      "मय": 8124,
      "ल्त": 8125,
      "वर": 8126,
      "वर्ष": 8127,
      "शील": 8128,
      "सत": 8129,
      "सङ्": 8130,
      "सैन": 8131,
      "ाय": 8132,
      "ीए": 8133,
      "ुक": 8134,
      "ूस": 8135,
      "ोब": 8136,
      "१८५७": 8137,
      "२.": 8138,
      "–12": 8139,
      "▁झ": 8140,
      "▁७": 8141,
      "▁[श": 8142,
      "▁[लोक": 8143,
      "▁कर्ज": 8144,
      "▁कएल": 8145,
      "](https://hi.wikipedia.org/wiki/य": 8146,
      "](https://hi.wikipedia.org/wiki/विशेष:EditPage/साँचा:": 8147,
      "▁\"व": 8148,
      "▁\"प्र": 8149,
      "▁\"गुजरात": 8150,
      "▁\"विशेष:EditPage/साँचा:": 8151,
      "\")*,": 8152,
      "▁सूर": 8153,
      "▁सङ्": 8154,
      "▁महा": 8155,
      "▁मील": 8156,
      "▁मिला": 8157,
      "िकास": 8158,
      "विद्यालय": 8159,
      "▁(a)": 8160,
      "▁(b)": 8161,
      "त्रुट": 8162,
      "राजनी": 8163,
      "▁प्रण": 8164,
      "▁प्रभा": 8165,
      "▁प्रकार": 8166,
      "▁प्रशास": 8167,
      "▁प्रमाण": 8168,
      "लावा": 8169,
      "▁बनी": 8170,
      "▁बड़ी": 8171,
      "report": 8172,
      "_सभा": 8173,
      "_सिनेमा": 8174,
      "▁निय": 8175,
      "▁नृत्य": 8176,
      "](https://mai.wikipedia.org/wiki/इ": 8177,
      "](https://mai.wikipedia.org/wiki/उ": 8178,
      "स्ता": 8179,
      "ित्व": 8180,
      "▁आक": 8181,
      "▁आज": 8182,
      "▁आय": 8183,
      "▁वर्त": 8184,
      "पुत्र": 8185,
      "▁तीस": 8186,
      "▁गए": 8187,
      "diatimes": 8188,
      "रीक्षण": 8189,
      "ादरा": 8190,
      "▁संख्या": 8191,
      "▁संयुक्त": 8192,
      "हिम": 8193,
      "नेट": 8194,
      "▁पर्यटन": 8195,
      "▁परमाणु": 8196,
      "▁विवाद": 8197,
      "▁विभाग": 8198,
      "[[12": 8199,
      "[[14": 8200,
      "es.": 8201,
      "▁रु": 8202,
      "सां": 8203,
      "▁भाषाएँ": 8204,
      "ी_(": 8205,
      "_के_देश": 8206,
      "ी](https://hi.wikipedia.org/wiki/स": 8207,
      "▁2,": 8208,
      "िमोर": 8209,
      "हिन्दू": 8210,
      "ोली": 8211,
      "lease": 8212,
      "▁१५": 8213,
      "▁[भारत](https://hi.wikipedia.org/wiki/भारत": 8214,
      ".indiatimes": 8215,
      "50th": 8216,
      "unknow": 8217,
      "भिन्न": 8218,
      "mple_": 8219,
      "सभ\n": 8220,
      "सभक_सूची": 8221,
      "्मार": 8222,
      "files/": 8223,
      "द्यान": 8224,
      "▁मुर्मू": 8225,
      "▁जाते": 8226,
      "िवेश": 8227,
      "▁\"पूर्वी": 8228,
      "▁समूह": 8229,
      "▁इसी": 8230,
      "▁Mod": 8231,
      "गणतन्त्र": 8232,
      "_भाषा?action=edit&redlink=1": 8233,
      "ंबर": 8234,
      "▁हिस्": 8235,
      "](https://mai.wikipedia.org/wiki/भारतीय": 8236,
      "](https://mai.wikipedia.org/wiki/भारत#cite_": 8237,
      "▁किन्तु": 8238,
      "▁जिसके": 8239,
      "्वरूप": 8240,
      "sse": 8241,
      "%E0%A4%9": 8242,
      "०००": 8243,
      "](https://hi.wikipedia.org/wiki/उत्तर": 8244,
      "्यटन\")": 8245,
      "▁सिंह": 8246,
      "जयपुर": 8247,
      "▁अपनी": 8248,
      "▁रहे": 8249,
      "_द्वीप": 8250,
      "newsite": 8251,
      "▁वायु": 8252,
      "bot:": 8253,
      "origin": 8254,
      ".jpg/330": 8255,
      "▁ऊँच": 8256,
      "▁ऊर्जा": 8257,
      "▁डॉल": 8258,
      "glia": 8259,
      "माजिक": 8260,
      "▁हुआ।": 8261,
      "चेन्नई": 8262,
      "](https://hi.wikipedia.org/wiki/संस्कृत": 8263,
      "▁सभा\")": 8264,
      "▁प्रतिशत": 8265,
      "coun": 8266,
      "how/": 8267,
      "arak": 8268,
      "ूरोपीय": 8269,
      "श्रीनगर": 8270,
      "▁उद्यान": 8271,
      "▁उद्यान\")": 8272,
      "▁२०११": 8273,
      "_का_खाना": 8274,
      "_उत्पाद": 8275,
      "_राज्यक्षेत्र": 8276,
      "िन्धु-गंगा": 8277,
      "हायता:उद्": 8278,
      "▁राजवंश\")": 8279,
      "▁सहयोग": 8280,
      "▁हरियर": 8281,
      "annica": 8282,
      "▁शक्तिपीठ": 8283,
      "▁विदेशी": 8284,
      "ंडोनेशिया": 8285,
      "▁2004](https://hi.wikipedia.org/wiki/भारत#CITEREF": 8286,
      "etraglia": 8287,
      "जरायल": 8288,
      "_और_संघ_क्षेत्र": 8289,
      "▁सितंबर": 8290,
      "▁जबकि": 8291,
      "▁गठबंधन": 8292,
      "▁दृष्टि": 8293,
      "▁[e](https://hi.wikipedia.org/wiki/विशेष:EditPage/साँचा:": 8294,
      "▁[t](https://hi.wikipedia.org/wiki/साँचा_वार्ता:": 8295,
      "▁[v](https://hi.wikipedia.org/wiki/साँचा:": 8296,
      "▁पहुँच": 8297,
      "▁हालाँकि": 8298,
      "_पार्टी": 8299,
      ".aspx?rel": 8300,
      ".bn": 8301,
      "pib.nic.in/newsite": 8302,
      "articleshow/": 8303,
      "ल्तनत": 8304,
      "सङ्ख्या": 8305,
      "सैनिक": 8306,
      "▁वर्तमान": 8307,
      "lease.aspx?rel": 8308,
      ".indiatimes.com/": 8309,
      "unknown": 8310,
      "सभक_सूची?action=edit&redlink=1": 8311,
      "▁डॉलर": 8312,
      "हायता:उद्दरण": 8313,
      "pib.nic.in/newsite/": 8314,
      "*](https://web.archive.org/web/200": 8315,
      "-C": 8316,
      "254": 8317,
      "9-2": 8318,
      ";\n": 8319,
      "AL": 8320,
      "Am": 8321,
      "Gu": 8322,
      "Petraglia": 8323,
      "Youn": 8324,
      "_ध": 8325,
      "_य": 8326,
      "_यु": 8327,
      "_जन": 8328,
      "_13": 8329,
      "dh": 8330,
      "eopl": 8331,
      "jo": 8332,
      "po": 8333,
      "tle": 8334,
      "u_": 8335,
      "ym": 8336,
      "zon": 8337,
      "ंजन": 8338,
      "क_": 8339,
      "कटिबंधीय": 8340,
      "गाली": 8341,
      "चार": 8342,
      "चला": 8343,
      "जल": 8344,
      "डा": 8345,
      "त्म": 8346,
      "थाली": 8347,
      "दी_": 8348,
      "पिय": 8349,
      "मित": 8350,
      "मूल": 8351,
      "यपालिका": 8352,
      "र-": 8353,
      "लिया": 8354,
      "ल्ड": 8355,
      "वली": 8356,
      "सर": 8357,
      "हू": 8358,
      "ाङ्": 8359,
      "ाइन": 8360,
      "िरा": 8361,
      "िंह": 8362,
      "ीकरण": 8363,
      "ुस्तान": 8364,
      "ूनाइटेड": 8365,
      "ेय": 8366,
      "ोड": 8367,
      "ोत्तर": 8368,
      "ोडो": 8369,
      "्श": 8370,
      "०,": 8371,
      "२,": 8372,
      "▁ठ": 8373,
      "▁६": 8374,
      "▁ता": 8375,
      "▁Rothermund": 8376,
      "win": 8377,
      "](https://www": 8378,
      "▁[ए": 8379,
      "▁[ख": 8380,
      "▁[राष्ट्रीय": 8381,
      "▁[Kulke": 8382,
      "▁[भू": 8383,
      "▁[राजस्थान": 8384,
      "▁कह": 8385,
      "▁कंपन": 8386,
      "](https://hi.wikipedia.org/wiki/व": 8387,
      "](https://hi.wikipedia.org/wiki/वि": 8388,
      "](https://hi.wikipedia.org/wiki/ना": 8389,
      "](https://hi.wikipedia.org/wiki/प्र": 8390,
      "](https://hi.wikipedia.org/wiki/गुजरात": 8391,
      "](https://hi.wikipedia.org/wiki/राजस्थान": 8392,
      "▁\"ए": 8393,
      "▁\"श": 8394,
      "▁\"वि": 8395,
      "▁\"ना": 8396,
      "▁\"विश्व": 8397,
      "▁\"राजस्थान": 8398,
      "▁सश": 8399,
      "▁सी": 8400,
      "▁समा": 8401,
      "▁सर्व": 8402,
      "▁समान": 8403,
      "▁स्वतन्त्रता": 8404,
      "▁सल्तनत": 8405,
      "▁मंत्र": 8406,
      "्यु": 8407,
      "रान\")": 8408,
      "▁पहा": 8409,
      "ानी": 8410,
      "ानून": 8411,
      "र्ट": 8412,
      "र्मन": 8413,
      "ेंट": 8414,
      "▁हिल": 8415,
      "िकता": 8416,
      "िकेट": 8417,
      "▁अभी": 8418,
      "▁अभिय": 8419,
      "्षिक": 8420,
      "ेशिया\")": 8421,
      "▁जै": 8422,
      "▁जिन्": 8423,
      "▁जीत": 8424,
      "▁दिल्ली": 8425,
      "▁दिवस": 8426,
      "▁(2006": 8427,
      "_कोर": 8428,
      "_केंद्र": 8429,
      "ताइव": 8430,
      "▁बल": 8431,
      "▁बौद्ध": 8432,
      "▁बैंक": 8433,
      "ंगल": 8434,
      "ंगीत": 8435,
      "_सु": 8436,
      "▁नगर": 8437,
      "▁से](https://": 8438,
      "न्दर्भ": 8439,
      "▁आंदोल": 8440,
      "स्चेंज": 8441,
      "▁ती": 8442,
      "▁तो": 8443,
      "▁तुल": 8444,
      "▁गति": 8445,
      "ड़िशा": 8446,
      "▁उस": 8447,
      "▁उद्योग": 8448,
      "▁उत्तरी": 8449,
      "▁संस्कृत": 8450,
      "]](https://hi.wikipedia.org/wiki/भारत#cite_note-10": 8451,
      "▁विभिन्न": 8452,
      "_केन्द्र": 8453,
      "्याचल": 8454,
      "[[13": 8455,
      "▁भाषाएं": 8456,
      "त्ता": 8457,
      "ी](https://hi.wikipedia.org/wiki/न": 8458,
      "▁\"मुंबई": 8459,
      "▁साम": 8460,
      "▁साहित्य": 8461,
      "▁2012": 8462,
      "▁2015": 8463,
      "पांड": 8464,
      "ंडल": 8465,
      "धानिक": 8466,
      "lem": 8467,
      "द्वित": 8468
    },
    "merges": [
      [
        "i",
        "a"
      ],
      [
        "w",
        "i"
      ],
      [
        "k",
        "i"
      ],
      [
        "wi",
        "ki"
      ],
      [
        "d",
        "ia"
      ],
      [
        "o",
        "r"
      ],
      [
        "e",
        "n"
      ],
      [
        "p",
        "e"
      ],
      [
        "t",
        "t"
      ],
      [
        "]",
        "("
      ],
      [
        "p",
        "s"
      ],
      [
        "h",
        "tt"
      ],
      [
        ":",
        "/"
      ],
      [
        ":/",
        "/"
      ],
      [
        "htt",
        "ps"
      ],
      [
        "https",
        "://"
      ],
      [
        "](",
        "https://"
      ],
      [
        "i",
        "n"
      ],
      [
        "a",
        "n"
      ],
      [
        "g",
        "/"
      ],
      [
        ".",
        "or"
      ],
      [
        ".or",
        "g/"
      ],
      [
        "▁",
        "["
      ],
      [
        "pe",
        "dia"
      ],
      [
        "I",
        "n"
      ],
      [
        ".",
        "wiki"
      ],
      [
        ".org/",
        "wiki"
      ],
      [
        ".org/wiki",
        "/"
      ],
      [
        "](https://",
        "en"
      ],
      [
        "](https://en",
        ".wiki"
      ],
      [
        "](https://en.wiki",
        "pedia"
      ],
      [
        "](https://en.wikipedia",
        ".org/wiki/"
      ],
      [
        "t",
        "e"
      ],
      [
        "o",
        "n"
      ],
      [
        "In",
        "dia"
      ],
      [
        "t",
        "h"
      ],
      [
        "e",
        "r"
      ],
      [
        "▁",
        "\""
      ],
      [
        "t",
        "i"
      ],
      [
        "\"",
        ")"
      ],
      [
        "a",
        "l"
      ],
      [
        "a",
        "r"
      ],
      [
        "e",
        "s"
      ],
      [
        "2",
        "0"
      ],
      [
        "o",
        "f"
      ],
      [
        "i",
        "s"
      ],
      [
        "th",
        "e"
      ],
      [
        "r",
        "e"
      ],
      [
        "▁",
        "the"
      ],
      [
        "an",
        "d"
      ],
      [
        "▁",
        "of"
      ],
      [
        "o",
        "m"
      ],
      [
        "](https://en.wikipedia.org/wiki/",
        "India"
      ],
      [
        "o",
        "u"
      ],
      [
        "a",
        "s"
      ],
      [
        "c",
        "i"
      ],
      [
        "](https://en.wikipedia.org/wiki/India",
        "#"
      ],
      [
        "r",
        "i"
      ],
      [
        "▁",
        "-"
      ],
      [
        "e",
        "d"
      ],
      [
        "ti",
        "on"
      ],
      [
        "▁",
        "India"
      ],
      [
        "▁",
        "in"
      ],
      [
        "te",
        "_"
      ],
      [
        "i",
        "c"
      ],
      [
        "l",
        "e"
      ],
      [
        "ci",
        "te_"
      ],
      [
        "](https://en.wikipedia.org/wiki/India#",
        "cite_"
      ],
      [
        "o",
        "o"
      ],
      [
        "r",
        "a"
      ],
      [
        "O",
        "T"
      ],
      [
        "c",
        "h"
      ],
      [
        "▁",
        "s"
      ],
      [
        "20",
        "1"
      ],
      [
        "▁",
        "and"
      ],
      [
        "en",
        "t"
      ],
      [
        "▁",
        "p"
      ],
      [
        "i",
        "t"
      ],
      [
        "i",
        "d"
      ],
      [
        "▁",
        "("
      ],
      [
        "a",
        "m"
      ],
      [
        "1",
        "9"
      ],
      [
        "▁",
        "A"
      ],
      [
        "▁",
        "c"
      ],
      [
        "-",
        "0"
      ],
      [
        "▁",
        "f"
      ],
      [
        "in",
        "g"
      ],
      [
        "e",
        "t"
      ],
      [
        "▁",
        "|"
      ],
      [
        "a",
        "tion"
      ],
      [
        "u",
        "s"
      ],
      [
        "i",
        "v"
      ],
      [
        "o",
        "l"
      ],
      [
        "oo",
        "k"
      ],
      [
        "a",
        "te"
      ],
      [
        "a",
        "t"
      ],
      [
        "▁",
        "S"
      ],
      [
        "▁",
        "b"
      ],
      [
        ")",
        "."
      ],
      [
        "n",
        "o"
      ],
      [
        "▁",
        "t"
      ],
      [
        "▁",
        "m"
      ],
      [
        "▁",
        "C"
      ],
      [
        "20",
        "0"
      ],
      [
        "is",
        "t"
      ],
      [
        "a",
        "d"
      ],
      [
        "a",
        "g"
      ],
      [
        "u",
        "r"
      ],
      [
        "an",
        "g"
      ],
      [
        "i",
        "l"
      ],
      [
        "7",
        "8"
      ],
      [
        "re",
        "f"
      ],
      [
        "c",
        "e"
      ],
      [
        "▁",
        "w"
      ],
      [
        "te",
        "-"
      ],
      [
        "▁",
        "P"
      ],
      [
        "[",
        "["
      ],
      [
        "]",
        "](https://en.wikipedia.org/wiki/India#cite_"
      ],
      [
        "](https://en.wikipedia.org/wiki/India#cite_",
        "ref"
      ],
      [
        "no",
        "te-"
      ],
      [
        "]](https://en.wikipedia.org/wiki/India#cite_",
        "note-"
      ],
      [
        "](https://en.wikipedia.org/wiki/India#cite_ref",
        "-"
      ],
      [
        "_",
        "India"
      ],
      [
        "ia",
        "l"
      ],
      [
        "_",
        "of"
      ],
      [
        "e",
        "l"
      ],
      [
        "i",
        "g"
      ],
      [
        "S",
        "ou"
      ],
      [
        "-",
        "1"
      ],
      [
        "u",
        "l"
      ],
      [
        "▁",
        "1"
      ],
      [
        "u",
        "m"
      ],
      [
        "▁",
        "d"
      ],
      [
        "I",
        "S"
      ],
      [
        "T",
        "h"
      ],
      [
        "F",
        "O"
      ],
      [
        "r",
        "o"
      ],
      [
        "N",
        "OT"
      ],
      [
        "OT",
        "NOT"
      ],
      [
        "FO",
        "OTNOT"
      ],
      [
        "FOOTNOT",
        "E"
      ],
      [
        "i",
        "on"
      ],
      [
        "9",
        "78"
      ],
      [
        "te",
        "r"
      ],
      [
        "▁",
        "l"
      ],
      [
        "B",
        "N"
      ],
      [
        "IS",
        "BN"
      ],
      [
        "e",
        "m"
      ],
      [
        "▁",
        "a"
      ],
      [
        "▁",
        "R"
      ],
      [
        "f",
        "i"
      ],
      [
        "▁",
        "M"
      ],
      [
        "er",
        "s"
      ],
      [
        "en",
        "ti"
      ],
      [
        "u",
        "n"
      ],
      [
        "▁t",
        "o"
      ],
      [
        ".",
        "\n"
      ],
      [
        "s",
        "t"
      ],
      [
        "c",
        "ial"
      ],
      [
        "▁India",
        "\")"
      ],
      [
        "c",
        "om"
      ],
      [
        "er",
        ")"
      ],
      [
        "c",
        "es"
      ],
      [
        "id",
        "enti"
      ],
      [
        "identi",
        "fi"
      ],
      [
        "identifi",
        "er)"
      ],
      [
        "▁",
        "h"
      ],
      [
        "▁",
        "B"
      ],
      [
        "r",
        "es"
      ],
      [
        "Th",
        "e"
      ],
      [
        "ti",
        "c"
      ],
      [
        "↑",
        "](https://en.wikipedia.org/wiki/India#cite_ref-"
      ],
      [
        "▁[",
        "↑](https://en.wikipedia.org/wiki/India#cite_ref-"
      ],
      [
        "o",
        "v"
      ],
      [
        "S",
        "pe"
      ],
      [
        "s",
        "ia"
      ],
      [
        "b",
[...]
